3d2ebbda3d2dfb413d31a9103d31b17d
3d31ff193d3141b33d36ecc53d37c535
3d3798fc000000000000000000000000
3d07c3c73d06b3c73d0accc73d0ab718
3d0b98e23d0b26273d10c1723d11e25b
3d1224b8000000000000000000000000
3ceea86d3cefb3033cf6bfb53cf3e032
3cf8252d3cf83ab23cfdd7c13d01283d
3d005cb0000000000000000000000000
9daa733d9ae828e41c7a7c4d9dc2f88f
9e9b16cf1b9192429e18bc969e9daf54
9cd0da44000000000000000000000000
9dea8cdc9d1ff0a71d2321559e09f4bc
9ec366fa1db91f7e9dd0b9659e7b2fe7
1d2c649a000000000000000000000000
9dd709489daf96441cd78ccf9b314ce0
9e9a94491dbfb9a59d2b439a9e808760
9caf0b9c000000000000000000000000
3e0d7df23e8787983cc67afdbcdaee0a
bcefff0ebcd9227dbb00a3c53c8189f4
3b70326d000000000000000000000000
3e54c0ca3ed8418b3d58f7903b4c10c1
bda628a9bcdb1d2e3c992ffd3be62293
3b848bc8000000000000000000000000
3d2255913d8d0c613d3ea5f83c2d3ffd
3c8fa04c3caed7823bb227243c04822d
bb7ee885000000000000000000000000
3896e352380206113a3fb8b7b6b4e168
b9216fa83a2c38313a4f7e423a409b88
3a77e054000000000000000000000000
38b6d5243831a3c93a5733e4b818a1ce
b923de6a3a3f13b33a6ddd7c3a5c6599
3a93117a000000000000000000000000
b986d43ab9b4588d3a8eb290b9cd14b6
ba1405b33a7942fe3a9939f13a8d49ff
3ae852c9000000000000000000000000
3cd9763a3deb9d07bab14f44baab95c0
bf65beac3dcc5a0b3c4a07f73e121fa9
3c2d1d1e000000000000000000000000
3d116c2a3d86459e3d659e9e3d329d3e
bfd526ff3e471bbc3d41b1363ea3e194
bccf78be000000000000000000000000
bbf3edfabc939a6cbbe236f5bd84bc9d
bee351b13ce823213cb4474b3d8ca2b2
bcfbdd39000000000000000000000000
a075395da0f72b74a195e47ca188fa5c
a1980612a1d30cf4a1a5968ba1c12b82
a1e28e19000000000000000000000000
224a2236224e23ca222e2fc4224671fa
22477d37222d5ea92253022a224b3a63
22355ac6000000000000000000000000
204dc8242103221f208bc564215dc969
218ca2cc214ad59b21f747b721f87bfc
21cbd6ca000000000000000000000000
2095e52c20a909b59f9cba1da099a14d
1f72f6701b5d34a1a19e890ca19ce1ff
201b10dd000000000000000000000000
208229922033e4cba04a7637a0f6fd10
a060b946a0916428a1ba6ecfa1be2441
1f03d2ad000000000000000000000000
1f19a1b51f33ca22a0bf53f2a0a8e7d0
1ebe1a0aa00b48f8a19d4e8ea16ddd71
2002aa99000000000000000000000000
1eba61b71f0160101ebb922e1eaba0e9
1ed84b031e5334de1e0215ad1e3f8d59
1e018717000000000000000000000000
1d8ee9a51e8378b11d9d18a31e208357
1e904aab1c6889d09dad973b1d8a7793
9c7faa23000000000000000000000000
9e673cf09df2a5809e1010de9d9152d6
9c7473879ddf7eb49d04c46c1c949da8
9c3bdfcc000000000000000000000000
bdad09c1bdebf2d2bd035867bd146770
3d0244683c1c570d39818434b8f73d6e
3b0f1eaf000000000000000000000000
be5419e6beae11acbdbaa55e3d062a04
3dcf7c523cc183de3c954baabd37474e
3bc98182000000000000000000000000
bdffb361be05ed2f3b9471723b9979b9
3c397cc33cd14294ba307ff83c8686d4
396b243d000000000000000000000000
bedb1d9e3f4b6e3dbebb9708bc953ef5
3c94f23d3c3c14a33ba70b69bb950f9c
3c8d2662000000000000000000000000
bf6e346d3fc600e7bf23fa1e3e0e89f3
be889f353e2389e3bd44590e3d8c5e60
bc6b2e07000000000000000000000000
be5305a73ec3d1efbe438ee93cfc7242
bd6245bc3d0ede4bbcd6bc093d671e3c
bd1493eb000000000000000000000000
3f585ca03e022085be8af3403e9ecc79
3e871b93be170f32be0d6188bd2dd6e8
3c61beb8000000000000000000000000
40046f273e140cbcbf201da03e3abe23
3e3c6bdebe102316bd6811f5bd4a2ccc
bdcc097a000000000000000000000000
3ef73f4dbd9714e5be23bcedbe1c82c6
3d6fd2a73e3b5b463d2a00853d6d6f9f
bde2cbd2000000000000000000000000
3e03fa4fbd0d1e483d298e773d399847
befa3fc1bef38aa73e316e28bc873694
3c813489000000000000000000000000
3d9eaaebbe07d55cbe31a993be1a2380
bf63b466bf6acb883e7b675a3d210b4a
3e0721aa000000000000000000000000
3d27f0c13d1722523cc82d5cbd0a42dc
be3634a1be5448ea3d816a11bbfd34c0
3d8aa96a000000000000000000000000
bfd82910bea13a503f200e82be11199a
be3b229e3d9c70ee3e342cd3bdf44bd7
3dc6e500000000000000000000000000
c041fc98beb5440c3f821406beb1778e
bdb18a0a3d99a2563db74e59be18551e
3e5490bf000000000000000000000000
bf1d61ed3e31366a3dfff4f9bd34aea2
bd87670dbbfc03bebd535053bd081261
3db56a81000000000000000000000000
3e7222fb3f397b8d3e718a04bef8bce5
bf1e1d72bd9f360abbcc2cbdbda3f023
3c4e2c6d000000000000000000000000
3ee5e2dc3fade3903ef28e06bf493596
bf9ee360bea1a412bcfa71e9bd927c87
3d4f7659000000000000000000000000
3dfc4a083ebd47943db77db9be2fa824
be922e3dbdc45819bcbc4d38bd8f5fc4
3c5b8089000000000000000000000000
bf4c07ff3d98baecbc5e9fbc3cf0be56
bc8aa6713cb5d6a7bc8941733d0c0da0
bbc71842000000000000000000000000
bfb8ece33d188ecebced7a8f3e01d11f
3ca49bac3d0b25d6bc02970e3cd6524b
bc189065000000000000000000000000
bea1adebba19b7ddb953fcddbda4e393
3c9e375d3b94adec3d1b8fbbbc42f617
3b19a013000000000000000000000000
bb4edeedbdb82954bcc489083fac6e77
3ddf56793cd0ae433e97929fbe83b050
be89e893000000000000000000000000
be245b4cbe1ad0a83c27e3184034d946
3c06a984bb401802bef6adcfbe49ab7a
3ea2374b000000000000000000000000
be4b09fbbd366e59be30cfab3f80cef2
3e5ff069bd688834bb39e2203e86e6d1
bdbb8137000000000000000000000000
3db126f8bef7e2d33bed6f983dfeb111
bef299a23df671913d814d0ebd5c13f6
3d46aef2000000000000000000000000
3e046c57bf71a490bd9d8e7c3e4c202d
bf4c7ff83e3b3a743d9f5aebbc916c74
3d843c14000000000000000000000000
3c7c9d63be7850f3bcad56fc3d0c2171
be5c1ad93ce870cf3c781a8e3aee1afc
bbba8641000000000000000000000000
3deed82b3e06a7383c76519f3e2e24aa
3e6b8c7a3d40346d3d6c53563da5218a
ba9b48a1000000000000000000000000
be6c42fabe96eb2ebd940134beaabd7f
bee58b5abe01ae35be0f2c3cbe2dd79d
ba5702c4000000000000000000000000
3df08f823e2c24723d65cba93e2fc586
3e6f35283daf7d333db481583dc23ad9
bc14971b000000000000000000000000
9db07afb9e3bd0429e9c6ce89de376d4
9e2068119e695b359dcad6d19e44b350
9e836cee000000000000000000000000
9ded4f4c9e80e75c9ebb2be89db035b5
9ddd8f729e591cff9e1f4c7a9e70ba08
9ea624c7000000000000000000000000
9df25c2e9e0e26119e3ba6869d92bf43
9e18595f9dfdd2759e083b1a9de40e7f
9e6159e3000000000000000000000000
3ba20df93bd2c55c3e9682273df10dbb
3aaf9d13bf3b8e093d12d09a3d129732
3db20342000000000000000000000000
3d14e211be317a76bf36b5a7be1d2822
3cb9ad25bf428ea1be349d08bc5e7803
bd68cfee000000000000000000000000
bc155dfc3e0079ea3dfdee883dd4a81a
bd849b08bf1a18b63ddab6e23baf413e
3d08a5f6000000000000000000000000
beb6c727be9d4f3f3c831427bf06b6c4
bece932abc729373bdac5218bd4da1ff
3ba261a4000000000000000000000000
3e11073a3e03a594bbb17d713e6e3034
3e0379733b4f1dd53cef73293ad7f1dc
bc33ba3f000000000000000000000000
3e61f5be3e3e86c9baa1cfa23e9f3a7b
3e7332ef3c5b3a153d67ffbe3d563f13
3bb1c600000000000000000000000000
bd2d8b5bbd8c1352bd7c5db83f3dd5a6
be82a5c43e98b223bdafcd27bd6abc20
bdbda452000000000000000000000000
3dab30b8bdb150c6bdb318e53fb033c8
bef40afb3f01add5be5842afbda54357
bde0bf53000000000000000000000000
3d057ad23d1ca672bc4003613ed98faa
bc7b1cb13dce078abdb8e1483cdaa75d
bcc6306a000000000000000000000000
9e8d2dbd9c5a47ed9cc9e0509daf6bb1
9db2b16c1b48edf79e39b5b89dbf3f81
9e398d18000000000000000000000000
9e001f121e1d4de51e1090181d7f480c
1da7eb581da8a6cf9bdbca851e0e317a
1d68facb000000000000000000000000
1b864c811e9fe4dd1e9c2ca51e94bf12
1e4fa2de1ea1c4801e7a7c461e70561b
1e707467000000000000000000000000
9e12fcb19e183fda9f48f5af1eb1863b
1d3cbd909f45cdd69e88b6371ed0d125
1f58942b000000000000000000000000
1e1c40dc9f1318279fa5ed961f528202
9e5bda609fa3c6a21f04456f1ea596cc
1bbf1b85000000000000000000000000
1f05b8de9f14cf5b9f10b0ee1fa2c158
9e1f6d249f865e6f1f80f7781f5529a0
1f0ebbc7000000000000000000000000
1e2f8ecf1ec1f5539da957e41e70b9d2
1d7219339ea0a7249e8891619d27d6f8
9de5b6ce000000000000000000000000
1e2cf1ba1e93b4dc9e451eef1e550f57
1df08c579ed0432e9ea171909d8d4cf2
9e3b496d000000000000000000000000
9d86bc301e77591e9e0ecb601da8fef2
9e163f609ed9a34f9e936ea49dfe1216
9e58dd54000000000000000000000000
bd4f4d733ce5e4f43b3f28b3bda6df69
3becb4183d8aa6203c6728d8bae4d65d
bd1e301b000000000000000000000000
3e4a4adbbe33a7f13c154a613d00e2ee
be91ffc6bda09289bbd541e43cf98e87
3d98d913000000000000000000000000
be605025c03a7a59bf8b938ebde14d3e
bffbc077beef5d5e3d020538bd612ff9
bd2bac45000000000000000000000000
bc0251c1bc84ece9bd05cad03cc1d54d
3ed2695e3e981aad3d7a2d3b3f075e3f
3eb1f6ee000000000000000000000000
bc9a5eea3b818c3a3b541557bc05f9c0
be3a2ee7be1c305fbcafb313be68b0d8
bdc466f2000000000000000000000000
3cc60d9d3c0ab76e3caea56bbca51486
be79a617be4be036bd3354c7bea0ab7b
be5de77b000000000000000000000000
1dac13299de7b3c39c56426e1e45e047
1e5746821e7de1ae1e0f80731da15b65
9d676689000000000000000000000000
1e8b16361d433a211db100a71e2d92ed
1ecfc6251ea9bbbc1d99afea1da8d0d9
1d8380bc000000000000000000000000
1ee3bf411eb2608b1ea8b0141f032963
1f0122301eeb82811ef4610c1ecaa8f3
1e8d2ef6000000000000000000000000
bd08d1f9bd447b43beca84023e4565ec
bd12fae3c01c4c3bbc58aec8be88aea5
bc3f72cb000000000000000000000000
3db5a9053e66a4fb3ed645263ec05bab
be79b85ec0811a0a3eafc346bd11fb40
3d12a2fc000000000000000000000000
be804dda3ba31bef3ee9ff093d0b6292
3ea363dcbfbd77703c85e64b3c2a8ecf
be948b5e000000000000000000000000
b3ac4501b3c0765cb3bf7cfbb3b4ca73
b3ab0e90b3be6115b3a800b0b3ae3d88
b3a6bd43000000000000000000000000
323bdaffb1dd8f92b2882fd0b272efc4
b26708ceb30313f330afd149b25e804b
b2801315000000000000000000000000
b3afa78fb3dd23b1b3ed983fb3bc0d50
b3d63e17b3e756f8b3bbd687b3beda51
b3de9b59000000000000000000000000
bdb982a43d73ad47bc52c5483f6c4c92
bdfca4ee3cc1b5efbe0303de3bb12d49
bb63c215000000000000000000000000
be81520bbd450131bd9379ef3fd99b16
bda524583dc03b0ebe9cc674bd253538
bce7ac07000000000000000000000000
3d7d333b3cd43ecbbb4b8f2f3e6deb7f
3c50682e3b7d662c3cb53218bccf326a
bb2d7b2c000000000000000000000000
bedfe203bf499b9dbe6b35cc3ee5ebc1
3f8a35ce3eabeae0bd9ccd47be96816e
bd6a1eb2000000000000000000000000
befb37c7bf72753bbea6ba193f14418d
3fb45e5e3f000814be723fdabed593ab
bde557b8000000000000000000000000
be9bdd72bf1ce27abe2068873e61d523
3f3e885f3e33fda53be2cf5fbdf3561e
3c7289f8000000000000000000000000
