3f4d589e be2c16a6 409684bd 3e3ff734 4059db87 3ee5975a c02aaafa bfa21437 409d5fb3 4042f10c 3f889843 403df4a8 bfe1f355 401ec31d 4062176d c018c1fb 4057c555 4069910e be3f5a25 c0054dd8 404ec416 405593c5 bea972cd 4034700c bdb792c5 c0cd64a0 403a58f8 3ecf3a0c c0b2a82d be92cda8 405b6020 3fdefc19 BC978140 BF369A5B 3D5D8804 3ED2ABA2 402CAF70 BE86A2AB 3EC6588E BF3B525B 3EA24758 3FE8B687 40235F1D 404D9056 3FF1EE91 3F25A15E 402335A4 BE8E104C 400A2C8F 401C7F5A BF1E0053 BECEF1AB 40625C4F 40359A15 BEBEDA55 40BFC24E BF3266BB BF0EA5F8 40198F58 BFC2AA4E 3E9F52B7 BF6BEE54 40522E64 4032E0AB C1370E20 40E3CE71 C1916ECD 414C0E57 C11CB7F7 41A6407F 412C6F22 411CB49B 41A6FCF9 C0924F08 40D51552 42330EF0 C201828F C1774C5B 40633653 40FADB8E 3C20FCFB BCC1449F 3F3B58C9 3FF36F9C 4049503D 3FA11289 3F3CFF62 3F8BE220 4039DB01 401A897C 3F837359 BEA03883 3B6D63C0 BCD57FC5 BE1F631A 3D51152E 3D8C4C50 401416A0 BE8056B8 3F984240 40466830 BD700C8B 40317BAB BF4BFAD2 BE0E21BE 3FE189F1 3F41CAB6 BD7A008F 3F5D042B 403E374C 3E9CBCD9 3FBDB12A 3E81A8BC 3E2521D6 3F0D861C BF30E1D2 3FF12599 3D71B0CD 403617F0 3D900189 BCA595FD 3EF7602D 40803527 BD317A6B BD703BF0 3F1ADBB6 BD056FCA BDB8077E BC2BFB21 BE84EF5B 40890CA5 BE892846 402D80FF 3FE3F1F1 3CAEBB90 40378870 3C896F39 40022375 BD593149 406FA632 3FD8263D 3E37A5FD 400D6A0B BCE01700 403F2D78 3F1CE753 BDA1F431 3FBB75F4 401AE2FB 4044B330 C0088232 401F683D 4087AAFE BD89B0B0 BD3AC50C 401E9B39 3C5A182B BC4AB26B BE8DFDE1 40107F6A BBCB93A7 3FAC474B 3F9C1DBE 3FF4C75F BD44046D 3EB50019 3FC3CAD1 3E429BC5 3EE2D2E1 3FF6A89E 401A3783 3E274FE4 3D754A88 3F93E2D0 3E916E21 3E3D453B 3D5006C0 3D560710 40BF8E3A BE60E292 3E646ACF 3FDEE116 3FCBE4C5 BD6F5EC6 40BC5861 BE5D9BDE 3DA8A568 3FC12745 3D537B48 3D7CAA50 3FDBE056 40B7B5C7 3F05AAB3 BE96A51C 3F9B38E8 C036163F BFB4617A 3E4DCB28 3E1518FE 3FB4F2A8 40964367 C08CF42F BCD0462B 3D7D1D60 402B5431 BED776A6 3F6AAAE2 BE6815ED BDFD954E 3F703531 401FFA1C 3F937C30 BD9C7534 40B3C5A9 3E1BB769 3D97B678 3FBED3B6 40229CA4 BDAAE160 3DA54C48 3FDC779A BC26F334 3DB86540 3D985360 3DE0FB50 3DC79F98 3F350539 3D08E940 3DA38B94 BE2BFE4B 3E08ABA8 4102F8B0 3DC01A40 3E160D00 40AF0522 C1849C75 3EE5818C 40BF3023 3E880C52 40BD9C89 3EE01955 3FCE7DD8 403F49AC BDC64D7D 3ECDAD15 3EF0B436 3F0A91AA 406617C9 C14F749A 3BE77F80 3D027A98 BE947050 3DF21ED0 3D4DFE20 3E94D334 3D42246D 3C913620 BDC55B2C BE83D04D 3FEA084B 3D60B1D8 3FBEAA86 BEA4EFCF 3FB207F9 4088CC94 3E87A017 BE554EAA 3FC3DEFE 3D2B9750 3C567CC1 378C8D00 404B7022 40B128BC 4111B24D C18531AC C12E1A0E C20B9998 C168A17A C0A66321 3FECEDB5 40BC0B2A C0B0C3A7 C0992C42 C147189B 410442C1 41A32C9E 411A2A83 C100957C C0ECC22F C0C6FB96 C12DE927 BFA35102 BFB10EB9 40F3FD69 40F9DA2B 3FE7EDC5 00000000 00000000 00000000 00000000 00000000 00000000 00000000 00000000 3FE822CB 402DE5F2 40145360 3F8D3C9D 3EBEB40C 3FBDFA42 3FCC537F 401A9E75 BEE1195A 3F5ED130 3FC539A5 401094E9 BF9BD245 40191CF1 4005F683 3FBE4A27 3EB5B38F BF561619 BEA32954 3FF376F7 4011F08F 3F9EC7DA 407FB02F BDB01E5D BF75EDAE 3F5B0B42 3ED7432B 4009F294 4016588C 3F9C1F04 3F7802B1 BE622E9E BF92011B 407FBC48 BF4207AC BE12B0E9 BE221E46 3E0C139A C0256EB3 3CF01F3C 3F0544AD BF05D936 3FE41A51 BF61DEB8 3F71DC96 3FC9EAB7 3FB23B6A 3E7970CB 3E259239 3F8E39D8 4029EDB7 3FA82F11 BF1168E9 3FD7EB26 3F8634B7 3F2F78A8 BF303D55 4000BEE2 402B7E9D 3FF538BD 3FB535A0 3F976551 3FB3736A 3FB0731D BEDCAC6E 3F98615B 3F9E5859 400C60E9 3FE62600 3FD59781 3FA49D66 3DADD334 3FD83966 40284B58 BF91FB3A 40549010 3FA45028 3FC99AEC 3FA49A3A 3FAD3F64 400448F7 3DE084D5 BFBCFD3F 3F29A317 3F221797 3F08B9DA 3FBDDE6C 3FFD8AEB 3FB25F0C 3F99ADDC 3FBA11DC 3F842E91 3F8473AA BEE39582 400A3A33 3FE05715 BF876F63 40C00246 405AC930 3FF6462B 400F38F3 BD327FBD 3EDD32D8 BE27FDF4 403B0519 3F32C3DD 4037AA59 3F0AC476 3FCE8591 3F9F627E 3F94FEAD BF8823AC C005EB84 BF56188E 3FE64722 400659D2 400C7F68 3D25491F 400E0605 3FE2A4C5 BE5E8E5C 3FC377D4 BEB7AD4C BFE4B360 BF2D1B86 BF9D5735 3F422611 BF17DCA2 3F9DAB00 3FAF41CF 403C1ECB 40369057 3FF46D2C 3E444FDA 3FCD955F 3FF5BCDC 3E558F43 3FBF9EFA 3FFB0C03 BFD0C7C5 403E3BA5 3F8FEBDD 3FDDDC41 3FD87055 BE1B0FA6 40513CBA 40054584 BF3D899F BF25CC26 3E615200 BE2E3C12 BE85060E 40532488 BF8FFBAC 3FBB2404 BEAACAA0 3F05225A BF3F549B 402BF303 3F77A7FC 400631A9 BED6FE97 3FDF3932 3FD64334 BFA305CB 3E46B55E 3FF47724 C0178D2E 3F3F8EDA 3D8B09EE 3E7DA837 409EE617 BE773230 3E59AE32 BEC66E14 404BCD92 3FB56444 3DE9ABD4 3F48A74B 3F4F70BE 3FB539BA 3FA135FA 4056DE84 BF3DA089 402634A8 C0398220 3FD343BB 3F1FEC28 3D43D717 3FD5354A BEC1E577 BF20B736 4030D7E2 BC6B7350 3DD5D448 3F963DBA 3FCA0159 405653C5 BDA1FB4B BA545080 3F175AB0 3E5E36BA BE2026EE 3E9063C9 BF529F1B 3F12644C 3EBF2F02 3F6307E4 402C7B47 3B787B60 3CFC3A7E 40798A7F BE803B92 401CD0EF 404B0C26 4013DFAF 3E73A14D 3F581B44 40172043 BE3F1562 402664EB 3E05BD08 3DBF15C8 BFFE5344 3F4A6A77 3FA14BCA BF6D4751 BE21BDB6 4048C8EF 3F9EC1BC 3D9BCA30 3BB394E0 3D98A039 3E8C283D 3D942FAC BB434B00 405E43BA 4079CD16 3D0ECE14 3C8FBC38 BB2216A0 4194E2A6 3EA90E34 3FC3F4A8 40983919 3E47E000 3E9D6A06 3F65F022 3E2FA012 3FA06200 BE2139CD 3F94A2D7 3D982E64 BE3EA154 3EB46937 3F9463BF 3E50558F 3F236A09 3FAEC83A 3DC94D22 BE3BEE53 BD030553 BC34BA96 C0490DB2 BE74A342 3D2E0A15 40646634 BA794E24 BE73CEF4 BE87FD76 3E738140 406144D0 C020D048 C016D798 3C62AE80 3D37F46D 3E18E863 C043A88F C02C0BED 3EA4BB9C 4007981C 40360249 3D76D378 C003A748 40C1E664 3D5831E0 3FB50921 3EAF9A08 BF592FCC C1513132 C0A7AD35 C186AEA1 407D2840 4178DF80 411A34D7 C0D322A4 C0656FBF 3FC4901F 4187136D C0004496 41522DD6 C145852C C0C069DF 4158CF6D 3F167A2B 4049FA8F C11FA61C C1644AB8 C102730A 410882F4 BEC87617 C00F7903 00000000 00000000 00000000 00000000 00000000 00000000 00000000 00000000 3EDDB1FB BE309E20 BFD37F2F BFA48221 3ECF2C4C 3E2033BB BE2F0C8F BF31F029 BF3B08C1 3FD4DC8C 3F34886B BFDB4EC8 3F8B27A7 BE9A3E3A 3FF51214 BD961CD1 3F1A9CDF C035DB49 BEBDCF03 3F812EC9 407FBF96 3FEDAC94 BFB0C02B 3EC8DCB7 BD8065F7 BDFB119B BF70A21B C0072496 3FFAB82D BFA4B474 BF416E03 3EB81CCD BD2DA613 BFC9AC96 BD6DD014 BDCA3E0F 3FB43B20 3FFC56AD 3FA77C2B 3E1117E1 4010FD00 3FEEB27D C02A441E BF13877C 3EBF8AB7 BE50680B BFC0062B 3E1D7BA8 BF657B98 3ECAC2D6 C004606A BF9AA56C BD5DDA5F BE6F08C3 3FDC66D6 BFEAD9A7 3E0B1A4D BF20C81D 3E0641BF 3DE19CB6 BEBC1118 BD7F76E5 3F884F05 400B292C BE982C36 BE2C77CC 3F9F6F98 C0191D32 3F49C0C0 408871EF 405DA5B2 3FEDE077 BE297182 4000E5EF BF0255B4 3FDCE985 3E29402E BFD24905 3F8B6FC3 BFC7A84C 40133C05 BD996FF1 BE6E85ED 3F577A33 4076FDB5 BF07BF91 3E5373CD 3E42168D 3F98FE6D 3F685411 BF0F9BAB 3FBD6F68 BDDC8883 BF5F0111 3FB49111 BF833044 BF72DB0F 408B9BA2 BFBF4787 3F02B4A0 3D4DE770 3FFB15E6 402C35E2 BF53BDE5 3E8C4054 3EB6F2AB 3D500DA2 BF8CE664 BF0F6267 3F816F6D 3F82787B 400B9D18 BF8F41A0 3D3F3932 BFD94C91 3E2D4E40 BDA93958 BD3A49F6 3FCF6B5B 40A31FA7 3F2ED4B7 3F8FA553 401F769F BEA18F18 BE2E79F9 3F91FECE 3EB12521 3F1C0D34 3C44AA7E 40101902 BEA7D39A BF83A760 BE8C2B01 3F3C10FC 3FA0B739 BECA2254 3FA49AD3 BE48136E 3E50809A BFADD37A 3F13C54C 3FBB1E80 BED3706E 3F23FF0B 3F446C94 3D659680 BD803008 401AE2C5 3D879996 40BFB443 40015EC3 BB6B8080 3D997C70 BE2BB4E4 4009549F B9F68C00 3F9D7583 3FD7FB6C 3D0FBB20 BCCD5340 3FCE4FF2 BBA89800 BD9360C0 4017640C 40350639 3E8356D0 3F166DF8 3FFA51BF 40111A66 40074E00 40BC9241 BCA06820 3ED0A37A 36390000 40A1517A 3FF7A711 3FE59B93 BD405330 40157F3F 3FE57F7E BFBF90F0 40A4AB4F 3E0793D8 3FE06B60 40D80A9C 3FC9678A BB042680 3D0F9F70 409ED3AE 3D8933F0 3F494AAA 3D92EA70 BB9E15C0 3E9C5928 3F80384C 3AE67080 BDEBF050 BBA95A80 BEB036BC 3FD132F1 40BFA943 BC189980 40BA649D 3D6A9120 BDB69894 3FFB58DA 4004D919 BE8D0CE7 BD96A778 3DA32268 BF120128 3CCB5850 3D750B10 4089A456 3FF915DE 406606D6 400D27AD BE84610B 40B784C6 3FCC4CDE BD6348EC 3E5CC508 BF24E2F3 BD450418 BFBA587C BDC40A98 3FC59DEA 3DCB03F0 BE31BAA4 BBF9F440 3FC94F16 3D98DF20 BF38793C BDBDBF64 3F239281 3FDB72CA 3FD9E49C 3EF47696 3E1C9602 409E6B1B 3E4CFC74 40969A24 BD49E3C4 3D9C1CE0 3FE67500 40113166 403E9FFB BC115330 3D68B660 400B76F8 4092E716 3F40EDD2 3FD7DEAC 3E0E8768 3E773774 3DB0DA2A 4022A8ED BBEEC280 BC3BAC10 3E057D0C 3FE0638C 40A812A6 409649F3 40CF4C00 3FD90407 BFF0B8F6 3FC829D4 40C02DC9 3DF0E470 4011AF49 3BECD480 BE258316 BFA7D3EE 40320802 3FD0C195 3D995E4E 400A1B34 401DE56D 40BB6D4F 3B248900 3FC85ED1 3FC5965A 40947D48 3CAE28D0 408FFF6C 40AB1FA2 3F1E7757 40C8DF26 BF02175C C12FEACA C0D10B96 40253E02 40FAB198 BF902C44 40B3BFD6 40DCC696 417D670C C0F34527 40F19A37 C1510BEA 41AD834D BFE26DA1 C09D937D 408B664A C18B6DB9 409868F8 40834CD4 C153AE83 3FB94BBA C0C489A9 3E8FC9CC C0AC4E67 3FC04E07 C13310C1 3F23A862 C13EAA87 C128E197 C00D4C1D C082E3AB 41634D89 3FB54FF2 3F8D624C 3FA48655 3F5F95D5 3F8AE862 3FA6E7C7 3F5DDEC8 3FA2C51C 3FD009E5 3FA7B45E 3E9E788D BFC10763 3FDC1E7A 3FAC0631 3FA53BCD 3FA9A58F 3FB2A2E6 BF984482 3F8190F2 3FA0094F 3FBF6417 3FD15C28 3F6604CC BEACE93C 40012C3B 3E0D9811 BF4626A4 3D064A84 3DE4517F BEE8682D 3F948E8E BDFA5227 BFADAC9E 3F0169EF 3FC7E4D6 3EE1A542 3F9B6BBE 40059C1E 3FCD363F BF5C4680 BF935DB2 BF926EBA BE9D2CF7 3F88D7A2 400BA2D1 3FCFE476 3F7E2354 3FAA7A11 3FA7ACD4 BF2A59BE 3FCD493E 3F962C52 3F80B13E 3FCC0826 BEB325FD 3FAF8C13 3F4FEB1B 3F4A16B4 3F75CDD2 BF245929 3FBC2943 3F9D9B2D 3DC21803 3F35D3AA 3F72A483 3FBE1020 3FD3A081 3FDD00AF 3F73F4FB 3FCB50E7 BEBD10F6 3FC41C67 3FA5AA1A 3F77B71C 3FA71288 3F83ABC2 3F75B6B1 3FAC954D 3F7A4112 BFA02A2F BF096E31 BEA92F53 3FCF76AE 3FBDC928 BF771EC8 BE9DAC48 3DC88493 BCF138D8 3F4CB588 3FD00FF9 BEF91B4E BF1FEFAF 3FC2358D 3FCE8B26 3F422CCA 3FC321BC 3FDFA606 3FDFAE76 3FA7C5D4 3FBA37F4 3FD3B7A3 3F9E2723 BCC68FC3 BF2B31E0 BF610D6B 3F95C4EF 3FB83619 3FA59A14 3F0125B3 3FF6BB40 BF210E91 3FF1FD9F BE71D72B 3EB4DFD1 3F5F7359 3FF6D85A 400525DA 3F833F08 3FF8D12C 3FA6018E 3FE785DF 3FC2A9D7 3FC4EAB3 3FD3A146 40006821 3F18C933 BEFA8FDF 4023F8CA 3FC6BB1B BF283B4A 3CB7C70A 3FD35285 3FD6EABC 3DA92A74 3FDD5E6B 3FC73442 BF8BF069 BFE52ECE 3F7358DD 3F8D3A4A 3F9532DE 3FAB0193 3FB683A6 C0179EF0 3F966498 3FC486AD BE7FFA9B BD5DC876 3FF342CC BFF577FA 3F81A1DA 3FECEB0B 3F6554F4 3FC78C13 3F86EC8F BF572F17 3FCEA0DA BF47F492 3FDD8963 3FDAC56E 3B9144FE 3FDCF9D3 3FC3E28F BE0F7CBB 3FB71E31 BF9F4FBD BEF53C21 BEBC6F44 3E87C490 3E2F014D 3F83DFA1 3F1BDC64 406403E2 BF509538 3FDC4109 3F74AF6D 3F4C77C8 3FB462C4 3FC2A0BB 3FDB9177 BF2FA57D 3F81140C 3F759DA7 3F8AB386 400583CF 3FC75E34 3FC24B70 3ED302BD 3F87EBDD 3FA4977F 3FBA8A54 3F4B8C5E 4024CFCA BE27B9DA 3DA60060 3F8C881F 3F9819F9 BF416F1C BC942EE8 402B4D78 3C6367E0 BAC87468 3F0544BB 3E6715A4 3DF0895E BED18C7A 40477AF4 BE401CED 3F56C7AD BFDDB88E 3C138B50 BCC9FB30 BE2554E2 3BD13340 BD2B09F2 40574E52 3FD64005 401E6B1C 40227950 BE60EBE4 BF8F4358 400013B3 BF7C0296 3F822BB6 3E9A7B2A BF343B85 3FC6D542 C01E146F BD4A74F0 3C103380 3D477F50 404491C8 BDB6AAEB BF4AFFCA 3F6B9EFC 405E6D87 BC8057C7 3FAF3978 3F830D02 BD6032C0 C05AD6BE BE89E4F1 BE2AABEE 3F3AE878 BD200A0C 3B2C7880 C03B3A9C BE28A269 BE7AA788 3F88D4D2 3F4F2BEC BF7B4D8C BE41C9C4 3BAD7740 400EA372 C0215BB7 3E361360 40A713B8 BF8C019B 40C83DA5 3FA42037 BFA1FD3A 40375B29 BD8460FF BDAFF342 C035084C 3D00E8C0 3FA556BD 3F8D7D81 3D592F46 3C1ABF80 BFD64AAA 403A6F01 BF862D69 3D65EC6D 40B19A3F 3FFE599C 401A1760 3F64DDB1 BFBAC8DC BE076843 BD3897B2 BFB631B4 BF9938CF 3FA1A5B3 BD18BA64 C03A8F76 400511CE 3FAF1B97 3CF87412 404CD4C6 BD640369 BD3DD284 3F80C3EE 40264B0A BFC29AEA C0188AE3 3E14C2BA 3CB71760 BED92DBC C01F487A BDC005C8 BDDF870A BC76E528 3FBF5862 4025F948 BE87834C 4007BDF1 40054E96 3FEF99FC 3AE7AC00 3B429171 3CD19480 3DE71318 3ED134C2 BE4111E4 BCCC4D31 BEAAB228 3F4F648E 3EF7B1D2 BB7DC800 BF7D76EE BFF77C58 BF7E13AA BD5841F4 40063556 BC102904 3FF6ABDC BE1F741D BE625FEC BD19E1C8 BF16B458 3DB7B7FE 3D9F6A93 BFBC9BEC BC6938B0 C0B4067E BD388360 BFC69B9B 3F387890 400FB04C BE5024B2 3F0271D4 3F071DDC C00346F1 3FDDD3FA BEB56487 BF453130 BE57480A C0093FC7 BD4561DC 3FD19732 400FD52F 3FA5E99E 3B8E9400 3F6BA2DD BFAFEF18 BF1D47C1 BFBC8425 3F7B9282 BFDC85D0 3F8D8835 C040D5E4 3F77211A 403124A4 401A3386 BAB65980 BFC41D36 BE7AD0F0 BE8843F6 BE2FC46F BF56129A 3FAE4EB6 BC23C698 BF9D08D1 3DF2CA6F BD8B587E BE6C603A 3CF7E716 4028E810 BDB1A898 3CD563E0 BD93DD95 BEA26914 C0A768FF BFA57955 BF4C1BCA C01CA8C0 C000F1E9 C0666403 3F45BE37 3FC131E3 40D20EB0 BF34138C 40252676 408F96BD BE419A46 C00F730E BE0DA28C 3EF958B3 40061416 40B8283B 40113CFB C004C39E 3F96B911 3FBCFFC6 C178E6C8 BFDAAC78 3FBEF8B5 BF053729 C1237A10 3F308FA0 C08941EE 41C7FB0C BF355921 C0AC4493 BF1692BE 3EB2B1E2 3C90A5C9 BE9F76DF 3F61606D 3FE8A23C 3F0F0648 3FB255CD 3FEEDEBF BF0C968E 3F95BF95 3F9DD201 3FBF4023 3FF27D5E 3F4F0595 3EE1CA1E 400F9072 3F4198CC 3DF4E1A3 3F95CE8A 3F1BBECE 3FC5E7F5 BF9E17BD 3D6FC4E0 3DFC84FC 3EEC8845 3FE98055 BE4F6B90 3F9FDCEF 3FBACB28 BF6A51D8 3F88C1C0 3FC6235D 402D70EE 4002031D 3F8E18AB BE30DB17 3F652F58 3F30412D BEBE8A01 BE7AFF70 3F4E318E 3E255F4D 3F922D91 3FFC6463 3F3E77B7 3FC962E9 3F129A1C BCADE95C 3FC5883F BE6C7E60 BEA19C28 3FA48196 3FA9E7EA 3E3EFEFC 3DD2E42C 3FA35D42 3F983D21 3F84F3EE 3FA74FE7 3FB3FE4B 3FAC54B7 3FE2F199 3FC2C2FD BE2B721F 3FAD7879 3FB869A0 BE861ED8 3F98C046 3FF2EDD8 3F9ABFD5 3F9D9BA3 3FB2DC12 3F787036 3FAB36A8 3F606A41 3F4F2500 BF3F5A03 BFC62CF6 BEBCC0A7 3FD075CF 3FB8E83F 3F9B464E 3FBF2897 3E1E4CF0 BE38C7D4 3FA3D0D6 BF4BBBD5 BE19219C 3E9BDCC2 3F87DC95 BC14A59D 3EAD1085 3FA0CD10 400EDB48 BCB88159 3FDA052D 3F89333E BED138CA 3F83DAE0 3F35BA10 3E79FC19 3F85035B 3FB5AAA8 3F84E1BE 3F9FAEFC 3F6280AE 3F99B110 BEBAE0C7 3ED799A6 BF0C9EF6 BFCD8A10 3F8D967B BE58BFAD 3F9845ED BF6695F0 3F997A2F 402D4607 3FCD7306 3FFC9C0F 3F95C1DA BF6202F8 BE105393 3F15A90B BF49B7A7 3FC6C9AC 3F8942D0 4045022A BE7790FB 3FC88B49 BE976816 BF0B14BA BF23FFEB 3FDD08AE BE6D0BAB BE0D7F5E 3FF88229 3F2C2AC6 3F649BD8 3F9ECB3C 3FA75678 3F99FF49 BAF53401 BED7CF83 3FACB474 3FCDC7B1 3F1D2404 BE8C6C1E 3DC5E1A0 3EA11FEC 3FA67B90 BF6F93DB BDAC9A58 BF4DBF52 3E486007 3F32855E 3FAB74CA 4038DD3C 3F3242C1 3F1E4600 BED85777 BF0B8632 3F4682D5 3F80038E 3F9CF6E9 3ED51A66 BFBB1AED 3E57CD0A 3F923380 3FC63143 BF6B9550 3EF45A32 3F50B121 3F9390D0 BFB42F0A 3FD4783F BEA975A3 3C43CAF6 3F396285 3F64F19C 3FA1D381 BF2F9E52 3F5CA362 BD7EF0C6 3F4D85DA 3F68770A 3E8B2FD9 3FBBC1EC 3F31EF0F 3F8FC525 3F8022B1 3F5FA598 BF88B7E6 3FBE9C82 BBD39B80 BFA84552 3FBEC61A 40BB054F BCDCC080 C0033A6B BE9A25D4 3C27EC40 4018D2AC C054CBD8 3EA0204C BF31C22C 400C8D3F BF8589F6 3E2834F4 BD39BD36 4015C652 BF058F17 BFEAA7E7 3FC67636 BF6357B1 C05034F6 BFC78C4C 3B6F7880 3F81AFC4 BFA44189 C09BB9FD C0819C71 BF73C700 BE22C80B 3D05FA60 C1573D10 BFA8491A 3FB0C04E BEEE6478 BF0D2FE2 C03461A9 C01B2769 402B7E63 C0156F83 40401CA1 BD611D72 40263400 3FA9E9B5 BE94EEC7 3FCC4807 3F67B7D6 BEE614E5 40598602 BFB7CEA4 BE7A821A 3E8CEF87 BFDBBDF5 C029A864 BD3969E4 40483FF3 40351B1A BEA3DDEE 405F8651 BE926BA7 40A6BE47 BE85B944 3F822F01 BC4FC520 3D91A668 405A9EA2 BEE4CDB0 3CAF3BC0 BF89D870 BB2105A0 BD8CC608 3D9C5B67 C0B93962 C00D375A BB4B7600 BF99EC69 BF8974C1 3F35A0B2 3DD547D3 BF5B5C0A 390FA800 C0B5160E 3F7A9443 BFE89D8A BE6A197C BF9A2599 BB9E9F00 3CB44700 C0947A48 BEC66B16 C021588C BFDD0C72 41050AD9 BD6540D0 40CAB607 BF6A2BB5 BF4F0254 BFBC2AEB BEE87A2A 4007C784 3E6B9815 402EE359 40104E1B 3F1B24D2 BD57CB38 3FE01FC0 C002642C 3F9D4306 C077F8C7 BDA56190 3E6D51E2 C00DFE4E C0674112 3F2C51E0 3B1DF300 40849E86 4022845A 405C0478 BF3A46FC BFD7ADAB BFC01A2A C0A8D512 BFB4C52A C039A5FF C07694F2 4158D5E7 402D001D 3DC66340 BB93D900 C0451A8E 3A810340 3E4EC744 BFE2CB10 BC918FD0 40CAF4EE 3D434796 BF4A94B0 4057D8D0 BF0E0F92 BEA5961E 403EECC0 3F232413 3F77F93A BE8D34C2 C067176B BC1794E0 40516C22 400D4340 C0893F44 BE5C041C C0068074 3F3B9B84 BF3F9124 3CC8DF80 3DED588A 3F9603A2 BD53A2CE BFFF3A03 BEA6BEC2 BFCEDD42 3FCEBC72 3DBB3766 BF9502B0 401E6B4B BFE2D220 3F7F23EC BF959F65 3C103C80 BF586F88 BDC3DC3C 3F8C30A6 BD1ECADA BFE85A3E BD02C000 3F88BCA3 401C8F29 BDA643B6 C000228E BF2C8FE0 3FB9DED9 BE7110FA BD71F800 3D12A550 BDC9E84A 3FC39DC9 BEEA56B6 3E59536E BEAD343F BF3EB714 C0344DDD 4028E680 C015A528 3F94EE4A 407FCCB4 C0435BD7 3D39B672 C0291C61 409D700B C03CE7F1 C0359D42 C0EAB3DD BED4A969 C00B5894 BF28D84E C0185036 3EE3D584 C012D831 40574CB7 C179A5A2 3FF11E09 BF5B5B5A 3FE735C3 407525FD BFEDCECB BFB569BC BF4F5A65 C1963B30 3FC92ABA C08CA6E9 C18F68B1 407F4E33 408BBB67 BEE59C8E BEF79242 3EF78450 3E156186 3D2C581B BF367C09 BE3C09CA BF01F89E 3BE11E2D BEFB8417 BF80844A BF3A7888 BF2B322F 3F48543C 3EBD6678 3F253C1C 3EE770B2 3F516E07 BDE6D1E1 3F6B2E84 3EF319A2 BF5E6D9D BCAC5E3F 3FACF172 BDB71191 BFB2F95C 3F4BE792 3F8BD125 BF851856 3F4CAA76 BE8AAFE5 3F37700F BF92C28A 4005F567 BF6E1112 3FE2C800 BEE67BC5 3F6AD570 BEC08440 BF84D059 3FE7C282 BF0B1678 3F7FF258 BE41020F BEE84F27 3ED999CB 3F427B2B 3F9AB887 3EB8DC0E BF3DF220 BE98F424 3F96164A 3F9FC26C 3EC277DE 3F2C4D5A BED5ED08 3F6E2D00 BE939DCE BF42E661 BF10E40F 3F90D6D5 C034E03A 3F63F44A 3F1C88C5 BF02B632 3FAC71BF BEFA7F71 BF4CC0C9 3E8CD90E 3F559F71 BB2CDAB5 3DE3261B 3F5767EB BE551F6E BE1886DA BF224BDC 3F820464 BCF725B0 3FB98210 BE18BE46 BF2E3DDF 3F70FC4D BE16D3D6 BFC2BE95 3F9425E8 BF4AE854 3D08BE31 3D97789E BF7F6D33 BF469DFE BF108BB9 BE976A99 BE1E3D27 BF50D7D1 BFA6497D BEDA6617 3F08391B 3D98660F BF92E6F8 BF72D549 3FCC9B28 BE1807F7 3F64A850 BECA8D6D BF99DFA3 3FA564A2 BE9B9B47 BF707D94 BF1FBFC5 3F2C8C0B BF9B8866 3EDE8C5F 3F863BBD BE448DF1 BFA1DFA3 BE107491 BEB144D5 3F73E467 3EF0E20F BD051CC0 BF9D66A5 3F6D372C BE984468 3E18BFEE 3FAEA231 3FB490D8 3F622848 3F31E3BA 3F1069B9 BE2A3A08 3EBC9654 BD03D585 3F3C601F 3F1F4CDB BF64C2DA 3E370B05 BF084978 BEC40780 BE82DA20 3D84C5CB 3F0C6450 3CCAC02F BF2F6C68 BF7849C6 BE229F68 3F7B7B06 BF954EF7 3F66B712 BF976373 BFAB9D92 3FDF5432 3F70FDB3 3EF252C4 3EFE245D BFC4A59C 3F4DDE3F 3FBBE37F 3F55861B BF5B4E18 BDFB8471 BFC36371 BD333939 BFBA87B8 BE51288C BF8C4104 BFA1B620 3FBC0A43 BF265C8F 3F60873A 3F9E9C1C BFC293C0 BECF5580 BC9D772B 3FC5AE17 3F465A15 BF38C466 3E322149 3F29A1D5 3E84BB6C 3FA245D2 3DDE34CA 3F537399 BF04E0FF 3F060E00 BE30BCD5 BD85C6E4 3ED205E0 BE39AAE9 BE28A590 BC41CF0A BF2D365F BF059EBE 3F0460FB BDAE3AB8 3FC92DF0 40AE7C4C 40A5977B 40053E5E 3E452C2C 3FA16BEB 3C6E71E0 40846CB6 3F59875C 3EA46ED0 BC442620 BC574380 401B2EC6 3FF5A84C 40B43CDF 40AA2CB3 401E0B60 4040E9B6 4088D68C 40847EA8 BC0B3560 4014E92F 4016DA59 3D169A30 3DA69EF0 3FEEBEE9 3DC44320 BD98AB96 BCDFAC20 3FFD8FFE 3F6B61DC 3FCB0184 3DB0B458 40C8D428 BD616F78 4047CCCD 4080512B 3F3DC82B 40C1F97E 3FFEC3E7 BDEA130B 3FB622FC 3B7AB100 3E92FECC 3E91A334 4026E4B5 3FCC341E BCA98CA0 40B309C2 BC3B78B0 4034910C 3B310980 3FB1A606 3DFEF490 BD2D11A0 3AF76600 3CB06140 3D53C6A0 BBF73F60 BA1C5300 BEDBF6C9 400BE6EB 3F3C6820 BDD03A56 3EB9C482 3F342024 BE73EA2B 4008B374 3D60F8E0 3FE644F8 3FFFA120 3D75B040 3F4C339F 3DA017E8 BDE3372B 3FEC7BCA 40A8291E 3D9220E0 BC75B080 4013F14C 3D1F6010 BBAF12E0 3DA52E8E 3E31B910 3FF9CEE9 BC0AED40 BC2D53C0 3DB578C8 3F35D3DF 40A387B8 3D58D540 3FB4B61D 3E132984 3E641758 40271734 40AE218D 3D8CAD88 BC21CA80 4054CAEE 40C0276E 4018F1D5 3CF9D9A0 40233EA2 4001578A 3ED2914E BC8D9A70 3F74468B BED88CD9 3F54E1FC 40085896 BE8B49F7 BBDE1500 3D06F400 40B9E196 3E342FBC 3FEA08B9 40ADA1AC 3D1B4840 BDB29760 3F8B0B4D 3BE17800 4096C45B BE60FF94 40C6CF42 BD3519E6 4059CD52 3FE5F85C 3F27E01F 3FF3D450 BBF1A110 3E0ED478 3FF2CA9E 3ED10B2C 40A25500 403DC3A6 40BE9F3D 3C4B68C0 BF1686A1 401318FB BC3938E0 BC04CDA0 BC375CA0 3EFB6C50 BB7080C0 3FC2837A 403E7BD4 40782B6F 3E267D28 BA270000 4007B392 402F4F7E 3FDB4D9D BC89B8E0 400EEF78 BF57E6C0 405C16B8 3DB26008 3DDA7118 BC31FF20 3DD37A18 4003EA97 3EC42BCE 3FBC9BCD 3CB5F0E8 40747331 BB37B200 3DC420F0 3DC4AD33 BB9549A0 3E3E1392 3FA2AD6B 4020EA9A 3FDB2A36 3FE8E6DD BBF52E80 40A9BE2A BE343A9E 3F04411A 40C3505E 40B69C20 3F404701 4031ED4D 40930070 3EB53D1C 3FE3F5B6 40AE22F8 3FD8F6EE BBD12800 BCDC2600 3F0229F1 C18D1892 C0912B15 C1D9E7A8 C0B82FD3 C0079739 40A21134 C1E40774 409B81C1 C051C599 4132EF86 C1151C3B 4080A7BF BF50B944 BFFAEFFE 411F1C16 C08AD97E C06DBCE5 415A55B7 BFB02AB1 C172C95F 3FAB7043 C18F3FAF 4199A6D9 400742BE C04A9A29 C0FFC6FA 41239DA7 C037FBDA 4100E1CF 41108E21 C1774BEF 405851D3 4167A600 3F4A0C04 4170AC88 C087E17F C0AAAC7F 41198C2A C03EF491 402A32EF C089CF43 4117795F 3F8B0D5E C037428A 4117875D BFABBF9A C1465266 C0BC6553 C0929592 40761CF5 3F06247C C0C382D6 C0D84536 3FE153B8 40C22715 410E9DB8 404753CC 41434E04 411CE811 C08A54D7 C10BB0DE C0A7F9B1 40A0E959 BF868BE8 3F77C385 3FA77EAF 3F4B4C21 3F7FD3AD 3F9074A4 3EE67352 3F7FCE3B BEFFFE5C 3F4A2663 3F80E69A 3F572893 3EAAAB3F BFA3440D 3FAE2CF2 3F521B0A 3FC1BD40 BE4D68F8 3F9209D1 3F298E35 3FC329C0 3F67B2BF 3F9CBACB BF35AC51 BEAEFE60 3F969988 3F7D88D1 3F4EF4F2 BEF1553C 3F8A7322 BD9B43ED 3F8A4D75 3F735E43 3F94C263 3FA89385 3FF97CBD 3F06373B BE4ABF10 3F9FC34A 3F8245F8 BE463B04 3F987D09 3F878BB3 BE683262 BEBEE36E BF042BE3 3F97EE78 3F3EE277 3F916A07 3F9FF38D 3F88FF83 BF33807A 3E387E30 3F5592F9 3F88E51D 3F914667 3F9B889D 3FA39FB1 3F863804 3F354FBB 3E4D34AE BF6896DB BF075050 3F66BB69 BE87A107 3FC7D6E2 3FA585CD 3F63B792 3F681148 3F850380 3F8E867E 3E9F567E 3F823FC7 3F988723 3F5E3AC0 3F02D1A9 3F7598F3 3F7EAFC3 3F9A0594 3F857CAD 3F5941FB 3F964D2B 3F932269 BFAF402E 3F4821B3 3F6FA765 3F1D002A 3F9E98B3 3D34A500 3F879F21 BDE0E0C8 3FA0BEEC BF702743 3FB0736A 3F8CAB02 BE93E5E7 3FA9DED0 3F67FDF4 3FB04005 BF29D32F BF29B456 3F7DD8CE 3F04E2A6 3EB0FB6E 3ED52F35 3F6839DC 3F7DC378 3FAA5F93 3F6E1E1F BEB99FBC 3EDF648E 3F4A0C77 BED9AAEB 3F7AF197 3F8660DE 3F8BC851 BECBAC1C 3F1A6FB9 400C9FAD 3FCB3264 BF4DE9E8 3F229A59 3F80E7A6 3F6A0BAD 3F1538EA 3F9B54DE BF76E263 BD2E3099 3F69C6CC 3EF41E13 3F8AB167 3F5665EE 3F9820FA 3FA1B606 400B53F6 3FCAB1C5 3E18AF38 3F891BF8 3F825DC4 3F70AB15 3FA5431E 3FA5B1CC 3F635E13 3EB83059 3FAC5D47 3F91E619 3F7C8379 3DC8DBFC 3F7A4E4D 3F56906C 3F68DA43 3F40F9F4 3F8F6B0C 3F9DD16A 3FCFD2A2 40490BD3 BE8AEBAF 3F818B71 3F8E3FE7 3FB65BE1 3F63DB13 3F681C10 BECC8D26 3F90FF0A 3F856C28 3F1642CE 3F54AB9A 3F83E33A 3F923EC5 3F75F2BA 3F47BB48 3FB76397 BF64FD18 3E9BD5FD 3E265EFA 3F64EE53 3EEB0969 3F94D682 3F851476 3F775B4C BF490623 3F80867C 3E2DB155 BF0C2656 BF82D074 BFE6AC20 3FA18E1D 3F1E8D0B BEDADBE3 3F72D19E 3F9EB4B4 3F74713C 3F429D65 3F9AC27E 3FA78379 BEA1569B 3EDB1458 3FA3DF12 3FAC2001 3E7BE3F6 3F6018C7 3F85BBD5 3FA7221D 3F9A4A96 3F78E0BB 3F13CBCC 3FB94E1D 3F826282 3F9C66CA 3F660B68 3F87B585 3F4F5D6C 3FA53E9D 3FB361B2 3CB770A5 3F91CF18 3F6A7510 BEE60B63 3F70B3DA 3F9EEE74 3F47567D 3F83968E BF1A0DCF 3F84F2E6 3F92E9E9 BF28CBFE 3FB63816 3F2DEAEF BF28FECC BCB136E5 3F5A5136 3F7CEAA8 3F6FC1C9 3F2EC850 3F9F2101 3F946829 3F887A57 3F6BB483 3F958B3E 3F98F9A8 3F536BF2 3F472B8D 3F371AAF BDE298EC BF979112 BF1FA4ED 3F7F04C2 3F8F2390 3F93BB61 3F5D2C2A 3EED5A6F 3F3EE579 3F80F495 3FAAC1D0 3F55B79B 3F90DDC3 3F886042 3F617D0D BF2C9CAA 3F72F474 BE38DD76 3F8A1234 BD49E1FA 3EC8B377 3F140404 3C82A458 3FC3E253 3F8DB640 3F570E7B 3F910081 3F879B37 3F7CD386 3F6BBA82 3F08F42E 3F983FE9 3F8D1BF5 3EAFF8A9 3FADA16A 3F73C095 BDEF2234 3FCEC790 3F650589 BF07DFE3 3FA5EB52 3F067C11 3F9B3B90 3FA28C5B 3F4458AB 400171BC 3F7A6DA0 BF2DE08C 3F9C6988 3F9C24A9 3F198AC2 3F77F33A 3F9FC735 3F8828C6 BF0B26A2 3FB8B50D BE1478B2 3F861669 3F81AF64 3F9C00CE 3F10419D 3F9B8C46 3F992D7F 3FB326D5 3F2858BD 3F2FBB9B 3F8C7FD9 BD48B69F 3EFA8BCD 3F8DC8C1 3F440E91 3F1BEE57 3E368C58 3F2DA5D7 3F82A832 3EBBDB3C 3F8A066A BEB9B35A 3F2BA810 BEE7536E 3F4B69CF 3F920FBC BF2D9B1C 3F709266 3FBB119E 3F3F1A41 3F48E125 3F8283AB BC9248F5 3F863753 BC8A2EAB 3F96E8E1 3F813C47 3F7AEDD2 3F9EFC59 3F540EB2 3F827FC9 3F787EA7 3F3A67EF 3F522CFE 3EBA45E4 3F57A668 3F8D8965 3F9D2159 3F6DE6D1 3F5BF964 3FFB3C46 3F9782CD 3F3F3875 3F819E09 3F924044 3FA3F9F8 3F81AED9 3F879A51 3F97A7FE BEC7D556 3F3401B1 3F91E326 3F89B021 3F4FE23E 3F953372 3F9FA566 BFAD21A3 3F9A5C7C 3ED5A7F9 3FBBF4FE 3F993444 3F8FAF52 3F6EA050 BF33E0DD 3EB6E8FB 3F4D8A99 BE17D607 3F391DAF 3FBF562C BBCB6EEF 3F3D91A7 BF0420B1 3F8D70E0 3F1F9C99 BF64CC0D BF891AE2 BC595020 3F68EA9C BDB5E710 BF569EAA BF200A2E 3FA3FE30 BF14C874 BFAEC86D BE0E499B BC3C2520 BF437D9A 3D8D7FF8 40006B6C 3E524EE4 BDFA8FD9 3D2BBE44 3F742E2A 40281903 3F6E805F 3EC3EEBF BE0A4FC4 3F635337 BFBAC6B1 3F6DDD43 3D2578A2 BF52000A BB207700 BF426712 BDCE4806 BEB92BB3 3D4F24E8 BD0B4F58 BD2F2F9E 3CD646E8 402341D6 3FE626B7 4010E827 3CEAFF98 3D3AEE3A 3F5565E1 BF02D709 C09723F6 BF544CA4 3AF26240 BFE60692 4041BE3A 3F9F9134 3D40BB98 BD606660 3DFFD1F0 BFFF16E2 BF25D284 BFAC6BEC BE3D4763 3F8122EA 3E3E0654 3FD00261 BCDED3F8 BCE71F20 BEE115CB BF952035 BFCACEFA BF10DA18 BF809332 4072C7B6 BC0EF700 BFC7222E BCA74F30 3B95CB00 3C8B92CE BE27B27A BE188544 BE470BE8 BFB4225E BFBCF04D C07A4310 BF78DF36 3D020A30 BCA22B68 BCF9FEE0 BDE75AE2 BD843387 3F7B04E2 BE0AA7D6 BE3174F0 BB6073C0 3C8A0A5F 3DA097BA 3E22BF48 4000A998 3B3EF700 40112876 3F29F615 3D3AF07C BFE555DE 3C6ADB70 BDC85939 C153C110 3F635FDB BF3E1002 BFB6CDE1 BC1017C0 BEC173EA 3FC3AC48 BC970F30 BD80BFAA BFF50AEB BE773434 3F80E241 BFCEE9EB 3AF98E00 3F2F2D6C BCE6F1D8 BD00A140 BDCBCCA0 3FF2E4D2 3F82C4D8 BE955E30 4040DCB6 BFCD9C60 BF6E6FAA 3EB8599A 3CC13294 BE21836B BE9836FD BFB1D221 3F71CBBC BD78ED68 3F8AB61A BCDB0980 BBEEC180 BDC86E7B 403D37AE 3FABBB3A 3FD2BB67 BF4DDE11 BE2B8788 3CDAB1D0 3B29BA00 3F7BD61F BE17ED2C BEC12386 BE93FF2D 3CFCB2B0 3C1F4D78 BFE86346 3FBB8B55 BD99ED9D BF1510C9 BCE90520 3F7AE0C4 3D77A590 40908B9F 408BE2B4 40FCE366 3E7CB126 BE054D90 BE611978 3F32D98A BE8805A8 3D8E7BCC 3FA8401E BF3A63EB BD540310 3FA02678 3CCA9CB8 C0104647 401D8A18 BD090994 3BBEDC50 3D2B1C96 C0314B1C BFC53298 BE80C158 BAC9B100 C01DBDC6 3EE4CA82 BDA722C7 3FC362C6 BF96811F 40047D77 BFD3D936 BFFB952F BEA1D700 BF442246 3E17F034 3C2C5680 C0449BDB BFFB07A2 BCC4892C BD8C64F0 C032DAD4 BF12220A 3C03043C 3F610BCF 3FACC43C BCF0B70C 403B3669 3F80AC08 3CA3F1B0 3EAFB978 4041311D BDB593D7 C062F134 3D89347C 3C9CDED8 BDE08C78 3D0BD378 BD8E9B9D 3E64B530 BC303940 BFC021EE BD9EAA10 3F8583B0 BF9DE63C B915EA00 BFE53619 BDB0F8AE C0073662 BFCBA63E 3F964C4F 3F49C0D1 BBBC86E0 3FADB1B6 3B017840 3D5FCF50 BED4C9A4 40016D15 C006AC1A 3BE19440 3D2C0F38 BF298D27 C01753C8 3E45CF8C BEEB8B8C BDE2F60F BB195B60 3CB860A0 BD992FC0 BC9AF540 BCC9F480 BF6B95FA BEA11F29 BEC82598 3FC045F3 3EB210BC C0817CBC BD9FD528 3C5FDB60 BBE83380 BFED3164 3C68AF70 40A24966 BD62BEC0 3DB9F5BA BBCD0F80 BF5A8A1C 3E65C134 3FD4CD85 C029CD72 BE05E8CA BFCFC09A BFB9F5FA BD2DDE50 BFECFB7A 3BD49AB8 BFE6054C 3D9B30B2 BE46C328 BC8F76A0 BF5B6B1C BD81DA4E 3FB20DA2 BC943FA0 BCA4E440 BDA42996 3CD491C0 BE6F4C29 3F5F24E5 BF7E2BE7 BE2D95F6 C0166536 BF8531DB BF9DD018 BF12CD46 C00D9180 3C6F6CF0 408A7595 3C01AA80 BFCED96C BD398480 C002AA98 3FA1A5F6 3E72FEAE 3E984B98 BD9D06E0 C00532FC BF2A8E00 3C7A6DE0 3B9E54C0 C09C1CD2 C006B84E BE8FC664 3DD101D3 3D1B63E0 3BCAAF20 C00B2951 3F7A3916 3C261660 3F785162 3F9BBE34 BDF55750 BC7CC880 BC4CBAD0 3F8B9999 BB24ED80 BF6F16F1 BF357C06 BCBE12C0 C0040D1F 3FAD3BED BFA74E5C BD9A22EC 3FD6762A C019918A 3C555780 3F0F845B 3C69A320 BD93C1FA BD895F54 BFFAAB09 BCB1D1F0 3C050590 3F138A78 BF14E17A BD1C2468 BE230F80 3C88F36C BE37D10C 3E78EA15 3B5F9400 BD0C6460 BE349C82 3CD56248 BE155D5C 4094104F BDCB3A74 BD9F9437 BECA8744 3C6B2FDA BD54D948 BFB30465 3FE048AA BF8D5D4C BDCF3784 BD961ED6 3D0F0368 BFC55C7E 3FFEEDBE BECA94E2 3C149474 BB995380 3FFFB7CC BA3C6800 4010F045 BEC4E8B8 BCC2E760 4085A90C 3E5E23DC BF9B88D0 3E45338D BF576530 BCC86F50 BCABF300 BFD30144 BF133A22 40126A9F BF479228 BBDE0280 BFD1A67E 3CA1BBEC BDA7D5C0 3F6CC27C BE8D63DB 3FC13FB7 BE99D0B6 C000B4EA 3F24547D BF770394 3F4DFE07 3F31E91B 3F7F5DB2 3F0A7CB7 C0518DD3 BE51FEA4 40A49968 C0C4B468 BD2A6F23 C09224E5 3FB1A08C 3E3B8395 3F25F5E9 BF33FBA2 BF93D531 3F90B9B5 3F8A6723 4011EF36 3F94CD94 BF9746E8 BEAE16C6 3FEB280E C16A5362 BDBF01A9 3F48A52B 3FF97792 3F20267D 40A46173 3E2E7958 BDFA9C26 BEBD7055 BE5831BC BF72BF19 BF234736 3F5576D0 3FCB16A0 BFB2CB5D BF76918B 3F0870BE C04D2216 BE8F41CD 40080AD4 BFA94CEA BED52C69 BF4F3967 C068A252 BF3318E9 3E9EED1C 40864D36 C0219571 BFD6A812 3F0261E2 3F730B6B BE3FB1D4 BFBEAB6D BFB74016 416246EA BFD63C31 40013C35 3FAFC7DE 3F111320 3F7B6692 BF27A417 BEC0D385 3F90CC40 BF291B0C 3F82941B BEE8E6EA BCC9D120 BF43BAD0 3F96756A BF5E474F BEB2494C 3F47E39D 3FBA179E 3F874FF9 3F516F35 3ED160F0 3F6280AA BECFCA09 BF21E1D3 3E0A6801 3F6F78D8 3F96FE0A 3F898F3F 3F80C1BC 3F56CAEE BEFD2AE4 3F83E8FF 3F8C5784 BEAFA611 3FA83179 3F66DFC5 3E7B7AB9 3FBA3417 3F8E53AC 3F89B0B4 BF2339C4 3F85B7ED BD5952E3 BDAE6ADD 3CD15036 3F08532C 3E20F6B3 BE744A46 3F308B54 3F9B4A38 3F179BD8 3F89D362 3F5A30B9 3FB1498E 3D6098C8 BF6D7B30 3F5921DA 3F7B785D 3F9F33C2 3F81BC1B 3E34D323 3F14ACD8 3F0CC8DB 3F1CE744 3FB1E843 3FAEC680 BE90DB07 BE9DC109 3FA3DED4 3F629658 3F941CA7 3EB81B0D 3E97ADE9 3F741D88 BF04249F 3F863220 3F9FCC70 3F27AD19 BDFD9884 3F1C8AAD 3F974C58 3F84F218 BE3542E2 BF3FF060 3F730243 3F92E21B 3F1F4B15 BC876D95 3F9094CF 3F836AA8 3F90469A 3FBBE4F4 3E29CBE7 3EAD8EA4 3F6E7F72 3F727B10 BEF4E38B 3F6D27BC 3F50ECD6 3DA78890 BED0ED46 BF0D8DA8 3F1F88E2 3FBD749C 3DF791FC BF067840 3F3F7A37 BEBF4B20 3F195020 3F8E85BB BF1528CD 3FD5E15D 3F894E0E 3F970CD3 BF811AAA 3F7C7E3F 3DDA1944 3F1645EC 3F066FDD 3DF46564 BF53983A 3EAE6789 3F82FE96 3F570735 BE2639A0 BDD15326 BE82FA5C 3FAA8B1A 3F9B740B 3E9091A7 3F75F9DC BE879BD9 3F1EB155 BF1B8E0C BE714717 3E8E41E6 BEA44750 3F5F6D8A BE1F4F08 3E96E1BE 3F619263 BF1EC314 BF46B6CF BE9DF3DA 3F8FD512 4036C283 3F843AD4 3F225CC0 3FA353E2 BF87198F 3E80BD8B 3F78221D BF0EE35F 3F971770 BF29A9D8 BF886550 3F39D5BD 3E350EF5 BE0253AB 3F9228FB BF3C49F1 3F5D7213 BF32096D 3F85B3B4 3E5EEBEA 3F072DC2 3F72A438 3F1045AA 3F60A180 3F891B15 3F4F257F BEE4D296 BEB3C433 3EC08578 3D9D492B 3F820119 BF090064 3F802CBC 3F968070 3FA064A5 3F517822 BE9EB99D 3F8806F7 3F84D13A 3F93DEEA 3FB33740 3F83C282 3F3ED988 3D85D6A1 3F62EB53 3DEA843A BF2CD8E6 BE0E901D 3F3F504C 3E7AC34E BF0D313F 3EBE6B04 BF28582E BEC29982 BEEF8893 BDC594AD BF56ED31 BF327941 BF136570 BE6991B4 3F5F39DE 3D97E56E BEFE79FD 3FABB0F6 3F9AD7BD 3F952750 3EBBCCD9 BEE209BF BF4BD464 3F8C24D6 3EA22A71 BF89F9AF 3F3002F6 3F945D8C 3F971196 3F33CB14 3F87A107 3E4A5809 3F209FA6 BF102065 BD4C338B 3FA0A984 3ED9C2F1 3F73B0C9 BEE662CE 3F2CEB13 BF054407 BE728A31 3F817E10 3FB58464 BE4F2F0C 3F734CBB 3F8CF4BA 3F248F07 BE41B56F 3F81BD55 BF0E64C1 3E1AAEBD 3D0FFABC 3F80630D 3FA94F2E 3F16484D BBE0EEAA BECF451E 3F4A8C6C BDDDD16D BEFB2D11 3F1F528D 3FA05A47 3F88B85E 3F378489 3F0BC168 BEB79A0D 3C06CD56 BE9C310C 3F883A5C 3F8838EA BF130718 3F32E0E3 BF1A0356 3F7CBA22 3EAF2713 3ECF2B9F 3F851481 3F543478 3F142E22 3F800A42 3F80399D BE12E425 3F671725 3F8A1340 3F383AA6 3F83EEDB BF8181D6 3F47A76D BF1B2CF0 BE5EFBAD 3F5E80D9 3E13260D 3F97BE06 BF089B88 BFA2BE10 3F5390ED BEE48C6C 3CF4EE86 3FD09B77 3F2FE910 BEFF6659 3F7DFE8B BF1D4582 BC932693 3F150ADB 3EEBBD48 3F0C9132 BEA3C4D0 BDE829D4 3F9B580A 3FA1EF7A 3DEFCAC5 3F6A8977 3ED5E3FB BF1E4C7B 3E3A2A3B 3F1AB7F7 BFCF2C74 BE40B055 3F1D5212 3F855AA1 3F8CE800 3F938A3F 3F7950D0 3F764F1D 3F7312CE BEE6BF89 3F820E2C 3FBAB870 3FAB66E1 3F232CD1 BF0FAD32 3F9E2721 3F8B97A1 BC865E6A BF0F866D 3E696609 BF37B2B8 3FADD230 3F87C301 BF419BDA BF07B870 BF6333F6 3F32D111 BF52B5A1 3FA36BFD 3EA3E814 3ACA6D80 BF089AA4 3F5FDC1E 3F8945EF BE0460A1 3F137189 3F704338 3FB60D14 3F55738C 3F74590E 3F82F516 3F80FB9E 3F604AA2 3F7E102B 3ECFE7AA 3F0CB89F 3F226CA5 3F30945B BE140F9C 3F2BB6DB 3EE01610 BD99D875 BF520E21 BE9BFEEF 3ECE6762 3F9FA89B 3F466E89 BDDD2C12 BE6E20F2 3F30F2B7 3F8734C5 BE31F0FF 3F4D7225 3F1243E9 3F8646C7 3F5E66F5 BEC44F18 3E2F1B22 3F1A7A78 3F3A69C4 3F43B136 3F844A36 3F7F3FAB BF4CA268 BF0D81B5 BF0A00BE 3F882320 BF6505C3 3F8CE722 BEDD092E 3C4681A0 BF385340 40385D9C 3E20DBEB BEA89A68 BF377751 BFC18149 BE7E33B4 BE582998 3DC15030 3FDEB709 BE05FC60 BE386184 BF08C6E6 3EE76C5E BD7D5754 BF9E15D5 C01DB521 BEF68706 BF9FF54B BE2526C4 3E8274BA 3F02D0DC BF96A932 BF3C33C0 BF8C6562 BEE38008 BD4D3248 BE147218 4065A58D 3FF6A8F5 BFD392B2 3F483E8F BECD01C7 BEDA9A19 BF959B2D BD5F6810 3C2D5A90 C002CE7C 3B5480A0 3D78BF88 BF40846F BFF7E7D8 BF6EFC02 406A93D6 BE4DE5A8 3F314338 BCEEFEC0 4064AA1E C0180B20 3DE5A2E0 BEFFCE59 BD595030 3F58C592 3F090DFE BFA6DC4C 3F988027 BFAFF21E BF069CDE 3F658A13 3F55741F C00A293C BFCF8E7C 3F548DAA BF18CFA0 3FF81CA8 C05D5762 BE6ACD5C BD3C3440 C0492DAA BF211358 3E019A0E BF8439F4 BFC270F6 BF2242CE 3F816F69 3FB1EFD0 BF36778E 3FF4ADCC BF065292 40283E5C 3D838634 C000CDF2 3F41BCC1 BF0B7D06 4020F6A7 3F151528 BF8C9815 BF3DFF5C BEB5604C BF147FCA 3F503E43 BF21704C 3FBBF108 BF860C26 BFC5B5CD BFE16AD9 BD03B848 3F109DD0 BF7DCAEA C00CA772 3ADA1000 BF00893B 3FF2CC60 3F8590C4 BFD62EE6 409657B0 BDC9E890 BF9274E6 3DF84293 BF400608 C039CF94 3D369328 BFB6125E C046D5E3 BF4BE637 3F848AB4 BFD5D6CA 3D977445 C012DF80 C030C54A C0185392 3F9A80E1 3E51E8A0 3B3FAD38 BF17CF6D BD942A5C BF27EC0E BF93D63A BFBB8F3C C003D653 3E8F7C5F BEDEC79C 3F0373F4 3F66C044 3FADF559 BFC0607B BF7057B5 BF8C9893 408D72EB 413C501D BF764CCC 3F9C4950 3F4F2D5E 3C00A788 BE9F8493 3E181148 BF4CDA6D 40675CC6 BFA1518D BF4A38D8 BFC47C0D BF274884 C01AE114 3FE7382F BFB869EE BF184CBA C06DA742 BDCA32E8 BF998910 BF8C6CC8 BEC33EC6 BFA04A48 C003EC2C BEBD2B2D BD55DA28 3D372E4F 3E897CB8 BFC40DBB BE5957C8 BFD23E98 BE6AB0EE BEBCE7FA 3D609A88 3D362D20 3FC0A998 BFB0EA58 3FF56D83 402644BA BF41D38C 4043C130 3E267808 3FD83716 BF204A1E BE7147CA C0232358 BFB6321B BF90854E BF09E590 BF58FCD2 BFB16024 C00020E1 BFA33F38 3EC1028E 3F516528 C02A3E6F C0499F9B BFB39467 BF768AD3 C00E4528 3FB2B120 C00B5289 BFCCDBE8 3D38D2B8 404CE3DE 3E85B143 BDB2E047 BFD40EFF BFDAAADA 3DCDD800 3E3BF56E BFF98850 BEAD6CB4 3F164F10 3F684FB8 BF8742A3 C05625F4 BE43FD8B BFE10DDA C009E788 3F98210C 40ACF809 3F9A581B BEBB338E BF1622F9 3F044F3C BF4D4EC6 BFE24ADA BF8B4E81 3E5BD9C7 C00F7EC4 BF695A5E 402EF14A BFF8A01E BFD26484 BD87EFD8 BF91A144 BEBC4361 3F7EC32C BF5AC216 400D7191 C0060ECF 3F645C92 3E9182D5 BE5470F4 C044647A BF80749A BC4CD5E0 BC4DF7E0 3CBD4CE0 3F9E9749 BF85B28E C0141731 C0914078 BFC52276 BD2B93E2 3D3F8040 BF2FA0F6 BCE16300 C06EAC30 BFFCCC10 BF933028 C02A3BC5 3FEFC85C BEA30AD2 BEB3076F BEE1275C 3E926DE8 C0334A03 BF6A304E 3E03FFD8 BE651A9E BF3CD53F BD5B12FE BEA5145E C0217FAC C000454C BF26C2FA 3F731F5E 3EBB7C60 C0214F74 BE44196E BE0B3B1E C0186414 C0007BEA 3F6970D9 C0148A58 BB8C60C0 3FCCCFD7 3AA1BB00 3FEF820C BE7CCDFA C02D11EC BEBEDD86 C03DE2E6 BF4B3C48 3EE5BDDF 4092FFC4 BF805023 BD8CCCD8 C006F1C2 BF97D055 3F1EFF68 BF097869 BFD061D8 C0142F44 C00538B6 BE017E4F BD01A350 C06D982B BF3E1916 3F0CBBF2 3FBE5FFA BFFF32EC 3DD424E0 40CA3211 BD848610 BD6CAD30 C00D8AEA 40777B3C BFA7295F 3E60DEE4 BD47317A 3F0D373A C02E4589 3F92DA46 BED00E86 BFB45B20 C00EFD91 BFE49F02 3F8233DA BF849355 BCDB28E0 BDA8358C 3F73DB47 BFB67815 3F9F2E8E C0038CD1 C02FBEB0 BE3986F2 BFF31BEC 3EF77212 BF544FA8 C07BAAC2 BF6BD5B0 BE22F500 BE5F5CDE BE03F5F4 BF48274A BE0AB2F6 3F963F10 3EDA6F3E BBC06AB0 BF94BEC2 BFEAE45B C039E48A 3FA44708 C00AB678 BFBB10BA 3FD29962 3FBB1DDB BEF42F3D BF3D4CF2 BE2083A4 BF816B3A 3BB0E896 3FD80A78 BF4A36DF BEBBC27C 3FABACCC BF8661E1 BFFBEA60 BED1B0D2 BF4A4660 BE7BDD48 3E8B1AAD BDDCA854 3FB4A806 3F15BB5C BF9AE901 3EA92A9E BF87948C BEED70B6 3E482213 C01595DA 3F256D46 3F29B19B 3F3BA9D9 3F4E3109 3EB0E74C 401825B0 3E2EDD1C 4074C33F 408E6598 BF0616B4 C06C3F72 BEB0425F BF8086EC BF4A2A58 401FD141 BFAFF573 40027C88 3F08F162 3FE11095 BF6122C2 409BCAF7 3FB1BF72 C00F3DE1 3E5F61A7 3C420430 BE3D1038 BF1FC5C7 3F45CCA5 3FBCD220 BE257EE1 BF71622B BE6F6D3C BF5D5ABC 3F47C695 BFD0F955 410889E6 C04B2EB8 3EBD786F BF1B647C BE21F5AB 407EF8C2 BE77B893 40789A72 BE902389 BF365CF6 3EBF17E4 BF77B9F8 BD3FE9CC BDDC7505 4035B6C3 BE3F3C88 C0275DE5 3F4092C0 BF187838 BFC2A955 3F6DB107 BEBC14D9 BE2AC5A9 BFC1AB6C BF025642 3F6A0994 BEDFA361 BEF8C3A2 3F8A7813 3E327492 3F8BD539 BEE39A04 3E0686CB BED00FED 3D0E22D6 3FA5374B BF39FEC5 BE6EBE9A BF361991 3F2B1FA0 BF11ED6D 3E28EFFE 3F1515CF BF0416BD 3F5D1948 BEDB6E98 3EA58097 3F2827FD BF8901C4 3F4FC8E0 BE614D23 3F4FEC7A 3EF498B2 3FA7537E 3F0C4391 BF865B76 3FB0DF2F BF9E7A5C BF032A4F BF2834A5 3F4372BF 3FB8A546 3FB13A40 BEE02B1A 3FA421FE 3EF3A594 3DF91E0C BE8F0E4C BD32CF56 3E19C5CF 3F87E475 3C76B5D8 3F606052 BF2A54A9 3F905BFA 3EAD5848 3F85BE18 3E130ACD 3FD1F55C BD947D16 3F6EB5DC BF2FE4C6 3F9335B0 BC3E8C4C 3F3E8C0D BEE6B7F6 BF436240 3F285F46 3FD1E815 3F8C21D2 BEEE5705 3F90B442 BF392ADF 3F03B4AC 3D1A456E BF2F016B BEEEDF42 BEC09870 3F37BD6C 3F90189D BF2E0DFB BEA5A063 BE6EBD3F 3F904B20 3F86632B 3E25AE2D 3EB484B4 3E605D09 BC76FB37 BEB586C7 BEDB3C21 3F518A01 BEDF43A1 BF6ADE87 3F5709A9 3F91E871 3F7C35B2 3F224E25 3E15FCFA BF38DE97 BF1C5192 BF0582C8 BF132862 3F61E50B BF2E1D98 3F99876F 3E43ABC2 BED43B83 3E552345 3F89FA09 BF613335 BF735FBC 3F8674A8 3EB5BC67 BF011B12 BE737134 3DA1239D BF2128E6 3F8F49EF BE0A7F3C BCDA05C0 BF4727F4 3DD6C11D 3F7DEA25 3F5F08F7 3FA4833E BEFEF12A 3F82487A BE009977 3F4E978D BE2B72B8 BEC7D4CD BF5A35D0 3D07E4B8 3E9C6FB7 BE053930 BE515407 3EFD3725 BF2827E2 BF0057FE BE1A4F7E BF570F80 BE9B5B4E 3EBAD92D 3F774A1E BF09E1DA 3F0F5632 3E47AE47 BE3EFC42 3F7AADFB BF0DB090 BF114842 3F8AD5AF 3D8AA70E 3F86AAEC BE2DCB9E 3F9F31D8 3F8247C1 BE973C36 BF6A2321 3F01EB5C BC32BFA7 3D405FD2 3F7F00F0 3F9A78FA BD97DA41 3D92264A 3F7153F7 3F41EF09 3F2F6AF8 3FA2B486 3E53BDBB 3E50A0C3 3F3C06E0 3F80C34E BF577EC7 3EA0CDBA 3F63E599 3F5DF7A7 3E2D2ED4 BF77C4A3 3E5971F0 3D295756 3BF27068 BEC8F53D 3EC0AF0C BF66C962 3E6031C2 3B40B06E BF0C31D5 BE748691 3F80F3F6 BE81E08D 3FA27299 3FA61C04 3D2783E7 3C26D487 3F89F9E4 3F7B8F82 3E7886C6 3D573A93 3FAC4A11 BEA5E6A7 3F17BF22 3F674943 3F9FF787 BEF9CD48 3F9919B0 3EA86A0A BD03D5F5 BE85EAAC BF98253F 3F88DAB3 3F92F3B4 BF46AE8A 3F833CB7 BDA8D523 BEC586FB BEA90F45 BEAC2A94 BE9E8E20 3F786F28 BE478967 3FBDF83C 3F7F2687 3F9EFE99 BBB10993 BF08FEC7 3E9FEE67 3F348ECA 3EC21E02 BED6E46A BF2E6EC1 BE4904FE 3EED4E09 3F9D1679 3E825590 3F2AEC54 3F61B1B3 3D429140 3F91F9C4 3F2A9A2D BE7F6467 3E91FBEF 3F2A95F9 3F7A8C45 3F3B8293 3C8479BA BECFCE9B 3F687231 3E86A668 BEFA21DA 3E4DC20C 3FB03226 3E9D5E49 BE9A0BF3 3F223670 BED7D299 BF642F15 3F152A46 3F10D64E 3CA66B9C BF2579C8 3F074D8A 3DC57F55 BF0EB11D BFA9F4B9 BF06C74A BF5EFEC5 BEEE0545 BDAAD371 3F1BBF1A 3F36CBC7 BF3316F5 3E9E984F BF340CC8 BF407004 3F83C04F BEF13DE9 BF0612C9 BF9CE3A0 3FB34D90 3F7AB12A 3FA39F45 BE5A19A4 3F2B475C BF243134 3E7D0B56 3F67BBB9 BE02AEA4 3F430A0B BE7CF3B6 3F895837 3F35768E 3F8F4281 3FAF3834 3FBCE058 3F27FF15 3F0CFB43 3FA5B259 BF35313F 3F356717 BE27A5CE 3CF8852F 3F8241CC BF00D246 3F1E7184 3D368A90 BF174E4F 3E4C30DA 3DAC665A 3F1A57A0 3F54CEA8 BE07D25D 3F89C724 3E802FA2 3F75F72E 3F07A168 3E521FF7 3ED5364C BDF06D13 3EE1D2A4 BF10EC4D 3F0EB357 BF7DDD14 3F8714A2 BE8BF705 BF03AA55 BF22F823 3F68B25C BE9AD7EF BEC09005 3D683917 BED94ABA 3F10DCD7 3F73B981 3E575FB8 BE9F16CD 3E80B5B7 3E317998 BD865027 3F994419 BE5C61CB BEE9C297 3F2DD4F0 3F607080 BE7274E8 3FA6CE2D 3F433790 BED9A417 3F79CDC0 3F07FC29 3F384ACD 3F7D3375 3F9070CA 3EF28711 3F88856D 3DE9CC1A 3FE05930 3EA073D7 BF3E585E 3F92C8A6 BF50FECF 3FA7A29A BE50C7E9 3E8BAD99 BF44ACE6 3FAC87FF BF3EDF2D 3E8D7762 BD5E4C83 3F85DCDB 3F1BE3DB 3DF975F3 3C2D7864 BEC63519 3F87690F 3F6445E9 BE8C98A2 BF1BF818 BF2E3D83 BE0230EB 3DE29340 3ECA2FAF 3F2736E0 3FBAD4F1 BF18B87B 3E5C7664 BE32B39E 3FC30229 BF9C63A5 C011BC16 3F098F22 3FBC3A43 BFA9328F BFBCF3E4 3F3E96CD BDDAAD59 3EB53326 3F39632D BF90DA24 BF22EE14 BF8BAD20 BCFF707A 3E93AA82 BFF03CBE C0032510 BCF483A1 3D95DD00 BF3369D8 BF82260E BE3373F6 BE02A412 3F3CBBE8 BFDA9C66 3FDA815C 3FD29AF1 3FBB1359 BF43727E C0012EC2 3F40639E 3FB46D76 3E1A0906 3FEAC27A BE255B7A 40962DB7 3F3463C1 BFF7DD3A 3F1FBCD0 BFE6EC05 BEE4D18A BC676858 3D14C327 C0600C3D 3D31C540 3CDCE370 3FC3C9F0 C0027B7C 4026105C BF47DC90 3FE717E1 C0230FDC 3F2A6199 C007CB3B 3EDBA8C2 BF50E25E 3E64BA6C BFF751D2 3FCB98FB 3E8F3CD1 BE9F26C7 BEA6EAD2 403AACD6 3F8230C0 3FE82360 BEEF0C04 BE88DC87 C02604BE C00167CF BF8ECB0D BFB2B85B BDFE18D8 3E20CB4A BF8A38DF BE573BF4 BFAB4ED6 3E298810 3E563A92 3ECE2F3C C0422980 BF937530 BFF8E1F1 C0254C6B 3F962A38 BFBD6BCE 3FD0C023 3F751E1E BE67353C BF0D5160 3DE85DE0 3EA22CA6 BEF9C14B 3EAF7162 BFDAC6DC 40032B03 3E3628AF 3F8C0727 BF4C6156 BF1431AB BF9F745F 3F8D8A9B 3FCB417C 3F7DDCED 3F8C1918 BEFAEF7F BF3BC837 3FF22AD2 BB7E2D40 BFCA2BD4 BFA7ED0E BF2F7BE8 BC6E5948 C009FA7D BF011D43 BE94860D BF8EE186 BB2B3460 3FFF25FE C01AF982 BBE1DA80 BFE0B836 BEAE040A BD45F244 3EB29C66 BF56CFA9 C0117E9C 3F9EFC66 3E9A42A7 3D19E8E0 C075CD31 BF737466 BFC6D917 BF7E8925 BFC0A5AA BFF71742 403A9E2F BFA85BFE BFA4A977 BA1FD000 C019097F BFF28F70 BFDAA0B8 BFAAECF0 3FF81DFF BF9F757B BFC61A17 3FC78DD7 3F7A4FE8 BF2FA261 BFB3B82A 3FB088C8 C05615D2 BFD028D9 BE5B6FC6 3DF7DDF8 BFA41CC0 BFF69A69 401FC788 3F52D6C5 BE7DE4F9 C0527EF1 3EF019EC BFB42DD8 3FCC1A42 4003B6CC C03CFD7A C00A342C 3FA54DEA 401C2EA8 3CD0869C 3F89671E BF8A50A9 3BCD0B80 BF957557 BEEC9430 BFAFA889 BDE10964 BFFD51DC BFD389CA BFA9314E BEA88348 BFAE7600 3AF121C0 BF9330BC BF3EACD2 401EB6D2 400958D2 C0816F23 3FD0EA97 BFCB97CE 3DE30B38 3DFA9370 3F2618B0 BEA80702 BF958059 3EEC0348 BEEC1377 C0F14DB4 BF4D5F8E 40545343 BFB5CD8B BEE2AC7E BF84663A 3F99CCEE BC26BC00 3D58A024 BFB93E88 408CD2BD BE85996D BF64F18B C000D04A BF7CBA22 BFD36555 C009C54B 3F9104CC 3FF072C7 BFE4BD3A 411F34F1 BF08ABBC 3EA48A58 BF6B4B35 C025B701 C00020C9 BFED3B64 39ADDE00 3ED27C54 C0091145 BFF08D05 BFECB27C 409326A2 BFCEDD3E C012EDC8 BF7ED2C8 BF5B9A0D 3E50A178 BE9FE8B1 BFB8556A BF424B72 C001D75B 4008D749 3FC4871E BDB9482C BFEA20CB BFA3933B BFBBA234 BF23F684 3F88C753 40C313D2 BEC72644 3F37B7BC 3F81B43E BF812653 3F9F5B20 BF34A300 3F8A8FBD C0022606 3BD62A40 BE8A8FB2 C055986C BFB5BF4C BF960FCD C0081741 BF968EBE BFBAB0E8 3FE75257 3F89AE90 3FD2B9E8 3EC773B6 BEABA264 BF95C3E7 BF791F71 3F2CF360 3F2D74A4 3F5B1EDB 3F5E2630 402B1DC4 3FA100B7 3EF98B9A BF34A4D4 BF4B2597 BDD7DD92 BF706835 3FD10A11 3F5E8096 BF1AFF2D BFC67DEF 40490007 BCC57090 3FB9699D BE2496D8 408842F5 3D1845B7 BDE577D4 40505AB6 BF632B95 BFCA9977 BD223B0D BEDA3FF1 3D8CF4E0 BFA34B75 3F1BD8B8 BFF9889F BE963ADC BF8C5E0F C018A929 BF78A056 3FCDFCBD BF5F4B39 BFA9CCB0 BF89ACC8 BC86C6D0 3F75C8E5 BF0DCEBA BFD04654 C01C8F63 3FD1DD6E C003C9B7 3EA0D5C8 3FDF4F7D 3F592D29 3BF3DBB8 BF5E4944 C02E0B8A BFBB4A72 BFDF3749 BFA9A3CC C01A6107 BF0DE1A1 3EAFF718 C00EBD18 BF9364D2 3F1DCF71 BFB51CFC BF0C3C80 BEB8F676 403E3A24 3C5011D0 BFAE1FC9 BEBA8454 BF6B18E4 BF7FA3E7 C16DA8CC BD04E7EA BFBE6B96 BFA20697 BD015270 BE0DEE59 BE89FF92 3F217BD0 BF3D3345 4015D81C 3EE69F62 BF98C484 3F8BBFCF BE222A82 400D22BC BF7D440E 3FE034D3 BF670940 BF78A307 3FD54115 3F8F3B00 BE5AE1D0 BF9216BC 3F97C412 3F17D52C 3ECE7E02 BF5041A4 3FA2D5EB BFF40A21 3F04D399 BF62323C 3E0B25CE BF52391A C03EE92D BEC432CC BFFA7092 40050A57 3E27D226 BDB1DBD0 3E1770BC BF8CBBD4 BFFB4547 BE4E368D BECDC407 BFC2E1D5 C08C8ECA BFF1D93B 3EE7B0F3 401BA43B 3EDD80F9 BFB1FC03 402BE139 3F242088 BFBE664D C01218BC 3E8AC318 C0AD4B33 3FA504C9 BFB82547 3EACA37C 3F920595 401547F4 3DCAB0AB BF069B88 3F0D2336 BEAED8F4 4084741C 3F9AB567 BF116242 4006CD38 3E88C391 3DD2CD5E C00A83CB BF89AD34 3FB87EF1 3F96BA64 BEA0F2A9 C01EF3E0 3F6EF7CE BEDF77B6 4089077F 3F3DE649 3F273682 3FFE7942 C026BA47 3E66D94F 3F29EB1F 4024E99E 3FC42EA5 C008AED1 3FDC32DF 3F8C8295 4092D9D3 3F529D82 3D48412C 40D290A0 BFD1DCBE 3F21CF05 403EA682 BE48A38F BF78AEC5 BF9C114F 401AB00A 3FCF10D1 BEF92F56 40675473 BEC516DC 3FB6F33D BF06A03C 3EF9CA1A 3FAEDBBC BEC7373B 3B4EEBC5 3DCBB0F6 3F63E2CD 3F0D0126 BE6DD29C BD24C4D7 3F0EFD6E 3FF7E3F5 3E45D55A 3F185D1C 3E97C99B 3FF3263F 3F0733EE 3F9BF69D 3FD8D4F2 3EB0BFBD BF7DE5C3 3F8757ED BE71E449 3E26BCC5 3EA072C0 3F1827AC 3F83D7CA 3FBDDE3B 3FB1492C 3F29228B 3FA94ADC BE8429B2 3F853CAB 3F9EE436 3D9D147A 3E5AB764 BDFF6E4A 3FB59F10 3F1095D3 3DA05733 3FD7FB76 3BB79C5B BEB8CC2E 3F96EA5F 3F8BA407 3F8B33EE 3FBFB0B1 BFAEF793 3F676BCA 3F6EFF28 BEB5238C BE918648 3FD14027 3F04258A 3CB60F4E BE784447 3FB929A5 3EB8447A 3FB4A67F 3FA6BD4F 3FB18DA5 3EC8E3C0 BC974E72 3DF8E2CD 3F8EBF38 3FA21CDB 3F1C561A BDDAD05F BF3DE07D BDA60538 3F9B5F95 BEB0D15B BEB9A5A6 BE976EE3 BF150308 BD7CB690 BE3D5677 BF313D91 BEC5874C 3F9FCA45 3F78DBBF 3D61BE26 3F091069 3FE237A6 3E2F6910 3F8742E9 3FADF883 BF489B5A 3F00272B 3FA609E9 BED78EB8 BF740DE0 3F14EA44 BE2B3890 3E8D1443 BEF10637 BDA67DDE 3F7E6C6C 3F91578D 3E3BEE5A 3E5AF45E 3E13B61D 3F84D1BC BF063B53 BDD1282C 3E7AB8A3 3FADB2B5 3FA7E823 3E2B80E3 BECF9CAC 3DAA7E83 3F8E17A4 BEE6C780 3F5DD844 3F0A04C3 3ECAF9D0 3EC12C4F 3F9C5CF8 3F4E7102 3FB7AE38 3FBCDBD4 3F5BB8F5 3F81DDDE BE0E58E6 3F4C81CD 3F85E607 3F40B0FA BF495EEE 3FD71A6C 3FA90C2F 3F959EB2 3F482688 BF32CC8D 3FBA8D3E 3F0BE1CD BE92CB0E BE76F268 3F055BDF 3FA9ADF9 3FDEF426 3FB3274F BF19446B 3ECF39FA BD253404 3E0CFCF9 3E0CB730 3F0E4EE0 BE9812A3 3F398328 BF199C63 3FAE5CC8 3FD514A2 BF825194 BDE0B22A 3F80F6CC BEE3FB09 BF3A2A44 3FB06135 3F812AE3 3DA750D0 3FC35F96 3FB289CF 3EA32286 BE8C3325 3FC83248 3F8DDDFD BDA5CD33 3F1AEE1B 3F4EFB97 BF198C86 3EC2E419 3D5B827D BE59EA32 3F5016DE 3FA6FD6D 3F8CBDDE 3F1C5B6E 3F30B941 BF713178 3F9F7C00 3FB8A099 3F757236 3F75FFE4 BEDBFA7E 3FA646C5 3FA392D4 3F146C28 3F9E8060 BBBFC04A BF2541DA 3ECFA838 3F2E6AB3 3F808672 3FCC34C4 3F25EB9A 3EB53494 3F0EA97A 3FBE0585 BF359105 3F0446F0 3FAD05D6 3F6AF8DF 3F81CB09 3E38AE09 3F1B1632 3DAB1FC8 BDAF06C8 3F1A910D BE9505C9 BF1D3AB9 3F595622 3F7ACE54 3FF3D842 3FEE417C 3DA31599 3FB1389D 3FBABF4B BE1F8688 BEED4BFB 3F8C3A07 3DFEABF0 BEB5AF1F 3ECD1BE5 BE0E66E9 3F153696 3E48DE41 3DA6FA44 BF7A9008 BD9AAFF4 3F0119FF 3F9498D4 3F6A3FE8 BF416289 3FA24E56 3F3E3E5D 3F32A113 3F4D6946 3EFBBA5F 3F86FD30 3F8A5C72 3F308576 3DBC538C BEE37735 3F78B1A0 3FC86909 3FE97146 BF0E9DBA 3FB8547A BD661D73 3F0C5903 3FB1385E 3E75636F 3FBD8211 BECC6C5A 3EE98C67 3F9BBCDF 3FD83301 3FA75DCC 3FB30EFE BDADE17B 3F322CD0 3FFF52A5 3FEB4F5D 3F6FE906 BE36E061 3F9F8F39 3F91369C BF4EE3CA BDE0DFF6 3E5819FE 3FA9C8C3 3F8AF5C1 3FEB792C BE249442 3EBCEB8A 3E4F0B1F 3FA61D9D BECB57D2 3F900583 3DD771D5 3F3ED19C 3FA12308 3F86B04F BE09FB44 3F817F77 3EBED1CE 3FABE10D 3F7A4E92 3E98D3CD BBE50383 BE159F4F BEDCAB4C BEF59298 3F447195 3FF9ECD4 3FDA8A58 BE93D403 3F165353 3FE35D29 4023310B 3F2F0B1C 3F9A2862 3EBA7949 BF08DBBD 3FD1293D 3F3E9F2E 3F22C960 3F5470A6 3FCE867F BF65344F BF1C5D55 3FA9CA52 3FB04168 3FDD0BAF 3F0764BB 3F479ADC 3D961269 3FAD48F0 BF13FFE9 3E9201CB 3F4DD020 3FA673DF 3F734036 3FF32549 BE54C926 3FF30367 3FA0FC8B BC3A4E2A 3EED946A BE8FBEA7 BE32F3E7 3EE76C29 3F0A1406 3F59513A 3EACA186 BDA12300 3FC1FBDF 3FDDF851 3E1C1A3E 3FAE3838 3FAAAAF3 3ECB066B 3FC96600 BE254696 3FC72537 BE907A4A BEEF4B61 BF7D91F8 3FDB2B3C 3FB041C3 3E28DAE7 BDFF6839 BF29F3A6 BF3BE20E 3EC8E861 3FBD5AA7 3FC4B2CA BE6659F0 3F21D9E9 BEE8643D 3F62D731 3F14669F 3FC0C2C0 3FD7CAB9 BF4F8B14 3F0E0646 BEAC47DC BF176013 3F67EF15 3DC89375 BE749390 3FAD36D0 3F8285B2 3F072596 BEFF2BA0 BF00CC30 3E9CFF0C 3E617D32 3F591E2B 3FE907A9 3FC072E2 BF427393 BFAB3A6E C0960C38 40048368 3FAA6645 BEE0D4B0 400E157B BEAD06E4 BD7BA8A0 3FD243FF C0152442 3FF5002A 3F9C8DD1 4043CF56 3F92E862 BF11ED47 3F1EB332 BFD49CA0 3F3632A4 3FA3CBB8 BF6C1266 4094FA5A 4093C60A BEEC02EA 3FE112D7 3BC20D40 3F9345D4 BF587B61 4083532D C04B98E4 BFD31593 3E4F6ACC 3FAC8D28 40369F1D 3FBE9381 3EADAFF0 40118E68 3F9D0C23 3FEBE709 BF174518 BF22EAAA C01081BF BFDCE62A 40979415 3FC0BB7B BF1C2875 BFABE690 C0316D8C 3E9185AF 40757D80 3BA687B0 3FB64562 C013DE74 3F1F133C BC8C54A0 40685866 3D8F5D9C BE4A86C0 3D87B43F 3F8D4406 BFB64E4A 40765581 4041FDE4 3FB1E6E4 3FB7313A BEAADAC7 3FBCC666 3FDB6CBB BEF44C32 3F0654AD 3F3C1164 BE1E8417 40606AFC BFC7A639 3FD29B32 BEE44600 BB34DE00 BF0764AD 40201C62 3FF7D221 401C06A5 BD00CB80 4053A26B 3FCE7541 BCC40D60 BF788244 3FD5DB08 C028C98F BFD011B8 3DA62980 3ED27520 3FD15CE1 BF12078F BD6DF7B0 BE29ADDF 3FD2A2DC 3FE36B5C C0112138 3ACF3900 BEA41819 3FEA3066 BFC7B712 3FA04899 3FAD440E 3F1C6EF4 402C20DD BEBF946A 3FC0A2D8 405A4396 BFD27934 4010A429 3F99ACA5 BF1E470B BB820880 C0062D63 3F6622CD 3FCD64FE C013EABA BF7D4772 4016D2D2 BFEB9A48 3FB12DE0 402DB09D 406FFC68 408DD1BE 3FC047DA 3F9B00AB 3CC9ABC0 BF91CF93 BFD3C032 BC3321E0 BFB63098 3FD633D4 3E6A2754 3FA1B4E6 BE5B5F20 BEF487E4 3FC53F25 402B05C2 BEFD5C54 3F9773A2 3D644A94 3FA29DA2 BFECDF86 BDC59D1E 3FBC6D5A BE287BB8 BF125929 3FD80221 3F98FABC 4031DE59 C00A4EA4 3B88C780 3FF943AE 402DF2A1 BBB1A160 BE9C00B4 C01C882E 3F79C934 BE552C79 400A79DA 3FC708A5 40209EA8 3E7989A7 BF90860D 407D3E5A BE3A8C4A 40088001 3FFFA212 4059B107 403226A6 3FB72BFE BEDA6F38 C0934134 BFE8DF1A BEAC4ECE 40106CE4 3F63A806 BDC0CFC6 BEFAF199 BE097E9A BF00D2E6 3F4809BE C05F291D 400B8CCD C03E12F0 3F554CC2 3EF594A4 4025A496 4012830E BFCBE566 BF818AF0 407292CD 3EC5D364 408C3E5C 3F551E58 3F43966E 3FB0EF14 BFB8A2F7 3FDF9843 40A4C731 BFB6BEF4 4080E720 BEA24748 BF91E78E BD86BA14 3F0C3A85 3F00E542 BE969132 BF0B22C4 3FBEA1E1 400054EB 3CB11140 BF7ED639 3FFC12C2 408F9161 3F8BFD9D 3FF61FEC 3F16CB54 BD87EC68 3F997F13 3F7869E5 4003A331 BDBD387C 3FAB56B7 3E5E8334 BF85EE0E BF508F29 402E74CA BF6AF95D 3BB928A0 BBE0D160 3F734BA2 3FFAE1BD BFEE6166 3E773AC6 4044E1E0 BE25597C 3FA8DBB2 4095A174 3FC4CD14 3EB710E3 C01F6546 3FC37DAE 3FA8C5BC BF36F456 BF17942E 3E9EE3F0 40A79F7C BC1097E0 400BDB17 BF958070 3FC0D073 3F3945F7 3FC4AD4A 40CE7853 3F8F281C BF023C12 3F44812D 401B8A91 BFDE836B 3FBB0816 40052764 3F62D84B 406FD34C BD2715D0 4009A74C BEB21932 C035079A BF8D9071 3BC427A0 BF51EC19 3EB649BD BF9EFD4E 404664FC BEA681BE BDC5EA94 401CC8CD 3E2B73D0 4003EBE4 3FBBE5D9 3F8BDF7F 3FAAB4F6 BF54D18B BFA28DF2 C02DE70F 3E6513D2 BFAF8854 BFBFE2B3 40199289 3F83550A 3FA3CBDB 40626A07 BFA061AF 3F36548B BED7ED66 3FF9DE10 408888B7 40A49C52 3F84F48C 3FA3770B 3EB25B2A 40C7F867 3D19E560 BF05B298 BF9D6092 BEE6B060 3FE9AF4D 3FEF4D02 BF902522 403B73CA BFBD1E0F BF861EC0 BD406A00 4028460E 40298396 406DD098 3C892980 401104FA 3EEE3F71 BFA029F0 3F809983 3F98F498 406F4986 3FE932CA C0634398 40BF764E BBCE5340 3EF19080 3D811250 C007A69C 3F918B9A 3F3EC792 3F87E0F8 BED1B13A 3F9A3222 3E9ED774 BEC16252 408BDD80 BC72E4A0 3FFE50BE BF29F53F 4003A8CE C052A56B BF938B9C 3F6CFC8A BB244140 BCC87B40 3F54DA5E 3F85B04A 3F1DC693 3E85B9A3 BFA3EAE1 BF03938B 403873D3 BF9AD366 BEB58410 BFA8CFC6 C0969DFA 4099472A 3FDF2129 3FA21B25 4077EB56 3E354B10 C026C63C 409477FA 3EF7A282 3F7892D7 404DDB36 BF0A5136 BDC67372 BF909112 403F5A57 BF6D5447 3FDEA603 4039A6CE 3FEE9F2D 3F5E6688 BF1335EF 3F8C5C2E 3F9B0DF0 3EB6F993 40581814 BF96972E BAA7D380 3F55C43B 4138CD12 408EC0EC 3F7FF4F7 C10B0B31 C0A3F9D8 400282C9 C06B9AEB C08C89B3 C0A032D3 C0BC1B4C C010FB6B C0EB7F22 C0C5890F C018153E 414B2C56 407C9ED3 BF2B08C6 C111E9FE BFBA29A4 40AFFFE8 405A65B9 C030FB49 C0619DE9 C04F914A BF3CA129 40AB1C0B C0AFEDE9 BFB3BF82 BFFF044A 4044E4C8 C05B5E8C 4056B3EF 40D62D78 41530F1C 40E2BCDC BEC0389F C038C380 407783F8 3DB45932 40FEE29A C09CFE96 C1317C74 C039CB8C 40F21D0B 3FA69028 BFDE832A 40255069 40541041 BF9D94E4 3F58FA42 C0B94E63 3FC27763 3FED611C C16F7FC7 410402D5 40A2158A 3FA0343D 40AFC9E9 C0E52729 3F81EAC4 404CE5AF C0256B0F 3EF69284 3F35A1F4 BFFA9923 40563B0A C15D6C8B 3EDB59C2 40128B8D 40C7ED21 C057EE8C BD97B500 C116D046 C0D58F39 400B447B 4123E83F C11B0F25 403B7407 BFD7DC4F 40B36F15 3F5F8B14 3FA94CF2 40F67017 C0B36D8A C0A59931 C0C64687 C0164819 C09BC1E5 C13642A7 40B199D8 C001E7C5 408D6143 C0B1693D C003C98E BE88073B BE82FBF0 3EB0E99F 3FC13DAC 3F615893 BF71DF86 3EE2FEE2 BF7043BA BF8EDDF7 3F1200AA 3CDBCF0D BFBFB1FF 3EB83A05 3F89C6D4 BE9B8E36 BF0375BC 3EA3FAB6 3EF959DB 3F9555CF BEE639C1 3FB112D2 3F83CD2C 3E2DC70C BF34C7A2 3F787977 BDAAEF60 BF8A208D BDE823CB 3F964DE8 3E953526 BF858AC2 BF4F3D74 3F32751F BF2A75F4 BF1C37C3 BF399718 3F732B2D BF4F5B95 3F5FC8C4 BF3B7CE6 BF67005A BEEA0EC7 3F68BDF9 BCE85F75 3FA51EA4 BE8D5DED BE65FDD7 BEEDDE9A BEB4BCA4 3FA4182A 3F7BDBB9 3EDB161B BF6FF082 3F94FAD0 3FCC50C1 BE8BCFDE 3E7E3996 BEFAF31C BE440B23 3DE9D568 BF52BE72 3F061039 3F1D89EA BE90197A 3F8D7001 3EE9916D BD844B2A 3F5D8B20 BF154C9C 3EB26723 BF2F864B BF44C1F0 BE84BE03 3F8B4914 3DF5598A 3F8A656B 3ECFD0C1 3F9FEB54 3F9D7CFF BF370A00 3F8B0193 BD8D6908 BD646FAD 3F1BD4D4 3F90C5E8 BCF9B49E 3EB6279E 3F7A55C5 3EFA9782 3F29B2EA 3EAA6793 BF1CE907 3E9C688D BF2105B2 3EC77275 3FA72DF8 3F2C2D7B 3FA4EFF6 BE651D3A 3F5F5278 3E8C5696 BEC45CCA 3EA5B5B4 BF3AA63C 3E954188 BF127610 3F200EC3 BF415999 3E0A8DE5 BF9AC908 BE9E549F 3F85E02B 3F23AE86 BF4D9F76 BF13A42B 3FB4477D 3F2ADD9A BC8C3A16 BF8AF34C 3F34242F BF7E69B1 3F665656 BF735C49 BEE1D3F8 BF5F3560 3F9932A4 3E20E7BB 3F7FF331 BE3D7B63 3F9FFA7A 3F805C87 BDED64DC BFB8D813 3F2FD8A6 BF223239 3E6EF5A3 BF8F8D45 3F27BF22 BEE2932E BF52C0CB 3F78C246 3E34A708 BECAB757 3F870DF2 3F066291 3F3ED766 3F365D92 BF0AF291 3F9E7FC6 BF2C8604 BEE64C29 BF81B912 3F1435DD 3F84533B 3FBB01F9 3E249AB5 BF213BAD BED79969 BF1C4634 BEC4D9C5 3C4660A1 3E02E5DA BDAF0394 BF400892 3E0D5E94 3E2B4EF1 BF6DB42C 3F8E6E63 3FC98495 3E0AA616 3F98C743 BEF0E0A6 3F55B39F BF3E18B8 BF259E41 3F687E49 3DC8B243 BE53FCA3 BF579F0E 3E634245 BE0DC6D5 3F89C31B BDC2E93B 3EA9BC27 3FA6D303 3EFE464C 3F18601F 3F861E06 BF6FBE90 BF1A09D2 BF53323B 3F693987 3D1B3DAD 3FA68BEE BF4C2B53 3F59892B BF3B9D9E 3F7A9F28 3F683225 BEDA521F 3F9471A9 BE56CE7C BF42D8B5 3EDF723A 3FB20F94 3F717953 3FAAC73F 3EE9EC04 3D303B13 3E482843 3F5EBD9F BCBE0123 BF937104 3F1C1BE0 3F3E924F 3F573201 BF0E8049 BC96F55C 3E7314EB BE9892FD 3F779AAD BF03862C 3F97833B 3F1053D0 BF4BD5E1 3EA60AF8 BEDA0CEF 3F04D467 3F038FD6 BEB08C1C BF207448 3FCFBFAD 3DAA088E 3F31E969 3E428DCB BF6C9668 BF36D62D 3F954DF2 3EB98723 3F8D4F63 3E0F83B4 BDC58E2B 3EEEE25C BF130A3E BECF36D2 BEDDD5F9 BF045015 BF9FE511 BF1402EB 3E764781 3F9C144F BE9A71DC BE5FDE5A BF55D2F5 3C651B70 BE6F1803 BF49896F BF62FE47 3D5D910F BC81B81C 3D338A30 3EE05FD3 BF1951E2 3F27C071 BEE9909D BDA024B3 BEB8FAF9 3F3980EE BF55AF31 BED1BE76 3F927005 3F94397F BE097190 BF3A98C3 BF3D95D5 3F8D6245 BE17AFC1 BF88D3DD BF12CC7A 3EE0C247 BF6541BA BF2B878E 3FA090CD 3F92F24B BF2B9FB4 3D0BAD61 3EBA8CED 3F1E676E 3FA37B80 BF5632BA 3DC5514B 3FAB8258 BF77BEB1 BF5850F4 BF0CA01B BE3C5F0D BE1D4778 3EDD257B BE0275CC BF14D68C 3F39D91F BF0CFD43 3F889F71 BF236AD7 BCCA0ABB BF8880A0 BEFDDF60 3F9FD464 BF054501 BF4E2B82 BF5D71E6 BEBAB211 3F6EF153 3F436DAD 3F99C018 3E0E87F0 3F8920DF 3F8C6644 BF0D35AF 3E8648F0 3E1F8F3D BE9EF1A1 3F9D95F4 3F459FDE BF180485 BF359B1E 3F78F564 3F2D984D 3F8A95FB 3E0D302A 3E89B8B0 BF1093FA 3F907C64 3E409616 3F6CB623 BF26296C 3DD2D9F0 BEFA79E3 BF1543E4 3FAE679A BE394C84 3C534C2C BF3CB5CD BF672383 3F9BF494 3F9BFB82 3F1B3180 3F9353D3 BE91E2AA BEEF508A 3F93BBDF 3F2ED1E7 3EC61CB0 BF848B73 3E2CC14C 3F6A2129 BEE61CD0 BF211048 3EE5B9D4 BC363727 BEDF918F BF5CB57A BF72F517 BF09F436 BF3E66F2 3F3E54D5 BCE2D6B6 BEBE14B8 BF1B4854 BFB56E0A 3F8AE3EC 3F4DD8B0 3F91E9C0 BEBEB7B5 BDEC2F0C BF178A50 3F683806 3F8BC9E4 3F39D113 3E6D99C7 3F7E7AE0 BF279D4C BF713DA6 3F437A65 3DBC8A34 BE3E7BE6 3F6D4347 BF4568A0 BF371C86 BE118832 3F1453DE BF03F22D BF3DAE31 3EEF6A01 BE4E6545 BF3DDA0B BDA5395D BF9D1565 BDC89265 3F70EFB8 3F895E3A BDA93FED BF71FBB3 3F89C95A BEF16A6F BF083418 BF363044 BF8EAE2C BF468C44 BF464194 BEF32FF0 3F4EB2F1 3F65DBDA 3F93439C 3F1DBB80 BED72021 BD5FC1EA BF62F998 BF6F787C 3F85E1B3 3F23B857 BF5347AB 3F349591 BE9AAED8 BE9CE988 3F18146C BF16BC74 3F372BB8 3E41185C 3F78331C 3E0F3167 BECA4470 3F6C0106 3F2B2DAE 3E0B8FA3 BCD3F065 3FAB7ED7 3F85B5CF BEF9123A 3DFEB901 BEADA2C2 BEA15D9D 3FC3BFD5 BF564C84 3F4CE77D BE1FE91A 3E8AAD0A 3FB4FBB1 BDD2D861 3F24C08F 3F428D30 BE91CE6E BF7985E8 3F346C4E 3F773AF7 3E425E58 3ED06A56 3F7BB3CE 3F80B603 3E691B74 BF5E3B6E BF15AE72 3F967A8D 3F91625B 3F9D50B3 3EB8B39D BE9330A6 3F1CF215 BFC58961 BF6B7ED5 3F8A9FC5 BF19C820 BF1B395C BF570824 3E1141FA BEF218C6 3F81021C 3E04BC19 BED0884B BF394160 3F8D28D5 BE1C0C1F 3ECA5398 3F5B9C99 BEC9062B BF077A66 BF3F81AC 3F8564EC BE809A14 BF3B8F3B BE814568 BF1CC9BD BEAA3CF0 3E357B5D 3E99CF07 BE8B5821 BF8ED545 3F87F55A BF07E95A 3F08B745 3F78FE75 BF0832FE 3FA05FEF 3FA5B8B8 3F799DD2 3F057E89 3D1A66EC 3E6CDAB6 3F91DE67 3F17E525 3F6585EF BF6A9F2A BE8FA597 3F8FA38C 3F8FB57A 3F9C1D75 BFB3AA87 3F7B99B9 BF587D7F BEF9E744 3ED31956 3F65E9D8 3FBAFBB6 3F312882 3D4FC9EB BF5CE6F1 3F256B78 3FF1B879 3EEDB9B3 BF2D49AF BF08FDA9 3F88524F 3EEF8F9B BF59BADC 3F4FAA96 BF33CCE5 BF55A0CA BF1AE051 BF1D0FDD BF9F45CF BEC19B7D 3FA2F935 BF2DA129 BF5274D4 3F2595A1 3F828AB5 3F6E529D BD3D1BEE BFD0EDC3 3F1952CC 3F090DC1 3F8EBE20 3E5E6286 BF6E0C1F BF7D04CE BEF327AD 3F23CC4E 3F6D19CF BEB5BE46 BC2D42AD BED8687D 3F81769F BF37E71B BF803622 BDBD1027 3F54DBA7 3F8385DC BF816ECE 3F8A3F63 3F8D272D BF43CFA8 3E3C0A0B 3FAC2887 BF08A180 BF51E46D 3F66734F 3F007637 BD723628 3F89CFB7 BF03C208 BD2C7CE0 3F366450 3EC1C27A BF2B2074 BEAADA61 BE735AC8 BFB68B60 BE586082 3E84DFB2 BF2A68F9 3F32F494 BDB7B9D3 BFA2EF46 BFE96960 BED431A1 C02500C0 405FD82E BE5BD45A BE563EA4 BFBFF0DE BDA9AA58 BF17249C C0098223 BF788168 401CE723 3F89EF9D BE2C38FF C08373FA 3DF0D454 BF5BCDA2 BE9541F0 BFD9DC9C C028B518 BEFC1586 3FADD7FD BF88C8AA BF0B23C8 40170464 3FD55F25 BDFA2F8C BFAFFF24 BE0D0ABD BF1E8431 C00FD494 BFE6F6F8 BEFDA52E BE937EFA BF64DFFA BF517109 3EBDE4D4 4018DB4C 3F478373 BFFA085A 3F95CFCF 3F91B030 BFBA0312 BF6A9E08 C0C8A8BD BEEAC082 BFD957BC BE304182 C053D728 BFC43ECC BFB92D3E BF979923 3B7C7B60 C0170E8A 3FD3E070 C03A9CD3 BE97C774 BF1E0D84 BE791EED BF310E67 3E62B742 405D02F4 3F861115 BD963C64 BE39D587 BF6CB404 3FCD56CA 4057064B BFB0CF51 BF2FBC78 BF06EA67 3FC5A73C BEFEA7FE 3E184E4A 3D7BCD9D BD7E61D0 402AD194 C00D70F0 40AA7F19 BF847494 40909D29 40000089 BDEE6448 3F84B8B6 40231610 C0169E8C C0044C43 BF922E20 BFA89096 BFA7BAA2 BF64E198 4010F3F4 401438D7 C0078718 BE47752A BFAF47F8 C01F0666 BD95271C 402AAC68 3FC921DD BFB4CB43 3FA591BA BF3706FE BDC7F0E2 C0070862 BFF811BD BFFA5403 BF4BCE86 3EDD58B1 C0109B1E 402B5B26 401DE6CD BFA612AF BEEF4B19 BEFB0604 3E9FEED5 BE879530 400E1D30 C029B3C0 BCF31E08 3FB44D8E 3FC6590D BFB2754C BF880CF2 3E8208AE BF1F3150 BED28592 BD761838 BEA3C229 3EBCD3CC C01C13AA 3FFE51D4 BE99EF94 3FA2548B 3E88025C 3E9D43DC BECABA46 3CE29930 C058CFFA C01EE76D C017AA90 BC87BF1E BCEC1110 BFB68064 C016C025 3FEB470D C03557C2 3F85F94C 3F844814 BFD72766 BFE4673E C0DBA040 BFB4A149 3F84CD56 3FDA0652 BE8337E8 C00BFB69 BF7D6B0C BFBF5EA8 3F8B3054 BF19156A BFD92AFD BE175C29 3F9A2641 3F58262A BFBFC5B6 BFD4DDF2 BC939780 BE0C6806 C064F056 4024AE4C BE5A481A C027D421 BC54C850 3D844CF3 C063B0CD BF69388D BF946378 3FD6CDAB C06CD135 4028B2F6 BF1E791A BD54CA1C 3F9EC595 C0011C50 BF8D875A BDB125AB 409C7072 BEA39600 409D3ED1 3EDAD849 3FD9845D BE6E38E6 3DA88FD2 BE64BDAC 40034B23 BF68305E BF255310 BE046CE5 BFBF2CB6 BFFF7512 3F6BB504 BF580533 BF8C070D BF0E8F50 3F9F38FA BAA2CB40 BF34E678 C005282C C0135F09 3FAF18F3 BF44ACDA BFA89634 BF3E1EE8 BFA7E3E6 3DBA3F93 BFA1AA13 401C2912 BE499F04 3F682364 BDF98C38 3F999FEA BD95426E 3C5BDAC8 BF240E7E 3D530EF0 C036CB00 BFA320D4 BEA257ED BFA530A4 401D57AA C038097E C0211364 40A9CF0F 40131FF4 3FF85FA7 3E4C3B73 BEDFF092 BFF8300C C017666E BFA2C199 BEFB523B C05692A4 4010D7C0 BF50FF87 BFACDFAB BECB0172 BE0AB726 BF9FA5BD 3FADB4D0 BF736062 BF9452AA BF253112 BF6F5556 3E9E8F70 3E35669E 3FC22CD0 BF886D8B BE8A382E C0239B9E BF3EB446 3F8CE0EE 3FF86C24 BF9FE4AB C01EE272 BC8ED440 40C07943 BEA96F77 BE976726 BEACB0AB BB912957 3E59481C BE5D630E BFDCD518 3F838FE3 BEAF3798 BFACDD72 BF9C65BD C0283EDE 3F917977 BF988AF8 C01A67E6 40025092 BE2F8EE8 BF3CAE57 BE2D4844 3B8EA328 C0435A6C 401E8660 3F88A3A2 3FEFFEED 3FECA063 BF4E7906 3F26027F BF3F7E6E BEA0B6EA 3E172234 BEDCEF10 3E526659 C0435755 4025922C 3FE10FDF C05ADEB2 3F187678 BF86AACC C09F57CB BFC28BE2 BFE222A0 3FB6A0AF BECE5C92 BF8C1131 403B5302 BBF6E980 BFB62124 BF99C135 BE7C13B0 C003E102 BF31DEE2 BF57E9CA BD325264 3F60637E BE8CB57B 4020C76C BF3362A2 BF814729 3BB23B20 40260244 402AA09A BF3AB0E9 C02C9C12 BEB76ED8 C005608A 3E0A9675 BF20D486 C000650A 3DA80846 3FA41515 BF862715 BF96ABC9 BFE27C89 BF94BA24 3E061E99 3ED19809 BF8E0187 3F5F4F45 BFC46790 C0341790 BFF3948E BFBFFBA7 C015882C BF259202 BDB6C7A0 3FDEDEB4 BE95C24C 3FE829F3 BF2DBA4D BF9D208D BF0A0A99 BE59242A BE8E0401 3CDF3230 BE8EAE97 400E5A75 BF88FECB 3FD50CCA 3F4B0B34 BD7A7D6D 3E3593DA BF3D49CA BDF3B317 BF3D53B2 3F97D0A4 C0538A1A 3EF3DFC2 BFC420FB BFFD1539 BEBF923D BB5021A0 3F5847FE BEE3D5B0 BF068F1B 3F8D17A9 BF0CF241 BF09FCC3 C009A478 BF81CC9D BEFB298A 3FE2A7D0 BF8ADBFC C0011B4D 3EF9736A BEEEE6F2 3FA07AAE BF984C82 3FAF6E0A BE90AE56 BDDDBE30 BE87CE1F BF5108D9 3E3C1CEB BEA68769 BECD5333 BD6A46EA BEE94EBE BEAA2808 BF8182C2 BF6B61DE C0542BEB BF9DB1A0 BEFF59EC 3F449896 C08B6A6B C048846A 3F7DC5FF BFE2BB30 BE2819EC BF08B228 BFA3B0A5 BE4AD914 3F0B16EF C07ECBF4 C018F6E2 BE92ED74 BFF6750A BBA22E20 BEF4C461 3FD84159 3F0F92DD C04E4F5A BF433623 BF81C2B4 BF9074C5 BFCF30C3 3FBFD283 BFBD88C2 BD9601C7 3FA17F7F 3FF01224 3FA66F4E 3B83BD18 C006083C BFB5E568 BF961AEE BF67E13B 3D90AF9C 3F8DD79A 3DF35698 BE85761A 3DDDF780 C04D8AAA C0484750 BEAF46FE BF9FA3FE BF157DEF C019B798 BEE24F03 3F917F84 BEBCEAA7 BF07926B BD1F99E0 BFEC01DC 3F669DD6 3FD9B40D BF6FC5C8 C006BB20 BD98F8F1 BE6DE0BD BF9387A8 BFB5DAAF BFB618A2 BE7679E4 3FC517B8 BF7A13B4 BFF666D6 BE9A5202 BFFDAC0D C003CA84 C06C79B4 3FC5A286 402B054F C04BFCAC C020E862 BFC13BA7 3F3EC5E7 BF4D4C1D 405C1740 C03B5F5A 3DAC981D BD33DF20 BFD48B02 BE6F9102 BE6EE97E 3A92A380 BEE0CBF0 BF830E34 BD7F6CBE BF00B003 3D8B8438 3F7249BF 3DD3ECA2 BE09E126 BFB6B8A2 BE603B3E 3F96C4E3 BD45FF26 3FC2D96C BF1AF89F C01AB8F4 BF93F883 BB04E400 40A517AC 3FA3C42F 3ABFAB00 BE24D5F8 3E45B87C 3FA35582 3F364B3C BF099E24 C0258A66 BFA3FA07 BF0993B2 3F943160 BF8157BD BF7BFCFF BEF041E6 3F80531E BFDC1C43 BE99593F 4013119D BE74BEF0 BF86DF6B BDBE586F 3F54D94B BF98E4E2 3F8A97B6 BFF2ED26 3FE0D928 404B717C 3F674F50 3CFA2888 4017B154 3FF2BA04 3F683837 BEF52F32 BFA21127 3E16BED6 BFB92841 C0722D06 BF300E4A 3BBB6660 C00E8346 40185CC5 BFB781EF 3F820F92 BF5C7C8B 4000BF1B 3F6D2092 BF8CDB2E BFA2752E BEDB6D3C C04E2697 BCDB615A 408815D7 406A7AEF BF312214 4008CE4A BF7B4589 40BE96D5 3FE147DE 401F60B3 40C14D04 3F94F5F3 4052469B BF906304 BE8754F2 406E8BCE BF187109 C0CD6055 C15FB076 40AAE5BD 40334311 40016377 4025B1B6 C08CE7CB C014A2D0 C0BA0FC5 3FCBA28C 3FD0269A 4096B201 3D76CF6A 405C6747 C0721C04 3EFBCAC4 4029E4FF BFC7BD23 BF68AA05 3E28207D C07E20F0 C07781E9 4037B3BA 4055CED7 3FD24FD4 C0ABE624 C122A507 4033A1BF BFD056CC 40E5FD18 BCFC3670 BF04C648 C01F3BE7 BDF42FB2 3FA5694D 3E7FE2A4 C01E75B9 3ED410B1 C0931928 BF9A0691 407B2252 3F0FA3E0 C03FFE64 C08EDFDF BEB4C1DA 3F2D883A 4004F1BE BED9018C BEC2FA81 BF3BE3E4 BF769FC8 3EB6A9B0 3FD2A556 41104672 BED8204D BEA0C480 4041E6BC 40694324 40850936 BF9E4B1A C0123BE9 BF87AF7B BF85552E 3DA49E2C 405B2B33 3FDAD1DF BE27739F C0511375 BF20A46B C022C813 BD8016A6 BF165EC8 3CC9F8B7 BF874684 C0C3CACA BFEDF868 3FAD4194 BF740BD2 40872587 3F5D2677 3F32E9D7 BF727CED 3E1EB053 BF926C46 3F915588 3E8E38D1 BF4049FB 3F8E8605 BF05CF85 3E92F333 3F8B75EC BF10420A 3E7C9EE2 3F2D6E88 BB159778 BF13D5BE 3E4458F3 BF8D9A84 3E66019A 3F9BB134 3E161300 BEDEDCF1 3CE9A70E BF32CF5C BF6C6369 3EF6674F 3F83689A BEDC292E 3F05F0E1 BFA9E631 BD883E24 BF1FC6CE 3EE38468 BF5C74FB 3F69E368 3F58A244 3F425DB8 BF79E939 BF58DF28 3D9E413F 3F1DAB57 BF0C97B4 3E4EDC25 BFE49767 3EF0548F 3F8597BC BF792AE3 3EE461EB BF4CDDCD 3D983E18 3F9FB4F9 BE93C91E BF405E6C BE40A469 BEBFD238 3FB99077 3F84E7C9 3F660998 BF58739B BE148D4F BE854C78 3E11A280 BF5506B3 3F613627 3D46658E BE1B5961 BF7D8810 BF545D0B BE6E0D64 BF154637 3EAA5E42 3DE6B50A 3E31C08D 3F87A5CC BE0F5643 BFAD708C 3CC5BBEE BF28F1F7 BF9D20EB BEF90A6E BF01AA79 3EDB7464 BF2BA32E 3EA54B73 3F35E89E BF3D7A23 BDFA7375 BF5768D3 3F8424A7 BE467BC7 3F40EAE6 BE1EF7FE BE5064AA BF1E18D6 BF957A27 BFD9130C BEE7FD9E BEC35847 BF83406A 3F461D68 BF1E37AF BEB028C1 BE86E6E4 BF084754 BE10A950 3DB2ABB6 BF4B58EE BECCFBE5 BE45F882 BF346D1F BE70F00A BEDCC22C BD6E485E BFC9AE57 BE82EAFA BEA4E75E BF340CB1 3F7A6667 BFB768A2 BF59EA3B 3EC3E3E7 3EFB740E BF598AEE 3ECBF579 BF876DAE BF18E775 3E8E522F 3F652744 BEFF9D50 3F74F0FF 3EDD31A8 BF4E1CB3 3FB999EE 3F4A868B BF6B18C6 3EA04914 3ED2A6CF BF444AFB BF58573B 3F4B60D7 BF35670B 3FD159EB BF5A1291 3E88A944 BE91031D BF6DA649 3F1C7BEF 3F1FC9BE 3F637D3A 3CF5191C 3F2FE2D3 3FAA5C37 BF0CC8F3 3E5BBF08 BEE4DC1B BF5368DE 3ED9C7D8 BE041AE6 BF9E101F BF8817F9 3F17C051 BF661CB5 BF3D06A6 BEFBD18C BF896523 3F0CA9E6 BE905A6E BF612D5D 3F1E10CE 3F624374 BF0FDEBC BF27B946 3E4C80AF 3E8A7409 3F465A14 BF2F091C 3D1AED21 BF249A3B 3F76E0DB BF095032 BF1406CA BF6D6708 3CBF72BC 3F9627DF 3E623ED6 3F900A3A BE2AA407 BF9CA5D9 BF60D9DB BFA3C0BD BE9DCEB7 3F8757B9 BF49FCB2 3F844317 BF7230D8 BFA0CBCB BF9EFBE1 3F499F48 BF9B9A90 3F632018 3F9EDF45 3FC85692 BF4F03A6 BF0DF372 BE7C3DA4 BF0064E2 BF73541E BE333DFD BFA7828E BEB38A3C BF17F867 3E00CDDE BEC6F613 BEB6D35D 3F687FA3 3D50221E BDC67C05 3EF0765E 3F93A0A0 3C32D037 BD9BCAD4 3F7008E3 3FA5E1EC 3ECA242D BF28AF98 3F1ED3CF 3F905CD5 BECDD72C 3F7D7DFB BF442F3A BECCBBD3 3FB90074 3EADB612 BE0B60F1 BF026575 BF77B745 BF104245 BF5CBD02 BEE6D6DB BD5E21E1 3F05B755 3E7066AB 3DA8CCAA 3EF4B207 3BFA3180 3F8C6B3B BF6BF7F8 3ED91D0A BF0CCB84 BF3B6495 BF30AA49 3CF354A9 BF14D4EB BF122029 3FE09453 BF653FE0 3F571209 BF1807D5 3F4F46BF 3F0C4E19 3EF6275A 3F89CC3D 3EC5B8AC 3F26F9F2 3EA2F086 BF2D78BD 3F556DCE BF0510D5 3F796342 3F845CAB BFA132B6 3F11CA9E BEB5E39F BED3F7E2 3FA5AE5D 3F76D211 3F9440B5 3F1728FD 3E44E700 BF01464F BC08B478 BF2A640D BE4765BB 3FA78ECB 3E607271 BF877DC3 BEB028D1 BE91D447 BE05210C BEF9E44E 3E22228E BEE514B0 3F515E6B BEE8E05C BE30D2FC 3F93DE5D BF93EE5F BDA6A46A BECF296B BF4BB1EE 3FAFC4AE BF5C8F8F BF940D79 3F0974D8 BD696391 3F9AED3F 3FE84163 3DBBAFB6 BF4ED895 3F6B2B59 BF36C349 3E70915B BEFAB900 BF851858 3F457E70 BF2C3B43 3F81757B 3DDFCDF4 3E7090EA 3F1E0262 BEC4C619 BEC56A6A BE1AFAF1 3EDF3C5B 3E83FBBB BF3E3097 BF20C5EB 3F31E6D5 BF3CFF3D 3E276B40 BE202ED9 3D49D1D7 3FA2A3DA 3F31D101 BE8918DB BF32D803 3EC3DC1F BF412CFF BF31F725 BFBFEDFA C0050A0A 3F8B941C 3F79C47A BEE1001D BD5B684C 3F1FEA95 BEB45F8B 3F5E5A30 BF11BC8F 3F8B0292 3EFD9945 BF6E3761 BEFD6241 3F5F684E BF8DB10E BE1EC286 BD8EEA4E BF3DA70B BFAF682A BF77A833 3E3A3721 3CFBD385 BE570E83 BF573A1E BF87785A BF9E76CF BF422068 BF4FB29D BF3E3EB6 BF8AC80A 3E4D3327 3F727B30 3ECBDA26 BDBA7E3A 3ED97C90 BF0938EF BF6BBA60 BE109841 BF8B1FDB BF86932E BFFCCE24 BF79D811 BF43E195 BF8103A2 BF1F4D16 BF69B972 3E38D944 BF5CDDFC 3F7A7FDD BEE01A7A BF741BDF BF1F905D BF61D9CA BF5BEC57 3B0F2FFC BF2B6AE3 BE9ECF08 BF114AB6 BE94C083 BF2EC7C8 BF2A7DAC 3F951A02 BF869EA1 BF091354 BF67F5CF 3E81761A BED890EF BF70C2C6 3F778885 BF58D9E1 BF70EE3B BF8E848E BE12459E 3FE32E0E 3FB0CE5D BF0B9BFA 3F78AD13 3ECEB0F2 BEC540B5 BE4394FA BEDA330F BEC11F61 BFC5A29B 3C9CCAD5 BEED0CD0 3F843DA5 BF142DEC BF0A8E54 BF8CFE0A 3FA6CF93 3F86BD15 BF89C64D 3DE16F24 3F2FDA8E BBB8D775 BF056FB0 BE6A242B 3F9B35DA 3F0BB9FB BF12D48A 3EA39841 BF51E6F2 BF3E2B3E BECCFCE0 3F868BE7 3F5AD247 BF340A17 BDEE11DC BE947269 BDA5DEDF 3F8DE39A BECF9771 3EEB25EF BEE5F16D BF27945A BF5073FF BF4E5B7E 3F65C83A 3FE37C40 3F9C3269 3D9ED11B BD99AD7E 3F6DAF09 BF674D4A 3F3F4CFB BD8D839F BF5C4412 BE4C3DBA 3FB7981D 3E927E94 BD9F33F4 3E96D3F1 BE177FD2 3F85C737 BC231E50 3FAA267F BF3E3170 BF24EE89 BF43A743 3D3B66A4 BF0A2E51 BF437ED5 BF61D6F8 BF3CA65A BF8C1149 BF3458B1 BDA9DAFA 3F5EA441 3F017C05 BF71A1E6 BFA42CCB BF411FFF 3F9E5453 BE640426 3F03BE2B 3F804CC3 BE138D93 BF76BB58 3FA6AFAA 3F7B5AB1 3EB40365 BF701B09 3E5D4045 3EBA3083 BF0A66D3 3F6B9D2C 3F56C019 BFA39A75 3F4340F8 3EE11643 3E12FBA2 3DE35406 BE9CBE07 BFA50AA3 BF493404 BE86060B 3F0087B2 BF43219A BF3D2679 3E763443 3F5C3EEE 400C6632 3D01FD84 3F3758CE BF31B31B 3F893AAD BFA23782 BF3208CC BF07E406 BE89AC0B 3EEBFAA5 BF648B8B 3F9D76CD 3F13A38B 400F4595 BF3ECEC6 3F42A2CA 3E45A8CD 3F647E64 BF670ABC BFB102E6 3F6FA664 BDFC835E BF8E6647 BE89C9D9 3DCED7E5 BF6F8396 BF297027 BF1518D8 BEC910B6 BFC6791A 3EE6D0CD 3EE569A1 BE90A85D BE207296 BF24AE7A 3E0D0AA3 3FA6B3F2 3EB5CD28 3E08E3B5 BF485F65 BE8AB635 3F80CC53 3FA6FCEE 3F8A23CF BDDB8A8C BF5D1B9B 3F9483A9 3EA26F69 3D664970 3E0262CE 3F179A18 3F870AA1 BD60D779 3DAC2184 BE3EFC0C BF271D47 BF4BE5CC 3F41950E BEDBECA3 BFA90D82 3E2F03CB BF9DA0DF BFC39FBB BF804C7E BF475FCB 3E60FA0E 3FD9D03E C02B73F7 38C93800 3BF5FEE0 BF2A95EC C011CA51 C0122E3E 3FB39482 3DF18CBF BF65E96A 3F4B61E4 C00EF87D 3DA9BF1A BFC1A8D7 BFE03B35 BFB16328 C0606E0C BFF0D44B BE857632 C002FDB8 4000BDF7 3F3AF136 BFD9A9B8 BF152C30 BE606178 C02157E5 C02E73A1 C015085F C036C3A0 C026297E C03E20A6 C080E04F BE482E84 BE81F5BE BDE2DA26 BF35CCDA BE01CE20 BE792A91 C036D37C C020254E C051D750 BF29B066 BF922628 BEE78ADF 4079CFE2 BED8864C 3DF1AACE BF2FA3F2 C001965B C057774B 3F7B2DD0 3F90D767 BFCA353B BFE7905F BFB7A02F C028AD46 BEFA5B58 BFE29004 BFB84199 BF0DDAA3 3F25E0EA 3FF0760B 3E967C2F BF94952F BE095575 3F8DBCE5 BFE2BF0B BECEF503 3FACF6D1 BF6DB484 3EBD887F BFDB6209 BFE2DC99 C0031243 C050BA8A C04DFA10 C0255D7A BD812C74 BF83E1F7 BF4B4F33 3FA10269 3DFBC780 C0235691 3F0F71F9 3F8997EF C003BA9E C0048836 BF4B4450 3F960CD0 400197BF C0890EAB BF9E1EC4 BFC3FCB3 C010902F BB033D80 C006A496 BF936B46 3FC70D91 BF17F848 BDEF236E BF95C0B4 BEAEE6A4 3F577A1D C0407F48 BF8B3F8C BF0929B5 3FA925C1 4002DE4C BFDDB54C BF96559A 3F82E39D BFAE2B91 C0084F04 C0004561 3FE0CEC1 BEE47A3C BEAFE569 BAA41080 BF9184F6 BF81BA62 3FBC1BC6 40803711 BFA08403 3F9BF912 BEA4D4D6 C07956FB C072BB53 BF980AA7 BC988400 3F3432ED 40B5BCC0 BEDB6AD3 BF6E5903 3F8BF1C8 BF2731C2 BF395E63 BFACBD7D BE1BB475 40049E1F 3F9DA2E3 40513957 BF2F5812 BF8CCA10 BF6828F1 BFC3AA14 C015D7FA BF9E67EE 3FA2AFBB BF48462B BF8166E8 BEC46D80 BFC42CC6 C038B775 C03AF284 3D6AD4CC BF8EABD9 3FB2EC79 BF9EC5C2 3F8F7B6B BF0974DD BE1B0D2D BF4AEB48 BFB72044 3F350BD5 C013F1FD BFD0F922 BF8EB88C BF937190 BF6C05B4 BF1318F0 400B32BF BFD87A3E 3F891F44 BFB2E6BD BEA5FE04 3C404858 BF6BA70E 4002AE1C 3FD603CD BE5BEEFA 3FD3DE7B BE5934A8 BFACB7C0 C002C24F 3FAC059C 3FA16CF6 3E36FE27 BF0D7DBF 3F6F31DF 4008ED1A 3F362D0C 3FB167B4 BF3E318E C031A982 3F94A5B3 BF79DFAB BFBA88DD BFA63F3E C035F669 BF4BCFA4 3F72F2DB 3FD0B12C BF8E7EF6 3EE8677E 400FEDE5 C02725F8 BFB94618 BF5409F8 BF9CB6B7 3F43A18C C0164175 BF903C71 BDFFDB58 4004CCE3 3C3315C0 BF030046 3FB7560D 3FBCA8A7 BDA541BC C0055CA2 405F4BD7 BFD2AB40 BFBFDED1 40305628 BFF6E676 C006CEDC BF4ECE41 BFBE4C27 BF8B3A56 3FBBC5F7 C01CFFBC C02A63F9 3FB509E6 BFCC5639 400D05AC BF60DB72 3DDD86F5 BF4769E1 BFC4F378 C0209BCB C0078C06 BE26C4B5 C028F929 4012F580 3EED0644 3F463340 BFE8B3D8 3DF6C552 BD0A01D8 3D655A71 40195700 3F66C286 C00577B0 BF808F7D C010E351 BEA46AB2 3FD562BF 3FECB7F0 3E5BACCB BF94B975 3EC2866F C096A584 BF7A58E7 C013AC4C BECA88B8 400C2A8A BFA01DEB BFBA2A65 BFB0F413 C00DA966 C013DFEA C00C2126 405850F4 3F350F4E 3F7911A8 C0160669 40175A56 BEDE9864 BFFDF10E 3F42DD19 BE8224A8 BFEC233C C066B755 4000FCAC BF6FFCFF BEE58576 BFC47452 C0335D24 BF8CD25A 408AFB24 BFDC172B BE7484BE BE2DF3E1 C0184AD0 BF6D78DA C09A928E BC3B16E9 BF8908C5 C00410F6 C0323AE4 BF679B66 C0248AEE BAE606C0 BFE0CAB9 3FE3B9B2 BE819519 BF9CF9AD BEF2A298 C038B672 3FA49C79 C0093809 C054EE9C BFA96EBC C019132A 3FEAF2A1 BF24A20D BF400CD1 BFD689C4 BFD7A1B8 C03D336E C0A88F8A 4031152A 3F1CA312 C01E4EC4 BF800ABD BD35FC3C C02A95FB 3E8CC1B4 3F4CFD68 C0023C64 BF95C4B6 BE67A43B BF21E2A6 BF890A27 C01B8917 BF3DF1BF BFA5DA09 C02463D4 3FAB9548 3FA98B70 BF2A6C94 BEDD7666 3E59AF48 BEEDBD4C BFDF1EF6 BFF2F2F4 3FD9BBB2 3FB01200 BF82AB5F BFF148E3 BFA2FEAF C00622DA BFA2FA4E BFBFC985 3F4B046E 40317F7D 3F5C8BFA BF83B41C 3FE52A0D C01F9D2E BE9993FC 3DD1FB3E BF04925E BE0F7F8C 3F537715 3FC434FB 3F863387 3FA57210 3A6EBB60 408410A0 BF35FDDE C007ADC2 3FEB83CE 3FD917C2 BF9FDEE6 3F4EA35E BF7A148A BFABCAEE BFA66B2A BEC72B71 C03E2582 BF136BDF C0010211 BFE8395C BE40CAD3 C01F421A C01C19E8 BFF50A70 3F4B6B2C BFF329A6 C058FC8C BF8B9653 C00798D5 BE905AEF BFC95951 BFA2FCC5 400010B1 3E461170 BF60D78E 3F8BB181 BF6A66D5 BF579CB6 C12D3544 3F86F014 BFABEDD2 BF6DB131 BF1E2C0B C00F4F98 C01C0874 C0737BF8 BFA90D81 BFBC92F1 C021BDE0 C03E8303 3EC09452 BFC3A5E2 3FDFFE91 3F5802B4 BF720558 BF0A17D7 BF106736 C02C989C 3E78F0BA BF453823 BFC2A93A BFCB4F50 3FEAC132 3F69ECF0 4008AC72 C0353C48 4026FDCF BFB2804C BE216C11 3F48CA58 BF9E2C00 3FF8A6FB 3FC9FA85 3FE79C71 BF0CBAD6 402A7FE6 C0238CFF BF7FD1BF BF8C8473 BFADC5B0 3F8149CC BFBE02DA BDFF1FA9 BF36C22D BF797A90 BFB0694B BF7CD92A 3E483A80 3F826A93 3E497DD1 3F183CF4 BF06A198 C046D808 408D9F23 BF250E7C BFC8DF04 BFA3C558 3F3AE0FA 3FE87B81 BFA2E298 40502AB4 C038A448 3FDF4CCF 3F45ADE9 BFD5887D 3FDF9FF0 BF76620C BFF45688 C0291F84 BF7219F2 3FC19CC0 BFE39F4C BEDCB720 C014C5BA 3F126275 BF7EA361 3F14972B 3FCD3818 C023DF12 3FCD8D63 BFA643C7 BE8CB504 3FD78300 4081EEAC BEED7707 3DC96D22 3E787484 BF946DF0 3F3E3924 BF1C6CCE C009605C C00CD0F2 3FFD45D1 C00098B8 BF805296 3EA46DDD 3F104A58 BEBA8C64 3F9985F3 BE8BA2F2 C0068841 BF9FFDDB C000DFB1 C02FD512 BD832C6B BDAEDA2E 4052E608 BFB82614 BFD74AC7 BEB8FD2F BFA218B2 BF65E417 BEDA6AA8 C0164E80 3F05D060 3EAB4870 400275A2 BFD98374 3F794097 3FFEBE33 3F54BE33 BF72EC0A BEA10D9E BEE6FC3E 3FDCEA78 3F993A20 BEB2FBC8 BFB35C84 C06DD3AA 3FA5D514 4019B135 BE9F97B6 BFB31CE6 C0548CEC BFF2CC10 40128919 3D957113 3F6CBB15 3F7B3B10 3F064AC2 C09A9DCA C02E8AA8 3FBE5752 BF8ECF85 BFB56289 BF374553 C029C6D8 BF5A144E BE6671EE 4018ED6C C033F478 BF815E04 4064410F C082292C BF57FFD8 BF706521 BFF46D14 BF2DFE89 3CD8BDE0 BF327B54 40FACC91 411A56FD C0936523 C1405993 BFECCBB1 BF91DAB2 3DF07F78 C0B75D9C 404BBC60 C09C419A 408FB712 C009F341 40501FE0 C02E3DB0 C032D60E BE9D5CD2 3F6E3A6C C184031B 407B5178 BF5B9CFE 40B48330 40CC7EF4 40C0C2F3 C04A5F66 3F66CD5E 40BAF9E6 40F018BF 3EAD53C3 BFF9A52F BF4185EF C0E110D8 40C2767C 40038ADF 402553F6 BF338D1E C069A5F7 C00DF33E BF6325BD 3EBC484B C02F6536 BF2532C0 3DB95EB7 41180A0A C11C9568 4052EC2C 408D536B 410A9B8B BF06C128 C06D20EA 409B59B8 C03CAC16 411245C2 BE28FFE5 C111A8C5 BDEBB775 41279F66 C0F321D0 41062639 3F257CB3 40AA20F7 C02E0BD3 3FBF0C72 3FA899FD 40190B5D C19D5A2C C05DEAC4 C000A5F0 4094C819 3FB10E2D C02C4C26 BED4FF01 BDA5B96D C088BFC6 3E88A85F 405519C9 C0A1A325 404FC603 400C1C14 C0518D3C BF165BBA 3F314B57 BFA7BB20 40586378 3F6C8E84 BF7D6A8B BFAF69DF 4066EB30 3FAE65BA 40BE3EE2 40184A0A BFEEC090 C06877E1 3FD84037 BEAE3573 C0185E83 BF3A1E40 BFA2560B BF53EE31 BFB44DFB 3FAA8832 BF589D00 BF7D0ABA BDB85347 BF1248CC BF90A4BC BF8C7091 3F76C491 BF2526C0 BFAE14D0 BFC134D4 BF33DAF6 BE979F17 BF3BDCE0 BFAA4C7C BEE3F7C1 BF87B492 BF40F2C6 BF92ED4D BF99D1FC BF7B9787 3E33C586 BF864E79 BF04B526 BFAE59AB BFA96618 BF886006 BFB41BD4 BFAE3565 BF8E7466 BFBC5250 BF8691A2 BF2397C1 BFBF61C5 BF6768C2 BF181AF6 BF893C33 BF98DCBF BF9CD416 BFB8CBA1 BF6C54C5 BFDA34B8 BFB61C66 BF9D36FE BFF5803D BFD30295 3F270034 C0121221 BFCB6041 BF82FA38 BFAED2B3 BFB542CD BDF3612C BF7FD2AA BF8EAB44 BF1FB6DF BF3E6C36 BF80E26F BF995519 BDDC63B8 BF60DE41 BF8C34A8 BF8756A4 BF812FAB BFADE610 BB259E12 BFBDD031 BF9B72EF BFBB8F18 BFBBB2ED 3E7B3C47 BF947B0A BFB835BB BF82512B BEA1DDE4 BF7E8FC7 BFC3EB24 BFAA437D BF8A24C3 BFDF9350 BFA7716C BF50DFDD BEBDC405 BE46E781 BFACDB6D BFB22569 3CCFAB0A BFB59428 BF85CE24 BEF2418C BF905FAB BFB28F59 BF507A14 BF8311FE BF2680D3 BF4C6F6E BE442225 BF9E0E6B BFC39C3D BF61EE7E BFEF7725 BFB14C5E 3F699BF7 BFA300B7 BF90621F BFA53213 BEC53E09 BF1DB02A BFA6280C BFA61376 BF4E617A BF03C339 BF98594C BFDFCB7B 3F12A507 BF82E70A BFBCD35F BE9557F3 BFA35078 3E339E7E 3E667328 3E5F6DEA BF45C180 BF12D7E5 BFA8DBCE BF7E9B2C BEFF6C54 3F92499E BF95897E BF9E35CD BFA76E7B BF0FB9CE BF753F2F BFEEAD12 BFA37923 BF9A83D2 BFBEB7EC BF3EF95B 3EA34ADC BF184B14 3F6174F4 BFBAE557 BFA843ED BF8BC9B0 BF68B11A BF6F80F8 BF9EABC5 BF6DD645 BF9FC38D BF25DFAB 3CA72D05 BEA6FC06 BF50A2E8 BF1B452E BF1CE01D BF73BE92 BFD943C7 BFA38F88 3F2334B5 BF79481C BFD218B8 BFB26A6F BF28378F BFAFBF5A BEDC9225 BF8DF0AC BF25B80C BF11F7FD BEC2CF39 BE644DF8 BFCB88CE BF31CACA BF902636 BF856A49 BFB46352 BF5349F3 BF8AFC2B BFC2B267 BF9ACF8C BFA3EFD2 BFC16FBD BFA89024 BF3A1AED BF1E308C BF9F1FA0 BF721804 BF8055B3 BF250E90 3FBA67BD BF902839 BF745435 BACA2069 BFC125DB BFB0AF57 BF990FBE BF568B96 C0335D1C BFB10025 BF2FDAC1 BFA52050 BFB29271 BF8E7468 BFC02D70 BF9460D8 BF8B6F86 BF947CF1 3FAF3703 BF5FA807 BFE273D7 BF362DB9 BFA2C2CE BFAE06CE BFA8AF6F 3F0247B6 3EF1C4F2 BFC76CF6 BFA17747 BF91CE63 BF8061CB BF991318 BFB333A5 C007770D BDF0EB6B BE759C3D BF523CAF BF935C9B BF9DF65E BEECD23D BF5B4C32 3F0FE52C BFBAA7AC BECD0533 BF8B1A44 BF56DD8D BF698E89 BF8A3543 BF63F328 BF332E2A 3F72CCF2 BF9C3A28 BF96B6E6 BF6788DD BE7D9049 BFCA23F1 BF5AC373 3F3B01F2 BF94E3B0 BE2A210F BFB40E52 BF57C01A BEF2A934 BFBB77F2 BF9FAE49 BF0BEB5E BF4FCD0D 3EF8FB1D BF726FDF BF753A0B BF9BBB92 BF68931D 3F72E01D BEA51195 BF7C3C69 3F90D0D6 BFBAFD61 BF2DC7C2 BECFF51F BFA8AC8B BF8C3BE3 BF336205 BF9B2791 BFABC76A BF8D9D85 BFAF928E BFBFA586 BF80CC61 BFACB727 BFADCC58 BF8A96C9 BFB11E82 BFE46919 BFDCA125 BF6D1E2A BF5277F0 BF87794F BF24C0B4 BFCAB317 BFAC762D BF93B352 BFFBE566 BF66628E 3F9B1B4E BFA676AE BF840E15 BFAE2C9C BF6607B2 BFA111D0 BF7788CE BF626547 BF38D0C5 BE584CEB BFB9ADDC BF996931 BEE03CA1 BF27F158 BFAD8D4A BFC4C504 BFCD4D50 BF9DB9AD BF1D0AA4 BFB02BA4 BF0A446D BF756632 BF9480E0 BFBCF352 BF626447 BEC5D7E2 BF494317 BF8E0542 BF99771E BEF009BC BF8D1842 BFAC0DDD BFFD3E9C BF8AA848 BF654620 BFA53987 BFB36C80 BF99914B 3FB4C9C7 BF93D281 BFB4CE09 BF8F7B44 3CD25B6B BE65B04F BF83BE91 BF85C2BC BEE8034E BF487FB9 BF1DB7D3 BF9E9AD5 BF9D4D5F 3F85A4B3 BDDB1EB8 BFA153AB C0040F22 BF83A6AB BFD5669E 3FA5A55E BFB504D5 BFAD327E 3EAD0E5B BF8DA7A2 BF556C14 BF156BED BF9694DC BF7C5798 BF8AD3B0 3F9A4177 BFA13CBB BFCD2E80 3EE30C13 BF99532C BF9AC403 BF84F705 BF90C1AD BF46E919 BFD7DBCA BF947D7F BF1C5EAB BF8468D3 BF2397AD BFBDE135 BF59A3B0 BF9732E6 BF54CFF7 BF2AF53B BFAC6A59 BC2524B6 BFBB33D0 BFC755B8 3F055A71 BF57D04C BF627AD1 BF99DEF9 BF724EDA BFC7FF3D BFB0B357 BFA742E9 BFC61E4A BF04B13F BFD0EB82 BAB07D14 BFEA3255 BFC138A9 BFA91F04 BF933D3A BF18217C BFA1E460 BF21CD4B BFE73DF6 3EA0D17B BF5E2CB1 BFA96CAA BFBC571E BFEC7838 BF8BC3D6 BFE3C186 BF35EFC5 BF96D23B BF7052C0 BF8E835A BFB89338 BF45C1F9 BF7774B2 BF964F1F BF29DF62 BFA18FC6 BF7D3ADE BF9A11DC 3F93B19B BEF11B4F 3F92028C BAD4629A BFA1E64F BED28939 BF81C984 BF40DFE7 BF8EA7E6 BF3F74CB BF6080C4 BF920022 BFBCFE09 BF76A1EA 3F414756 BF88EE7B 3FD706CD BFE6EAE6 3F4363B9 3F767D2A BF9E7070 BF928BBA BFC3A0B3 BFB17A6F BFD05713 BFB9A782 BF8A4273 BF1B4A3E BFBD6605 BFCE00B0 BF7FCC6A BFD8D603 BF086929 3F91A9FB BFAE83C7 BF82E93F BF53E6C8 BFD16E46 BF91CD63 BF9DA548 BFA9B7C1 BE87532E 3F3F48E2 BFAF8935 BFB81E8F BF9BF834 BF85E10D BF965FBB BF2668D8 BF9786D1 BF679BDB BFDBE572 BFB11283 BFAF5F12 BF980F6B BF59A88A BFF3AF41 BF0518DB BF6B8FCA BFC6CEC3 BFE57E1E BF89CC7D BF78FDF0 BFC30DDC BF81F099 BFB924C4 BF6ED9AE BFC84A6C 3E0356F9 BE341CAA BFB4F51D BF01D573 BF9C8BB9 BFAEB08F BFBC74EB 3EDEC369 3F927A8C BF8979A7 BF5E36C6 BDCA5BB9 BFA114BA BF6E5286 BF8D0323 BF66DCE8 BF17BCD6 BF948572 3EE16F7E BEF71AE6 BFD90DB5 BF045636 BF50AB41 BF5C1E90 3F801796 3DBA6637 BF4A6C31 BF2987FF BF71562F BFC3249E BF8C9367 3FA5E146 BFC3AD54 BF4BE5B5 BFA88629 3F7E250E 3CC7D266 BEF5A3B0 BF71C558 BCE03D5E BFC5BAEB 3EED16F7 BFD55355 BFEEA885 BE9A5E9C BFB0FFF2 3F9DEA2E BF6A8DF5 BF9CD156 BF82BB52 3F81D61E BFC3C3F4 BFCDF6D3 BFA54E05 BF33BD3B BF8438BA BFCB11D8 BFC3DFD7 BFE94897 BFBD1787 BF904A3D BFD7AB20 BF490907 BFC2374A BEE6D894 BE53FA42 BFA57B3C BF598922 BF4F0E8F BF3D5D1D BFD26C18 BF8572B8 3F593168 BF85E02E BFB4DE53 BFE61487 BFC5BB73 BF530356 BFB8EE98 BF8FB091 BFA8D5D6 BF64E136 BF6FFE34 BFDC73FD BF181260 3C863260 408454A1 3B922480 4004881A BBF3FB40 3DC9A5A0 3FA4FCC0 BC595FA0 3C1C69A0 BF91CAD8 3FB67C64 4083CFE8 BD822046 3C8753D8 408B94BA 401BBFD7 4021634C 3B2D9500 401FCEF8 4085E15F 404CD394 BC248040 3BA7F3C0 408A70D9 3FB323A2 BEA70189 3FB9F800 BE48E404 3C830CA0 3C8D40C0 BDC1CC0C 3B3D0800 3B5FF180 3DD11610 408CA444 3C506440 3E816FFA 406F955C 408508CE 404D8EAE 4066F5A9 3EB0309B BDE1BA04 BDB8A190 3C4AD600 3CE181C0 BE1CFFDE BCE48798 3C686800 BF1E31EC 3C9E10C8 3CD2DC00 39BED000 BAA10800 BCE7E078 4078ACCA 3C966490 3B86ADC0 407A5EDC 40562A6E BE6014DC 3C11B680 4016B22E 40589B98 4070535F 3CA795A0 39E58C00 3BDABA00 3FAB323A 3CAA50E0 3C8CA870 3C96CFB0 BE10C24C 3F97FB0F BD6B0680 3F32D47F 3F0B40DE 3FC355B6 3E2CA062 3C8B07B0 BE63E7FB BDA80042 3BEBC020 BA315E00 404E2DCC 4015A261 403D9A5C 3E1A63B6 BB32FA80 3FC5917A 3C2D9670 BBE31040 4070F8B3 BC5B3860 3D31AB08 40726176 40819A1A BE13A3F6 401E0090 40371423 40061ED7 BC14FAF0 3FDEA56A 3CAFF250 BE52C210 3DA7B750 3CFD4690 3C921390 BC560240 406AAC89 3FFE7C06 3C418000 BC4BC120 40484220 3CE86670 3B8BAE80 BC725FF0 3F9D557C 3BCDA080 3E093846 4021264A 4084B2C1 3FA7B76C 3F950E88 BF926690 4068EB22 40155FAA 3C69AC80 BD0B1368 4061B848 3ED1BD94 BBFA4B00 BB736680 3CD4A9F0 BBE85C80 3DA48BCC BE7B074A 3D261F30 3CD42FA0 3CC162E0 40312A25 3F9FBF48 407587BF 3FC238C6 3C9AAEE0 3C0F7EE0 3D19EF60 40593C5A 408372B7 BD15DC30 40731077 3CADDC40 406A7B78 3FAD629C 4028DA88 406B33CE BAF23900 405CDB80 3C6ED120 3C9495C8 BE678553 BEC68440 408971BA 3C85F930 3CA2D078 406AE4EF BB0931C0 405BC876 3FF507D6 4051191C BB5CCD80 4029003C 3FE7B6AC 3CAA6B90 BC913310 BDB3723E BC4F1600 3C9A5850 BC957EE0 3C2E15A0 3C0A71C0 3C78ECE0 BC003380 BBF6F8E0 3C86CCA0 BD143AA0 40566D53 3E074EDA BA26C800 4048EC8F BAA3F000 400B0E64 3E222EEA 407DF27E C005673E 3C92C1A0 3C920960 3D2CAAA8 BC550840 3F5F4B72 3CA710C0 40783504 BC517D80 3C206360 BD572F50 3C9295C0 3CB12A90 BC14B560 3C54E760 4031346D 3EEADF9E BD61DFD4 BB6A5980 3CAD9730 3B7CD300 BE0693B1 BD9158BC 3FC5BEBC 3BEC4500 3C7778A0 BBA5ABC0 BD8C2678 BD40E6B8 3BBBFAC0 BD93F7CE 3FA9596C 3FDCD9F7 BB7AB880 BE035158 BA7A7E00 407D4AC4 4022B3AA 3FAD9473 BE41F269 40097E07 BC066BA0 408AC18F 4087587E 3BF8E6C0 408DFCC8 408980E0 402A4192 3C05CCC0 3C939580 BB216A00 40397E35 3EF0D964 3F0FD04D 3EFA5846 3C897800 3F9A1AC0 3BD68100 408A96F8 3FCD597E 4008935E 3CD12E90 40592842 3FE09A9C 3FA02543 3BF75240 408B5003 3C5737A0 BC3EDB00 3FD52770 BCF217C0 407F4A1F 3FE696DC BD0D9148 4096AD04 40740D63 406E89CD 40626D2C 403F0C95 BE19ED07 3ED5A25C BDF672A8 BC131BE0 3C3D3FC0 3B262280 3BCD2EE0 BDB5108A 3E46099A 3CA53700 3CD7F800 3C9C0DD8 4094FBA3 BC2816C0 BD8F5F58 405958DA 3E625ED0 3D73B088 3CBC4480 3C9DD200 BF635713 400DE4C2 3CB7B4D0 BCF97B90 3CA13CE0 BD5A2328 3BE536C0 BE509CBE 4032E964 407828CB 401CD002 BB693480 BD29FD38 406B034B 405CC64C BBA66D00 BC99F948 3C991988 BE1F0E75 40785C5E 3FC53AAD 401E10D1 3CAC06C0 BC3AA640 3BFCD080 3CD355E0 4031863B 3D0CDE38 BC3B8580 BC44D980 40722522 3B97C880 BB83F100 3C88A060 BDC35D7C 4079AE75 3C87A040 BBDE5080 40014CDF 3FC3FE32 BBF93380 3CB64500 3C173840 4024380A 4037A416 3BEA39C0 BC29ABC0 40456B57 406BB73E 4062DA55 3C52CA50 3A9B0400 3FF92187 BCAFE140 3C7E4A60 BD9F6640 4048CFE3 3B1453C0 40323243 3C6B22C0 BD91CFAE 3FA4DCA9 4079131C 408249D8 BBC66B40 40A35CD3 40928DF5 BDA10840 4002C421 3CBCA380 BD880A54 3FA5C598 3EFB9838 BE06CF98 408FFEF1 3CBF1670 BD9D57CC BE1D42D0 BC888D90 406E54E2 BD00F140 BC180140 BCA450A0 3AF25300 BD320D04 40943528 400A32AF 3C84B400 40377E45 BDD1F622 3A30FE00 BF032AA2 4035387F BDC79F7C BB49BA80 408C129E BC8F0EB0 3C0C3280 BE230814 3CEDB7E8 3FCC2173 BDDB054B 3FBC6D89 BB722D80 BB16FA80 3C89E740 BBEE8C90 4074FA21 3C0A5A20 3BD7FF00 3C3264A0 3FE881C6 BC1238A0 405F84E0 BD8C35CA BDB69F4A 3C8CCC40 BDA4A4A0 BD6947B0 BD68BC18 406EB7D1 406E48D4 BC549CE0 3FC9E11D 40091D43 BB11C200 407227F0 3CE472A0 3B990500 3C60E520 4014DDD1 406A8BC0 40236FFA 4045D06C 3C3830E0 406AEDC4 40933C27 3CF5E220 3FCAC74F 4039D385 40649DC7 3E48F22E BC326070 40349ED2 3FB2CE3C BB396B00 402C6FF3 3C8E2448 3FBCCAFE 3FBB0B5B 3E831359 BD1763B8 3C9BBB80 BDA28B94 3C9A4430 3CC7D2E0 3CB63120 40736E58 3D00FF58 3CEF1A00 3D9B2180 BDDEFBF4 408044C7 BFF57B3E 3C4F7F40 BC2850E0 40676276 BE852D88 3C8EE060 BD9F9A7E 3BBF25C0 3C33E400 3FBABD2C 3D4B1108 BE251EE3 3C85D800 BCF16500 BE5C2C5B 409D7343 B9634800 BCA85D70 3C5694E0 3C9A1930 BC01E2B0 BC099920 3B791380 3D1DA4B0 4023B897 407942D5 BE6F45E0 3D4FAB30 3C87E810 3AAB0700 3C5B3A20 3CB47390 3B0B3580 40345F4A BCE5BC18 C018D233 3FB87E6C 3CC50E18 406087B5 3B3B0300 3DEF885C 3C0E4CC0 3F950EF0 3FDD2FCB BCFFE070 40726FD6 3FF20BB5 3C22EE80 409B54EA 3A291C00 4056F793 404B3B2F 3C87FE40 3F93383A 40507CB6 3C991E30 401E3388 40120F8B B9158000 BF0676FA 3FCA0C48 406BC58A 3FAB340F 406C4E91 BD2C91C0 3E4F1100 403E767C 3C4AD3B0 40807C5E BB487500 3FD4909D 40788C88 405B31B9 3D098CF0 3FC9D8CC 3CC98738 3FDAF500 3BC76080 3C3E8640 3FCA5293 3C9F1700 401EAEF2 BE2B8D45 40812E43 4088A130 3FFC2B86 BB9FBB80 3C9B5E70 3C7C4EE0 401DB7CC 3DDFCEAC BE3813BC BDD3D354 3C70F180 3C7A2680 3CB27410 3CB0DEC0 BD2FDD98 3CB77320 3FC929C2 40221C4A 408F7710 3E4FA082 3FC63CB3 4042AF84 3C959CB8 BBAD6AC0 3FC3C77C BD730A6C 3E63A5B3 3CA0B950 BE24CDEA BD94D7BC 40356F79 4082C348 3CEAA740 408A4318 BC0F3060 3C9D40C0 3C5FB5E0 40544E68 C0AFC356 407E3BDA C07FD5B4 C118DAD8 3FF53C2F 40779081 40144253 BF9DA609 408130C1 4039EA42 C19EF1C1 4074F1DE 40C3E113 40F4EF29 3F139729 41088881 C1113DDA 41731DA6 404F157B BF271950 C095366E C0C637A0 41287B87 3FEAAEC4 3FC0E1CD BFCE3266 40CA2722 401D9167 C06C145F C133F4D5 BEEED840 40904F1B 4182B489 BFBCCFB9 C0CE11D1 C0E9C3CE 3E9DA542 C037F894 403A8BC6 40E768BE C02A875F 40724B64 C146A890 403804D2 C06F5DBA 40E04DDC C1AABF64 C0669A7B 3F74FD39 3FA147A0 BFC4CF48 400EC8C6 416448E6 BEE06799 C04A9DA1 C0A74B98 C083E603 C0FD0766 C106270F 3FDFB903 413E5BE5 C1325738 408EB350 3FE12EE5 402573EF C083E0F3 C0294A7C 419A1CBE BD8B4B8F C01FA86A 40FBDCF5 41622983 40D2F5C7 C1081D31 C0810C44 3D60BB54 C0D2CD7F 411D469E C0DF2B76 40EEEE95 C03D3495 C0C7376C 405AE185 BE917B64 405AB4DA C0AFA94A C0E99BD2 40F45D34 40C38B04 40815AD9 412538E5 3F0C5C5B C128489C C0AB4001 C0A841B1 3FF8A5BE BFA03032 4177FF86 3F0B62A2 3FB1A23F 40C4EF7C C13AE469 40FA4867 40ABF631 3F80C0A3 BFCB13CD C1943396 41B2FE0F C0098726 40EFAA4F 4103E046 40B2DEC1 40933594 402FF20A 3F1865DD 41863E49 C06D1B24 401B37AD 3F0A79B4 3F22C1E1 C06E4E5C 41709A85 40A679ED BE258B8E C0388366 C0514C32 C0B8D3BB C160BB23 C124123E C03D7CE9 3F962E82 C0A0638A BFD6C813 3FE4DD8F 4065E6EE 40C1ED32 413A9EEF 411D58D4 C0E333B4 40503B51 409967D8 40D9A482 403C2E66 C0B98981 C0E40FBF C0861038 4189226A 3F302742 404EBA7F 3FAE98AA BEAADF85 41131674 C110B513 C10AD142 C090001E 402C8255 3F138474 C10EDFA1 4013D1EE 3F16F5F3 3F864F71 3F08DB76 3E8DA2F0 3C8ADA53 3EBEC915 3F4E0F06 3F925BAD 3EBC46E4 3F78A3AF 3F61738D 3F12BEC2 3F136478 3FA6F971 3F86E7F2 3DF449DE BF4A09E6 BF6CC15A 3E6597D1 3F43CF43 3F5665EA BE63E57D BEDD15BF 3E73C2BE 3F9433A2 BE9E2350 3F6D5ED8 3EF2D2B1 3D3430D2 3ED5EF69 3F5D775C 3E7FFB2A 3F2BE905 3F572406 BF67268D 3F8DB2CD 3F64FB35 3F440031 3FB6354B 3F094BE1 3EF1707F 3F451E67 3FC78BAC 3DEA40E8 3C38427F 3E55F121 BEFA756F BECD356A 3E914A1F BCE8428F 3F822047 3F7ABD87 BF7F624A BE5BF374 BE8FB8AB 3EACC762 3E32F112 3F03F9C0 3F008F01 3F70409F 3DED3B8D 3F926DF7 3F287DD2 BE77D6E2 3F43DC4A 3EE37F2D BF16CE3F BE576F76 3E75402D 3FA4F04A 3F90391E 401736E7 3F848F25 3EEEBADB BEA42B12 3F8AD2C0 3F441B5F BF4CB554 BE4DAB3F BEE413FF 3F60A032 3FA8DBFB 3F03C854 BEB01B4B BE4C6F8E BF09D813 BDBB1FFD BCEF7613 3F0D6B1B 3F89BAC9 3F5A953C 3FB16310 3F44AF79 3E4F3A8A 3F913E3B 3F5F74FF BF77B5ED 3F532619 3F2410C0 3F0795A6 BE0B1846 3F5F6C7F BD9BE883 3F92377C 3F8A6AEB BF838D5F BF3550B4 3E9E433E BCBE0F39 3FB8BA89 3F05B4C5 BE953F34 BE9215DE 3ED0316F 3E4CD3A8 3F862E40 BF7E9589 3EAFE59F 3FBDD6D3 BD7D3254 BC580C45 3FAEC06F BE98E75D 3ED3CF88 3F80825C 3F9E8866 3FB04B1E 3F6AF8F6 3EB05D8E 3F87EA12 3E369C65 BEEF960C 3F7457DB 3E851D35 3F6F1216 3F9FEB28 3E6D4961 3FC2B27B 3F798398 BD3D8951 BF1221A8 3DD87DB0 3E582B49 3F9073F8 3F81D99D BE6E10C2 3EAE7BFF 3F124642 BE91E21E 3F88A698 3F8264AD 3EF55D1D 3A86C784 3F8F65D0 3E67EA57 3F2D84D7 3F4EBFF9 3EA13E84 3F808294 3F1E9513 BEE895E3 3EC491B1 3F52FC4E 3F9339F2 3EBCC913 3F438243 BD83467F BEF5D471 4028486B 3F7468E4 3FDE64F6 3D929732 3EBCCC7B BF28BCD0 3EB46200 3F72D3D4 BEED0397 3F83F292 BCA30740 BDA82446 3FD05BE7 3F8F7DEA BEE60B1A 3F5A3B05 3FAD206F 3F1ECA5D BED03AEA BEF36138 3F031B12 3F697C6B BE181CA2 3F52510C BC0EAAAD 3D41A048 3F5757FA 3EC8C0DB 3FE37D44 3E116D0B 3FB2885D 3F8066CE BF0FEF98 3EE2B18A 3F803A87 BED19FB8 3F85F2D7 3F5C3DFE 3EBB6026 BEC081CF BF0F8C52 3EBBC116 BF22194B 3E599080 BF2435C4 3F79D6C2 BF063864 3E9CC936 3F8F69CA 3EC7488D 3F01D822 3F033570 3FA05CD2 3F8B4AE1 3F32F7C3 3F47CB5E 3F7C9272 3F325320 BF03BE87 3F7A278B 3ED30F5B 3F47DC36 BF2CAAB1 3EB1BE1A 3D1E1F3D 3F5F5786 3F75F9D0 3EF5803D BDEC2054 3FAE971A 3F218747 BDDCC3D7 3F36AC7E 3EBEEDBA 3D521046 BE9E5F33 3F79099A 3F862A33 3E8C7CA3 3E8CA589 3F30B71A 3F1D2C7C BE2D081F BF6D2D3E 3F0EDC6D 3F96672D 3F9599B5 3F40EF7A 3D160AC8 3F594685 BC24E4CC BF12814D 3EFF4EE1 BE87558A 3F0FA653 3F280A77 BCA428B6 BF3477A9 BF4A7202 3ED2391E BEF9358E 3F41D2C6 BE09B9E8 3F77329C 3E9869D3 BF625B55 3F43398C 3E4A7FC0 3F7F425D 3E532D73 BF0EA806 BE2198B7 3F58D8F0 3EE951BA 3EA7CA0C 3E9F305F 3E7D7676 3F2ADDEE 3EC0D911 3F84D2E7 3E76D40D 3E07F3EB BEEB8F00 3EF2B6F9 3E07C985 3F5764CC 3F8647F3 3EF712F5 BFA7C7E1 3EF7CC13 3F3C0FBB BEBE8F88 BDDA0912 3FB0D489 3EE3F2B4 BDE09665 BEB110C9 3DB88671 3F647317 3F7D145A 3F51E130 3F4ABF23 BD81171A 3E8A14CB 3F59D8C6 3FAC0C56 3F872435 3EF00C42 3F461870 BEFA206B BD70031F 3F8D5CF8 BEB6D365 3F03C307 3F1B81A6 3F78F0DE 3F63E05D 3F7DB17B 3F3AF3F5 BF43C8FB 3F050E48 BE33D26F 3F53C3E6 3F5A365A 3E8FBE8B 3F7E1BC2 BE4B4034 3F54828E BE535732 3F916529 3F89671D 3F86B8E4 BD92C0D8 BE0E3888 BEB51823 3F18BA03 3DBA9BD0 3F82953D 3F837C90 BBA12D54 BE4D2CE5 3F7E0A28 3DFF5262 BE1D4782 3F79C8DB 3F924711 BDAF199F 3F4AB7C8 3F8C1545 3E16B6B2 BE22AE29 BEC20586 3F980698 3F07CFA5 3F23B7F2 BF319AF4 3DFFB1E1 3F2D2B03 3F455D1D 3F2A3FA2 3F148B97 3F96C9AA 3F852501 3F426A83 BF76944C 3CC6D56A 3F685654 3F9FEDC7 3F5B3DB9 3F85C812 3E98349F 3EFCDCFC 3F6C3D11 3F5EF607 BE399529 3F5B841B BE20E28E 3E9F34ED 3F496448 3F7EB728 BE149043 3D9926CB 3F49109F 3EB131D7 3F337039 3E52DD78 BF753FDF BDA98C52 3F7508D0 3EE762CD BE65668C 3F8E9963 3F8E0308 3EECADA0 BF06A391 BE69C34F 3E4E3D5F 3F914BE1 BDD350F0 3F84109A 3F80D9F0 3E5E5398 3EAF466E 3F10C7B5 3F7778DD BD0634D1 3F4AAE3A 3EDDDC1F BE6848F7 BE2C718F 3F7D9649 3DEE8332 BEBA7E95 3FADF411 3F6563F4 BF5B9EE6 3F6006F7 3F63DEE7 3F84409B 3FA3CEEA 3D3828BF BE99DB77 3ED83266 3F7EBE92 3F37A3AB 3F641C4E BD40806B 3F81D7BA 3F892BED 3F65890C 3F6FC399 3F432EE8 3F033802 3EC5BC81 BF41458F 3F80A7CF 3F8E0896 BF55DD1B BE872632 BF451DA7 3F840CDA 3ED56321 BE8FA576 3F5FCD6D 3F8CA70C BF47890F 3F5C6F05 3EFA75E2 BD82A5E6 BE8F83F5 BE82E575 BF05C883 BE36274E BE60DDB1 3EA3BDC1 3E828BC2 3F886ED8 3F0B7641 3F662453 3F126701 BEBC9C80 3FB84FC6 BEB1C514 BF29A330 3DD55427 3F732CBC 3F490004 3F98A28E 3F54B9D9 3F4CEEA0 3EA27943 3F85504C BEB679F4 BE952C60 3FEB1027 BF045AA4 3F8F8E9A BF02DDC4 3E34D693 BE0C05ED 3E48DC53 BEC8EE93 BECD2FEC 3F2C23A3 3F786CA9 3F93928B 3E8B761D BE8432A0 3F14F722 3CE793E1 3F47295B 3EC177A9 3F19BE26 3EE7B7AC BE46D558 BF1782CD BF1B8429 BECA45E1 3F6114AF 3ECC5D8D 3EBBDBB7 3F2C6371 3EED4F90 3EA46A21 BED9D739 BF263178 3EA5FCA3 3F8E9F42 3F3C888C BE54F754 BD7CFCBE BF102698 3FFAFC35 3F7FA4C3 3FBBF99A BE390E16 3F4D7377 3E12AE42 3F6B1A0C 3F869B91 3F25920D BF1B9047 BF892CBE 3F9A2AC2 3F7E1EF2 BCDFE23F 3F817810 3F69A111 3F1AD96D BE976E74 3F224037 3EE0CAC5 3F677519 3F5DBFB7 3DAF0830 3CA29584 3F9C7041 3FB7C783 3F0832A5 BEE591AF BDFD43BA 3F7C0A0B 3F883231 BF48E9AC BED4413E 3EF960A0 3F3BB801 BE7D959F BF02661B BE856513 BE613FF4 BF1C356A BEC73957 BEB0220A 3F737453 BE48BD31 BB096FC2 3F792302 3DC882B3 BDE664BE BEC35A51 3EC303D1 3D5BE912 BE389C79 3F80BE16 3F42B9AC 3EB57945 3E790CFD 3F44A8BF 3F8775A2 3ED1AA15 3F730C5B 3FC3EBB4 BDE55D8C 3ECEF616 3F6A9E97 3F82088E 3F74F9BA 3F2C812B 3E71DAC9 3C96DCA0 3D82CEF7 3F08E45A 3E92521B 3F120F61 BE39C914 3EBD1293 BE74F128 3F38B3DF BF5D182A 3F484D68 3F108771 3F85EC33 BF0AF40B 3F873EEC 3F3C5462 BEC8FF98 3EDDF50F BE90FCDB 3F1A893D 3DBBE9D7 BE5A250E 3F861691 3FB8C052 BEB84A8B BE1476E0 BE7D2D60 3ED501C1 BE8A72EF 3F222F2E 3F52EE5D BE8F815C BF3B47AE 3F697640 BE7EF20F 3E91FF2E BEF96C95 BF217A11 3EF84C9A BEA76AD0 3F21C5C0 3DAEDDD0 3F85248A BF310D49 3F6E9D3C BDF6FF9A 3FC39F3C 3F4128CD 3F88473F BE97450C BE117A28 BF21052B 3F872E8C 3F83FCB5 3F5FD37D 3ED13A34 3F017228 3F68768F 3F354F60 3E706E88 3FA0F32A 3FF64695 3E7104FD 3F889EAD 3F9B927A BEFB0A0E 3ED2D078 BE223056 3F328B7D 3F269239 3F3ABA6E 3EA6D8D7 3F956722 BDB85D99 3EE80B74 3F294326 BD731A64 3F963C11 3F9C9E92 3EE90BA5 3E8B42E2 3F84A09E 3EB0CF84 3F0049FB 3F866D71 3F59375B 3F6F29D4 3F805917 3F621BFA 3EFFB8BE 3F72B139 3F1F3115 BD96F1C5 BED992CE 3F629306 BF269A64 3DFE6FFE BE8E8CEC 3F0985E8 3F92C4C6 3E93A56D 3F08F0EE BCF7B90C 3F50F3BD 3CB20F3D BD1334DA BC177A09 3F2203B9 3F8B1CAA 3F478A17 3F86693D 3F68EB71 BF179238 3ED1C03A BEC5547D 3D883A0A 3EA012A1 BE8B84D4 3F8DBB36 3F5AD24B BF7DC30D BE350595 BF23BB3E BF661967 3ECC7081 3F108F07 3F0EEF9C 3EC58DA4 3F70D530 3F0C5EDC 3F79EFC5 BEFC3C3A 3EADCF36 3E29E1BD 3E82F745 BEB7583B 3E4F9542 BE288A7E 3DED5161 3F9F4ED3 BEA2EC66 3F713DEF 3E9A2E21 BF558ABC 3F2F1437 3F84444F 3F4D44D3 3F425B3E 3F1D7818 3F2A28A3 3E7E4787 3F96AF19 BE881A8E 3F3CE999 3F5EBA43 BEA0EFDA BCAD71E1 BED6B05F BE6C64FF BF0C6865 3F6F2E12 3F9A9378 3E09D803 3C9FA144 BDA6206C 3F330098 BF367CEA 3FA5FBC4 BE99FA06 BE43A140 BEA11B9B 3EA822D0 3EC035B6 3E6019F6 3DE77093 BA81151D 3F963445 BE0C9B3B 3F2C5D4F 3EB8DE42 3F4F6711 3F9E17A7 3F710A51 3E6E51D8 3FA088A6 3E9B51B8 3F030031 BEDF156E 3F009675 3F90F0A1 BE297F43 BF308D30 3FA9CAA9 3EC4CBAB 3F5B8496 3E1C39EF BD6E9265 3F3AFD44 3EEC5913 3F7128DE BE8E0C5B 3F88B968 3E28A1AE 3EBFFA14 BEA51C35 BEE7EBC3 3FC22E09 3FA3D663 3F2C941C 3D9F76C9 3F813E40 3DB8A20A BC25A58E 3FBFBEF4 3EAE468D 3F6E0CD9 BF543EF2 BEEE748A 3F485A01 3F3F61F9 BF31E8CB 3F42635F 3E2B60ED 3F4C3483 3EC8398C BDFFCDE8 BE9AE003 3F4CE6B1 3EF8A7BD 3F4F6F2E 3F5A58FB BE847661 3EAC925E 3F80BB3A 3F5B579D BEAB209E 3F2462C1 3F1E9EBD BCB52B92 3EF26F28 3F67E8A3 3EFECB79 BF0BB507 3F454B70 3F8CB03A 3F16F409 3F28652A 3E935410 BEC64EFD BF273A5C 3E1117B6 3EC2B14C 3F634DA5 3F40DF4C 3EDCAD0B 3F8A8B04 BED13255 3F89A06A 3E2680D3 3E9BF045 3FA3B3B4 3E426054 3CC80990 3F62F65C 3E1F2002 3F6FFFC3 3F6797E8 3F69AC11 3EFCA427 3F7270AC 3FB7EFCA 3F7F5AFA 3F8617FF BF1CF940 BEA01954 3F108030 3F567A07 3F7173EB BEA3B2D7 3E0CD21F BEE9A858 BF8FDD5D 3F6CFB08 3E825627 3FB6AE05 BF07F1EB 3F686BA2 BF0C5C50 BFF8AF1E 3EA91176 BF248771 3FC1AF3A 3D535191 3F887947 BE334319 3FB228C8 3F2F1AEF 3ED5F21A BF156A33 3F2B1F0F BE317C61 BF3CC876 3E9A729B 3F4EADC1 3F6D9911 3F370801 3E3E86AA BE17816F BF88B7F9 3F28084B 3EB231E5 3F7F2511 3F67CBE6 3EA13672 3F65EFE6 3E4E4ACE 3FC6315D 3F167236 3EF124E9 BF0ADAD2 BE672102 3F8C37DB 3EE71751 3D5142BF 3F39F530 3F74AB84 BE12C979 3DD446A0 3EE6557A 3F7FC692 3F39E4CC 3F87A8D2 3E23E768 3F095BF1 3E8713D8 3F66D987 BE5F2F8E BE968814 3F56DC93 BEB07899 BE2F2616 3F921079 3E76265D 3EBBCFBA 3F53AD5B BF12394D 3F17D345 3E40874F 3EAEF391 3E135E6C 3E307248 3E8A6D70 3FBA6671 BEF7F7F3 3E6493D4 BD83AC07 BEDE1445 3E9A6FDA 3F487155 BEC64A6E BF56DEFA 3F7F9A0E 3E7F2E20 3F99652A 3F51E9BE 3F19BDD1 BF01D427 3FC834D2 3E7D6A09 3F6A9344 3F86C738 3F7B17B3 BFEF49DA BEAFCB32 BCF1A667 C060E634 3FC2A3BA C014748C 3F5775BE 3F7A8D00 3F835EDA C068D27D BD5EB3F0 BF6F14DF 3E312586 401E82FF BE925C5C C04393AE 3F5E6CB0 3F768F5D BCCD3880 BFC905C6 BE3D9E3E C017E05C BF38190E C0310FAE 404E8D6E BC9DBAD0 3D6221C4 C03BA82A BF025FB2 BE2CC960 3FA21A07 C0334CA4 C033E3BE BE077BCE BEBAB08E 3EA9573C BFA12698 BDDFC218 3F80144B C05BE2E4 BF070CB5 3F10552C BD86DBA0 C047DF23 BFC75CCC BFFBE210 BF1F260A BF440941 3F396851 BCDE4760 BF3C5796 BED9481B BE21FE10 BEC40F3C C02AB05A C0585251 C085B9CA C08AFF24 BE0A748C BE969AA4 BF37A042 401197AC C0AD788E 3EEF6FDF 3F905A2E BD9C73F0 BF83EB4C BD77A09A 3E94E270 3F741F18 BF0091A2 402E72F0 BFC2AEA7 C0298C2B 4027C486 BE5BB9DE BEB1B202 BF206DCE BFD40E1E BFE09727 BB289200 40815E4A BE952BD2 C0545E54 C049F9F0 BF9E0DE0 3EE143A5 C066FEE9 C05DE960 BEC897CC BEB78288 4090AE49 BE2ED9AA C02B280E BED367FB 3F735F37 3EDDB459 BE179DC2 C020B267 3B3F3960 3DF0A0B0 3B9B7F60 BFFF9C8E C0A6AA82 3E8105BD 3F8ACEC4 3C816E78 BFF76FCC C01965B0 40BB3495 BF05D4EA 3FB210E5 C038E321 BFED8EA2 C03F3078 3D3F2D20 3F76B634 BFD94325 3F4EA1A0 BFA3F599 3DC509AC 40867219 BFC38EA6 3E90B919 BEC3642A 404BE208 40475EC9 BF8C3F9A 400C41E8 C0C992DE BF956E4B 3FA55E82 BF03CFFC C02E1CF8 BEA253AA 3E9C09F0 C00916E8 402873FF BF417416 BFCC768A BFADAF70 BD164B60 3FDD5461 404031C5 BEBFEA12 3F1C1B69 BFBCDA8E BD8ABCB0 BFCC6F68 BE231007 C0CA82D6 BFAE303D 3FB600B8 BF23211A 3F1F8F9E C02B6AA7 BE9482CC BED1667F BEA4576D BE0D7172 C02F03E1 3F83F781 BEBEB9CB 401E9A2A C088937C BE8B2747 3D9C12E1 BFDF7167 C01E4A74 BE944325 408D0A17 BFED3C42 C08944EE BF229AB2 C01F28BE BBBB49F0 BFF57690 BF104E2E BCFD6760 C0276D4F 3F9CB663 3F80FAD0 3FF626B1 C0763701 4061011C 3F572212 C0869C3E BF949F7A BCBD6740 BD821C44 BF16C19C BE91D236 3EDE53E2 BF07287D BE0F5455 BF8D6BD5 3FC0C818 C033343C BD658B00 BE71A2A3 BF5D7AF9 C0510792 4008F53F BFF05BE9 BFB05548 BFBB7A61 BC863DA0 BFF4EC12 3D4AA4F0 BD6B73EC 400A3A5E BDAEEAA8 BF6E44EA BF04565E BF0A6B52 BE9DB294 BF095E6E C075DF02 C04AA07E BE5A15D0 40243224 BF92B302 3E8A0636 BD9AE45A 3FE22462 BEDBDFCF BFD7D88C BECCD234 C02D2719 BFA21DC4 BF512F9D 3F66BCFB C0288F91 3E051880 3F9A383E 3E323040 C037A9C1 4036A689 BF5E2362 BEC6676E BEEE92F6 BFF0D566 C081DE93 3E32D784 BF106D06 BFAFB592 C02E382B C01DC6EE BF85FEA6 C0CF87C6 BFCFA5F4 3FCFA735 BE04F218 40292816 BF82EFD9 BF66F36C BDA0A5EB BD0268DC 3F3C94B2 BF1DC0A1 C062D2DD BF0B15C3 C09954A2 BF6E4693 BE85691C 3F7485FD BF5FB918 C0342FA0 3FAD99A5 BD840EBC 3F3F5876 BE994B13 BDCA2AEC BEA603FE BFFDEC27 C0715EDF BE43EE98 BEE07C24 3DC425A2 BE4D56AE BEA8C70C BF3D90FA C0172860 BF525C84 C00E7B9B BE373708 C02674AE 3E200868 C0A86364 C0124826 BE17E632 BE01638C 3FE44727 BDE2022E BFE222E4 BFF92CB7 400C7763 BEB49D34 BF1984CE C01FE074 3F5A8917 408DA9F6 C045D552 3CEC7620 BF06CA34 BE41CFFA BDBF152E 3FFFCFDE 3D317BB8 BE1081AC 3F5FD9AB C09F49E8 BF11091A 40580D23 3D923270 BDB572BA 3E543958 3F39A967 C02AB0B7 3F1107BB BF69BAFA BB3D6800 BF04943C BED93285 3FBECCC2 400F4B1E C0DF373C 3F76FBEB BFF8A7EC BC812700 BF426E49 BE1437AE C095DA19 BE2B9058 3FB0805B BE80E152 BFC61014 BE730FDC 401EDA3E BED3810F C02CAAB1 BF39CCBC BF7714CE BF6564D4 3F3D74FD BE176882 BFE90439 BF33E71D BFE01A38 BEE41226 C053CE84 3F4763EE 3DDD2F00 BF8737BC BF8975EC C019FE3C BE647A30 BED2B128 C01DED10 3FC7DB17 3F1748F4 BCC370E0 3EE1D73E 3FD2E402 BE0EF548 BF901D68 BE4D0F52 C083A9FB 3F17A8E4 3F1876E6 3FE6E936 BF105591 BF7A9812 3F481D45 BFD0A4AA 4067D1C2 3F33E30B BEEA01E4 C0786244 BF2F984A BDA60724 3F9D349A BFDD73B8 3F9DBD8C C0775172 3F23FCDA BEE67C9E BEA644FF BFDA95FA C0BB5C72 BFF32414 3F58E8AE C01649A2 C039C598 3D80394F BEF8BBA9 3CB5F820 3D45E7C8 3F3F4444 3ED69218 BF182CEE C049FD28 BF3BC3C7 BE76241C 3F3F0C72 BEC8E72B BF97D409 BE852B7C BE871A68 BCCCCB60 BD62CAB0 BD7CFA90 BF3E9E06 BFF87179 BE0DFDBE BE55CD38 C00446CF BEE6CBDA BEA3B776 BFCC0627 BFD1C167 BF9B39B2 BE084421 3F4A8B1A 3EF6FA56 BFD388FC BF3440EE BC89E040 BFB549FC 3FA61D8B BE2EE640 3FDBD7FA BF8E269E BE8C2075 C00B9A32 BF0EE6E1 3F184369 3F255E60 BF6D4217 3EFE71C4 C05BE50C 3F4ED9D4 3BFB87C0 3FA38065 3F20BBBE BF2F179B 3FDF52E9 3FE50BCC BF1B1093 C0548AA7 BE0C8302 BEA4D537 C0794DB5 3FD657F5 3FB79780 3F5C68CB 3E8E3206 BCAA7AF0 3F7263CC BEB94EB9 BE08ACD0 BF8B0452 BCDFFBD0 3F4F635B 3FD003A9 C095963C BE88F024 C040AC60 C008ABCC 4026ACD6 C0011B84 3FF6CFFF BD8AB768 BE3FB9C6 C01E0CA8 4045F77E BF858F72 BDE6BDA2 BF530C70 BEA6057A 3E94DD2C BF6AE550 C01BA47A BF8F3CDF 403DD53E BC4E0D40 3F55916E C04E4C66 4020390D BF43EF42 BF2885E4 BEC28473 BDE6DD18 3F2A09E4 BF9DD07C 3F52DFA6 BEC6F64C C04CCDA8 C06BE711 BEC7B08E BE2C30B2 3E8FB96E C066365B BE879651 3FB9C2E8 3E420F65 BE3607D3 C0722470 BF804D3F C0A96776 C03EC01E C024D568 C003C259 C0107DB4 3F2888C7 3FF6ECD0 BF088BEE BFDFD059 BFEF2DDB BF008014 3EE255B4 BECF995F 409A04DD C03A29E5 BF00758D BB0B2F80 BFE41176 3F945CAD BF672DF4 3F4A3253 3F4EC478 4033E74F C0270796 3EF32481 3DFEE3E8 BE840C3D 3EBA8F10 C05746D4 BD991CD8 BFF00ED4 3FBDEC37 BF0BBBBD C038FBA8 C01D0FEC 40433084 40A361D3 C092491A BF42D7FA BF684558 3E2F7D58 3DF39CB4 4003E55C C022C237 3E7BFE3C BF4A064C BFA437BC BF67E2FB BFCDD120 400D6B18 BFD00DC1 BF8482B6 BFEDA472 C0A366F2 3F7B709F 3F838E63 BEA75491 BD06C890 BFC33EC2 C0493FF8 3F4B4CDD BE893DA0 C0063D7E BE3F6554 BEC7FFE9 C03E5C43 C04EF4F8 BEF844DF 4008C5AD BFEFEE12 3F9A7000 4084F652 BD803B31 C0826284 C003C2CB 4009190A BE718655 BD456260 C046A829 BF3DEF06 BF6DBA11 C0FE33BB BF46AEB0 BED0CC3F 3F910C26 C04679DC 3F081606 C10727EE 3F6BC144 3E3DF96B C019A773 3F0527CE BF79353D C041D8A2 3F852E62 3EBAE740 BE774ABE 3C132CB0 C083F27A BF61C942 C00410E5 BF227F98 408386CF C00E9FD9 BF33CA43 BFCC4A66 BD8A6CF8 3F21AAA5 BE69BB72 BDA63B88 3F5E3C2A BF9FA895 3FC0C3CA BF9276C3 BE883B1A 3FDF93CB C008C4EA BE49B9E8 BFB1CBA7 BE6352FA BC3BED60 BE3736C8 BFEC3DF1 BECC542A BF8FC648 406425D2 3DD7ADDB BDF4D538 BF800C48 3FFCED95 3F6D2084 BF331BDB 3FE9098C BF26E9C4 C062386C C0539EF7 3C633E40 BE27152C BF00B4D7 BE9CDFF0 C0628CA8 C02D349F BF146A14 40676D86 BEFC4563 C030F73C 3CDF4660 BF3AE1B2 BED4569E BFF09F86 C0939F46 402CC00C C014670F BE5AF3B8 BEA55DD8 BFC921A6 402C05C0 4069A725 C05CE399 C041DA98 BF073192 3F54F6EE BD373810 3F84E941 3F91A661 BE503139 3FDEAC54 3ED80D30 3BED6100 BEF01FBD 3F606F5B BFE25046 BF53FAAA BE7C2766 BF48D34A C095EBCF 3F79E124 BF5F37BA 404BE193 BEAFEBA3 BE00520F BF5FB83D 3F168A5D BFBD3670 3E9A4D26 C02EFCBC C0A01792 BEE318E9 BF3D78BA BF10459D BEE5BC0C BFE23CA8 C0CA9B92 3A5CDC00 3F0ACA8A 3F8AAD88 3F79EFA6 400F0A02 BF928E99 3F65F3C8 BDCB7C5C 3F1CF337 3FA83FD0 BF92B1A4 3FF12628 BED92DF5 C08402F4 BE109814 BFA0023E 3CD6EFB0 3FDAA416 3F53B829 BFDA1D9B BD9212DC BFCC2078 C01887A9 4004DF72 BFDC1B03 3DB03340 3F0C0E49 BDBAF376 C07AB6B2 BE27C2E0 BF3C4784 3FE3DC53 3F9D74CC BE68177A BF64BBFA BDC735F6 C01076D3 3E5D1060 3F58A653 BED7173E BDB4E8E0 C007A772 BF24F295 BEF9D0E4 BFBA136B BF133C66 BE30DD6A 3EEA567C C01F9C4C C04F5886 C0340AA7 C0A3D37F 3FC4FA0B 40725ABC C0382B42 BF0EDBD4 C00C8313 