-- begin_signature 
-- ddr_init_ins_gen
-- end_signature   
WIDTH=512;         
DEPTH=15558;      
ADDRESS_RADIX=UNS; 
DATA_RADIX=HEX;    

CONTENT BEGIN       
	15557 :	3EDDFB6DBE85955DBEBE8C25BED2C253BD7321973E821C173E6DF0ED3F0858DABEC7B6BCBDFD75C13EA9767F3DFB2CC63CAAC8633F0EB8D03DDF01593F0A9C34;
	15556 :	BE9E81A83EF4D28ABEA88CBA3EED0E493D7F0EC23E3DFF57BEA6CF6E3DCE67F3BEDB3F9ABEE6DE45BE3A22E6BE9429D2BBF84F3A3DC33212BEA8A0E33F505A70;
	15555 :	3D9462CA3E674169BF0ACC3D3B8C40E33EE27C033EA155713EB4BA293DAF76A53E9191633E4105733E6301FB3ED2B04ABEC383373E8BE18F3F2E731ABF335DCE;
	15554 :	3E87820F3F1D800B3E0DC2D1BEC20E82BF011DCD3DF99C96BD24409A3EA0A6D3BD34417E3EC0B208BECC5A68BE206225BF348C46BE67A9683ED795EEBF1894C3;
	15553 :	BE9867E4BE773AD4BE93DD65BCBAFB8DBE70E8D2BE5F25F43DB4B761BDD68E5A3EA57E313D99F721BE7B09613EE368BBBF05A6173E897D123DB1C4833EAE7AB5;
	15552 :	BECBD3F3BE82B1653D1CA351BEECF2DF3E8140CB3DE1EB34BE4B8FAEBEF75A9E3EA354EC3EC71A0BBE250D99BEB565573F5898283F0E0A3C3E3508EE3E10A52A;
	15551 :	3F04DB5B3E1246E3BF2DCE29BEE430A53F03B31EBDE2C1153E5F6A56BE73C3813D6EA8B13E887A033EF534A33E8A2F873E42F25ABE6ED36C3E4B76213EC68414;
	15550 :	BDBFDA743E0992BE3F289EAC3EDE3ECDBE439919BE3BAF0CBE1A32BB3EABC616BCA707F3BE98A8013D63EFBFBE381882BF1BC93CBEAE6595BDDBE977BE0F05EB;
	15549 :	3E8DF5D33E81AA4A3F2BF66D3DDFF1463E4457BE3E38239ABE145D173CA5FE583F2C84DD3EAA38DF3D915B3ABEDFAD43BEDED0FCBED339933C9F945E3F88D135;
	15548 :	BE3F95E03EAA5D133E37111ABEC651D3BBDE46543E81387BBE9355793DAF75EC3D85E6AB3EA5CE3CBF04E4723E6358B73E0BD9443E76306DBE2BB167BE1E4C27;
	15547 :	3E279EE1BE42641ABEB69C553EF64D54BEFAF3CC3F306489BE3A6E84BBC3C12F3EC0226ABF2C5F523E64F6D6BECF49183EFB16EFBF0333053CAADFCB3EC565FF;
	15546 :	BEEDFF3EBD9B339FBE61360A3EEC8158BE40C0513E8881A0BE8B0F0E3F0D50D33EA559FBBD2DAD633F063ED23E850E223F20A6323E909A013E509B28BDCAC607;
	15545 :	3EB4B990BEBB2939BEE5A9873F254BC83E248F523E73AFD53EA723C3BEEBE7363C417285BF12B718BFEB6C58BE52A989BF1051DF3CBD073B3E734DAB3E090EBD;
	15544 :	3E84A8DE3D6925E2BE84C99BBD3569F6BF1BF8263DE732B43A8086E5BDBCCE3D3E44FC52BEBDFA71BEDCC9453ED299EEBF3BCE543E3C5473BE6D60AB3EC8D3A1;
	15543 :	3D1B87103E4ECE9DBE31C1BB3ECBB0293F2E70A1BC80DB9EBD05F1D1BE56F71EBE19839D3EB4FB72BF50D5133D0B16CA3E9A51E8BE08D5603E39A4CC3EC63193;
	15542 :	BE353BAC3EAF05283EF036BBBDAB626D3EFFB2343E2E8AB5BE798194BEA111283DC0BB3ABF0D86F33D6363C6BE7620D1BE8EEC2D3F2022DC3F025A35BD185129;
	15541 :	3DF398913E06B0573F19F0B2BEA6DA373EAB818F3E866B5ABE56E43D3E05ABD5BF05292A3E138DE33DD459493F01C8423E95E3E23DD0EF883F3D7FB73EA3769A;
	15540 :	BF06BD433EEDE6B93E2B12F0BE2144C5BCA120E6BFE61A48BE01CB5D3CFB2C6C3E0739B3BF0E9B813EDB9A93BEA5832EBC1D0389BDA3FAD6BF3F9FA5BF1357BF;
	15539 :	BDD8633CBE808CDE3E9AD1573E29A10A3F244705BD2F83A23E0FD2BEBE5A16C33D4944373EB513D43E138C353F3CBE013EFDA6163DBAFAC23D8D54D23DAE8F8E;
	15538 :	3E05F195BD28D6383F45ED5ABED6C2143EC555D4BE0318E63EBD7732BEB4891FBE567C693E82E4783EA839E6BE68E49EBE8A5D713E1BDF70BF045D75BD379961;
	15537 :	3E0FF430BCA1276EBEBCBB18BD2D1558BEE9FB81BEEE023C3DA7C66D3C8E592E3E89E0D3BE59603D3E744872BF0FFA263E2707ACBF1F1EA13E9159063ECF7FC8;
	15536 :	3F155467BD6782383E7B8D76BEA4D7E2BD956EBE3EC53DC8BDDF42D83D4712F6BDA12067BE850FB8BF0CB7CF3E23EA1C3F74C5153E4F84ADBD05BF13BE2599D0;
	15535 :	3E8504D0BEE65A883EB7A2453E58221CBD7A9C3D3E6DF73F3D0110B63D152C533ED43C8E3F1AA9ECBE6C758E3DCE108D3DC17066BF28AE123E38A24DBEF2C7BF;
	15534 :	BE01DBE03EF82408BDE1156CBF080E833ECDC432BEA43DD6BE61B76B3ECBC1C2BF1933B5BE316D6CBE6ACA4A3E855475BEC829B3BDDE34973E137C0A3D905E05;
	15533 :	BF13BB753E8D1E6D3D8E35D2BED55BC93E86CC92BE0F8CE7BE08CEC43C0B0DD63CAC46683F0ED0F7BE8D8DB43E8533A5BDE1AA36BF264681BEFD117E3D21EAFF;
	15532 :	3E3BD56BBEFA00F6BDDD7A9F3E3714653E710E633EB5C183BE7843EBBEAA7E353F2EFEE5BF5669093E6C8FF73E94AB643CBB9DD13EFAD00DBEE84634BE2FAE16;
	15531 :	3F0D46A9BE9E63553E96B6AABEEEF678BD4D6A4BBF7CB023BE990840BE17B055BDEC2753BDCEC2793DB35EDC3DE58E693F87FB07B830F3743EF055CC3CC01C91;
	15530 :	3E86352D3B2E6CFC3ED68E5BBE572E0CBEB425EBBE4CC999BCCB22BEBE6C697DBE3F12FEBE12FC0C3E3253343E10D6B4BC8664BABF410106BDF449883F3550F8;
	15529 :	BE34CEF9BE0E62F7BFB203DEBE8BDED03E21548EBE1687DD3EB54D583F0CFD8C3E875284BDA01E323F2AC0693E4BC4C43E166387BF37F4D2BD5B69CE3E017530;
	15528 :	3E7424F9BE595B9B3F05F9573CF74D98BE9231E03EC8F849BE09CB113D6EA44F3E8073003E62EA683EA077CB3DBD3501BCBFFC44BEAC307ABEC7C36DBE2A36AD;
	15527 :	3DDF46583E1CD2E33ECDC72ABD936B0B3F0608773E38FFC0BE987749BEF8D693BDD58F8D3E7974133E25E1D6BDE711CD3C20C6D4BE78D9033A90A61EBE9D78A9;
	15526 :	BEEF6CB6BBBD9FDA3D267E3F3F780F303EA4482CBE619897BDDC91AE3EC3EB72BD4A30573E80F80BBE2A26C03E64771ABD7ECF88BD1CE2BBBF05BF60BE8A0979;
	15525 :	BF365866BEB7C5DBBE8095DEBDCCA455BF1D37763E78B76E3E8B1B91BF3B5B6DBEA32B9CBD77DF7E3D117EF6BF181F813E15CA093D40D00ABE4CF3FEBEE4BAB6;
	15524 :	BE4D214B3EC83067BDE0DA723E7116C4BED6BC40BD7DBC543ED35E673E9129403D95DC34BEA63BD13DE6E83B3DDCA1623DED57BFBE74AC92BDB08CC93F2B75F2;
	15523 :	3E9F32003E374531BDA7E518BE6373D43EA0C201BEDD7E7CBF0D634FBD9B535CBD6BF3EFBE825CF4BF4C7CBFBEA243BE3CD7EFAF3D36EFFABDAB2DD33F5C6C24;
	15522 :	3E9105CFBDEB2A7CBEC953D33D0BAA53BDCA21E5BC65BDC2BDA94752BDBED7F5BE3E00403E0BD95E3EB2DFA03E0FE0A53E868BB93F23D1CEBE0624BC3E9F789F;
	15521 :	BE33A956BE25AFA0BDD062EB3D7B64A03E7A099D3DB8B311BEAE9D05BEC3E353BEED0081BD92A6CE3E850682BECA8E75BEC4F285BD7F7A8C3D9CECDA3E5351CA;
	15520 :	3D61999B3D0E03A73E757081BE5148D0BE85B3D0BE9F684C3D41971EBE628D27BF66BA94BF03644F3ED2C5983E9492D0BE9556B1BD1D71BB3DA474113D4B33E0;
	15519 :	BE28A28C3D28CF0CBE20775CBF0797943D3AAB67BD8618713CBA12D63F3ADFFCBE4AA249BE0C626A3EF78EAFBDCB97F23E568DF7BF456BAEBE8390ADBEF28245;
	15518 :	3EDAF9ADBED49211BE3A045C3B00A3A4BDADFC70BE3B5C43BEA74C4FBEA85FFF3EA952DDBDC70E0BBE07BB87BE887B8B3D8002ACBDCF47013DFC905B3EBA4F18;
	15517 :	BF2EAD1ABD03810CBE9D77EC3F04BDEC3ECC09ED3F198CED3DACEF44BDF828F73E3618A9BE19747BBE4AE397BEEE0D87BF2C15BC3E00051A3E12AEDD3E8A81C7;
	15516 :	3CE16FC2BDCB49253E282DA2BE0E1750BF2FED5A3F00A8DABF0122F73E099D613EF62AE0BD1FD902BDE2B837BE1850B83DB05D4E3D81DA48BE756DFABEAF7018;
	15515 :	3D4469113D8114AA3D77CE143E850CE83D65D6503EADA3ABBE286947BE733F783D8DE3A03E84E058BE979D03BEC540EDBF052DA0BEC862A0BE858FB6396940FC;
	15514 :	BF50E1F63E6BB638BDC5DF033E0EA6C4BD9864C33EF41D96BE11C33C3F0DAB95BEC19C89BF0D6855BE28AE8C3E80E00CBDDB9D963DAB11D13E26B6403EA72F1F;
	15513 :	BD9379C0BE8DE24EBEB00B30BF27345E3E3314C53E033949BE0387143E64D778BD796BDFBE839283BE38F2C73E0595113E99BE2F3F1578343DDCB881BE6CA18A;
	15512 :	BDAA1886BE6A18153F4D1931BE3560B5BE2F75E6BE8263633F3F9370BE5563ACBD91708BBD6FED8A3EB5587E3E8933D4BE8CF107BD43748C3EEACDDA3F1AF940;
	15511 :	BF068DA0BE0F74453F6A719B3E18FCDDBE51B7A33DCD96553E0827F13E1D6EFA3EB0C9393CBED7ACBD23554CBE8C64733E13A5D63E874E28BE8C2E6F3F039EFC;
	15510 :	3E82B45BBF5161C73EBDD2373E702F09BEB2C41D3ECDF28E3C02E93D3EF174B53E8D8AB1BE5E1F1ABE0A7CEFBEBAA003BE83DA8D3EC4F253BD87519A3E82D68B;
	15509 :	BF1F9279BC672479BE57DBD8BD2E55433F0132593F05D1D6BE831CD33E7D8FB9BCDE15BABDF062563FBCCD8EBE806CF2BE0F31A93E532728BD8B8778BEDD6521;
	15508 :	3C482110BF4634CB3E6308F3BF1150F03E1C79A6BC586266BEBA9C843EB43F0A3ED106283E81299FBEAA868B3E3724413DA0E90EBDD359A6BEF85F7CBEEFC136;
	15507 :	3E422AEF3E3EA66C3EB6412B3ED352B43D0D2111BE12841A3F4691CB3E7D1E053C8CECE9BE6971D1BF241BE8BDC965A93EFD87F43C1982303D93F5313CA8E86E;
	15506 :	3D880EB13EE3E311BEB13AD1BDD4AA81BE214EEDBF103CD0BDD847C03BE4F5293DBBBB363E6085883F1C2082BEE7C14CBD8BCCD2BE1733D0BEFA1C3B3EB6BAA5;
	15505 :	BED74F033F0B440F3A4E6287BE8B7A113D38886ABDF18EFABEC97B453D2FB9E5BF0361903E24A2AE3DA88335BE2F419CBE2DD39CBECE4171BE0DF41ABDADBC2C;
	15504 :	BE3A4984BF067B053E0FFBA4BEAD58863DB1B1BC3E8020ECBD77A0E1BE63F5173E9C59DC3F36FC80BF34B9C43E6C965CBE005DFEBE4E266CBE9A46203E54112E;
	15503 :	BE1935A9BF56DCAABE1C7FD3BE058A533DE1DD543E039AF3BEDCF70EBF2AA947BE58ADD73EF92A7EBE6DF9123E0E4D383EB12ED7BE8C83863F2FC1ACBDC9C57A;
	15502 :	3F589C593E8F69B33E3B7BF3BECABB4CBEDC9C19BBD251AB3EA5D745BEEC619ABAFDCCB63E06A3DA3E6DCCD03E944D353E4F11E63DCD21093ED056F5BDA3F335;
	15501 :	BE360D9A3D2A3D093E5BA383BE0537313DC629E13DDF3D473E01AD09BE1178413E5A1CAFBECE64073F4175AEBE81943C3F065E253E3F0254BDC81B943CB73066;
	15500 :	3D4624803E6366273E1CCFC0BF615BF13EF05E463D116874BF2215143ECA1374BE1EA65DBE50F941BDA1FD3B3E081FC63E55000FBE9493CD3E2FC911BE7AD6DF;
	15499 :	BE2C57F7BDA307A9BCCDBA96BDACA0E73E0FC01DBE256014BE9EF6B5BEF3C077BCD01AEBBEEE740FBE07DF5DBF4F62DBBDBBE730BE62D6E0BD0090D73C1E065C;
	15498 :	3D206FB83E059369BE970A22BE1AC2823CBA82463F01C2FABF11BAA1BF5F2D643EC3B0DABE99AAFABE8C6123BED55D0F3C3CBC50BE0977C63EE613D4BF17D1D9;
	15497 :	BEC3695D3E49B69C3E9D656ABBF4C2FF3CA1853CBE9364253E3F0DFD3ED74D1FBF2C0CDDBF1A872B3D84FFFD3E5A5D843EC70461BE7AA1F1BEC76A06BBCB58E8;
	15496 :	3F0BF8D2BDFB4AE83EAE3D02BEB10227BE8D51CFBF3580E1BE8772B53E75B95B3EC83EB7BDA7EA8BBF22C622BDE3217BBE9CA82BBDD04EB0BE36B186BEABEC1C;
	15495 :	3E83AF61BF20566E3F5BD58A3F0C90F7BDCB40A2BE888CFDBD31A0473EB31A90BF0F38B73E4BA0A33D89E9B23DA5E0F8BEDFB08E3AC1901BBDD49B4ABB65FE53;
	15494 :	3F0058C3BD25FE7C3D7C649B3E96FD633E04CBE33DB88137BEC3F298BEB3ED80BE45D79EBF35FA803DC6DA893D9D8E183F22F53D3E7F950D3DF3FE0A3EA9647D;
	15493 :	BC347D00BE980AED3F078E9BBD832DC7BE9B1600BF0D90FB3E4C31C8BE185EB73D3CED5BBEC14D24BF03397F3EAEF250BCEAEC96BD9A93993C6B8C54BEB85E7A;
	15492 :	BEC48772BD9C74E53EFD0BC9BEA144903F956AEB3DE783B13EBA814FBEB53F573E11D7EB3F83DF64BEA316C23DD5F5FDBF160C13BEA433FDBC21A8B43E2E07B2;
	15491 :	3E984CFFBEE54667BE8508983EBC9562BE959D653BA29D903C827BEFBDC7343E3E2880D83E9541763E3CCC813D2C23BABE57030B3EB24964BEBF3A9CBE8AF0BC;
	15490 :	BEAA8912BE76C9373E8944AB3EA684C43E3AB5473B1AC2ABBEBF2E463EC872D1BED9F6B4BE5C4F963E0D96863E1E6C1B3F1E1B14BE560F2C3DC99E843EB3B32C;
	15489 :	BDDDBF05BE0DB2323F2AECDB3CF128CDBF0390003F09794C3E86360DBE6460143E6A86A7BC6FEB6CBEF30EE7BD61F7163DC38F6C3D805A533DA3F995BEAE51EE;
	15488 :	BF09A5E2BE23EE213C4475783EE097E5BE722DA9BEF64D033D6995883E15AC8FBDDB14D4BF207C33BEEB3FD1BC7C8ADCBD940A973E7465423EBF75F93F263331;
	15487 :	3D7AD5B43E1D6250BC786E7BBCA27A6BBDE1109BBD8AFF593D7B6A603E5C145D3DB5107D3C87DBBB3DCBDF9B3DF3F6D4BCEDBD5DBC94EAB03E417D963D13BADF;
	15486 :	BE06A9813D4B8B05BC0F89643E8A5D54BD2F861EBD3E409B3CCF762DBE0D73AC3D1DF5C73D5912A83E725A5EBE24FD893E0D16863D6B1F1D3E1A992FBE81BD3B;
	15485 :	BCDF26B43C96975DBE7345D3BCB97C14BD1EF6CC3D3B7E9DBD6DBA5A3C9A4E463E072ECC3E7EDBE73DFAF368BE30ED59BDF0638FBD705B7CBE1E9E903DE6B2B4;
	15484 :	3E0CF7553DDE34ADBDD2AA1E3D9928BF3D484DC9BE0046003CEA52BEBE5B25C9BDEF642FBE0E901DBDE78FC4BD12F5E2BD55C1FC3D6018963BC2858E3D52C1CB;
	15483 :	3D4C38733D1872CB3E9572DC3DA587743C95C5B53BE79E383D9EB7CF3E894E9FBD84DC663DFE2DA43E1D8DB73DE3522A3EA351653E941CA2BE4229B7BC474F17;
	15482 :	3E1A0CE53D4ECB213EAD449ABC9D09B8BBA3C532BC997927BCE9D7E7BCBD6CCD3E3C30083E07EB3CBE0501EABCDA36A7BD63AF653CFF3BEE3DC95D67BC78651E;
	15481 :	3E1C42193E00C9BCBDFE28EA3E027505BD6D8AD0BE139186BF0AEE15BEB2A694BD5F05F53DBB80873E4E4D093D95EE613DAAD04BBDB76BA8BD8E2582BD3ABF6F;
	15480 :	BC4CF026BDFB936BBB651216BD1920943C5E0DF0BE03455FBEBE23B43DB6569DBD220BE73DC169103DEFBCA13DEE51C1BD993E833E97569F3D91873FBDDD3FB7;
	15479 :	BD41CBF93E1E037D3E1C61993E13D0E2BCE8568F3D9DA697BE1B02F7BD97FCFE3DF6667CBD8B714A3D6E4EC9BD41E1D1BDA86511BDFD0F7B3D11913ABE119D3D;
	15478 :	BBBF434FBDCA0DBEBDE4082A3DA51C123D8A625CBCEF4843BE25C0E6BCD561CFBC8812F63E3737C23EAAAAA03DAE80C6BE1C5A87BB827A8A3D2B11C4BDE83AF8;
	15477 :	3D934AA83D97482BBD7E4CA43D8F3E433E5141CE3D7FF98B3C0AD3E2BD8CD90F3CA411913E8000CCBE0D9F15BDDC0620BE1F6D43BC9D2A103E872BE7BE7EDD2E;
	15476 :	BCADF48BBE9403743E42DC20BDA8E815BDB9A85CBCB905B13DDF042CBE2B2F713C38A81C3E757DBCBCA3A1C5BCAE2F623C6BFCA2BD6B81703E3DAC30BE6764B2;
	15475 :	BE0758A63D05886ABD010042BD235E6D3D347BF03C37E615BD3885AABD91418E3DD0C2453E0664F03DB29D3F3DECE31E3E8632303E1CFD1ABCFE680C3C362923;
	15474 :	BD99FE163C71095C3E0A2E403E5A33BC3CEC65BA3DEB3352BDD6ABD13DFF984C3CA1188B3E2ACE523CF1241ABB9CBB8A3C7B53B9BE9168823D141C62BD91E8FD;
	15473 :	3E5C612BBDDA8BC63BCAB108BCF8659F3E1EBD083E64C5FF3D01F5A6BD82F6543CE206DD3D9ED9D73DE30697BDA8EF3ABD159C08BD9D34F63D284DB2BEE1A414;
	15472 :	BE5BEEDEBD7622A9BE36721F3D17A9B3BDB2FC4BBBC3879FBD2ADBC93E13D96E3B7FC9003CA78581BD5913213C951365BE1093C6BDC5EF6B3D83687CBDB9D7BD;
	15471 :	3D83DA423E0A8AA9BE2DEA56BE56011DBCDD1B66BE257AB13D9B1B5ABDDE190A3E1E3C9EBDCE66F13DA5A7C1BD9CBBA3BDEA412C3BF5A1B33DCCD5883E1EBF86;
	15470 :	3D6322E63E075AB2BE51DD033C9E53C2BD8CD1FBBE2EFAF1BE90F58D3DF2264D3D86DC123DE14885BE073B0B3C807293BE34B0103D544C45BD7AE90B3DCA419B;
	15469 :	3D87FC3ABD282A653DE372A9BDB729C8BDE24412BB8366293D34E6DB3E4CF4FA3D80542DBE1E90B83CF3203B3E01DF93BD4FB2273D7B7242BE86840DBD7BC6EF;
	15468 :	BD382B153E8C8CDC3DCE4CA7BE44DD22BD1F47D83D9524B13D4360173E7903BFBD3D908CBD09C965BCA706FBBBC0F3623E2BC5763CF4CDBD3E388937BBB16691;
	15467 :	3E729AA7BE23EE763D964E503E8A2C033D2DB9F3BE04117E3C8F86C5BD60CA863C88C51E3E2C52E9BE8E42FC3E8B6CE83EBB877C3E400C153CB3D21E3D23476F;
	15466 :	BD63720EBDA1A049BD72C52F3E077E6E3E0A6B1FBC8D29A5BD8208FCBBC8B0FBBD08CF23BD92B3233E200B5E3D25DFD83D2D1CAC3D66DF933C1CF7DE3D924E2F;
	15465 :	BC9679653E3B778C3D4250423D9BD4523E0B3F9DBE0F212D3DF77B86BD35470ABD8442C3BCBEA4F2BCF9A853BD891C3E3D1369953E5D6671BE275D303C725F51;
	15464 :	BE0CE3C03E075165BDBEF265BA2076F1BDD4DB8EBD2A8413BCC39CF83D8156E4BE646C0ABDAF5A3D3E1AECE1BD78F69CBE0A6D8E3C4DD8EFBDBCCED8BCEF28BB;
	15463 :	3DB8E1F03DB9DFE33E9C84633E2C8C03BD6871BE3D74BBC43D9B0410BDFB293CBC4DB488BD0EBB85BD7512053E8000143D081ECFBDD107CE3EB134F43E78B82A;
	15462 :	BD460FF33D94F53A3DB49DF1BD42B6703DB6E52B3CCB8D713E471E613E87AC643C99DF213E142B7FBCED1D49BDF6381EBE3CC1ABBD6BE2DE3D31DA90BCA85837;
	15461 :	3BA2CCD43D442629BD4DC988BE8EA1D9BDDB949ABDD9CEB93D136F4A3DACB3B8BE5D1B13BD80BBF23B6E2C8BBCE866153DF2BB99BD56761E3E19C739BC8EC125;
	15460 :	BE176CD23E34D323BD3C1B503CBA804ABC687686BECEA067BE0CF4873DDF63F5BE8441ED3D7347713E44FBEF3E91D742BD62D3393E7A35D6BDA5A9EFBD5DDC5D;
	15459 :	BD4961EF3D4B0F883D4CD7813E6D24F63E40C6833D98B35E3D1B38EB3D55577E3DE7EA8EBDEF50703D8A2668BD9D281C3E043E0B38FC2FABBD81B4FBBD8A1574;
	15458 :	BD314A413DAAB0A1BD441D19BDAC64583D75AAFDBD3A4484BC9617EF3D9F879B3EA8ED44BE0D65383D1EE4653E021AE73D59649BBC5636FFBD95E7A23DF2C547;
	15457 :	3D7652313C0FA71BBD543D163D7B6B86BD76B0E0BDEE68553DB236A6BBCF53BE3D0B2C1E3DF929083DAA2AB3BD9F3EE73D5DF6D4BE2CA6323CCE5A04BE5E8EBA;
	15456 :	BCFD28DF3CA9B41F3D0C5719BBDD80A9BDC4C814BE34B321BDF766483E831E3A3DAF26FD3D1A4023BE199F733DE4F03EBD694C6B3DC43786BEBCE3A4BD1DF2C5;
	15455 :	BBD593923D88AFF1BE8F262D3D7A4096BE4CB34B3D241E613C820FEDBE206BC03E4C380BBB9E86103DD8BDA83E19A2533D2578EABD8F50C93DAEA98ABE273543;
	15454 :	BD2F19ED3C9855DE3B3574F8BE3EB0FF3DC75DF83E553E5FBCA45E8C3E22FD4E3E09BB913DB7B3A7BBE03A883D66758CBE3958283C1714E43E0E7B83BCD11EDC;
	15453 :	3E81E1AFBDC2B1273D010EAD3E49AC9D3DB29F77BE5633A4BC88B996BDA976F43D169C4EBD0A67463B843BD0BB89DE703D4C3AF0BD81DFCC3D269991BDE974C5;
	15452 :	3DEA3248BD7CD8903D7491B9BDB916D9BCC3D3C13E95DE193B9A26A13E768F99BE7582FC3CE23D47BD494DAA3D7AF627BE6AEA0BBD5C04C1BE110C383E287BB1;
	15451 :	BE13A2053D7BE084BD8D9D613B1853273D4382CBBE1DB56A3D5925103BC803833D8FBD8D3D28DC803DAFBC75BC1B63113D9125383D84E503BD3894EBBDB9514F;
	15450 :	3DCC105FBD8B89BD3DEF075F3C20B9193DDBBCF3BD92D2833BEF7563BD7C37EDBC233012BE16D4ABBD8FC667BD7B52763DB1FCD93E3276743EBBFE86BE8ABAB8;
	15449 :	3CF813663D8A163E3D6471DD3C8DD51CBD8890493E05D8973E44BE11BD130216BE080A72BE82E18F3C955072BCE99BE1BDE338C1BCEB03D33A9FED5FBAD8CE78;
	15448 :	3D6B17CABE51EFDA3E39AF2EBC54E31A3E68B7E0BD08A91E3D42C1B13BDF97263C89E8C23D03E8A4BD08FC4ABCEB3FFD3D8CC2DF3D566C363E131EE5BDD3C6D1;
	15447 :	BCA3DFA3BD8BBCC63D1F370B3DCDA687BD8C7A10BD58FD213D1C56B43E1D7125BD47492D3D52DB633D355DE53E91A165BE3CA7B83E21AFFF3D74AAA7BD4E6B4A;
	15446 :	BDD173093D1853FFBC4E2AB73CC69260BE3551E23CF0AF6E3B1A57E83C2CBD9E3E2E83D23D891ECABD812579BD0397FA3E0EC4563D43D57E3DB7927BBCE0F561;
	15445 :	BD7BAB33BCA2FA7EBE083BAABDC0A4363D80AC36BE3144843D432751BEE8E5673DD6B2EA3D4D37483D50080B3CF90AFB3B2F2A4BBDF4A4073CD49B33BC724AF9;
	15444 :	BCD9197DBE0B8E40BC6B76C1BE0A3A683D02B30FBD8A263ABD8A152C3D1DFADE3DB287EC3E1E9EBABE3C2A1EBC123125BE069E063D7A34733DB3D906BE717EC0;
	15443 :	BC6119743DA1851CBD5385B2BB942054BD9E61E8BCE13B59BE331836BDA8A2A53DF58C76BE35D0FBBD346D3CBC1A6991B97FED103DC78B8BBD0E3DE23D1C8000;
	15442 :	3DA41E19BD48949B3DA6A9983E0D225EBD3AAF633C7AC1BCBDF78555BE1912CB3CAE5F44BA99ACACBD61A4C2BDDB4D8C3D063D13BCD579A63D43D9A73D294F00;
	15441 :	3D5F6185BD22C443BD336D113E0E8EFABE39FE7FBD8F8EAF3CC3DF1F3B2FB14A3D7F32D7BDA2B984BD81DBD23D7B4A2C3C7A190DBDC4E6FABD8F03D5BD6B87AC;
	15440 :	3C40A44A3E090BEBBDDA6CD13DAC8181BC1D15ACBD120A00BC3760EBBE39B9C03C3BF60CBDE2BC6F3D11AA1DBBC4A1DC3D841D26BD376CED3E8CE844BE9FA639;
	15439 :	3D05391ABC5D1240BDAAD70D3D2F4AE0BD83B0BA3D59336FBD58C7FABCAE8C48BD73F4423E20B2FFBE6203C93D0C5957BE1823983D8DA75ABDFA3294BB71CDB7;
	15438 :	3E0CEF49BE03927A3CE9B0C73E1B62C53D0C1C0DBC46F4B13CA9E25ABE0D7E983C8FDABBBE4771B73C9A99DBBE1CE9413E1B205ABD93586EBDF4309F3DA0FAAB;
	15437 :	BC606561BD611D213DB04C01BCE7EB5FBD2ADB5C3D9C3E513EE1A5F13D802EBCBD78BC89BD4CD440BE996A2B3BA8EDABBCFB7B61BDF155083DE2400C3E1F3B5E;
	15436 :	BD31B7E63D9C7A75BC5C316CBD68D3F33C2D85A73DA9AADDBDF5EC443DB8E734BDFD09CD3D7B013FBDD6C1163CE7C0A9BBE5A091BCF1BF233DDC57063D1B53E8;
	15435 :	BCCF5CBDBC03C65A3D50FDFA3E2E492CBD01BE113D9AD500BD27F9CB3C833AB13E6120C43DCE597FBD76F0C4BC5B37EDBCA81DB33D298D78BD932D9E3D3D4699;
	15434 :	3E0A03CCBCC0F9A33DBE14E9BDE5F7C9BB902247BCA413273CE63D46BE59D8A4BDE41DA73D597C8EBD5B23E03DA4F2ACBE76D05B3C31B69ABCAA30AD3CB6C0B1;
	15433 :	BD43546BBE174598BE04B53DBE2C61E7BDDFC985BD2198143C14F91C3C8EA3643DEDD43B3D91055D3D739209BDFE3FAA3D3E3D7D3CDB5A983D8771DA3D87C018;
	15432 :	BC1341DB3D7C0016BC8F1373BE0A01E5BD19A9563D77F8553CD145BC3C0405B9BE8BDC433DF1F7DF3D11904ABC0B6BD23DE178E1BDA6A736BE5B3DCCBD2AA2E4;
	15431 :	3E1AC1003D8A54B7BD718AAD3E10FC0B3BB987313D21C483BD84D3923C65A1753B9339313E210665BE16A94BBD91F32B3D99413ABE0FB8BEBD8AC569BCA13D97;
	15430 :	3CA462E7BBADC7373D02AE53BC2871A33D8C830E3D0D2F2B3BEDBED1BE0215E6BCB7874DBE4D74D63D611C9B3E69B3113D8FED8CBD4F317BBE9B5302BD68D605;
	15429 :	BD9184A3BC339CACBB1163DABE172C7B3D018EB03E04CEACBD004474BC3D6C6EBD749F0EBDFC48E33C9491AFBBDFE036BDBB3BEA3E26C60E3E135E333E2160F0;
	15428 :	3D93BD163D87651F3E0D9FEBBD4EDAB3BD8B14A1BDB50C1CBDC0F8CCBDAF6B36BD46AA80BDDE7F803EAD28573DC0ACE3BDF6586E3D898DA4BCF37FEEBD80BCDF;
	15427 :	3D59E2DB3CF2700F3E656D203E2156E03CFB7AD93CA29A223B41615F3D08D1D73D288A4BBC49644539F0D0603DB767A8BD9B0972BD9C9AEBBCF8F984BCF553DC;
	15426 :	3EACC4C63DC7AC923DA5C323BE0B32CABE03D2533DAE9F07BD87A9F33E158246BCDB23B7BD94BAC33D2943F5BE82EFAFBCA136FE3DC12A213C44CAB2BD60A591;
	15425 :	BE3E703CBDB10DF5BDA1B6C73C88AE513E1F80D4BBEB00603CB7E45C3D0D5F763DBFA3ECBD53E1B53DC2650F3C79A7343DB3CDCE3BC4F0043C2718563D483BF8;
	15424 :	BD6061C0BD73CA353B3594CBBB9E707A3DD79AEABD1D863BBC8C53E23D9389493D1D59DFBD28BC6FBCE4C9853D260C00BD5892C6BDCFE315BCE8D99BBC45AB5C;
	15423 :	3DEF46AEBD66C77B3DC965CF3D4CF225BD7F735F3BEA230B3D83A4F7BE05F81B3E2CAE41BD9FA1BA3D69E0983B2A81553E17D1F7B95B0D2A3B848D2BBD38A836;
	15422 :	BDFB11EBBCF4D3373E4EB06B3C78BBB63E1354393CF830D03DD1D125BD0BF327BE15555F3DDBDBB93CFF689FBC4C7240BDF4CD97BDA6068BBE40E89EBD34DA27;
	15421 :	3D1DF24CBC1098BABEA26E84BE30F227BCD09D553C1CC5703D95648C3CE6AE583C00FA43BC9C34BA3DFB972BBC933964BD83BFCE3DEF56C9BD57316C3E3152EB;
	15420 :	3DADC1153E0CB258BE0C7AA0BD8D942A3C639847BCD40455BD878550BE113493BDC37F92BC1B7DDB3DA2D5E6BD39F6FB3DC93263BCDFDFCEBE0396D83DF1F58E;
	15419 :	3D1AE49BBE0986E63DCFE8153D839D9E3DF2783E3C9F1011BD3A431ABE4D47E53C3A22DBBBDB33D63DA827173C39E4CFBCD301EABDCEACA93D8FD229BB85444C;
	15418 :	BC8A40C43DD6FFE83E0C86883CB432D53E02A0B3BD95FB763DDE86FCBDBC92D3BE171761BBCAB3753D50B329BDDB7BD93DA51C77BE05F0893E2CD52D3D3055D2;
	15417 :	BE5213523E431785BBD36700BD4A1E753D29EFEBBE24FB0E3C740FE23CB42EB6BD9639413D6026D6BE178ED4BD9AEC4FBEB278313DCC28A1BD3AAFC5BE54A0DE;
	15416 :	BDC049F5BCCED4FD3E0EECBFBD9F887EBBBCA43B3DFE01643C80A3653DEC9A1CBCCBA2A2BD0962C7BBD48B0EBD8200C8BDA2E5243AD354B2BE163DE53D6F1D52;
	15415 :	3C2E41C1BC2E24103E276B61BE8727E6BD1DFA79BE0F3992BE9C1D4A3D77E1F73C9091093DA8007F3CAD14663DBDF6DABE21C163BF75D7C33E0649E63D7F8055;
	15414 :	3E2F8C6A3EF130BCBE3C0C293E461DBBBF38DD413EC23BF6BE182516BDF3C7C8BCAD18D4BEEF4995BEDE9FF0BD8BA60BBDA93005BEB2CDB33D8A3C5BBE383942;
	15413 :	BE40B28C3DF248743EEBAB053E303275BE4D19D3BB747DE3BDE91DAB3D1D7360BED2B6633F747C2DBEB353A63DB8C0C83E0AFF8ABCAC5178BDE7AD723D843D6C;
	15412 :	3E5598333E833971BE41DF6CBF5AF569BEC5EE913E7B1EE93D9F9E38BE641BF4BE5B098D3E1FD961BCDB2F71BE9AC72D3E519F88BD6E35FC3E69932CBD99AD13;
	15411 :	3E5A0132BD871EFFBF3ADD1D3E48065C3E3663993DE0655FBDBDAC3FBDBE4C353E0A6728BDB530803C89162F3D50DDB0BEABB875BDA3CBC3BF0A69AE3E3ED2BB;
	15410 :	BECF6511BE2275AB3D3C4D713D8B2A503D3F790C3E49C816BC511A7DBD2CE891BE909E98BEDC8B99BF0CBD6CBD1DE841BEB3F3473E180574BDAF2F9EBE0C3C1D;
	15409 :	3D294DF3BE2E4D703E70C5BC3F08CEF83CD6A8943E166AB2BEB97B0EBEC8AA1DBD91063F3DBB965FBE53EC523D6908EF3E5587353EA1A5D0BE2CA9D23EA94AD8;
	15408 :	BE91372EBD9D3CAB3D858C35BD21F02ABE30DE20BED2616E3D54EF7EBD61EFBDBE377C373E7E3439BE11292FBE033D6A3D97F3023D5BCCD7BD810E2DBE2B1239;
	15407 :	BE2A412B3D726AF83E7E0E75BD920B40BE4A7149BDA8EA47BEC4E6AF3E3ED566BE3E26B13D2A864BBEB9E7D1BC96A8903E28841DBF2915BCBE9A85DCBEE449CF;
	15406 :	3D0F5F7D3D849F2FBE6AD11CBE483CF1BE9D00F73E9886513DD43A6D3E889E003EA174A9BE6B5B223E9147A5BDBA8FD9BD0B36573E4374F2BE15BF36BD4548B9;
	15405 :	3E9F4F25BE1346963E508048BC98E034BDCF19EDBD91A0E3BE121E643F0922F5BE37B1FE3EE4854E3E7CF8003E30ACD63E7C26233C892479BC01BC7BBEE706ED;
	15404 :	BD5CA9D7BE5DBB3FBEDC970D3E955CF63F140520BE344E3DBECB4BA93EBCB6ECBD8A8229BE602AE43E5E9B473DE9D3F13DD5FA28BCF06E2E3E93489DBCC866B3;
	15403 :	3EE19B45BEDF2F2C3F00F7A6BD3B7FE6BCE2DE8F3DF9A44C3DD211223E87F6A33D8C2BF13DCFF2D3BDC308233DBDA5D73E874607BE865F0F3DDB4E3BBE156217;
	15402 :	BEAAB4ECBD83E15E3E89CB0BBE9B307C3EB9B0FC3E37E0FD3E9CFEEB3D305A11BD9B38E5BE05F5B0BE9908DCBE113E243D6F9F6F3DFE1074BBE000663E70B2E7;
	15401 :	BE19AAE8BEBB9D0CBC6EDA763E8264593DF8A94DBD73ADD7BDA8CD233B84811A3E8C6DD53E47B90A3F13298DBD0398983DD6FDE5BD515D2ABDD7E3793E664025;
	15400 :	BE4C6E01BDE22FF4BE4130BFBE96BB213C158127BE1AC3C8BE9FB63CBF0011873D98E003BC7892D53E4CBCABBCF6EC19BD3E8F693F210A663F269940BE186525;
	15399 :	3E02BA313D51500CBBD2F697BAD60C063E3A5135BEB97CB8BE21E5A33DA267363D023CB93EAC386BBE7F933CBDF4F5A0BDB77A3F3E2005C23E9175A2BEB61555;
	15398 :	BDDCE9F43EF5198DBDC62A81BEAD7A7DBE84F45E3F2481A5BEF01A703E2CAD68BF586F0A3D3FB9DFBEE152FC3EED72E53DA65179BE9775F6BE8192BDBDF1BFF0;
	15397 :	3F41F4F2BD2E6586BE93526FBE19A7FBBC3066553D1B308D3E2B36B13CC42FC4BF3F072BBE74AB37BE9FE9B1BD8E588ABE7DBF4BBEA88F433F13479F3EA57F73;
	15396 :	3CE7CE3DBF23598E3D89808DBE55089E3E51D0953EB265803E1E03953C68F944BEE739A4BEDB49BD3DFECC2C3DCDC12FBE22905BBD306B83BAD77BF53E5A2FF2;
	15395 :	BBB16611BD228ECFBEC9D47D3DD846BCBE35A71EBE7F722E3CDFD6143D39E44BBD6B05003E8A40C53E81A9F73E90E0463C53D15EBEE626C0BD67BCA83E25760D;
	15394 :	BDBE6B70BEAFE55CBDA72C1FBE6F6FB6BDF26C983CFA37EBBDDFB0AFBF110BA9BD16BEE6BE1629233C46F63F3E9C9BF93E80BF16BEA129C9BE59FBB0BE4145FD;
	15393 :	BE8A9D5D3E949A463DC2E0653E6CEB9BBDA10EBC3E5B0DECBE24DDEC3E2A4CF1BE186F8ABF1487B4BE815D803DC637603E5B9F933ECA74D4BEAF5FD8BF176C23;
	15392 :	BE58A620BD0B5F1B3E0DC882BF0C5F5CBCE57DC93EBA97E9BF482CC9BD5EE81BBB295B65BEA232A6BCD14E50BEA4CBC53DC43F01BE2CB2353EE95757BEB42B38;
	15391 :	3DC7660EBDBAE5BEBDC963C8BCA010493E802A34BDC780993F15E6A23D816DE93E7F9C74BD980D2BBE930C583DB6719FBDA0D50F3DFD976CBC8E9C0BBE211078;
	15390 :	3ED981C73DEAECCD3DA3D5D9BE04F4A5BDB5EB343DACDAB63E2E7A323C10BA1BBC70A8A13E341D51BE3BB0043CA877E6BD5E78E0BD09FCE53D6F1295BE94E605;
	15389 :	BE0666803E513509BE60EDD4BE6E83793A89860C3D362E95BE0A67D9BD31F5D03E9A14413EED798D3E8CE597BDA4435ABEBAE913BD2F8B57BDE43743BE08938C;
	15388 :	BF12A5853D58FA4C3E1EC0E83E766159BEAD11873C166A9BBF34F0CBBE58A9ECBE8A562D3E219E58BE7ADE8DBEFF84CF3D53C681BE4E649FBF029283BD0F691A;
	15387 :	3EB413FEBE730CD7BF0D0BB03EA4118A3E626AEB3DC9ECE03DF3C2A33F1E59E63DE07283BDBCE685BCAFB566BE8222D3BDC6452BBA525C61BD85432C3D909A47;
	15386 :	BE1E5CA1BECE5602BD4B4DC5BD9DE90FBDACF8F83E1173733DB6D3D7BDD0314DBD0CA03DBE82939DBE054FEDBCD33572BD6E9ACF3B50F0093B03113F3D146CE1;
	15385 :	3E4A6344BE23C732BF2EB2B8BB4FE05ABE0BBFB2BEB520113D47F3833DBF8BEEBEB8FA3FBE0E68C0BD9DA2A03DB64AE0BED9AF823E48EB2C3E80B2573EA91031;
	15384 :	3EEFF9543ED21AB33EAF94FC3D20AB4CBD67B2C83D908DD939E6D64CBE24F13DBC78D33A3D4BADBF3E72DA2ABE971FE3BD4E25D53D1247C03E1DA016BEDF340F;
	15383 :	3EC19584BE1551EF3E46BD89BF1D07A4BE9D19CC3D8F40A03E92550D3DC66E86BD8FC02B3E8F67EFBC4A62F83E6EAFDEBE281CA03EDAF174BD1B2CCD3EB765DA;
	15382 :	3E05CD5D3F0458383DC79E1EBE948739BEF187E0BEE0272CBEC4F11F3DB271723EF606EB3E50C72B3EC7634FBD610DCBBC41EBDABDD4245ABE3934BEBE3064DF;
	15381 :	3E04D083BE824412BE36B4503E39B1DB3DDA52FABE8A5221BEB4927EBE0A58DABEA67C2E3EA24BF3BD8684AE3E8D81B83C8FC9713E927D3D3EBF558A3EAEE1CA;
	15380 :	BD92851C3D2C904BBE129BFB3CA77E93BE9F672D3E8949E83ECB022EBDA4AB98BE819F3A3E814EEBBE4F6ED3BE9F8C46BC331B4C3E0ACC46BDFF580C3EAAD11E;
	15379 :	3D846E6E3CF1E8C9BCE81386BD185DAE3CB2E1DBBE7C4445BDC1BE5CBCBCB66CBDA7E8EDBDC371FABD2EC29FBDFC0C4EBD935023BDC0979FBCC245B73C8A82E4;
	15378 :	BE4AD8AB3CF3DFAABE176B00BE5F13C7BD061884BE0929463CB5D58DBDBA54E13E7A6D80BCC1431D3E319857BCD74D42BDEC5B133E146C043E30BEA43DDB592C;
	15377 :	3DF66232BD9A5CABBE0466DABD1A52243E40248CBD8D54E03CDBDE883AD3240F3DF910233BD39CB93DD16A413D9DEC4F3CD7E2C5BD4F3D6B3E3D6112BE3D1A75;
	15376 :	BDCD50643D8101D0BD1B94C63E154F45BE822596BE3F373E3D510C7EBE384CCEBD841571BE2158833D911F6EBD12ADDB3C934EE6BE0B09833D079611BDC384E8;
	15375 :	3B46A3BE3D64810D3CECC346BDABE9E0BDBEB61FBD5DBA3F3D9083EFBDD5CE8CBC17CB5B3D0F0582BD52AB603DDEA9A23E0FFC2ABE4B6D1B3CC71E003D00E5D4;
	15374 :	BD9075833D2DC743BCBC3CFE3DDF76BBBD683E493B4FDA56BC9FF6EC3E0DB62FBE232F493E1997F63D98D6DA3DF78646BE30E7FABDB7525C3D975408BD4D7393;
	15373 :	BC4AB83A3DB188993D9A4B9E3DEC1A5A3D167AFCBE789B2A3CFE0BB7BE05C78BBDCF2EDABDD9E4B73E3AC1E9BCFF101DBD97A9ADBD675797BDFB293D3DB7FDCC;
	15372 :	BDAB169E3D99E9D0BDB13375BE1AEA65BD9A6F01BE43275CBE9688B2BD051FFF3D1480663D2AB814BD9419B9BE5355AA3B083319BDAB75A3BE8712823E2E8C06;
	15371 :	3D5EA184BE66AABDBD1545E23E2F88B33E80BA98BDAF816D3D2008613DDA926ABDE3B51BBDBD7E053E186033BCC1EB4EBB22B6DBBDE0E899BE432D573DF2D465;
	15370 :	3DC60DE8BC4EBC4A3E1799EA3D88A9C0BEAF0D1C3E078EE8BE22F6D3BE09AD8FBD0E3B81BE01BAEC3E0203CE3E88C997BDA9E9583C96B3F13E0683993CDCDC50;
	15369 :	BD9D091EBE3282D5BC733444BDE6B2D93CE4C5EA3DBA7E5DBDF6629A3E082AACBDC7D7C23CE0B1BA3E3533293E78CB343DB4F8A23DC740433DB38BFFBE8C20DB;
	15368 :	BD9EFB5ABD03F2203E2084713D428C283D482F64BDA81346BB2F9D53BD25930ABD97CC603C6090283DAFF5C23D75B0103DA35DC33DDB1929BE350D6A3E6EC181;
	15367 :	BA92F8A33C3612A63D4BBC4D3D25E92B3D946A633E0754903E075B28BE0982413DC56872BC9357DD3BB846BB3D2F6C573E7C4573BCB4F9B1BC2F025D3DE7C622;
	15366 :	BE170675BDCD7D0F3D38F329BEAE7A8FBE009244BDC54B0CBEC77E5BBD60ECF3BE22595FBE260472BE09DFEB3DD4EF5DBD87E508BE0373F1BE5553703DDFDBF2;
	15365 :	BD04BC03BC9CCAC6BE00F739BD1AE2DCBBD5903CBCC69A04BDFDFAABBD6392D73E142878BDBFB8B23D6C5CAB3DFF77A93E8B56263E3205C7BDC812753D89F656;
	15364 :	3D3DB8A6BE69FAD43E4A6F473DCD15E2BC9705893D803D373E097EE63DAA56B03DD83798BE798070BE1490E2BD872418BE8A33EC3D2D0C33BD88849DBD64E770;
	15363 :	BCD3CF5C3DAD695B3DCEC396BD2B9FDBB9F7AD5ABD929DD93C10A77B3D0F142E3D64F41BBE4C52B33E3CA5F8BE3B7966BE32F64FBD9C09A6BB040E3F3E0AF6D4;
	15362 :	3D5D8F7E3E89C71ABD1810163D80B960BD48CABC3E1181E0BCCDF4103E047BF43DF71E7F3D8DC4063E697EBFBE3C059A3E9A9CDE3CEBC9783DAE9AFEBC8E1486;
	15361 :	3D4293683D10E5B9BE8F09853EBC33793E0B1E8ABDFD8F4CBE1153EA3D1EF94FBD504C3D3BF0EFCEBE6B4CE73D9451293E03A27F3D17BF523DC7EBB53BD76131;
	15360 :	3C9E83143E78E6C0BE1BFD2D3E1DF856BCCE6C343DF1D9713DAF44C23E5EC778BDA5F62CBD0F3412BD2FE0ADBC0DD07FBD118CA23E0B5044BD90F8023DB2E630;
	15359 :	3D83FC16BDCFD46C3CBBD26BBE14DA77BDB95CF7BD8808453D314F37BD831B733DAA0D4ABD9CC64B3CE363FD3DD4179E3CC014CBBD852272BBB9F571BDB32425;
	15358 :	BDEF2BD9BE038874BC813242BD31BDF13D7CC2FEBD7312BBBD10D2EABE08BCF63D9A9E453B4C89603D465182BD7045003CC6BEBABDB1AF4D3E0702CBBCE3FEBC;
	15357 :	3D12D8063DDE63A73DB5DC78BE29DF96BDB99BBA3D8F1C213D375253BD9E988FBE60C2E33E2F99EB3D0762EFBDE9566E3D8849933E09C5ACBDCE8318BE8483DF;
	15356 :	3D8CE71DBE4BABE23E73CB7FBE073B47BE83A5D7BCCA0B263D8FBC033DFDD34F3E6A4BFCBD1C56E4BE422396BE30CBC33D8DBF35BCF5C3B83D9B445ABE099769;
	15355 :	3D60B1FDBCD0A51ABDA69D473E9F958DBDCC18453D7AFAD9BD76E7DF3D0AD15E3D9FBAF23CC176B3BC2CFFE4BDD836D5BC307710BE0348823E2742583E0E1002;
	15354 :	3DE94BDB3D0074B9BE09BA40BD716F603C8A7F81BCFEA77E3C256E92BDDE6AE1BE2CE1D03E21310BBCA68BDBBE7F6E3C3E9D7C26BCE8C5A33E040110BD248363;
	15353 :	BEBE13E83E6277D53C8642493D9275E23DC7BF2D3B878551BBACFE98BDAE0622BE68DA013DA612FABD5A6D59BD10E9AD3DB665EA3DD16B2F3DABE7E3BD7807EE;
	15352 :	BDBFC6BF3DBC1D9F3C70D90B3D85E40F3DFB2BE83E29145B3CEFEEB8BBF0F7E33D340FCFBB554AF73E6BD8A6BE98D987BBAC8AEFBE01B1723BCAFA6C3E153367;
	15351 :	BE0EF627BB870AB5BE838EBA3DA78094BD6ADFD2BD6194693D31DECA3CABE946BDB74088BDAAB6D63D6F25BF3E53C9E83D8B8638B77C1BED3D9F1093BD4E080F;
	15350 :	BE4DF78DBBC1B3D3BE5F16BF3E2DCE0DBE4E06C33BB94F65BE404DED3E20321FBD0EF1193D0715C03D0F4BFEBC2BCE2DBE6CEDFBBCC0C0653DF7B67EBC63B55F;
	15349 :	3C33271D3D343D8E3E75E02FBCE94C27BD107ED63C3124BF3E236D4F3DE2C624BE45633DBCE51F783C1DAA64BDB9D5BABD6A4B9DBDC35D0F3D0CB8CBBE0854B9;
	15348 :	BE02A60DBD1961393E2035073E1F1DCA3D19EC0DBE025D24BDA495343D5E051CBD04F3B1BDBFE9EB3DC6D3843E35A22BBDCD2D113E688216BDE4F1F33E118299;
	15347 :	3CFEA0383D6279C2BE0CC002BDCD697A3E0C1CFD3D8999193D70A4B3BDA9AB4D3D96AF69BD9C21903C79C3DFBE117A9A3E2D8F573E1CE443BE3ACC253D117E37;
	15346 :	3D004C03BD4EDBF2BD8A97ED3C7D087D3CD8DBFB3CEF89463E0E3A073D69D3C0BE7797A33C005ECF3E87A202BCA27BD4BE92118EBE316AD03D43E7FC3D569E94;
	15345 :	3D4A69163CEE2389BDBEF730BDB55CADBDDD4F7F3DFC69D13D8260693DA2211CBCDC65CBBE02EA7F3D80DF603E50F702BE55EBCF3CCD0FD3BD9278A2BD7C06F1;
	15344 :	BCA8D21D3E001DF6BDF4242ABD53202B3E442E02BDC5D0B93CC2BA103DC1C8B43D90538E3C9906623C094A10BCFBE20A3D1386E93E39132D3D565107BD8326BD;
	15343 :	BE2ED20D3E0B847CBD3A72F33ED260EB3E34F2B2BF183131BE9E67C83D7F47913DC3F5523E2E74C53E61D108BE7EF286BD4319E1BEE0FA70BECBD332BD98D087;
	15342 :	BF094905BDDD1BDD3D5775543EA6D727BEEB832BBE108F17BE435D11BE9C037ABD7949E8BD7016C9BD47DB573F007DA33D14E2BABF179A0DBD5B551FBE28C521;
	15341 :	BC8FB6513E5180803E8EB2C5BE88A573BED30CA4BBA74F23BE898DC7BD953ADABE5C813CBDF279683E7764533DA83CEB3D93E848BEA664D3BCD46E89BE7936F5;
	15340 :	BD03BB763E35D1273EDC41BBBF04E8893D9CF5443EC64C0EBE9A0DA93D8A5951BE6041283EBC595F3EA165FABE1B4D4EBE9B92FB3E8CC172BE8DF725BE071F86;
	15339 :	BE009A733C266635BD46E48DBED60906BE4C8A63BDD3B1ACBED8D3343EE79D71BE6A4939BD734A943DCE064FBE365E523EBF2E60BEC91CF7BE85A4683EA6DF1B;
	15338 :	3DFC9854BD38DD1B3BEB0D4ABE76B77F3E7915F0BE51AF01BE067918BE4149BD3DB50CB5BF04630EBE87B827BE108759BD8FD47B3C8E50433EC0D9053D3374AF;
	15337 :	BEEF9802BE63928B3EAB89003D9DDE923DA6A349BE906A713E7DB48F3E2D1C34BDBFED753EB8CC5A3C1D3272BF1A1821BE05CE3CBEA0EF97BCB192AF3E31C44C;
	15336 :	BAFC8FC53ED7E5B5BEA2FD843DC7023C3E2173183DD876F4BE8C4FC0BE1E55303F0AD528BC2238C23E8FBFFD3E8F9EB8BF15071A3EA0B01DBD66AA183E1580E7;
	15335 :	3D7681133DFC124E3E269E0D3E631E2D3E5EDA94BE46D1A8BE9CF5DE3D6AD8EDBECF900FBDA89F93BECB132F3E42B439BD9D92BC3B86221F3E07D27EBECA3A1B;
	15334 :	3D68FF2D3EB7B1C2BE1BFBC33EC4D54FBDE55D3FBDC96A21BDB42B913EC95FA9BE5DE3CA3DE3CAA3BEB091DCBD9C483BBD6F52BF3D92B7E1BF164576BF06C0E2;
	15333 :	3EA34187BDB728BD3ECE2E493DCEAEA33E08B517BD2370D73E3FA8D2BCCA5D7BBDB34D69BE4E9D82BE1C143D3E78A5AEBD6A671BBE1EF104BD776C4DBE82B8EE;
	15332 :	BE4C254C3C3153F2BE5BF22CBEA38C20BD7D646EBD2ED1523DD592CCBE23E613BCCE012BBE0DFE4F3BBC83D8BF0036DABE8639B23D067B48BE57733FBEA3C821;
	15331 :	3F139A5A3E3CB489BE83DFC3BEB268C6BCDF449A3E428C0F3EDF3F0EBF0009BB3B41B3FB3CE75A42BE9C1AE43ED27547BC8E9FE5BE0E24993F1092CBBEA64886;
	15330 :	3E087F953E776EA2BC26B14B3E23C3FDBED50466BDB43C093F5FAFC63E238D9CBEEA0FA3BEACE6723C854CACBEF4B448BC13211BBDCF42C73E76906F3DB88C4A;
	15329 :	3E44450B3EDFACAFBCDFAC503D96BDB6BDDED07D3EF5BAF73E6185AEBD89563C3DD7460D3E9D96C63CF30B83BDB993C9BDD5B6C7BF0279C9BE2B46913DBFC22C;
	15328 :	3E1E717E3CA38B5F3EAF03DF3D41C852BE4D3989BD520D6C3D329F27BE2DC091BE648A00BC76C38ABEBA5CEFBEB46D633DB219D23E361A45BE598C0ABED4185B;
	15327 :	3D59BAC8BE99D065BCB4B151BE6C81E83DFC6E103DA4E442BD75C5433E60E6F93AE3254FBCE0FC7ABE73604F3ED1777C3EEAF050BDAA7E7DBE83DE803D9027FA;
	15326 :	3EBC7294BE006FC63E14AE4F3E8DC296BCCB87DEBDB4B36EBCF2E93A3EA531B93E9156CCBBF122FEBE4E25B13E2701E73ECD22BF3E8F83893EB511113DF9128C;
	15325 :	3E35CAE13B2FE6C13E777C37BD10C0B2BECD53D43C2437683E88AAA8BE9AA9FEBEABD545BD7728F53E5712A6BB85E97DBE2D094D3DEE8253BDFE870CBE4DE358;
	15324 :	3F06568BBE21DDA43E57AFCA3EABA9B73DF27D2EBCBFEA88BC1B5F9CBEBE96A13E4816373F8DCF863EA85D9B3F090969BBEFD4C83CFED9C73E97B8193DDF9C8F;
	15323 :	BEB1AD62BE991448BE93DB03BD6F66F03E9DAC6BBEAD8A313E88F891BEC8D173BDB9A998BECA859BBE8131593E7024F03E9AC0123E5DE5F23E16216B3E43E475;
	15322 :	3DBB79A9BE3763C8BE62E39E3CEB07523E61F7C53DABB9613E0DA8ADBE29561D3DB0086BBE7E3144BE47D2C8BC4BD6143E061C2E3B822835BE17F37DBD19CBEC;
	15321 :	3CB72F233D973EB5BD1F34F0BE6072C83CBE202D3E9088A63DF0FAABBDD0D34D3E87AFF1BEAADB703E8825A43CBA177FBE0FE799BEEB6F0C3EC6EEA6BEDFABBA;
	15320 :	BE092B343DDBF2553E3EED70BEB408D83ED337583E50F9C7BEA700BA3E3033D8BDEE1D2C3F030C00BEC696BF3CD5C4B7BE5F7D34BE962C64BCCEF7D9BCE8C7DD;
	15319 :	BE2BB83FBE23F2043E4184953ED589D13D4A65F3BE3B68D33E36ED77BDCB594CBD032F993E925A363DD827ECBE426CB2BDF2403DBDFFCD48BCF2991E3EDAF630;
	15318 :	BD7DC087BE5BE314BD8FC544BECBAC88BEC619D6BF0B0C8EBE6B2A14BE7506C2BE0A9A2B3E8EE8063E1C9400BE7D94033D86584B3CEA0BE53DC1E1683E0D40D9;
	15317 :	3E4B035F3ED26ECFBE14C5D7BE9256BBBEDAFCCF3EF6D9B6BE520B503D945EE93D5FFFB3BDDD5C3B3EAF86D73E0031C1BDCA6CFDBD588092BE3373313CD1C81F;
	15316 :	3DE05A0CBECA63BE3EA5F4913DBD64AC3E9ABF763EB25C09BEB609B4BC53DCD6BDFA9566BE870A73BF1A545C3D64A5B63E705AD8BE7076ED3DF0A1173EC5FFEA;
	15315 :	3DF15572BD7646C1BF1B31CBBE72A0103EC8669CBEE477423EB4B7F23E4146A9BE8B1ABA3E27D7EABE164DD33E530DA93E4759823B03C014BE3C74D8BEC11B64;
	15314 :	BF1B1DF63DF709213ECCDBA13DE4A8E13DE3C6DA3E463484BD8ACA5BBF186F2FBE6D5F0C3D51B0373D3A17233E5CF8B6BDA879E43DEF01E2BEF9FE09BE453761;
	15313 :	BDAAB810BE307F47BD8E86EBBF2B41D13EB662133DBEF42F3E0E46273EA6A574BDFEE5CFBDBD369D3F0517093DF2FCA83ECED5F83F03E5DB3DB32A28BE47A578;
	15312 :	3E8CABDDBDEA5D84BDD40DDABEAD4E0A3E9D0A553D988E683D96BC063E6ADFD93C9B1620BDF1201A3E3F6DBCBEFFB76EBE450009BE14DDBBBE58D00A3EBCE9A6;
	15311 :	3E919F603E615BEE3E975676BDE5FCCD3D20A149BCE2D2F53E8B9532BD6409C43D88C1B93E2322A8BE524669BE4BFC17BEE23E01BEEE521C3D68EF25BE472578;
	15310 :	3D2805173E00A41B3DB6C0673F427B6F3E12898B3EE1FC3B3F39E1ECBF3107123E3D509F3E5EB5943D2FFDB7BE3351DF3F13A199BEC927D83EB96611BE7EDAE9;
	15309 :	3E909F34BE952B3E3E09EEB5BF1099923E69236DBE0151C73EB0E613BE8BC18B3D813C29BE2F9EDC3E97CFC5BE809AEEBE1CBA78BD24576D3E9DF4933F221CDD;
	15308 :	3E60B06DBD9B66FEBD0718E8BD4A9B62BDBD05D33E17506ABD62D83DBE58BB003EECE7FB3E813E403E8199B33C002ADA3F12542DBDAE4FF63EE5D5773E4B390F;
	15307 :	BEABADC43E05BB113E9DBAFCBE2A89D6BE9162C43E589C193ECF63DCBDE068BE3E58FB153F2289D13F0E08EC3F0505973E9AF6FCBEB852443EA463E4BF262487;
	15306 :	BF65AB1C3DCC92B03D26EA95BF835BF93D6FA917BF18F4893F2DE8D4BED8A2BDBE5735913E86A383BE36C22BBEACCAB1BD390F34BE68A3453E5525DDBF22EF05;
	15305 :	BDCBFB983DFBB622BE357B7A3D8150F93EB32EF13E49663E3ED2051EBF2310A73FAB1A223F05126ABC7F84E13D4D6AE2BDAB97FABF77049DBEE3704C3DAE7A5E;
	15304 :	BE5B89AE3D0D971EBD49450D3E80AE2E3D83FF803E50E922BCBA5D04BE883E34BF2BF676BE93AEEA3D7E78EBBF5A66B0BF841C023EA76C83BC311A06BDE2B99A;
	15303 :	BEB730303D0890C7BDA8DA8DBECEE8E23DDB76FB3DE8C5C8BE0B1E243D8E377B3E1001863EB6FF6B3EB926B2BD9516EE3D8C86313E3E1B213E95288E3DDFA836;
	15302 :	BE4CD6D93BA340033EE18802BEC588CDBE3381D4BF439914BE5ABD113E4EAA6D3D19E4DB3D8354AE3E86AD663E3FFC263E00B9B2BF3A6A663F0567573E1BDB2F;
	15301 :	3EA7BB3C3E94E6413E584A3D3ECF1F0BBDEA1A963E1E01EE3BDB84F83A596730BF220B603EBE28983E5E786EBEBC1B9E3DA1500D3D465782BEA7B9CEBEA96C24;
	15300 :	3E57D5433E2840043E03A55D3E47E6903E5787583E830AABBE6CFFFEBD590644BDCAB4783D0E08D23EA1BD29BE678E683DD11227BE9452803F08C4B9BE8192D9;
	15299 :	3EBFEAD83E80200A3E3C57603D8F9A41BE95687BBEA7EAFEBDE3BAA9BD048BD5BC5D8983BC19CECFBF1907BFBF07546B3E2AD1CC3E9D72E4BEDA9B693DD94CC0;
	15298 :	3F1A1310BE8BC174BEC6F4093F0665F8BEB9B96E3DE7CF74BF6905B83D5C5B7DBD7C67FE3E78C75F3DB1B1C23E6E025BBD83849BBEA997C23DDE5C293E6BCD00;
	15297 :	BF0A1B163E2C36FD3E0358EBBDAF66083E2376683E7C98863E5C6BA93E2FB0FCBC099885BE6F8871BE2F7C44BE8453C43D3CEFE2BEC99DA0BE8B84B73ECD4FB6;
	15296 :	3E035121BEC4E4EFBDD2E1BF3D47BF8DBF09CF38BE07A87ABE70AE70BE9B5546BC19201DBEEBD5D2BCCD135ABF1DFB473E136434BE3C6892BE7489CFBCAE5CEC;
	15295 :	3D801FCF3E9E01433F16FDC83E3809AB3D078A143E452200BBDA2583BE55CAD93EB54EA43E9CA80DBE551C8CBD52D1CABE997C95BD9015EABD0342D5BE91A5FA;
	15294 :	3E6DFCA6BEF7B8A6BE73EA0A3D1AA097BE18217FBE55175BBE6EF2F43ECBA8E03E89A0FA3E783F10BD9158583CC5CBA43D0870F83F0D3F67BE88896EBEB88294;
	15293 :	3F40010D3EE1F991BEF75E8F3D10790CBE7647DBBD108CF6BF1498EABF0A3C49BDA1D3573DD89BDC40CC777E3EC019023E426B4FBCDDF622BDFFF8B6BE19B726;
	15292 :	BD9066943E3B0CD63E08E71DBFBD5695BD118D64BE1E51883E8E5DCD3E5AE507BD80EF81BDF744883EB1FEE13DFBA12BBD8EBB663CD233553D75EA52BD993D0B;
	15291 :	3DE9218C3D6D5DF7BE6928E43F0246573DE4533BBE8E01F3BEE585EFBDBF1764BF9E2EC53E9FF88B3DE8290CBEAE35753F7767BABE03E3D43F4FF403BE022ACD;
	15290 :	3D8C6C5F3CCA454C3EBD0498BCF351A0BEDE135C3A9DED07BE601C803E383BFC3EDCFA90BF0BD8333E6E80C5BE1A998CBD9E0C0CBEB01EA2BED041143F122655;
	15289 :	3F1C5EC43CD00A073EF11CD33D842B08BE1FB2E0BD90E0AEBEC7057DBF02AC0FBCF576673E5E1B37BDF95FD5BDD6E0FBBBE48EE2BEA0C670BFAA6EE6BE30E91F;
	15288 :	BEE014973E3C92FFBECFBF7C3AAF3440BEE46BC93EA28B1BBD66B4E93E0CB133BEE0B0CBBDA9FAB5BDB665083D32EBA33DBB93E93E9A6BEE3F4800CA3DAEACDA;
	15287 :	3E3D96B2BEE0C58EBD8D10E8BF5E17403EF43DE8BE290939BEBC40CE3F15FB7C3E4E5964BF487B1DBDF7DFB23F20EAC03B96BE8D3E9E2C413DCAF0713F22AFE6;
	15286 :	BD3F6CA5BD41A6D6BEDBF9653BAFDB393EA4A8C23BAE75B23D8C278EBD6A78903E7171663EF0FB3F3EFAF982BE3001E0BD3651E5BE303059BE38CD193F0E5EE1;
	15285 :	3E98463D3A75126D3D7B0198BE87987CBE32B9A7BD0229FCBEB697DFBEA77D483F0EE1A5BE9FFADA3F09D7ECBE57A2ACBE04EF813D211455BF1A73EF3D23198E;
	15284 :	BD4883EF3FAC1D88BE377D70BE6F61CD3E4DD7DE3F25A961BDD04B443E5A3FDDBDAA02DE3EE7E70FBDB12C12BDC06AB73F2653123E06C6EFBE190083BE4326AF;
	15283 :	3DCCE28BBE3F3EDCBE3860443E6820863E044E8C3A84C5CABD78B04FBD878332BF06E2543EE1E786BEFD24D7BDAE70B3BD3F2AFC3DFE661ABE2094443E809F91;
	15282 :	3E18174CBECD8278BD933A51BE81E55EBE803E563F83C6CE3D37E0F53E4F5E973E523B7D3D378AFDBE8B7D3CBF89C72E3EB6296E3E86F73CBE2979CB3E5BDC78;
	15281 :	BEA925843EA69760BE2760F3BE168737BD7617E5BEDC3F253E332650BDA7097BBE7C99B93EEC88F83DBF6A643DE96C353E85B7FFBEFBEE02BE5A4FE53DDFAEF4;
	15280 :	BEDF8CB8BEE17136BF017516BD1EF33BBD3534983EA0C967BE0974CE3D89AE9ABEA97157BC987E92BF1023D2BEC584183DF36CE9BE5408F83DF441A83E43D5A5;
	15279 :	BD9B58DEBDF25497BDCE460ABF35BCA83C419A0EBFA5A1E33D8281233E8F6572BEDBE11A3E494514BE3142F8BDF7EF59BF3C5D91B9CCC948BD00C2683D8F043B;
	15278 :	3EA0D89E3DD01C513EFC2228BEB4A2B53E1F34763D9E7460BE4619C3BE879AAD3B97EA70BF8D2DDE3EECC81BBE8F6470BE905895BEEB538BBF39592F3D20261B;
	15277 :	BF60D1E2BE5B368EBDBEDC13BF279B24BE51434B3E6C12A5BD59BD14BDA58A3CBE2F699EBDCEF552BDF625FEBE8E84C8BE2C7668BE885555BE871FF03E15A829;
	15276 :	3E95B741BE8E82263E9F3E46BD72DD0ABE555CF73D245037BEBCADBDBE40C3A93EA17BC6BD66DFE1BE8181043DADA79A3E6CA9303E2447B7BEE9C4B13E5E2FB1;
	15275 :	BE7B76E6BE16AFBDBF9A4AC3BE07507BBE0CE877BC615AD03D95BB00BD0FBA883EEB576F3EB5EEBDBDC16E20BF2A90DE3D24DE093D3600A13E0A6CB63C9EC612;
	15274 :	BE369BEA3F540B9B3E50DCFE3DD5874E3F921D02BE0D67BE3E358B8E3E204AFBBDF634243EA967D53D9426603E02B7E9BF1910E93E4223AA3F36D241BE69DEC2;
	15273 :	BE0C0900BF658B273E0022A83E8F5DD83E9D68883D830A873E530382BDD598093E871C5FBF2FC1EB3EBE30073E329C00BE8BBE9F3E14AB4CBE3BCC94BEF7A76D;
	15272 :	3E82B09E3ACD56443DD848C6BEBC46E43E8D5CB23D01A7C9BF228BF0BE4EF95ABE550391BD6D74D4BD91AFCBBDC0BDCBBEBAA84BBCDBA690BE979121BF35A313;
	15271 :	BDD53D663D460920BCFC07C23C58462DBC9B18F13E01C6D83C1D65BC3E31D22DBDF319BB3DF317F53E37094F3DB70D253B5111433E208F733DB831D9BE438CEC;
	15270 :	3DAD3F77BE948725BC1EB136BB5D1CD53E8D362A3E332F33BE5D569BBDC286F83D869D8BBDB41764BAF2DA74BDE5D7D2BE6D9858BEB2AFDF3D8B10003DB1AC45;
	15269 :	BDD250C03CAC7CAA3E30E2873E119DC4BA6BF17A3DE273F3BD477C693C43E8463E19880BBDBFF11E3BA6696F3B4FFC923D4DDBBBBCEC2E68BE0E3B063E2F0A0F;
	15268 :	BE28E0013E2ABEFBBDB7C98F3E8100EC3EBC79F2BD523EAC3C8F93B03DA77B713DB4C56C3AB9EF563DB2C5C1BE0F2B28BD7BED423E371BD03D9EBA83BDDA384E;
	15267 :	3E1B1D6DBC8D89393D959B09BD513F97BD544782BD04F2F9BD9A45E33E9A4C11BCA27A4DBE05478ABC36A246BDB77445BE050A37BDA402F4BDF2C441BD81A43A;
	15266 :	3C2360A8BE1F881A3E1C8AB4BCA4B574BD689310BD58F58EBDFCF44E3D2264C73D99358EBE1FDDFBBE3D12073D4DA1A93DDA6A6F3D9C70B1BD960D093E502E76;
	15265 :	BE1BD1E73D575F4F3D7547DF3CE2B3543C9DDF503EDAA487BE2B057B3D2B9B04BDB390EABCFB118EBDC32641BD8D5C113D2B67F23E04284E3E0DAB61BDC68A57;
	15264 :	3C9F8D90BDF5CB243CD22959BD05C638BD27BC7ABCD4AA383E10EA4CBD5B63DFBDC17892BD0E65CA3E4C12BBBDF9BB8E3D58F18FBD49D81F3DD0E609BD4057C7;
	15263 :	BCE6589ABCE32EF03DB12D473AA71CE1BEA5A430BD05CFC0BDC6AB4C3D67EBD33D06993FBE04AAC93D3882113CEA7F5BBD5FB3D5BD0C41B0BDC8CCA1BDF4F994;
	15262 :	3D2F0511BE165F4FBE8D1372BD4D0725BDF06210BD7EC9783D7938D83D87DF0DBD9FA95F3E35304CBE97169F3E49F2373DE64714BD47B70FBC47F04FBE5BB97D;
	15261 :	BDD511F0BDDF41E5397E3A743D9C2FD03DC5BDDE3D9B523BBE3B44573E84F5C2BD7680E8BE376D833E92A7D9BDEDA2C3BD1BEB42BD9AAE4FBC384AE4BD9B8830;
	15260 :	3E13C6EBBE464A343D8989DABE946FE33CBFB6CD3E4998863C53C61E3CEEB7D13D94969C3D2F7A68BD421EE5BC539CB93E08080A3E3B3C88BD3AF26ABDC53A1C;
	15259 :	3DE6EB113CE2874EBDA2DF65BD22E749BE6E6BA3BE677DCD3D9E4207BDA32BB7BDC99845BDBB6ED23C98AF61BE110AA6BDE879203DA0B2693D0541FFBDBB0AFB;
	15258 :	3E1D8FEA3DAAEB2FBE3AE5DA3DC6650F3D7E88173D8C70273E7D2DE33DEDAAE6BBBC3CCA3E14D560BD95C98ABAD694DBBE3AAC9DBA87844BBDADFEF2BE0D69DF;
	15257 :	BE67B75DBE1A3F373E31D84F3D8030233D3F1480BA5B1BB0BD8932553E0E7CA83D7767EF3D011C853DECAC633D9551113BD7FAE03A8DB8693D872DB8BBE876BD;
	15256 :	3E026DE83DDC1AFABE30E67DBE7F2A9FBD9E8880BC30BF443E34C8C7BD83A0B63C8909B13E3F6EE73D6401073C20ED8F3CC76894BDAEDF66BD2643DC3A83D3E4;
	15255 :	3E4F7ECBBDD3741F3A3C6B9D3E15AD193C2EB6FABE16EF60BE3DF4B13D24AAD9BE51BA0DBD1CE4673E77F7EA3E3E4D6E3D3F90523E0D7BFA3D5ACE76BE1608E3;
	15254 :	BE1FED9B3E28793D3BCDCC903D883A4FBD98B3F73CEC4A2A3CAD1EB23E2886BD3B5AB77EBDA7EA3C3E2BD92ABD821C7DBE8B31063DD8937CBC3EE3603DF6F8FF;
	15253 :	3E1598B63E018B6DBD8E39ADBDD3FC61BC3CA3BC3DDC815B3B9D3C913E5307883EE541A8BCEC98B83D84CF383E0FF095BDE2F290BBE8136E3CE4F6E0BD8C81DB;
	15252 :	BD5CE96CBE503D6E3DD19779BCA7B1CBBD50F08E3C67B64CBD845F23BE56982D3EEA6C1BBE661376BE0A707A3E04DCB4BE4301DB3DE31D69BE449B21BE7397D1;
	15251 :	BEC4D18EBE17768B3DA092B33CEFC09EBE171DA6BC8532D6BDE1E488BE506849BE212EED3E1853203D431097BDD7E86F3D9F11173D88F44DBCF79E393E366BF8;
	15250 :	BCC23A4FBDC9811FBDBCF1E73E1625B23DC2EBE13E133460BD1B06AB3BD3D8673D7F0DB03DCD8B223E7D34F0BD094FFF3D1D8F713E170C823C17510D3CFDC599;
	15249 :	BCF87BDCBCC57E79BE4CA1333E315D643CD018BF3DC917CEBE2B48E63E44D5B73E2EE6863E1DB2603E3874213E48C0E63DE3E314BC9A88C03E02C51B39088D8C;
	15248 :	BBD571833DEA565C3E094B223DE0BE59BE034FDC3E1BD4653D6627E7BD90CB943D134E20BE1FCB7B3E675F6F3DA19C8ABBD7FE6ABD2C04C63E0EABEEBC168805;
	15247 :	3E49A6EABD7C1D06BC1205C13DC5C3A23E8362F63D323F833DC204393E119CA13E1B1BF5BD9A0565BE376435BE8DE1F43CAA9302BD6DF1FDBE393D29BCC59EDA;
	15246 :	BDA542793DACCF7E3DCB02A93D8FF7D5BE3B1FF73E3E40E13CE36A3FBE14FF25BDD31A973C8ABD3ABE86194DBE0D0BC1BDD25B073DCF01CB3DF4458EBD17B34E;
	15245 :	BE297817BEA07BC73D6992A43DB08D3E3D09B2A9BCA30AEEBDEC66733E31A12D3B4C5F70BDCA1F30BC6FBD50BC8D3D45BC888C95BDA4C640BE435802BD4188BA;
	15244 :	BDE631703CC925CCBE141127BD8B3EEDBDB2A9273E1BC63DBE2FF8D33D2487EFBE28436CBE24A0E13DC6B5DE3E82C38CBDA693EDBE605679B9448D783D201187;
	15243 :	BCCCCD9FBD0A8EEFBE82F317BB5B94FCBE3C2552BDE13FDBBE0257483E47D1753B669C0E3CFB523FBD0C813ABEA4B0E6BDD89CE2384342B93C58AD31BD5C9A3C;
	15242 :	BE4995B13DF562263E22AB28BDDA17C8BE22C47EBDF636E03DE067F23D4EA47BBD0CCB093E54BD73BC2BFA4C3D6982BB3DD74DB03D455471BE08E9B6BDBE1AC4;
	15241 :	3DA153873DA15234BE8F13913DA2900ABD8467003E944C32BE496967BD2B9703BE1A7EEFBE1DFCE9BC3B293ABC116DF03C51D75ABDB0AE8BBE1D61C0BD2920C5;
	15240 :	BD2B1E2C3E0AEFA53E178DCFBD5A995DBE3B5F053E67D7523BE2725E3DF2C6F53C84702D3CFDA5ED3D50DC5FBE7642B63CB324D1BE330AD1BDB28A95BE37070F;
	15239 :	3CAC61353D4400EDBE4CE6013DDFCB813DE9643B3E22B375BCDC8783BD25E67F3E159AE83D2A950C3E1D9288BE6A85A6BE0783B4BD20714DBDC11B463DD4EE63;
	15238 :	BE065D2F3D5289203E001BB43E49B473BD809FCE3D9C72C2BE4FCED2BD2B27583D8C68DABE0C2CEEBB951AAC3DFF7C5FBD1DE091BCE90CF23D84D13A3DF0409C;
	15237 :	3C07295DBDE99AC03C8D75EF3DD096873EC83690BE39FB71BC4E6135BDB9C8A83E99CFFDBE440A783C25EFAFBE07DE80BE8B8667BD917AD63DC1FC4BBCBADC4B;
	15236 :	BC0F39643DBF7A683C7022B13DFB2905BDA5D9D0BC1FC8EB3DA36E643CDECA373D868BD53E0A4BC33BC807D7BCCCEA753D2DE239BDD1E6E03E2F0AD73D7FD6A3;
	15235 :	3DFC2808BE7816FFBB1F1E4CBEC3F37A3E9A4D92BE6CC3DF3CA9EC1EBE2F3A423E4D4D48BE3472E0BE181B1D3F12B7CA3F0F673ABECAEF85BD8CFD4FBED69204;
	15234 :	BDF2F7D13E86B4413D8ACC483E9520043E38C631BD282482BDE7107E3F086C9D3E962B873DB9BBECBEB33D9FBE8B62A13E55C71EBF9D7BBF3F5C3CF33E93B240;
	15233 :	3C4FC8ED3F3929B4BD21739B3DDA114B3F0E89DFBD53A22DBEA53F073DFE285D3F82E9F7BEB76D313D8B2FE9BE595F5EBEB02DB9BEC62CF83F558AC4BC8CD549;
	15232 :	BD061AE33D4D06EDBF36BEB93CD7DE22BEA1BD76BDE72A793F5FE0973E1FFFD63EBEF70ABE0E25D3BC0B74A23F1E6135BC9A89793EC5035BBE7EC40D3DA982FA;
	15231 :	3DBC7BAEBEC3A96BBF0241033DD14D943F13D4AF3F209B8ABF74D809BDD8AD3D3E86D8743EBAC0BABE6CCD0C3E9B4C70BE55B18D3D90584C3E2B2F233EC11930;
	15230 :	3F1284E0BF0B20083F2920E4BE21AAFB3DACFC103E93FA5FBD089C603F259AA63E3AB6E9BD896AF8BF1BC4643E5C15CF3EF083073E78A0A0BE87EF353F2CC9C4;
	15229 :	3D934F83BDE57120BE1460F1BBE01C653E6D1710BDE40BA4BED6F62F3D9DD830BF0AF80A3E04BD27BF042507BE3198C6BEEB8DA7BD2DFEE03D871B1FBE24551E;
	15228 :	BE52375CBE6D7835BC4F123A3F048B6BBF7D5F60BF1BE8723ECF2728BE601A823DB215B63E08F4C13E9ACFDF3E2ED59C3D9281A4BDC406EBBDD59362BE20A3C8;
	15227 :	BD1B77DEBE99A2C53F6AB85B3D60BD1C3DC7DF4FBE2D2CD2BF164D423E8E4578BF52B9253E2F462EBE6051CBBF3624AB3EDF53333EC4A59E3E075E2C3B0A6944;
	15226 :	3DEF61243CF4F529BED34288BF072759BEC51B24BDA5D0853E930DC43BC715043F0701D33DEE2DA73E9364593D15633E3F52F03A3ED7F94F3F1A6AB4BEFD93AA;
	15225 :	BF5521B5BE707B26BE39F8E83E8E2B66BD69B01FBEE01661BE78091A3E4B75BFBF07AD30BE84D38F3DC06BEF3DCBED5D3D94B79E3D8FDCD7BF3D79533EA0F5D3;
	15224 :	BD6BC032BE1BC7A63F2CB9CABD410BA4BF51A9B93F1119063E2D96053F2BADD8BE2AD8C2BE56C85DBE1BE0CC3E5FA4AE3E21238E3EC7CD11BE815A103E076FD2;
	15223 :	BE5584F3BE8D3F523E2A5CECBE1D963DBF10D0633E70DC0D3E6C86E53D9590923F6663B4BF1918A53EBD5007BE1746B23F249B81BE463BEDBDE0057D3E025730;
	15222 :	3D2B81FEBF0E8250BEA190203CE165723F26DD2ABEAA675DBE0BB70EBEB5EE03BCC650943ED1A5F4BF00FA693E848CAC3E847B84BF8BDDEA3F1809B43C69C710;
	15221 :	3F6F61E43ECF4404BEA86D3F3EBC8623BE0E8149BED81C16BE5D4F93BF222C803EE93D643F2A50363E3A4046BF060654BE5F4CDA3EB8604DBEDA517D3F3015A4;
	15220 :	BE276D1E3F11739F3EAA93143EE8244BBEE75D5BBDEB60453E15605BBC889CE73E989065BC8E89E73E9608113CE58932BDE501C43F0E08273F40041C3CD88691;
	15219 :	BD8E74093E63EFB83EF1504BBE9898A53E6C6FD9BE86890CBCA2B5A43E49506E3DE6B296BE07C5B7BD8AE062BE0ED1883F2184753EC1E17EBEC9441ABE421E89;
	15218 :	BE502C5ABEF0E9B7BDB0E0ECBECCF8CBBD0838EC3E1E44F53EBA05B63F5878A1BEBF5E3DBDB21267BDBC1868BEBB2BBABEB18512BD5823113D9BB6DCBF32B157;
	15217 :	BDD958183E8C87D63E76694DBF0455A33C751EDF3EB6977FBF5D37F83F4E1A8D3E349E173DC928E4BFA321AF3E0E0B57BE002A653F19E24FBDBE27543C7461A1;
	15216 :	BE6902803EFE6266BE8DD6783F0F0DC9BEF05B5CBE599F613E44E9033EB654D33EB7FF993DB217ACBF18F3513C93FDAEBF2577313DB6952A3E5438FE3EB60778;
	15215 :	3EB50C4ABDFEAB2C3EA5232FBF3804D33BB1276C3EE2C0523E02D20CBED9F2223D6D76B9BEC43C12BDC9747C3F83DBDE3E0390AB3EAA388DBEB5490E3EC531C4;
	15214 :	BF0277603DE129563EB0B0393EB6A1243E36FC643ED0B2463E5CC995BEC5D89DBE270CD93DBB24B0BECC6105BEE53BD53F419BEE3DF013193EFB1F303DE6BB3D;
	15213 :	BE43F7F2BEDE9D7DBD7660AEBF1FADFDBEA9A439BE1C5C143E86571DBE04FBDE3F031DF73EDDE1E9BEFD0E513F140DCA3EF4DDA63E032BC1BF219BBFBE8A4A4C;
	15212 :	BD2C1469BD6DB1FE3F0725F53F4B6AD1BF3A4DC4BF8F9CB1BED8064EBECE543FBDF2EFCF3DD9F4ACBE0963173E9F3CCABE211B8DBF23D7F03EBE7AF3BF649B74;
	15211 :	BBBD3BE5BE7180723F049A103EA4E28CBE5EBEB93EC0BF223C804EA83DCBA7AC3CE7C2153E86A4763F88ADD9BEA94FEA3F2039E13E79693FBE6781343F2B28A2;
	15210 :	3E2375013F0B3FD8BF08F4D1BE8DA702BE136FA33E4DD5D53F44F196BD2DF99C3D67CB113E5067D83E3C19A53F8703E0BEAF66C53EEA19913E523606BE11F176;
	15209 :	3F3A3137BE6D78123E9334FB3F12AC83BC1F9B15BE1F3EC2BDB34C89BF0287063C3B35583D0C5DC63F2E27F53EC33A80BD4C8B15BEBE440D3E82D6623E80AF12;
	15208 :	3E5D6BB53DB6EAAF3C822A1ABE39BE5CBE7C47723EFE3A783F135B4E3E0A6910BE2D1CFB3EB9A1F33DE9C52BBEC59BDABF32262D3E9225763F2664843E0CDA5A;
	15207 :	3ECD86D83E2E9C94BF2D3B303EA585CB3EB435833F1E57B8BED0B1053D708DCD3E6C58BABDF49E70BEA7028F3ECE4209BEA268CCB8D0EF283E3434D8BD1F957F;
	15206 :	3DAB2DDC3D435326BF0608D63D7110DDBF38801BBCE591CEBF423BACBE84C15C3D4311703D26C0B03EA9690BBC847E64BEAA764E3F02EE283E2D285DBE474E37;
	15205 :	3E8065423F1D6E0CBF779E813F3E142EBE97D7743E4753A03E7494513CFD2C5ABB91A288BDBAA9B53DD9EC06BEF6D9273EF59D60BE908B1DBF1DEA55BDC4DF97;
	15204 :	3E8B3635BE8F61BD3E277ADFBEAD827F3F22148CBE8F0930BED8412C3E388F2D3F0B806BBF0B22B43F0FCE0B3B3A0EFA3F060C4EBF34CF53BE88A281BEB02BB1;
	15203 :	BD4FE8ABBD63360A3E8C8640BDC70A983E97BF0CBE30396D3EFD78703EB85CC4BD184D503BC09460BE754D7EBF5616F23CF0C37B3D78D910BEF3E294BE0DEBE4;
	15202 :	BBEA28A3BDC1AA9ABDB5B0D03F412FDB3F95AC9A3E36083BBE2741A13E6DBA623E13259A3EEB118E3E77C9123D8925F03E9F16213EB2F59DBE863FC0BEB4523F;
	15201 :	BA7A06103F26295A3F521AED3CA256C73E3D282EBE8B2B70BED99D2B3EDD84EE3F4E9BFFBEB2F4223E639E2FBE248C28BEA76048BEBAB02D3F29668F3E224046;
	15200 :	3EBFBB28BE68234C3E8EC121BEB3BC4A3EC2AD7A3C1DA798BEC422783E4731E0BD6A18723E5373C0BECB7F5CBEA767AF3E0C27ADBEAD4C4D3ED36CB73E2027EC;
	15199 :	3CD4FABE3EA614A9BEA415953EA17E6DBC9F055ABDA586B03F650877BE3C27F93E8B51CD3DDC481F3F1D3BEFBF2A5EE63D106A97BE5CC08CBF24A5CCBDD59010;
	15198 :	BA8FB8533DF60133BE791F38BDBC060F3EF5EE683F1AD95D3E3F8D943E8F5CC43E59D6DD3DB47B5BBE1F5201BE912382BE1D01953E58FCA5BCFD8B6CBD5F7AED;
	15197 :	BDF117C83E4939E6BF2590263EA116DC3ED7E4E73D416763BF01F5B43E956C253D82FBB5BF25CA883D1203FE3DA24AF4BDF592CFBC4E7D233E1620623E0931C2;
	15196 :	BF483C743E9B5D983E99E61EBBDB1829BF2636F53E8548793E23E253BE54F5923EC796FBBC94F292BE585F89BC239B823CC62790BD2C0510BDF0EB75BDFEF6F2;
	15195 :	3EB12FF03EB2E069BF229ACC3D71A726BE8683F6BE0E302ABE7291C4BE3E8F9B3CFA395FBDC21E203EE13D1A3D5D45FEBE21F559BE88DBE03EAEFBFABE00BA09;
	15194 :	3ED451213F6C137BBE8AFB703F041D80BE6D1FD23DC80B3FBDB4E4D1BED598433C9F882CBECF09883E8D198B3DA4A08DBED106EBBED0AFBABDF1F64ABED50C30;
	15193 :	BDCDAE223ED3845F3CDC83C7BE722754BE1F4688BD2FCDDBBD8B30C5BE59391C3EFD9DA33EB0C81D3E0850F8BF1BB1643D28E7D63C597E5DBE59FDA13E9F39F2;
	15192 :	3A22BBE33ECF8BFABEE335713DD768383ED84458BEA0CC3D3E9F06023E159A783F063B51BE76D07BBE68C1573D99794E3E033E2A3E1B9BD73E81B795BF113186;
	15191 :	BDB471533E2609D7BF160C213CC805F33EEB8BC23CC91B233E6D4182BDF3DF903CEB66F338E72B613DA1B3013E51F377BE353C8F3E6D8F743D5CCC08BB6014EC;
	15190 :	BF1C1C8EBE72CC27BE9CDFD4BDC360C9BD74857E3E4009673E1A7F59BE31B5EC3E3838F53E813C91BF1368BB3E9FBE5EBF038965BD2C4E073DA080B73DFE96A6;
	15189 :	BE2F8F0BBE1CB390BE63D2B13DA06AF33E50FE963E3A82C63EC0D06A3D58F6C53DFEE6533DB6E94ABD498EF4BF0D415DBF17EE1C3E9AFC53BC61A3253D7A1BA0;
	15188 :	3F2BAD8DBF2DEEE23ECDB3623E605DF5BE6C46A03DBBB264BD86E0B03F09DFFDBF21B81FBE4C1DE6BE1335A3BEAC06213CB3AC14BE4C90833EAB89E2BD526FAA;
	15187 :	BDF24054BEB5FBD8BF3C655CBE4A01963E19D1D9BCDE4C71BE223D073D2F276B3C5D15A8BEB2840E3E6E9EF4BD95D16C3E333B623E7D76443F6E0F2C3E9DF179;
	15186 :	BE798F8DBEF6275D3DCC91CCBE8337043E330736BE6CD11E3DA92AC3BEA451733E0C9398BE680CF43E057049BE4D4A083E4D7C46BD387A9B3E724B593F00C862;
	15185 :	3F363E343CC4A24F3E9AFD56BDBAB0773E216D96BE2AE9763E7E30CBBC153549BC096E0A3E2551943F85F2C03E851B263E0ACE04BDF85812BE48C696BC21C0D7;
	15184 :	3E836EB0BBED1E983C72CDA93F02E6933D2787313DE331C63F00D8D8BD26C254BE196C42BB90F59F3DD81B7C3DCC5C083E980CF6BF609559BEF8108F3E0BAAAD;
	15183 :	3E363C7D3DCD72E0BE8F3EBC3D81C300BD8604CC3DAA1F81BE9F4423BE17C82CBDD6B4ED3E2300593E84C768BF59C7533EA9BAE33E1A9D35BE991DF53E4FB293;
	15182 :	3EFF87FDBE60D40A3EA835813DBA6F20BF04565CBD8EBA6E3E6AB392BE8F19363E4C30153D0DAA273E97C819BE355C0D3E87902D3DC6F10FBE51804ABD54E395;
	15181 :	BE9B129A3DE1FD8FBEB70ECD3CF70DC03E9A2B5C3C95A32F3E52E6A13F7A637EBF16B9423E8D0C633DAF0D48BE4713DA3DDC8C9E3EC450D2BEC4525D3E7585EF;
	15180 :	BE9DBA763CFE233FBEE9804F3D0D5ACE3E22E0D5BF78D866BE275A71BE85E64C3DE6B8373CB203623CBB64B1BE17324B3E1333B53D9D87ABBF0C7490BE6A5704;
	15179 :	3E1B7212BF151798BEA49E273B585B29BE384FDDBAE1E282BD9A4BEA3F0993ADBE9E56F3BE3792ECBD5A1292BF01520BBD1897BBBCCAB0E93EAE0171BC8DE038;
	15178 :	3D36686C3B53AA5C3EDDA5433EF27E1D3D5EEF9D3E45E575BDCCD43D3EA2868ABBB922D33CEBCE523C6291F2BEF362F2BE862F93BEEADEF2BE3468BE3CF16D29;
	15177 :	3C92011FBBD5A3D6BF14DF233EB38FF0BD9D2F383DBB24963E98AB68BDD0A8953F21CEF5BE6551DFBEC7D7873F046450BE34A733BE58C5A33A74B601BEFC2644;
	15176 :	3E2D991ABEA308E6BE7B4BE63E807B1E3F1D0D2C3F0F44673E8A9F15BE6BCA53BEDD6C603E9BF7CEBEEA6E18BD22F3E2BF05EC8A3D956EC83E62A1963DA7EE80;
	15175 :	3D5822C53EB85A303CC403613D2DFA35BD808FBABD7D66753DAB0363BE9057D8BE29AAF0BE85901F3E441FC23ED1EF3C3D9993E53E9A48BDBE9A70A73E80CBA2;
	15174 :	BE69AD553F0E5C483C9CD3ECBEF0F5B53E6991283E3EC2523F6C9F5EBEC64EFDBCB02E613E640FEFBD73B520BF09E8EBBED499653D9B27C93E8F1880BE6D4B26;
	15173 :	BC26E1B23D84939D3E955D6ABE1E2ECB3C9A9266BE05DB87BD0A029BBDFFBC9E3D13D11FBE42DCEABEBA7050BDDA1A053E113DE5BE80ABB4BB90FA0C3CEAEBCF;
	15172 :	BE887D28BE8A7E723E8E2628BE3CBBF33E0851B0BE5687F83EEA2058BE00C4193F08952EBF0927F13E5CAA5FBF6B4A163E8EFE2A3EEFA5FDBE5A2549BEC150D0;
	15171 :	BDFCEA1B3F07F86CBF52EFF6BF18493ABE62F6753F0D1AD53E084736BDD1D568BD5D0B593E8B4AF93E1BFC593BD399FD3F090E19BA19A96B3EF17010BF5BCDC3;
	15170 :	BEB3B069BDE6F086BF0ADAD1BE189D89BF15A666BD86530DBE0C20433E1B2F383EF9995E3E9C2246BEA49D533F0A47633E2D1EF13F034D46BDB184043E5422A5;
	15169 :	3C6B097FBE683074BF0E18513F4830293EDE33C13F0EB9A9BD3E3BD53E7B9C5F3E4C24663F3FA31FBE6A9B5D3E145429BD87E6FDBE47D927BE98D82ABD0BC693;
	15168 :	B9D40D273E038D683EA41FC2BD96DDE2BD8E7336BED3ADF63EB3DF15BF14D9BABE3BFD383D66DCAA3CEABDA23E8EC1D33ED1B60B3E295D9FBCD435463EF085F4;
	15167 :	3EA68559BE56B9A03E284A5EBD3510EE3E85B6C13D76B2DE3EA5B3B13E8892163D6BE90CBE57473F3E67112CBE3686123D9D98113E1A4A83BE307EEB3E0BD7D6;
	15166 :	3EFCB965BE345FDBBD2A7043BE2F355D3E9D1F21BE3683003EA4CF62BEDB4E053E0B32CFBC2C28F8BE8932B4BEC75C18BEA4DA0C3E78B26D3EE689AD3E23FDF9;
	15165 :	BE1D4B66BD235AF73EC47DB73DF07C08BE2FE19D3E0F2EE3BF0C10EEBDE46AF7BEA80C683F3F5C253B3465C93F04200B3E1DA8C53DCA20333BAB80753EBDA000;
	15164 :	BD3F222E3EFF9CFEBDC63815BEB01324BEB04412BE87C575BE55FADEBA8A4A8D3E2DF3F63D23CAC83E8636003EF459ED3D200FFFBED0C6503E44C97BBF0E9CDA;
	15163 :	BDA92F13BEB97518BEAFF4E5BD5EE2FCBDEE64713E042364BBD7910C3DE76BD53D2E2B603D12CD33BECA919BBEE99A213E7A2BB73F180CCE3EAA22413CD8803A;
	15162 :	3FAB4A2B3E6B28083DE0BB083E278E53BDE6151A3E478757BE9123F23E67FC623EAB48073E0DA94B3F0F46D7BE126D4C3D9220D8BD918B90BE8517503F4C417E;
	15161 :	BEB45287BD8B83B2BEE9958ABE949B9D3D01CB29BE0D820ABEE56CA0BE0A216CBEEB72253E6EDA6BBE2299A4BE8D6CE8BE8E28083FAADA83BDFB04DCBDCC1C57;
	15160 :	3CF4F6B93E73B0133F1DB9E4BF0D9E4ABE8709ABBF47FFF63E32E6B8BEFB2C28BEB1809EBDD888F33C15361E3EA3BF003D7A1423BE703E0AB9FD5F45BC5ED933;
	15159 :	BCC5705DBEC7A24E3E0B66953E2233E7BE68C7C8BE9C536DBE6644E03DFD18B13C6AA786BE1A12EFBE5B41113E372880BBE41C273E1D654B3C00A6FD3EF40F14;
	15158 :	3EB7BD03BDC18FB3BF3656C83E64E20ABD022A433F3117ED3E22F3FB3C68561CBE7C57BEBEF216A2BE1B3DF93DDB72313E4E64D13F102BA5BEC50D43BC5DDD0F;
	15157 :	BDB351E2BEE30E25BD95E0583EBFED48BD27119C3EAD0FB63E87A304BEA3D6DFBD32988DBED6F11CBDA714173EA382A83EB3061CBE2894063E6D5C36BEA81D68;
	15156 :	BDEEBC793EC1E868BE19E5533EAD7C73BD6C4AAE3E698760BF1FFB28BEBC758E3E7B8DBDBE8C6D773D03ABE63E9CF8593EA050F4BEA2233ABE5DDA0D3DC5B1BE;
	15155 :	BE37B2403EDF216DBB0E8B983E19CFA3BDCAE89C3D7B63FE3EA6EC3BBE1B695EBDC999183DED8DF13F101807BD6BF989BE8274AABDC2848E3E36E332BE56EBF8;
	15154 :	BD95CB173E8B1D10BE259928BF0B0C273E9C7E87BE06A2933F4FB425BF16C8343F64683A3F1E524B3F28BD49BF377E073D0A74EBBD57AAD53E1F38543F038731;
	15153 :	BECEAB5ABF49DD94BF0ECAFF3D897AF33DEE00A33D4E4216BDF105F9BDA8805A3E800D9F3D830A993E5922D33E558EF93F14ED973F4EEFF13E1054813D2A29F8;
	15152 :	BE17E77F3F3DDB0FBD82A9CBBF01477FBE8ADA323D58AE16BE0C84AA3E4714443D9E0BFF3E7277D83E26FD8F3F3C313CBDF0D6FEBE2F929E3ECA153BBE2BDC7E;
	15151 :	3CF453243F4018FB3EA1874ABE02051DBEF988BFBE0A49743EE547913DC1552DBF005E9ABF13094BBD9B8DF93EC6A0703CFC5435BE9141B5BE81BD333E4F5220;
	15150 :	BE8219B9BE0BF9633E3810C9BDE6F5FEBE15BA393E754B57BE0BAAAEBF0BF02B3ECFF501BEC18B3D3D0E68B23E59B8253E73F52BBD47D5233E1C42BD3F193467;
	15149 :	BE7E81983DB4606D3E15216BBEAF8E593DF5141D3E04763E3F8E63BD3D392B693D8BCF3CBDD46D4EC0A3F953BDC71309BDF7D7FABE40615ABD60C4A73E06F88F;
	15148 :	3E7559BA3DD43890BD0D3E8B3ED98AE23E0A30C2BEBF2E50BD3CA50EBEC0D637BDED0C94BD9332FABE316DF5BE1555E2BE9452623E49FCFCBEBF22113F088594;
	15147 :	BEC36D6E3D975088BE453F03BE14114BBE532166BE74817ABE430383BDECF6123F371182BE1C15053EA63916BDCFF0D0BF5445F9BE3A2FD3BE89A5CABEF1584E;
	15146 :	3ED4AC94BDD80BC03EB789E43E1A27FABDFCA35D3E7BFD77BE2BF8A63E4717B13EB5577DBCDEE8653E61BE31BF807B0CBF2CB9BE3D9FB1EA3E9204A2BEBA76A3;
	15145 :	3E489ED5BEB60C5E3E00EF003B07FF8EBE2FCAD13DA39903BEFD0ABC3EA1CAD5BE0136923ED558C73C80529D3EE074F9BDAB386E3F31BDA33F364AF1BE26436B;
	15144 :	3F3BFB8BBE6AFA14BD96F3FEBD312FF23DAA58553F26D8883DA9807BBE21C371BF135919BE935C123E13F7C93DBBBC3B3DCC30F73D7A2EDEBEAB2D013E74DDAF;
	15143 :	BDF5E461BF02FFF8BECF56503EE3B4243DFE05FEBC18CF3A3E9E66743E2BE0943DE3E7EDBDDA1CE83D876CC4BF695A8EBE545D8DBF355CD6BF702046BED8FAED;
	15142 :	BE4D68F6BE0CC5BE3DE22C263F0374243E0F7296BE45EBC73D47B1B73EB2F013BC798F033F000362BF3757DB3B88C736BE71EDB4BF1190583EA34C2F3EA0BFC5;
	15141 :	BE875FF43CD5C7773A9D8E6F3F4BCFFA3E2055363E97AA4ABDCA7092BE9D547C3F022D363DF97879BE4064393CC59450BE4F593E3EAA086ABDEFFDC73E877725;
	15140 :	BE7640A5BF5D768C3F6C75173F10F088BE4198EE3E9353943E50F8B8BEEB66B7BE158CEF3CB43FE43E98C950BCAD2B1F3E00DD7CBD95B7BD3EB846A93D1DAE44;
	15139 :	3E9DF6C5BE9DEC043DB3B3913E468948BE844247BEF861D53E5598DB3940A4963E6FFF2BBF224571BE0E30BDBCD98A133DAE91643DFFC8EC3E2586683D522425;
	15138 :	BF414E523E9FC785BE8FD152BEA1886D3EDAEE56BDD173EEBEDF56DA3E490B5EBF1116733E4AE9933F8713A53F62342A3F2AA4CA3EBA358D3D2BA6C23E7A9F63;
	15137 :	BCE84B413E8F57753D05CD673CBB278C3E84CC94BE4B24E5BE77B3B7BE5A890C3E8050093E848E38BE63CD4FBD00A6C7BEAE23A0BE1879B8BE5BA29B3D6FC853;
	15136 :	BE51052C3E937E643F5BE1593DF3E7D0BE89E310BEA561093EB881D63DE5823F3F07AD3CBE8B96D23F221B2EBEA7FB81BE5BD384BF10821A3E065AC43DA391E3;
	15135 :	BE2DB70B3B88D9943ED8ADFDBEC779D83E5C17C73F9995313D0D305BBE32423A3E41462FBF3F01F7BD1CB4743E8F3D2B3E53545ABA00B82CBDAA0DF03DAC6AB8;
	15134 :	3E6EADFF3F1DC4A4BF40131BBEC124B13D231C50BE61D2693CACE7143EDD028B3E33DEA33DBD4EF0BDA850C53DF16880BE3A1F94BE0DF66F3EDF3C923E4BB715;
	15133 :	3F3201053E562C1F3E7F60EA3FAC6F1EBE9A66E43F43AB23BE8539A93DDADB3E3EA2B383BE0C15DD3EC7AA46BE90A1F03DF7FEB33F5BDC01BE82435D3D06B762;
	15132 :	3DC1A08ABE98A4663DC270863D4A68EB3F3A7937BE912708BE095E63BE6E07673F2EB1C9BECD58833E707F763E49E1803EE883513DB86C63BD9D66713E15F7C5;
	15131 :	BEBBC2C83E4B04AE3F38D7253E3F3A9FBE2A0AAC3D834F04BD47FD2DBE9D5EB9BDE7E24EBEA9CF8DBF51284C3EBE793FBE0D102A3E935FE7BE394EAA3F0F4030;
	15130 :	3F3042CABE884E84BE912F423EA534D3BEF5B36C3DFA06C23E890ACF3D5BF4B13F0538333DFFA8FABE94D8CDBE3F4D07BBF492D73E93E974BEC37E8D3D48897C;
	15129 :	BEEA06993F3D8ACCBEADD7D53E83BB8BBE9F8F463EDB19AA3E35F1F23F52DC103D0813373EEDAF77BEE9B000BE9E14B83DE6B9483EC40867BF32AEF4BEC183A9;
	15128 :	3E4C63E13E3023A2BE0234E5BECD0FA13EB98BFEBE0BF4843EF3C71F3F0A5AEDBE5F82383E061812BDE962CCBE8538BB3EB599783EF09350BD9B8973BF348A87;
	15127 :	3DBFA1ADBE5BCE7DBE2978253E94252EBE91BE3ABE83B1EEBE2D3EEF3EBCA6553E0DDE0E3E29F853BEDA04C8BEB9C80FBEB5C0323EEA76F3BF2074CA3D0E54DE;
	15126 :	BEA3E0E7BDF1B08C3EAD93EC3F697B30BE6AA231BCF797CEBF0F083ABE7B89683EB1DD973EA466D7BD0AAEDD3E91A0B53EF9CCCBBF18037C3E80EF613F8B1DEA;
	15125 :	3D1C3CC6BE4D5642BEDAF7F43F14E4583DAB97FA3DE12C8FBE12830DBF0311463F80122B3E3D304CBDB00F763C7DCE913F070EF5BE66D89F3EEE79453EBE66A9;
	15124 :	BE1BCF54BCD1D91F3E243A3B3EEC3C0ABF00A694BE88B21CBE570D553EED4B1CBE87B3513EFE3E08BDB7B812BDF12A5EBF25D8463EC63174BE963EBDBE05F4DA;
	15123 :	BE6E2AC1BEA7ADE7BE9373713D2FA0F7BE2FCB1FBD1BAC8CBEECE76E3E7E8171BE333A313ED6062F3E3C9A61BD6E65ECBE2B3C91BCE41248BE93EAC8BF85D7D1;
	15122 :	3CD024C5BE383AC9BEA5CF1FBE1B635BBCBDA0DBBE432EEDBD56F599BE3543433F18E51CBF0F7A0FBD72681C3EBC8D6E3EE97A85BE533CFA3D177C5B3C8DBC74;
	15121 :	3DDB9B36BD8108B23BD46877BE2CBED1BE8424A73E552FAC3E7B6828BD9AACCDBE3842E93E73E2D63AEBB7AFBF026AD23F08136FBE52249ABC613F773E60BCE2;
	15120 :	3F2998703C74FBADBDF40B1BBCEB579E3F5EC2373DC234E1BEF7D69DBE89B390BEAB4DA63E9BAA13BE8C4359BEC816E53E99275EBED6D7073EBBB3A6BF2E14EE;
	15119 :	BD69A1333DEE3245BF0F3F8F3BD3895C3EAD0C96BF6875D43CF551563E48E11CBEA0CD3E3F08C0E7BE1BF3D33EC14AA5BDF0C194BD04E635BF09D4A9BEA8DAF7;
	15118 :	3DB22EBE3ECFD853BF68B9493E3BF931BE7FD50B3E9B1610BEBAD46FBDD781FBBC8CAD89BEB540273DFCEE0F3DF9653DBA8008713CA37F663E7D08D13DC3ACCD;
	15117 :	BC15BD52BEA886AA3F1FB5C03EA504213ECF4CF9BC85ACCDBE1154D13D9E0F9B3B42F5CCBE607ACFBE56423EBF7A9D193EA09A3E3E850736BE881A3B3DACC36C;
	15116 :	BED5C89FBE3AE5163E504A1BBE015145BEF7B7B03ED4A4CC3E4BBB2A3CA8BCE93DB284143E4644B1BF04A9323E823FB03EC9DEA53CE975C03E8AEE37BE6FFF43;
	15115 :	3DDE0400BEAF1372BE896322BE9A68BABEAD15E03E627FD43EFE02763E0FB3F8BD730C763E744CD33E41BD42BEE4DE92BAA9C8113EE939B33DDF746DBDD0E313;
	15114 :	BC8C15A2BED9DBDEBD2F29213E4936453EDDE7D6BE6C08F33DA4EE6BBDA5F443BE4284DD3E03FA883E3FD7633D1146493D1230EFBDD1F7C33E51514F3E1A705F;
	15113 :	3ECFD492BE2A21E73E4834D73E99C752BEAE46D73D938404BE25B663BF435B793DE16C31BF006F9EBF6640503DF6BEBA3DA3282BBA46BA78BE2797FA3E0C910F;
	15112 :	BD7C9FE33EA5691EBDB12F13BE85820BBC6F2064BE81B4FF3E2C40263E874BCF3D003D48BF2A717E3E9400E6BE6681D33EA5C1D63E6CB5313E3AB3253EC92841;
	15111 :	3EA6B7F5BD36419A3CF637493E4E9F253F0BE68CBEBE8B4FBD260254BE8108693EA4896FB94F92AEBE90FC7BBDC7D1E83E8D412D3DE934B53F10A7DB3E79EDF3;
	15110 :	BD3DB5563F380F03BEAE22B8BE3DEFC6BC644D3B3F0E35473E841B14BE6932CBBEAF11743F597704BF0547B63D5A6199BEC1DBBF3DF69B71BEC329873F19D1B6;
	15109 :	BE3AF27FBD5216693E20B76EBE1A5745BD6241993EE236F73CCC9E5CBE850CF23E9FDFDEBBF1A586BE94995B3E12C323BEB7FC8A3E770E3B3EBCD9983F466B32;
	15108 :	BEA33F79BD6BC3DDBE4396A8BD9D6F15BCDC79B0BE0D2CD13E447D3C3DF7767F3EAE21B6BE85FFB13ECA98143D0C11223E6F6C4C3E913E84BE0860C63E52BB91;
	15107 :	BCA46F5BBF49BD81BDB39ACC3E79FCFABEDB3C6CBF26C9E03E0DB6863D0B1F87BC0F3786BE35184E3F3672243E0171E93CDF10B43E30A0B43D395FB1BCDD7702;
	15106 :	3C8BA63A3E7A073CBDAD901C3EFD26FDBDE8DEE2BD2EF49E3EB74E4A3E019AB33DFB70023E162B653E8FE275BE868CA5BE4DDB53BE27F405BDAE1BA2BECF7DBB;
	15105 :	BD5306723E498FA43E22539B3E408CD7BDD56FBA3E2982D23E73F04DBDE7F960BE9016783F1085B7BE8B0D9ABDE852853D835BAFBF0D5C39BEC006F83E4EC53A;
	15104 :	BE8917FE3ED488DCBE5C26E33DF729593E904DCA3F19A2303EC3E837BE21401E3F072063BEFC9AF0BE865D9BBE01ECFDBDDCBB5DBE6B5471BBD5C853BF22A1A2;
	15103 :	BEEB40773EDE24483EE28BC33E9EA70D3D3B2D3FBE1929C93EE49747BDE48EC6BD245A66BF1CFE713F4C3DC13F17AB7BBE60CB7D3ED586F6BE9A67A0BF190E6F;
	15102 :	3F1823A93D217F683D03C0CE3E96E6D63E625499BD0F61E93ED8E0B2BCA133C23D52C801BEA15B023D64A505BEAB49103F0C23853E81C13938F8D01C3DEA093F;
	15101 :	3E4A58A73DD5C116BE316C00BB862E29BEBD42AEBE9EBD9A3E8C27EA3F3C9B9C3EAA7B393DB3D638BF175B6D3EA0482C3E96B153BE87FFB1BD91EBA7BE56AB30;
	15100 :	3E70E1FBBC8281BB3E43A5613E0516AF3DC86B683E4008313D2D8D353D98EB57BE32518A3EE333063D8E1B95BEC354E93F257E5C3E484DACBEA4BC3C3E4E74B8;
	15099 :	3E0637E8BEC9B41CBE25F1D5BE277F11BD3D89CA3F01DF93BF1BD4E73ECD7B383CA74D993EC4ADFA3E2F0D8B3EC2B4E63DA4D42E3B032DD0BEA72B31BE666E7E;
	15098 :	3E46457BBE4A8585BEACB4D33E962CD9BCD4D1BB3D8EB1D9BE746E67BE13F6353E5ED5273CED5F803D3268B13CF1FF13BEC6654D3E5299803EE9B3EA3EAA9DB6;
	15097 :	BDC9DB98BD90A51C4007E276BE6EBAF7BD615FD7BD6667773E98DC6EBE90D38EBD948DD9BEE525503F19F5213E2A30663E750BD03DB8E240BDB7165ABD88AA8D;
	15096 :	BC8ABB923F48C76ABE70CB683E31B12E3E719EB53D65C5BDBC3F9AC83E04D57ABF026644BC8957533E82F80B3E0FE9A23DBAF9E83E2A94C13EB8B2563CE51753;
	15095 :	3EDD0BF4BE14A25D3F3CCC373E2F6B693E4656723E8A92A9BF1A35043D39F9C63E2DFD343ED3C0D33DB728D03E99E253BD74E68C3D9084B1BE579BDDBE28E33D;
	15094 :	3E962740BE6F81323DD3FE50BF99ECD43F04F8F03D5BAE52BDE18EF03E39CD4C3E7BC89ABE4DE7A13EE139CBBF185239BED7DA4ABE45755ABEB2025B3E281A84;
	15093 :	3D106006BEE9C2E8BE0364CEBE97F317BEEEBE253E20ECDBBD93BAE4BDEFB4373DB4F41CBF20F151BE91391ABE6C7445BEA03A53BF032BEC3E88F7EE3F2439E6;
	15092 :	3E4D8E443EC12AB23EB8C4C7BF804A593DD438743EA58D94BE9522BCBDB3B50D3F0A7A9CBCA86DFA3ECC8001BE593346BD0E6E05BEE4A8323D0D6CA13CE14306;
	15091 :	3D847B743D23A07A3E6AD6243D27A6203D38128C3DC73DB33CF41FEF3E8ED887BDA8AC4EBDB25C7F3E135F243E2F4D703DCD9F78BE023F433E13DB5DBDA1FE3A;
	15090 :	BEA2B9FABE8616A0BDC65C7DBED69A263E0B4FF03E126A49BE8718A03DA4E455BEA2E220BDAE15C73E3AF875BC90E19E3E1EEA363E28D3903D2F17CFBEC01216;
	15089 :	3CCCB2D6BBEDB05D3DCA056FBD8CB2503DBA6C66BE0E361FBC4E2AC73E38889DBEE4DB84BEA506E33C1FB076BE8054DABEA2BFA3BE9528943DB833603E022329;
	15088 :	BD682BE2BDDDB352BDF8B03A3E1B0827BE1746E83DDE91B4BDC75031BDB3C30C3DC6269B3D9FF7AC3C274D5CBE25CC8E3C67D97EBDA128763DB64E9C3D778464;
	15087 :	BE13B8493CE8BDBC3E994C6A3D9E664ABDD9B2AFBDCC75A63E023B043E8992513DC22F79BC8E48FEBE11DF32BD1DF806BE7CBA17BDD17B2DBE6DF4B43D0954CF;
	15086 :	3ACB36BDBE1F726ABE0E2ABEBCFFC902BE3484A2BD4327D23E00FB6CBD7672AC3C10A6E4BE2B6B07BE157C5EBE82C227BD5310373EBC39A73E59A7C0BDFD4920;
	15085 :	BDC8B2DF3E80C5F83ECCD3D13E252ACABD8B5F3A3EB18FEF3E70C6673E6F93743EBD6E58BE38E168BE330F25BC254BA23EB0F03EBE2F99363D5E7F803EAA6608;
	15084 :	3E4B9822BE64D577BD12B178BCDDC2B73B86731CBE04BA30BCECC63D3CD5B9833E987F4CBCD49232BDB30C0B3CAC658CBEDCDC7D3E5A0C453E247B7E3EB36377;
	15083 :	BE619B9D3E5F9E9B3DEC077DBD126DACBD2F768CBE34DB333E81A7FC3DEA40043D339B443E8B6D7BBE79833A3E8210103D7C117E3D48046D3CBC9FEC3E15F73A;
	15082 :	3E1A372F3CF30A6E3ECADA7D3DE2FA283DEE2388BE0F77F9BD5CD820BE0EF1CC3E2B7E21BD85D3BD3DFD5C343CEEEDACBD2623613D04F360BE482A883DCBE804;
	15081 :	BD9E09E7BD8188143E823B34BD7C6BF03D3101273E0A3460BD8D63ADBE88677F3D849F383E8ABF56BE8E7A27BC6960073DFBBD693DB3ACEE3DAD37713E16220E;
	15080 :	3E83D54FBE2BE788BBA10027BEBDF17C3B87AC12BE2965E33D533856BE64E7833D9E648ABE0C84C03D2944E5BE7B2678BEAEB66BBD965F023E92D1273DADCD8E;
	15079 :	3EB54FC73E47E6483E893EC93DA5DA42BDF9ACA5BE93D451BCBD469BBE9563BA3C994DF03E7804A03DF2C57A3DC989D5BE3F62F4BDE0BC4FBE857782BE1C4058;
	15078 :	3DFCD50C3C959FCDBDBA039FBBDF55CE3E5550C93E11DECABDDEE37E3E3B9F2C3D29EFC1BE084E893D9B5507BE8FDB213EA08752BE91C8683CBD33753DDE4ABF;
	15077 :	BE8FD998BE965BF33DAC3E6DBDC2FA923E4600F1BE3EB0DBBED3555A3E53CF853D7E42FFBD3808E5BE5517A23E9BF68E3E524BA6BD4186363D829C8DBD6CA777;
	15076 :	BDF511793CD451DD3E2678C23DF879A03DB9D7F83D10664E3E366122BC546E15BD889291BCEF9450BEB963BFBDE795123E8550773BBB2ACE3CB083863B206D73;
	15075 :	BD748CA63D88A3643E7F2AFABE8E22F3BD8C44F3BDB7A0B0BE1EE9F2BD5C998A3CB4F2003D80E3813E69B916BD1FB0673E24B938BDC4017CBE89BE513DF14209;
	15074 :	3D822C393D6EF782BD2C6D263DD06718BE7730BD3C8F61983D4BC48FBDB53A86BE544248BCB9809ABC719B45BD4064993C00401DBE4488813DE482CCBD90A3EE;
	15073 :	3E0228D33E8C8EDEBE38B506BE114C18BD33FF07BEA06E46BDF4D8C1BD165F1FBEB7FE7B3D25FCA43CD980E5BDCCE46ABCB1A9883D4A7B09BDAD6E703EB2A14D;
	15072 :	BE82AF93BD485A543E1E21E7BDD95F0F3E17661ABE067D11BC618D583E8C62CCBE22E9743E3D5834BE22625D3C90711ABD8EF9793E16AFA7BDDCDEDBBDA4AE38;
	15071 :	3E1C990C3D5E2102BE0B2F753E03503C3E7DDA26BD99EC843D6DD950BEAD3DD93ECA362D3E4D35073D8B09F83D9FB4493D5727D83ED8852ABD96951C3DDF8A63;
	15070 :	3E79EFBEBE51471CBCAAE9E43D849FA1BE2E30F73DC8C4A8BCFDFEB8BD89A52F3E1E0130BD7A915A3E18FE89BD53BF643DC11F113E5910B63D5E2284BC9454C6;
	15069 :	3D54996C3DD757EDBE69CE57BE64F971BD640B313E2C779C3B91D6C0BE0E383E3D25331E3D4F77323EF5AD1C3E5DFAE4BE9F61D8BE27EA753D8B17463D8F118A;
	15068 :	3E88D5D0BEC3F019BDF39D7D3E898AEFBE667AC8BE344EB73D5A61933E8B2ACBBE25E6803B098055BF3BB3863CFF95603D2CE669BD61CF013D64B73ABDF65409;
	15067 :	BE56C00FBE25AFA73CD036E0BE547678BDB00D463E6883443E6618FC3D5E23963CC7281ABD0447DA3EC3B4F83C7ABC7D3C040C443E027A5F3E697C6A3E80C0E4;
	15066 :	BE5C3FD3BE9398033E8596C4BD4C741D3E5A51C43E09D842BD28CC38BE0CBDD4BE1A1BAD3E5578293E938385BD3D77A63DE47CC1BEE86C153E3E8C5FBB39A95B;
	15065 :	3DE01DD33EA17FDCBEC0F5763DC67FBA3EB237723DA75D79BDBAEAC9BE2FE0F4BE28880ABDB2C6823C81EEE6BC95E56C3C574EF0BC8B6D2FBD6112D8BD0FE652;
	15064 :	3EA293013C65B093BE0AC761BCB24081BE0BF3C63EA2702B3DCB0BFCBDFD768B3EDFDE9ABCCF05E63E09AF2ABF0AC9643E29FE14BDD8822A3E3E219FBD2A1505;
	15063 :	BEC887F73E48FC473ED2F9A13C919CE93EA47EA63E2A66233B785E6BBE363FC23DFD2EAEBDEFB5D63E17F9D33E0463393EE04CD139C38AD83E0B0CF83D44FFAA;
	15062 :	BE878256BC3F8C1E3D2740BEBDB81F943E227DF5BDB4D11BBE848604BEA5A2643E7C64103DCF9A09BE69350EBD47F47ABE4E6188BE119F793E3C3F4E3EC3BF96;
	15061 :	3D3A68553D16627FBFA9674F3D62202E3D879E56BE25B9FABE4E3ABBBEDD46DDBE333446BD5CCBCCBE346B8D3E0E0C78BD543CA8BE85DF48BD983BB63B07CF40;
	15060 :	3E800986BE73CA7C3EBDE0823E5560423E3D17B4BDA5E635BD61BF5DBDDF00303DBA20143E54F381BDADBAB2BBC49DAE3D0CCA53BE932B1F3EF740C6BD017A10;
	15059 :	3E8C3AC03E94FE6A3E4F9B323D899A49BE40471E3D94BED5BD66BF30BE2DAF9D3D18843BBCD0CFF93D0CB90BBD48189CBD8CC5F9BD93B931BDD3C75A3CA5A27E;
	15058 :	3E9AC18E3CDEE356BBF7333FBE37D607BD8A5899BE89FE4C3E4541963E070F213B8CD9B53C7DF1083E500A953D82BE6B3D2C59153E2472F43D1D80EA3E0859C8;
	15057 :	BD9FFA47BE42F36CBD9687DC3E4BAE653EA05CFEBD44644D3D8964D0BCE4314BBE3D2A01BEB54EE0BA5EB3FD3E240A68BD0B8436BDEA73FB3E9A0660BD9E2498;
	15056 :	3DAA3AA73DE27A4A3DC8A8F43D83EFC4BDAE8F353C872DE7BDFFE5093E314D7D3E5EECD53E2332223C28687A3D13158CBD8543953E83A3523DE2D7B53DEBC0F8;
	15055 :	BF2B74F53EF071C23E98592FBBC750563DA9EA8F3DD73541BECC67E33F286BC33EBC6611BD8EE7403EBC6CAC3E836C973E0E71383EDA036E3E05FC5B3ECD45D3;
	15054 :	3E6DAF953EA1BA553B96289B3E4A1831BEB5362FBE93412C3F14C209BDBC263EBE45EA323E51F82C3DD7EC01BED5E4B5BE3277F93EC2E7393E369F0BBD9C26ED;
	15053 :	BB9470F73E23BBE53C86FECA3E24BE72BE8405B73E109494BE158B9B3F1BB611BF0A09AC3E9A99EB3F0565CE3E920821BEA229C53EED1292BE0B10163E8B254B;
	15052 :	BDD080383D3C1641BE0B0B713EA762A5BCA67908BD98526F3B98FCF0BEBADBF03E3D6472BD5F46B53DE7A86ABDA5589B3E10A04A3D93DB72BD772494BE8A6535;
	15051 :	3E2317B03D34F3613E9B0C853EF03E4E3E3E24893E1706363D8B450BBDE8C33CBE01C0663D3B3850BE94CC56BE6C6C52BEF0FFD1BB3F40F5BE6C86EABE3B9769;
	15050 :	3E3364553E0AB27DBECDF4E1BDD6F0DB3EAC455EBD3B48ADBD2C3D9D3D9CC96C3F27318ABE8DEB153D4A9321BD0C5890BE4747673E206B123D3CA108BD9C20DE;
	15049 :	BE352D9BBEBEA3253E965E17BC1019DB3E7470483E56BDC03DFD21BE3CBB017D3E2ADED8BEA834283E18431ABCFF1FBA3F0B2CEDBE869B143E1706FABE4AC7CF;
	15048 :	3E678DB73E89D15A3EB6566DBDE87F883ECDC6D8BE0685C23E80E471BDC51009BE2F3C1D3E10D4913E3B2DD93D57E2153DA9A2843EEA5E683DCC68133DC18946;
	15047 :	3E932BE33D4AE958BE5D21523E484A2B3E20A9D1BE4829B8BD86D556BCC78E25BD9627433F0E12DA3E4DD93A3D7D66A2BD274BB13E372A8A3F1349C93E98BFA4;
	15046 :	3EDA3A6B3E44CD793E60598FBD215714BD955CC8BDEF6856BE6A8E503F1025CF3E2E45C1BF1868EBBF003AAA3E22FDC43D73B52ABCE3F3E8BE696F853F252255;
	15045 :	3D5BC2B83C3A54D0BEF4A1C2BCE46510BDF0FAD7BDB67A003DB506F0BF04E76C3DE2F439BEC0370D3D8F1CC2BF5B161CBE1B2CA63CDAA83E3D5CB63A3E52985D;
	15044 :	BECA62B73DD9210E3E168F713EE236613E842B85BE224BAF3E4DEA72BC1BF2833DE613C6BE5C7BD8BE4340D33E1CF4093DF46BA2BE719C603DBE8279BDB07C90;
	15043 :	BEF5DBD5BEF02EDDBE3AF7F63EC24D933C068E743E9DF9ACBED7C707BE25EAC73DB98CFEBEC351AFBDE60BDABEAF3C2E3D5251E5BB7A33C5BD22141B3CFF4E18;
	15042 :	3D730AEA3E7B262F3DCEA0FB3F0739E7BEC7F8653E3B0EF53EF17FFABF0F4DB9BE525E9CBE343B673DED04A5BE36BA1D3D6A40B33E3CB0163F179EC7BE444CF1;
	15041 :	3D2CAC63BC8197CDBE60D8FBBE93C289BED471AF3DDDF2CF3DE7C07F3E9627D5BE58DF7E3E86FF6C3F712CCBBCEC67583EE66E32BE980757BDE9FC99BE2A3EB8;
	15040 :	3CA0F36ABE16D6113DD3D8073EDE676B3DF4B0123E405CB3BE8855803E76F0173EF4C985BEF45AC53E05B8143D8F29BBBEA1531FBEA6680EBED69F463E8423AC;
	15039 :	BE5C26E4BD39A1A3BEA4A98E3E86FE9FBEA76A61BE169FB43E0475823DAE9E41BED2AE3C3E9426ED3E38BE5A3DD675D6BD82D4AF3EAD42743C1FAC3BBDCE04E0;
	15038 :	3EF550B1BEF532F93DCDD9D7BDCBCED1BDB250C0BD6665D8BD6E4963BE69B376BD13D28E3ED0E636BE084C7BBE86A9953EF608CC3DDBC801BAC45CB2BD9052D8;
	15037 :	BEEAA88BBE5939243E295708BE65B628BC076F94BE127F5ABE1DBA51BEC7BB4E3EB0FEE83E1EFBBFBE593EA5BE7634B8BF058FF2BE566CE33E041FED3F46D440;
	15036 :	BE2367BB3D3DF320BB3C5897BE484668BC1526093DF1D3BB3D1FBBEF3E3D03163E1B8828BDDC7A43BD517A10BCB73741BE26A891BE3EECE7BD9BFA43BE31B649;
	15035 :	3E68BD88BE23B9B1BF11F2793DDD65F33E789A30BE00453C3E25C6BABE13348A3DE174973DDE5E173DCC602BBD7B44D13E202B33BE685D3B3EE29454BDD2FB32;
	15034 :	3E56EA273D46BB6F3D81C8D7BEFD09953EAD25913E04A203BEA8E16F3C906786BE0F03413E5DF042BEDBC96FBE86C28FBE3D9F163E3F13A63DBCDCB43E3372DB;
	15033 :	BC7171A8BE33F8E63E89A57FBF0934B03D5B4F2DBD2E02B0BF2EDD44BDB1F7D03E9284CC3DE0FBBD3E45D7ADBAC96DA93EB20406BCD82528BEDA22B5BE81A953;
	15032 :	3ECB2660BDE4A8B8BEA42C113D15C7DF3F55098CBE4B781A3E7603CCBF0714413D9F6032BEA410D5BDD30564BD368CB43DFE31A03CFC5C6E3EBDBCB0BDEE09FC;
	15031 :	BE3F0875BE26DDF0BE4EE7EABC7CB1BABE8F7B153E1B3BB43E29D9E2BE22D4033D7746F43EBAF5D5BE9D51E93DF2A424BCDB587DBEE0B57D3DA8FD01BE870B97;
	15030 :	BF097A1A3E7F6809BDFFFFD73D2C58CE3E65BF40BEC5D57CBE939E05BDA4CDC9BE9A5F9A3EE4401F3E2E2C443E38CD623E3E02F33EA0F499BCD77E41BED018C0;
	15029 :	BDE5154FBEA95AAE3E81070A3DD132FE3E6AF471BE16EC91BE85CE5A3EBF7CC43EB5F1BE3E4024C4BE1223C3BEFD2E873E850A843F53B46ABD96658FBE35B687;
	15028 :	BE821CF93E84AF19BDE0D3E53EE4727CBC8EBD59BD5F96FEBEBA78463E834FC73EAEC0CFBD2FFE853EF19B6C3A3DD3C23F0C7BC3BED14F443E2D71823DA80814;
	15027 :	BC193EB43F4A87DE3EAAFDE43AE446ECBF0D0F6BBE261C9CBEEB9EA8BED091CF3ECD4C1BBE9194B73DA8AC963D8394CC3E4E9FF83A6E7C2EBE5172223EB5E978;
	15026 :	3DDE260DBE9B628ABCB5AA983EF4A5A3BE34CBF53B8C03073E59F59ABD28307EBF2AC5733E7720EC3E3F3E173EC312A7BE62EB043DF981823D132428BE4F4A1B;
	15025 :	3C94439FBDBC2056BFE36A093E7E8F19BE9296373F19E5A7BC85A489BE3E43543E9C59983DDCE1C33F0CAF24BEEAA8613EE445D3BDF0761D3ECF2180BDCC7AA5;
	15024 :	BE40B739BF164A4B3D8AB1BDBEACA3493F1372D6BD9154B7BD1F2B08BE1DDA843E758CA93E3C04193E07EF923EDAF998BD09EA4EBD8470D9BE953BAD3EC2ECC0;
	15023 :	BE9395773D3ED3FA3EA62408BC88BDC2BD23BBD33E3986EC3DA9CDEFBDC717D9BE9401CABF4A8DE83ED32D7EBCE04907BD12BF67BD5533A43E16F3BD3E75558C;
	15022 :	3E0619263E4ED3A83C07DC2C3F08365C3C1499A13D5A2BDA3DAC371A3D2309583D95503EBE35813A3D1EFA503E9CF8AF3E9AF1813E6DB53CBEF2B0B83E77253A;
	15021 :	BD643F72BC9C369C3D15948ABEFA710E3E233E0D3DE388A73E0930D8BE4E9C9BBDAE726EBEDFACD43E1EAFC83EEA4425BE85D067BF1D1FB73E6600FF3E436B9B;
	15020 :	3D947CB7BDD2C9E4BE6CF6843E781E643D5154723F15CF9CBE59A0D8BEB3DDCABF05B4033E85B132BCB26BC7BECF3BD7BD9F41423C2EB704BE80BB43BE4224B9;
	15019 :	BE3BFB713E31E15ABE266FA63E15AAEE3DD25D8ABF129876BE1FF95CBD94DDEABD0F94F1BDBFA7F83E8C875B3DAABD2FBE6BC5D4BD16A21CBDA12640BE383F27;
	15018 :	3E1523ADBE083EFD3E516566BE4CA7FE3EA03117BDC8097F3E89813A3EBB2F703E410D753DB2683ABD80DA113E930829BDF2CCB5BE2CB3E13D709CA93D00B7C4;
	15017 :	3D5D479DBCB884B5BEB1576DBE73EDF7BC94BC06BD6D6C463D14BCBF3E654FD7BE85C6F2BD529A61BEB214BD3C7B5C073D2727A23E2483E5BEA54EE53D712E55;
	15016 :	3E1338D73D6EF6473E0A2881BB8378DABDF658F23E527C5CBDB247C5BCDD60A8BC60F6F7BDAFF6EA3CB3BCB53E785F00BC48F9563CB464BABE0F3EDDBD3F0E3C;
	15015 :	BE0A560A3E8987313E02A4CCBCE569C4BC8F17173D97D5253DEEDC68BE87E0DDBD46A32CBDF377D2BE406BCBBD892089BD5AE40FBE7F75703ECC8795BCBEBCAD;
	15014 :	BEB9C769BED85F5F3DB9C3DC3E18AE253D96F5B9BD91DED43D9B9EBBBD917DE1BEB646B1BEEC09BA3CBE8FC93EFA4C46BD8DA3553D0F27BB3DEC7DFFBE20FE52;
	15013 :	BD67F35C3E32EF483DBBEE573E5134B23E78E3483E376DEF3E682E123EA9DBB13E6D342ABCA671FCBE0FB9B83E50D9A6BCB7D6C8BE47CDA13D7941A53E185DDF;
	15012 :	3C3EFE32BA7397DABDC3805ABD5B44043EA8F3CABCF4CE9D3DD4C599BDEBE06B3CF373803E3A5C5EBD5EA6243E1C7DD5BE5879F7BDDC4B82BE856C5EBDA62C98;
	15011 :	3DE5BBA33EA74324BD1D95ADBD2ECD5EBDD6A2B1BCE8557B3E4EF304BD4CD23DBDEB3BDDBEAF0A83BE5540BB3E0295C6BD95F59EBED1191A3D0518FA3E9AE3DB;
	15010 :	BDF2DCFDBDFE34DBBE1738323DEEB47FBDA8923A3DF9E1A23E27F5193D3CD5BFBE8C6F423D62DBBABE40CD79BE05AB12BD0CE0263B53E69A3D87C6CC3DFC1A5C;
	15009 :	BDFF1ACD3DCE0F2E3ED3B7DB3C06F49C3E2A84623D048493BE175EFBBCD0AAD93C92E33D3D7CAF083E1020E6BD80234EBDDD25643D983E953E69AB463B085C8D;
	15008 :	BDF5900CBC40DB113E0DC1403EBF7AE6BE8391DDBCEF6426BE45FBC13C3FA930BCE726873DAB893CBE27B5EE3E024A0BBB26A46DBD721C22BEA6BF14BE3B7637;
	15007 :	BAB79DB0BD909C03BDC278DFBE18BE22BE17F2453B924A83BD326F5CBD44D8F83EA09DBA3E0BE3273BD60F693C3322273DC457713E85C8F2BC772992BE4860C5;
	15006 :	BD066CE7BCC7F0F23E14A4593E3018BCBDC13C133D4847F03E5B8331BF00E22A3E04914BBECB5D9F3D50B601BCA599543C4E8F1DBDAFBA3E3DDFF9F2BDAF8CB1;
	15005 :	3D55D367BD5FB34B3C983024BD6E088CBEE7415ABD4C5C9F3C7E23293D5DA75EBB8224313D8494383E8452C9BE07BCFCBE34C6483E885735BE2651703E2A901C;
	15004 :	3E8FD5B7BD1A0CC23E9265D8BE60D92F3A9EEE0ABDCF0F8D3DFC09ABBCED42D5BE11F78EBE469687BECF85453DCBEEA73EA2526D3C86A7BC3DB3C6873DE82637;
	15003 :	BE848F6BBC9F44013B014994BD9AECA73D9114D4BECB6B29BD53DEE9BCA701A3BEC8C29A3E2614BE3D5DD62C3D94F7B4BE2DFA793E0A4E0F3E3A6F123CD16E73;
	15002 :	3B812C523DEE093FBDE9A666BD9615DB3D7AA7743E0B1CE93E3A86153C4B098FBE5B4B393CF96ADF3DFE7BCB3EB486CFBD778D083CCC73D3BDE145D6BE5701F4;
	15001 :	3E0DEF2C3C93A8F6BE870A9DBE19B673BE2CD63EBCE2C192BE382EDCBE02398E3D9A6E1FBD55DB47BEA0BDDA3E64AE1C3EE1AA22BEBCA58ABED12DF73D43CA27;
	15000 :	3D0AC44CBE49B7B5BD1043ADBDA1F2DABD13DBE43D97EECEBD909031BDD14939BD8D82B8BE0BB8B1BCC39FCC3E2F94A23E3C54003D0F01783CB8F1D1BDA72CDA;
	14999 :	3E86C1B83E3DA79BBE81BE58BD2623BBBD00F5D7BE475BAEBD1DE0323C724EFB3DC45D0BBB45C2F2BDB3A9093D83004BBDB94AB33DFB935B3D085141BDCE57AD;
	14998 :	3D23411BBE702B163E5A17623C10F02CBE8831EFBC18C936BE0FCC8A3DC8B8463D3B2FFB3F0E8F65BD1A6D6ABE0241C6BDD476A2BE1501CABD313CB2BE92FFEB;
	14997 :	3D130739BDA2058E3D0234C8BE10FB023B81C2943D98FDFDBF017ED7BE106507BE4E2227BDB7425FBD983100BD82EA9EBE18CA303E9E043BBDAA48F0BB6740C9;
	14996 :	BE05197B3E5373843CFAF6F6BE1458643ECBE0FEBB8FB667BE314878BE9E76303E332367BE1F500F3DAE3DBDBD9FEA3D3D19FADE3C62CC003E801B37BE8A3F97;
	14995 :	3CB1B63E3E4072B93E887C723EB126303C370E7C3CEDBCB33D03957E3D0229C13B0A5401BE4BB132BEE497BF3DFFDC43BDF62B83BDD748603E4E018C3EABCE3D;
	14994 :	3E818C7BBE1D7C34BE010C383D15AA4F3C79B44B3C33B691BDAB6B0FBE9D3467BD8120353E20EB63BDB84324BE0039F33EA76F9E3E5C68F23E350226BE65B199;
	14993 :	3DF63ABA3DB6F9923EB40ADC3D86D058BD0ACD39BDE4185CBDC9D4FEBE6EC86ABDEDD7363E173482BBE59720BE076886BDF8C0633E6E837ABD0172D8BDD5D4C0;
	14992 :	BEC91369BE35E789BC05E394BE01B5F93DCB9D5E3ECDB53EBD724704B93AC1AC3D9D3B31BD0C9BDB3D03DC26BD37A85E3E176BC13E7B31873E1A5D6ABE2EC1C0;
	14991 :	BF0A4C4CBEC73CD3BCE4FA413DCA1ADA3EE653FDBDF727C7BCBD15173D95652FBDCEEB013DF1BCF83D92BA5C3B6D8CF93CCF6F55B9EE64FBBC7BD80ABD948BA9;
	14990 :	3DE4052CBE70188BBEB7C8A53E73A69E3E37BEB03E76F2493D91A7DEBDE3B6793E390F75BDF526683DE601153A7EDC6CBE4898D03E5DFABFBDFB3F6C3D9D33A0;
	14989 :	BC22B0B3BCD12BFABE8208363E836469BDCEEF96BE4DAA583D113D783DC335EDBD0468ED3E047496BF29BA193E3085F3BE2CB3CE3E9DC032BD781811BDB51583;
	14988 :	BEE6615D3E02973DBDB63D4C3E3CBD763D95636DBE281288BD9337C13D588180BE52E609BDAA62523E4361C6BE7784043ED0C3F33D75CDF63EF69C2F3D14A8B0;
	14987 :	3DFA73C83D7B04F3BEA2199DBE2952353D253AD3BCADB648BCF21FB63EE586CFBD7FA1803DCC4613BE02C575BE620321BE18E821BE6AA71BBC6EFA70BE298C4E;
	14986 :	BDAEC91F3E142E47BE006DAABC6E3B283D013DC13EB74660BBAE4C0A3E97373ABE90B0B7BDF0C9B7BE3AB9A6BD4156D9BD9BDCE3BE022E5E3E949FDDBD2F9A3E;
	14985 :	BDBBCF0FBDDAD9403E5E598BBE2C83C8BB6C5D8A3DF38D6B3DF471523EB38790BD808C183E2710923E3176E4BEFBDB3BBE51DB90BE3FA0EEBE10BB3CBCB5D107;
	14984 :	3E2FFE2ABE1E1DF43DFC70DC3ED16CA9BE30260A3E8A0D04BE29CD42BDF7E769BE94C8CD3CFD51263DBB4AAF3E24FB003E8CF9A63E20D7243DBABE07BE068DDF;
	14983 :	3E722A4A3D594151BDCD08E7BD050EAA3DA9C556BE8DF1D33DFDACD2BDE2AC4EBDC193E3BD689E503AD93A2FBE8A881DBE3B5FBB3DD0DFEF3E97C5953DE0AAB0;
	14982 :	BD6C6909BE49DC0DBE62E6B9BE6D2E2BBEC336363D659332BD4A97C13DBA8B6B3DB6EF3F3E95DE933DA7F2D63E0CE445BDDF3446BD875B49BD2A3974BE2CF767;
	14981 :	3E841A75BD2A6D393D4B2B65BC88C947BCB0D3693D5EB2D8BDA531CF3E047AB8BE613BA6BE0EEA9ABCB01FECBD77D1BB3D96978ABDD42100BE2A168E3D22516C;
	14980 :	BC5E825C3E8CAF99BC6CA0EABECE9AD8BE019BCA3DCCF98E3CA9243BBE4C31EEBE5C82BE3E924E36BDB0B8A0BD72E7C2BE38294EBDE36510BC28A9CB3D12BD36;
	14979 :	BD921207BE71F49CBE7A78473DA155FCBEC50066BEB7CFF8BDA66D53BF107C283E0B4D833D428028BE368B9BBE8609793E9A42DEBE157F2FBDACC222BD8881A2;
	14978 :	BE8C21283D0445F1BE23E25ABEDB753B3DE363DF3E44315C3E6FA0E4BCA2D2403EC13AB8BE85405DBE4627823E8314CABDCF630D3E007EE83C99D3603DB1FBF6;
	14977 :	3E96C162BD14589CBD7BA1CEBCF990253DBAED0A3DD742253DE844DD3E2A3682BE6F2504BE65E3AEBF0E50E83E56D332BD1CBA663E5F5AE53DB727BE3E8BE0F8;
	14976 :	BDDC04D43E845EA8BD8506ECBE025C963DC6C85BBEA041C93C99BC40BE2D9F61BCABB297BD0E1ECD3B6BE1A6BE42059ABE887E9CBE716DF4BDE68E6C3E94F0FA;
	14975 :	BE6A41883E8516133C96792BBE90A30DBE35BF983EC1A0733E63F88E3E2EE5833DAF14E6BD60CA17BE83F69E3E0BE03B3DCA83683CC1EB503ED4BA3B3EA84641;
	14974 :	BE52E0F83D66FC8DBDE5611DBB7D6DAABDA832AC3CF6A183BE06CDF03E1EA5723DD929333E7F007CBE2CB65ABE4BBB66BC0438B9BD00B817BE779EC2BEE9BA8A;
	14973 :	BE8186B8BE7040BEBE89DF72BE884E74BE850CDABE16E73ABC0A14433E718BB7BE06191BBED2D966BE1600E6BECA0FE0BE3319193E629C513E1475CA3E95A6F0;
	14972 :	BD9A17BBBD77DA893C9898C73E02EA9ABEC1B3D8BD8DBDB9BE0DF7DDBD981FB2BD887F6CBC5722D3BD16AAAB3DDEA1483C4437EE3E8090B63D5099BB3B168BC3;
	14971 :	BD1ECEB13E883606BE0CB092BDFA7C8CBD1CBF9CBE7D352A3C71D24FBC02104ABE42CF603E38F106BEA54F55BDCBCAEA3ED395B5BE02333BBE25F840BE19A4B8;
	14970 :	3D9C4969BDCB3ABB3D3FD7FEBD649CC63D79276A3CDE0B603D208948BE8C2DFC3DA20900BD9A34A1BE9DB8743E2D5DEC3DB3850B3C60E244BE7ED1043E5A66FF;
	14969 :	BE6B0E48BE872C743E20E784BDB1BE2DBEECDD513E5B92603DC16A62BD0D9D2E3D0C9B473DE10BFD3F91FC38BEE80404BC4B4366BF0B37763E436FE0BB34C466;
	14968 :	3CBFE0CDBE01CDA03D2277543D821A9ABE61D3283E3AFB8A3D434FBE3CA5C260BDFEC49C3D0C4E2B3BD020C03E05908B3E8052AE3DAF2616BE261289BE85C14A;
	14967 :	3DA5C9953DF94FA8BE321802BE32AEABBDCAE372BC6E6B7A3C743671BD1A1026BC5DC5FABDFB9753BE49AD3D3DC94B6DBE3332253EB05C723E6C3A51BE9C4E40;
	14966 :	BE84AB4C3DE80632BDE7F563BDEC1DE03E75211D3E139E6D3E9B347D3DA0CABC3C57037C3E5BCD64BC1736923EE25D6FBE8E100A3DFB7A8DBC4F446DBE57F433;
	14965 :	BD4E6DFDBD8220863E88949F3D1C5EF3BE09ECF5BDC41E52BE83182ABE8690F73D869D82BDA64D573DC76AF03D59716A3EC402673EA6DA253B4A95333EECB702;
	14964 :	BD8FABB23E220761BE6321FDBEF9F956BCE50C273E732F1ABE15D176BE442B5E3B0A428B3E5425C53DFED59BBE88210C3E2B92CBBDBA18DEBE4F20BF3EBB1558;
	14963 :	3E0847BFBE62D5523C0B14283DC0D2DE3CA1A97BBE7CEE533E9D8B893E25DED2BE4CA8103DE584363E2E69C03D55A872BE7A31DA3E7245CABCD181A3BE06E975;
	14962 :	3D26D804BE6283FC3ECBB2FC3E2080BFBEB811B0BC3212ECBE3ED0963E3A07143C19F97ABDDBDA083D08C6E0BEDDF35FBE1423CEBDD8DE27BE754A0D3EA3E17A;
	14961 :	3C99263EBE04CF663DFBE4393E6045C8BE5517DB3E8EE568BE5F79E53E264D49BEBE2DCF3E2630CBBD2ADF2FBD9D0D90BDB9AD743C8601CEBE601449BE098765;
	14960 :	3E5514673ED6A4533EA12C97BE7834B73E8D91C1BEDFF727BE4363F0BDEBFFB5BE7B321DBEB4EAC8BE2DAF473DBD537E3E947A633EAFA860BE22942E3E320A9B;
	14959 :	BDC1E2CE3C8D9AF33DACC6883E976A95BC7F0FC8BD628EDF3D3ECE233E8349CC3DCED4EDBD88AAEC3E8D94AF3EA5DAE0BCC707C6BE9FA93EBE3604B1BDC27461;
	14958 :	BDAEDA7D3D902D9D3E2D261F3EC05301BD87A8FC3E9C2D54BDDF3673BE252EF13E6038A63E4B945F3DA0D14B3E5F99C9BE45C40E3E87A99E3CE527E33DBF181B;
	14957 :	BDDB82EABE95BB333E89B37ABD9218A6BCF8980BBE4707CEBD3532493D561AC2BE898A56BE625F6B3E0DA54FBE83B89BBD5FE04ABE658A3EBE82F549BDF7E63B;
	14956 :	BD5D748B3D0B5B1F3DA0D368BE9029D6BDE7EB16BE8D2D023DF05BF33CB5BE36BE0DC7253DD5EC8D3D95275EBDA93C8FBD8794C23D2351E8BCAAA351BE222574;
	14955 :	3E7467A2BE83191BBE043AEF3E026BCB3E8009023EC06B55BDF66441BE2895F43D462C213C108D423E4308BEBE34FAAABDDF486EB84F8FF93DACD69DBD9FC238;
	14954 :	3E2BC939BD71EC67BC4203ACBC00200C3DB4FE15BE2A4F543D1A9B52BE10DDDB3CD2B99E3D16A70ABE71DB73BDBD0C8CBE8F3C033D978B603D804C7D3DB66594;
	14953 :	3DDFF50F3DCECFDEBF34CA463E1608E2BCE141343EE652993BFE63B63DB979983E94B336BD76AB3CBE1AD6333E71A4D33E838F23BC806B623E6DF1B13CAD45EF;
	14952 :	3E376DF9BE102B1CBE842416BDCA32A0BEC4A4F2BDE695EFBDDF8A263E5A20B13E5F3FF7BD2362B4BC8938B03E6A350BBD64EEB63D85C4543E220A1FBE3A41B5;
	14951 :	3E9338163E8785053E07567BBE4605BFBDEFCB5E3CE3B7703E479367BE077184BB954457BD1CC3EBBC1D97943E1502A7BC34DF793E911617BDAFFEA53E2A2E26;
	14950 :	BE6116543E04DD7F3BCA042EBD7BEC933E86DEC4BC0128E3BE52E6D33ECCBDAA3DFAF77EBE4F96D3BDEA0EE33E100EB4BE69E448BE00E187BE0A9983BD7A657A;
	14949 :	3E3F00573DF77867BE071FDA3DE283A8BE3491673D8F172F3E24B7DF3E5B7C1D3DCEA7CABB5720DABE1F1B443D98D52FBD9F6014BBFD6E163D210AC03DED8916;
	14948 :	3E0094913E2725F93EA5581C3D83DECFBE0157053E2061D2BE240C3F3D833394BE086894BE545B373D893D673C60046D3E29E645BC15172F3DB0364A3EAD6025;
	14947 :	3E30EDEEBE356D753D00FAFCBEEE913CBD081FF7BE440C2ABF0B24BBBEC7CD623DA747B4BD985ABD3E1E7891BE17BB0FBDE494933EE6588EBEAECCFD3F319655;
	14946 :	BCFFDD583E0C95333E9DA96B3F8F7532BD70F665BE42F61F3B918C24BEF52452BED57AD0BD88B7FEBE30B0F4BEFD5774BF210427BE8134793E6672C9BE7150FA;
	14945 :	BE27DE68BDB4FA9F3E813BB8BD1B86DABE0E3B36BEB0A94ABEAC143B3D8AEC5ABEABE9603CBDAF943E854C653E206B903EA375ADBD56C57BBEF4BA2C3EF5F41E;
	14944 :	3E59D0DC3DAC5DCABEFA7B6BBDB638C13E2155E7BF50F3A9BD4145613E279E53BE66EFFE3E9600693E8AA963BF05CFC7BE1DB4183ED80D753D6FA8AC3E547524;
	14943 :	BE906400BE06B152BF13BFA2BE2612A93E33076F3E19FF3D3F7B2C8DBE479F7E3E18003D3E41EF76BE30855B3E9D53E6BED5E5063B47C0F33E03882E3F0298C3;
	14942 :	3D911C7F3E22F9893CD2C53B3F06D8CBBDEE39FDBDA3CF34BECA46273D13EE95BEEE158CBE80789A3EADB07DBEAFA0FDBF0ECD023B90B2EC3E0E6955BEB742D2;
	14941 :	BDB39C49BE151B6A3E2012D6BE818BA1BD0E0EC73F0521AABD0CD0DA3EE57303BEC7801ABE890BAF3F1D8C4B3DAFCE273E24FEF33E8EFCBDBE85D5663DD76A36;
	14940 :	3DCCDBBFBE581E96BE9B457BBD255DE6BE9F6379BE973D75BE6399FDBE2E6CB13E36F79EBE5CC550BE71027D3EAC34423D71792ABC2D57E83E98FD63BD4D5E1C;
	14939 :	3DA689E1BDB0E6543ED2CF7FBE72A0D8BE1E0654BD8F26163E815300BED23B15BF22B340BE3C13D13E80810B3E908B433E00AB633E6CB7303DC627393E8AF10B;
	14938 :	3E6EE1263E274EAA3F1034423E19E9563E9B5B463EE70432BEB7E1F43E295D8A3DDE6781BE5B6909BE3B7083BEDB4982BF122DAA3E0AD0A93E10AE59BF11C3C2;
	14937 :	BD90B311BDEC9AE6BF0C97C9BDD7AED8BE131005BE082AD0BF2D4144BE9EC97B3EA253893DB8305ABEAA9AE2BE846495BEDD86C53E6D4A45BE106E3ABEE82679;
	14936 :	3ACFB1E5BF5327983F0C335C3F0E7C50BDFDB8D4BD8DB93DBE43562DBE761DA8BDF2D254BE9C0D163D08E620BF2413A73ECDC86ABED12411BD3C17C1BEDCC84E;
	14935 :	3DB6DFD33EB1CAFC3EACAE233EAAF2483DF40892BDEAA29DBEAF5A683E80F1423CD22E1A3CF1DF9CBB7450F1BE3A0F67BBE85AAEBECE34FFBE1AE1D33EE0D75B;
	14934 :	BE6A5F43BEA5C7CE3F51E8773ECC01183C8D6A64BEC2E98ABDBB0059BE7A86283E458625BF2CA92FBD6E387A3E9E5E043E1CF235BD1A1E1EBE680DA2BDE6665E;
	14933 :	BE285074BEFD60D43D9772223E2E397ABEC4E602BE2EA4B03E89B1923E665A923E3A06E3BE454C8D3FA96295BE53D62BBEAAFD7A3DDF89543EC7C7A6BD99A467;
	14932 :	BB88AA37BE86BB27BE600DDD3D5DCE29BE87D194BDEC5518BED07D3DBE4785C1BD9A9FC7BEC8C2173E879DDFBB130222BE6D29413DC15CC1BD80CC21BEE0054F;
	14931 :	BE95585C3EFD84C43E770113BE0E7BC83E65A2E8BEADC4B43EB4CF2A3E4D40723EE6DB753DE9E4B0BE1B7A203DFCD5873DF8D11DBE8EA25A3D4D86813DF5BE47;
	14930 :	BEA81378BF1B662B3CB6CD25BE3AF680BC1B5463BF388930BE389AE3BD0643233EFCB612BF08D43D3EEA71CEBE4C76B73E6DE0BABC37E306BDE57513BE12CEE2;
	14929 :	BE9DC0D6BD361721BD55B7D53F2CB625BCCEDE783E186729BD89E6B4BD0F97D1BEBDE9F33D87DAA5BE662AB4BE8BDE79BE6BADB6BE8727C3BF48BEEE3EEFAA14;
	14928 :	3DC7F0F1BDC74E9FBE54E3E5BEA0696ABE685F29BD0CC5343E8EA1CE3E86EFDDBD10CCA2BD4D2A54BE6A3F9CBEA8C7B93D8863B83E19567DBF0CD6CFBF2CCFBD;
	14927 :	BE96F2793E7BA9F1BC88AB043DFA22E93E25FDAFBF4138A23E4170C9BF056707BE9FD0C3BDD2D5A63DCA55AE3E3A345A3DE509A23E322759BEC062FEBDC6B8E4;
	14926 :	3E802757BE4F85593D8F97F2BEE72CA73DDE779EBECB8515BDCE4FB93E4F93D63DCD9BD5BE85C5063DB6339CBDCC43B03EA53B383D1EBC39BE295D03BE89A682;
	14925 :	BC6CD706BEA861613E8F27853BC9608A3E9543C7BCC4070D3DF0C2E23ECD39703F0D8C6D3D2133AFBDD15D493E585129BDA846123DE53EBEBF1FC33CBE80777A;
	14924 :	BF40B564BB41F667BE43D9133DC3D259BE5552F73EA85571BE9540513DDCFB81BEDE40F3BE19808DBD6B1E7F3E305F8ABE870AD5BEBACDE6BD80296ABE6E8062;
	14923 :	BDAD3B61BF1770543E89E89239E5F4273E924EB2BE4E28A03E9BB0EFBE2B49FA3EB55610BAB2B2DF3F11D26DBE78BDCC3E90225D3E2A11CE3B522FCD3E49DBA8;
	14922 :	3E71C295BD5AEE47BD7361093E1CB3C63E9884E23E853E243E88D8313D8B52153D4605A6BE9E5B44BE01872FBEAD8DBF3EAB9BAF3D4412693E1958673E8E661F;
	14921 :	BE7FCE9BBED173E1BECFA0633E05ECB03EA4B40BBEE81B933D8CF3D03AA5E98F3E9D61FB3D2CA205BE33C9833D6EE195BE787190BEFBAB01BBF08EB53E92F606;
	14920 :	3F1299A03E32C666BDC33AC23E8C84E9BDCB02A9BD01639FBE5E03473E809B18BDCD1B84BE454D873ED8D73E3E7DEDDABEB1347F3CBDE0FBBDFD026F3EFE2AA4;
	14919 :	BCD95D5C3DF1DC86BE699CDC3EEC970B3EEB8C52BE97CFAC3E0CDC303E797CE4BE273BC23D2E9A193D5E80A23B00FC1CBEC190D039825AB23B9A1499BED30A21;
	14918 :	BE971E90BEC4292FBE6E0F03BCDEC963BBAF1EA33EB79175BE98B66CBDA85CF5BEB2FAF9BF82BD033DEA1C94BEB83A523E9297C0BE469E0CBEAFEB4FBD8A7261;
	14917 :	3E436A0DBEDA742D3E68CBDDBEEDDE07BE6B35D3BE8A536E3CF12ED8BE4BDE1C3E7E3E243F0D59493EDE2F2A3E260D073E395B7ABE964CD2BF30B8C93D1C4BC4;
	14916 :	BE45A63A3EFD1B26BDF25F86BE6877243DCBE50EBD58FB93BCCCD87E3EBD0E15BCBEF4B63E874FA1BEC483CA3CBFA8A63DECCA6CBDD666AF3E0215D0BCDC7DFC;
	14915 :	3E174BEF3E5B1C863DF8C953BE919DBB3E5138D03D8D7E29BE9612DEBDD336B0BE1E4553BDAB15183EC76E61BDA340A6BE8F52B4BF3AA8413D68A0453CD8E0E0;
	14914 :	3E4CDF4ABDA17BD5BE30F5783EA220163DA23C723D857890BEA7E53B3E8D20023E35EBAE3E0F5BE3BE35B6993DB258B7BE1F4EB63DB395033D4A7C4FBD2FB5C5;
	14913 :	BE7FAAC2BE770219BE8B942BBE22CF35BEAD22A73E572610BE9CCFE63E54A33DBE73D3023D7448B43E170F25BE64C5133E834C37BEB5BBB23E4D8EBB3E161ED2;
	14912 :	3CDB3B67BE021C903E11581DBE5236FB3EF05F86BE255943BE2975DB3E8FAE28BE090B1FBE493D62BE9A4805BEBE4E4ABEF29AFBBDFDB5B7BE654AFE3F0D4B2E;
	14911 :	BE6BD0413DF03DECBCEEE7163D1542673E96B374BE0F1C92BF40105BBF1BA5263DCA1E87BD893F1C3EB4A943BCDA9AB93CDDDA37BE367A2F3DF90AEC3F01F0C6;
	14910 :	3E0244FBBDA8BF03BB780380BF0887D7BE2AE4CEBDCF80EABD9F34303DB8289ABE27C0B83D08315DBE878AD23BB821423BADCDBD3D1ECAEA3F12F0223E1B3050;
	14909 :	3EAD21C5BE43A578BE917F5E3DFA92083DDFC9D3BEF75D8EBEC473E4BECC37EFBEC9D670BF0A541CBBC354EB3EB4B1BE3D3926333CADD3113D1AB4C0BE12EF0B;
	14908 :	BF00AEA2BE9F8F80BEE9C35D3F0548FFBEAB5AFD3E6C90423D8AE9D6BE742666BD83F0713E2B616FBED0F0933EC7733C3DAE816D3BBEA5223E1E69C6BE440242;
	14907 :	3E89D348BEE5D6473EF142BD3E428E1DBEF4E512BEDF0287BEB2341DBDC68FAD3E7199CFBD8DAA55BEA115863CBBDA94BE2FB98A3C6BC3ACBEA935C8BE8BC001;
	14906 :	3D1959DC3E8938EFBE80BC2CBDFBB1D9BF1602133E9C76733E2A2A5FBED7AAE8BD3413813E78F4AA3E6CA6753E05467EBE3499BDBECCCFA83D25F594BDCF281C;
	14905 :	BEAE178DBF0D81803E1C2172BF847DF13E5651323E5C6728BD59DF8EBE0AB4313DF0EE53BEBAD7263D0CAF21BDE3C2613EA75D6BBE3F7AEEBD4E6BE33E0E7B8B;
	14904 :	3EB8B5F33F0AE0B8BE80AB323E74CBDABDD2A5D2BD9DA06A3CF93838BEC9A1D6BEB40513BE89339F3C0C685CBD0D50693EDD7148BE519B3EBF1C13A23EB15A58;
	14903 :	3E67A6D6BDBFD1583DB4D147BDD92D32BDD52572BF173710BBF2A884BE83B05FBD991CCCBD631B4C3E335E3A3E065939BDFAEB0F3F01648C3F4A0FC23DCDE151;
	14902 :	BE37DC863F0257693E2EBC85BCBA3DEABD72BA96BCD8875B3E9CB99ABDD955AEBE314EAB3E09701DBE61970CBF1BF3A1BE810B343D222DAFBD11E9DB3E39AF70;
	14901 :	3C3AF8063CDE71D3BE6E4EA1BD99D1543E3F412FBE18E3DE3E0745DCBF102EAF3E874316BECB7A223D2950F13F02F0C5BF102987BEC45214BDFE57703E83F13A;
	14900 :	BE85E36EBDB34A44BCC0AAEFBDD329733DE7F8BABE929F473E35C18BBDDD8EDBBE3D5D743EC4B1013E95E15B3EB5EB9E3D1E9AF8BE2EC4A33E4E78AFBE2B6A8D;
	14899 :	BECF538DBEB640CCBCD0D17DBE846FC53F3AFBFA3D8218ED3F262CCD3D5F65803DFA3169BE30B1C73F1435033C83BC53BE13E94B3F0898503DD2182F3E015427;
	14898 :	BE0B2587BE4137D43EC6E5F53DEB8B2EBF078D27BD9F27B43E4667773E05C4783E411CCC3F2170A13EA4539BBD4C2BE2BE007DAA3F240F883D35CD27BCE6209E;
	14897 :	BD49DD393E557819BED38E1ABDE6127E3E824B893EE2C66ABE3F89E9BD6718FBBCE7B8E0BE45A79E3FCE21EF3DD32D19BE3A66C3BE07E9AABDC17EDA3DBE3827;
	14896 :	BDE83742BF3DE08D3E2751A8BC8A98863E355A863D016DADBF5E88D13E07F67C3E5B91CB3E7B6E363D30D7B53B2191CC3E9956F73D0D75AABDF2B53FBEC09917;
	14895 :	BE822ED5BE18E2BC3DAD41D2BD9220F6BD23A671BE3021973EB4CF28BF0F3DE6BE8FD9BABF11AE133DAA61FABE8C3995BEB2548ABE86A3CCBE6A3F25BB33D5C5;
	14894 :	3E51258FBD7A9F85BE9C2E3FBEB5420C3F04697BBE85A4C6BCD5F6EFBEB1FF7E3C924DF8BE1F2DB1BF0F429C3E0A55603E7F3138BE53D198BEA3D16DBEA9197B;
	14893 :	BF04DD3CBD89B7CD3E3FDC1D3DC39562BE478B48BE778FA03E97F2793ED0C0EEBEAEF6973DD0CEC33C7DD1163E0314E83F037AA93E2D24E9BE250479BE1934E6;
	14892 :	BC860E5EBEF146BDBD7D023E3E110DE5BDC434E6BEB8EEEEBD9B428E3EBC705ABF2B98433E68A35E3CE92F6B3DE331BFBD438304BDD12F21BDE895423D9A637C;
	14891 :	BE3E9C24BE04A3603E9139C4BEB0C279BE1E95373DF54275BD833EFABE3D9AB73D7A2D7BBEF890F03DC89CA8BE8418C2BED0B50ABCC6752ABDD46225BE8DB430;
	14890 :	BE6AA4BCBE0576EEBEF3F812BED5BC303F21F779BC5C81E63CD16A153E930093BD848154BE2661673EA78F92BDB5A916BE28E2A5BEADC82B3E08D82CBE0D32F2;
	14889 :	BCD58A31BEAF32B03D220C58BD03BBAFBF04E7A73EB3D461BE3D9363BEC049C0BEADC4E63EAC79A2BE50FA47BF1C92343E61EBA2BF18FA49BEAFC6ADBE1BC98A;
	14888 :	3E924E593E97A3C03D2EFEDA3E2ADBFDBE5FD5BEBEE0F7E0BE9F81F4BE971408BE7ADB3CBDC765A7BE8DA639BE9BA2D7BF2AA74ABDC352163DAD62BD3EF8CA09;
	14887 :	BEA158C53EE5466A3E33A8CE3E8E2BFA3E7A5CB2BE6CFE96BDD232673EFED9583E1CDAC23DBF4035BE16C7F5BE013D103DD11719BE7239ABBE17CB89BE0FD334;
	14886 :	3E0F0C56BF0ED8FC3D5C085CBE00722D3EC35FC73F4CB2C63D9420C53D9E6ECCBD4B72DEBEF8D204BD0FCFC2BD98F1613CE3A401BF1CE024BD3316063DB3EE70;
	14885 :	3D9E12F7BD0EC88CBE5B466A3E12A14F3DFC2C30BC8FBD7EBE325F503D03BAB83EDDFBBD3EACB02DBE5772E73BC1D63CBD86F1823EAC289EBDF88F4BBCCAE584;
	14884 :	3C7130A83CC8AEB3BE5F99B7BEC1115DBEE27BA6BE25A20BBEAB975C3E6618D2BE171B20BE0D66273D8223F53ECC57CCBDDDD3A9BECC93553F2291F8BD63550F;
	14883 :	3DDC17663E971DCDBA10E0D4BD35F18A3EE321A33EAFD0A23E26F84EBDD0BA1E3E5EF24F3EE2FC36BE8E73A93E225C56BEA13A163A4A7060BECFE2E0BE8160B8;
	14882 :	3ED606B83E1CE562BDEFFA913CB6AA4BBE00A3D93E1413A3BE24AFAD3F15A9CCBE3362D7BED9D4E33E7992883E24B1D7BDB36B033F150168BCB7CA66BDA48755;
	14881 :	3E82432CBDEBCF4ABDB463E33DC619FB3D3D6DE13EF475F4BE85F6BABE56F98BBE0FD8213F0D560D3E8DF74BBD911143BDD73EBDBD08FD91BE743F72BAB7BDDE;
	14880 :	3E85AFA4BE090BEABDABDABEBD8237183D671BDC3D0E9DDCBDD7A1B3BEC5AD7DBEA00757BE643DC1BF311664BE7AD68FBE9B5BBFBE6DC6523DB4BE14BDC1CA9C;
	14879 :	3E141BA8BE1BEB893ECC38CB3D03BDB43F0B5AE33EAF8774BE478A20BE2AD851BED98C153E4AC383BE26AAF23E0FBE893E1F20D7BEA39240BE95330BBDC5896F;
	14878 :	3DD4913EBEE62B94BE35A0AFBEE71B91BEF18A173DF2B18CBEEAC7B6BED5E1B73E5BE62C3E4CCA45BEEBBB8EBE608F983EADFB60BE1978AB3ED8DA433D13B300;
	14877 :	3E8832DFBDEF33433EAB55F03C4484C9BDA4F973BB8DA6FF3D8EAB2EBE85C253BCA0BA443F2377183E273AA6BEEBD73DBF30FC2ABE01E51CBE086B5DBEF05415;
	14876 :	3E7BBA96BE0A290DBF2F0ED7BDF0515A3E21B9C6BE94AEF0BE3ADB02BE3C40B13ED1F4373E6883E53CDD92EF3F2C7652BDED2921BE9EE7813E6B13AB3F0849E7;
	14875 :	3DE63DFF3DACC17ABE87A38D3D6CC8123DBF192B3E3256FEBF8BF6C7BE7CBF673DE7637ABECD675ABECAFB563BB53D9DBE09FCD7BEB22348BC30890E3EF01DDF;
	14874 :	BEC9B55BBE87AA3E3E907067BDEFA6183E96356A3E701BD93D11F38EBDAC845EBEECB395BE6B58733EDF47DD3F112320BEF30D82BED4DF4A3F43EB7A3F542C8E;
	14873 :	BEF74E9B3E4527D23DCD0AAD3EB6B20D3BA39A25BD9B652D3D0831393EAD4235BE9C6C9F3F026A173DE41209BEA8E0323E24A1963C484949BF0B1DC2BAC20546;
	14872 :	3CE21C66BE20DF18BD1A08043EFEC04A3E984B1BBEC3A0883E18439EBEA06CCCBF2AE7A73EC798863E1EE4F83F0A3CBB3F0FC2923E5AFF5BBD63F0BA3E2533A8;
	14871 :	BDBD7FF1BEED14263BB0B01EBDB8538CBE8B4E44BE639616BDF62C5F3D12FF9B3D6AB1CDBE03C43ABD63A93EBDE57CF73D601166BDC70CD73E6E704ABD824877;
	14870 :	3F161DA93F1740DE3EFE4061BF03DAF23DC187CE3EB4824B3E8143173D5760B63BADE9823EBD9BCE3F1C7F31BC704E28BE323F423D8D48943D944853BE8DF079;
	14869 :	BE04524D3E9920493DBEC195BE88C92B3DD131AEBEC907E8BD015D89BEAA935A3E1D20F4BD630C123E2548003D569F663E398261BE576EA6BD804220BDC564E0;
	14868 :	BE8B49A6BEF434E23C0EAF7B3E52FE79BED835D6BD50FDC43E024579BE36421B3E8EE6EC3EA7CCFA3CEAE0863E80CF8A3EDEA3D23EF39ADABDDC9AE93F297B5E;
	14867 :	3D3C8B39BD5A8B78BE88E47CBE8012CB3DF70443BE2766E8BE33DF3F3E00E6833E3360603E029A553DC2D03A3E89E0393E625A85BD8CE54C3E36CE943CE40A1E;
	14866 :	BE8FF8B53E740E09BBE908263E96FF793DC3C7A7BE5F1B0C3F236015BE4AC3ACBCFE7CD8BE12FF44BDCE48183E2BC095BEB51BEF3E4806363DC3381C3E6D7ED7;
	14865 :	BED5F0AFBF4775533F5BB2A7BD53D3173DAC66DB3E975F1CBE9454F13DD340263EC02EC73D904D25BE4E1718BE8A39783EA74C663F5334BB3E9F6BDD3EAECC14;
	14864 :	3E1FCDB13DC593213E07285F3D83B190BEF9FA5BBEEB49743E8A69193F0D607DBDA83EE6BE6C9D033D7185CFBBD160F33ACAB5113CB7E5B33C8B2910BE1E6C58;
	14863 :	3EF323A53ED729D3BECBE6113CF63E253E2ADD8F3F1FFE13BE9F3CCEBE025DF6BD0865F3BED3882A3D1504AEBF71F416BEDBF5B2BE1DEC3F3E5307533D5760BC;
	14862 :	BCA463823E3B18D8BF1015DE3E69E6C3BEF3A44CBE834E78BE14C6CA3EC9E050BD2274213E587DBE3E5DC57A3EC73131BE0BDA9E3E8181ED3E6F536ABE04BED6;
	14861 :	BF4BA659BDE945EABE87F1053D7A9F97BE632E283D2CDDAFBEA277613F3BD0503DD7935D3E4B0BC8C01A30C3BDE9FD9F3DA8967BBEA537D7BF1EC5D13E8B92F6;
	14860 :	BDC488AB3EDB96843D9B0DAD3E78D01DBE34187D3DC779A23E3E8267BD2829D23DCE47A9BE86EE0BBDCBB9AB3E7F03F5BD3B5FBD3EF79C4D3EE924693F0333AD;
	14859 :	BD2E40A8BD25CD8A3DD8C2EBBCB331953C9627DD3E2220373EB3C0083E97783C3DE4BFE63F6572143D4A08A4BDB52A0DBF1724E13F22F5C93E3E4392BF26CB71;
	14858 :	BCF4ECFBBEBABA6A3F58D3E7BE37CA87BEB31088BF1B80943C70E6843DC38F1DBF51C06D3DE4C9E63DC46CD73EDA11833E3D48A3BE4564C9BE36F660BE115761;
	14857 :	BEB4D76D3EB173923E6B3F48BD9BC0583E9D26BDBEE2ED8DBC248D09BDD7B6183C25D3293D7E249D3E4C8125BE51300B3DED5CB2BD80E7563F4A1BE73D2E502E;
	14856 :	BE9D4BF5BCB091FA3D4D5E0FBF0737B93E7950B23ECC9EE83EA61150BEFD16973EB4E9FEBDF688A83EAEB2A33E93DA763C8704EE3D8CC927BE66D633BF01B9E8;
	14855 :	BEB1445A3F17255BBDBB3A1DBE4CCEF53EADAF2FBEA90914BE7E85323B779C6C3DBE62D43D3AB9773D42F04DBE08E87ABE017BBA3EF0734EBE031473BD9FE1D4;
	14854 :	3E5B23FFBF4A94A1BCC4252C3C33F7EB3D31F7783D3BF9A5BE0D87053F038CEABD87866FBE45CBB93E8228F23EF0E32B3E2EE0AE3E0426D5BE59440DBDE058E9;
	14853 :	BEBECCF73DAB83C03E507CC9BE7EAB813E826AE3BE9DB31ABF41DA203E81D19F3E2709D93C5BA6E0BF1C6CA73DE3C5F53DDC4ACD3E94B7C53E63C1333E6DE086;
	14852 :	BDD81C6B3E450CDD3E1C5F39BE23FCCBBF167F71BECC1DCF3F28D00CBF028C04BF1488473EC80DA0BE981095BF4F43BC3B15E952BB0F56A23F255CE83F4A4BF8;
	14851 :	BE65A03FBE537971BDC0D35DBE4530403EB0CEFABE88ACB93E095455BF2E034F3F0B0325BE4A5A143F09594DBCB76B323E626F533F38581DBC0F044C3E646C83;
	14850 :	3EC9EFDE3E682A6CBE80FD933BA058A43DEE88BDBF82EB2D3EF77A43BE6EB53C3DBC00B23E60CEC5BEED429E3EE865D9BE3612CBBE882CC6BE95DC6B3E0D3FC8;
	14849 :	3E9F368D3EA3CB0BBCF63907BEC794203EC19A2FBE87C96FBE00040DBE88BF683D896160BE0A0F15BCB886D23DC9D8D2BD8DC6663E20E200BE3B7E08BDCD9CBF;
	14848 :	3DDF74D03E2AC292BF456437BE3C59343DDE9B20BDC144D43EACA0413E5421443E8CF05A3F8865F2BCFAE1033F1604BBBEA1300BBE933BD43F3F6315BE451451;
	14847 :	BDF8D3923E8870203FA122FD3E877B743DA9B6FF3F6ADD34BC110D533DE5CB1ABE4D061DBF293F9F3ED490AA3E6B519C3D6EBCCBB9B3699E3EA401F43B47F908;
	14846 :	BF5CFA28BEB4558CBEC30CA23EC34DFC3E0896BF3DE31794BECFE79BBD4E53A8BE56ACE5BD679EE93D9D2674BF0B9682BE9886AA3DBC50F73ED2A7B83EAF1DAE;
	14845 :	3EA7121EBED777C9BCCCDC1C3E553E88BE9BD6043E89F347BE8549F1BC31B5D13E88C843BEA56AD23F00BDF0BF062C4A3DBFBE54BEA5FFE53F0A8473BE44A3B1;
	14844 :	3ECDE57A3E9060213F43D04A3F0B0A233E302EEEBE49A7223E9B7E0CBEE212D3BDCFE89C3E5FA697BE10FF963BE480AEBE23F3E93F4AE8C7BE5C7BC4BF8B38F9;
	14843 :	3D831ED13EC398663E13D725BEAC976E3E92C800BDC6450D3E821BBEBF85E7633C8571D63EC546A5BD85478D3D60B44F3F3C65653D91BE56BE4140FD3CCB25B0;
	14842 :	BE9B81A93EEA17DDBEDCD3F13F06521BBF144DA73E7B77F63DC1ABE3BE4551D73F3CC9533E8A40303E5BB3AFBC5181C6BEA9732C3E3DF22EBE9EFB71BD4BC886;
	14841 :	3E72A30C3E51E5453E9CD4993DB83CC63ED92A2EBDED79E8BD84B23FBD945AF4BE301414BD2FA5DC3E13EC473F3A65B7BE80AAFFBEBBDB6A3E15D885BBA2D7B6;
	14840 :	3EAB2AC3BBFE31063EEFFF4ABE6B368BBDA05E3FBE44E257BEA582673EAF67553ED68FB8BE4A330EBE321ABA3F565DBB3D1D77AD3E574010BE2DE80E3E19850D;
