-- begin_signature 
-- ddr_init_ins_gen
-- end_signature   
WIDTH=512;         
DEPTH=15558;      
ADDRESS_RADIX=UNS; 
DATA_RADIX=HEX;    

CONTENT BEGIN       
	15557 :	3BEE40EE3BB31D0DBC6A0069BD1EDC6DBD3FC0C9BC0598153C8CBA6CBC6F3FCABD4117063C2E5EA23C8C57D1BD062378BC2A40FABB07F5F23BBDCD28BC53E3AA;
	15556 :	3C3BE7A93D45C5C23D344510BC86CFB63B27CE1CBD7263AB3D0A171F3BAC08943CAC245A3DAFB9C3BD853AF13D0491413D98A637BD9F3F5ABC1A8334BCFCBCF5;
	15555 :	3C0178D33D7561E6BCD563B2BD0BCAAEBD6208F03BC289F33D86222FBCBFAA3B3D9C493DBCFCB502BC55CA50BC526895BCBD441B3D3CA403BD0D8CD13C8A4B84;
	15554 :	3D2CE551BD650DFBBB1E98203AD830B53D4A67CA3D1BD1E63C1E051A3D51FAEB3C2838AB3AEB75F83D0FFF0BBD0957FD3C533C60BD99B4D43D07D8BBBCC96BF2;
	15553 :	3D5494873CA2666D3D4608B83CAFFE033DBE3F753CD39BE63AD9AF3A3C83BAE03C1EB33C3D3F1C2A3C0785C93D868BA93C9B2FD33CDB2BD93C8E99C2BCAA3ADE;
	15552 :	3B5F47C2BCADCF763CDB95603C7511B4BB334B1BBD0B6067BD4B94983D87787F3CB5E5DA3C2F406D3B9A1E3CBBF267BE3DAAE1243BF99A8C3D80D7DFBD29E943;
	15551 :	BC8B66A23BFF11A63CA34E6FBC3DEBCD3CFEB82A3D057BB3BAA522EA3D8220FA3CA6FFB6BD4BD98EBD621765BC2F511CBCF0659DBBFD2976BDAD4F6BBC0CDA94;
	15550 :	BD76DA7DBD8B033BBC82057EBD1D796B3D79B247BC9989CABD741A983C0768C23BCC501F3D48CEDBBCD4F3FEBC2A68063D1364EBBD6BC282BC96BD063C92A693;
	15549 :	BAB951CCBD482535BDA1EDAD3D5B73C13D97651CBD0D42113D190DC2BD82C8BE3C1B1C57BC67D2B33C24DFD7BD9349833C4F8667BD0509EABBA5CA103DD3DB07;
	15548 :	BC12F85FBC3E98A33D087E7EBD4AE0DFBD3AB47BBD999330BB91492C3C6EA4703CD2198A3D246BD03D94B790BD9A028FBD64D362BC992ECBBD4E937BBCAEC19B;
	15547 :	BD26FF2ABD470A9C3BEB6121BDA39638BC3471A5BD2635063AC13FA33D3904123D43F130BD3D3CFCBD078886BC673755BCE03DEE3CD696EB3D1D2D00BDBA071A;
	15546 :	3CF8E4C53D313F34BD241DFC3D82B4BFBC8968E8BD205A583C1162B9BC7574503D07025E3D08410ABBEF5560BC18AC6D3C49D7AEBD8AD005BD10895FBCCCC0B0;
	15545 :	3CE855CB39AB02CCBA3B5E2E3D76BCF2BD85CC4CBCBEF7DFBCEDF7F9BCD2A4C93B062BAFBD4D5868BBE669CBBB5D369DBC07C6363D83F4F93CA9E22D3CEE2C30;
	15544 :	3CAA5DCABA670863BC9B1DCC3C7D1413BC962630BC423B20BC665CD5BB56042A3D0339253D87DB8C3D9960AABB83A3A53DA70A623D823F44BD9B35773CB43AC6;
	15543 :	BC8EA21DBC79EA193C58C8A1BC8868773CB352293C9C5289BD5D0BFA3B29D58FBA3FEBB6BB0D6B4F3D270DABBBA9BFEABD22ACB33B4010623B7C8BDA3D8E0942;
	15542 :	3C1161D83C17309E3CDEE8C63D8F68EEBB8A6B9CBC4C0E9CBC2F15BEBD274CDDBC201E3E3B645DDA3D07567FBD2CD1E83D341507BD4183453D110D77BCE6AA08;
	15541 :	3D4139A13BEFFCD33C575C10BCFE4684BC130D0FBCB9AB50BD0871333C55F682BD130F1CBC175D013B3602B7BD57E8B3BD0321AB3CB83042BC81502EBC63634C;
	15540 :	3BE2A7BBBD04670C3CBD4F763CE49DC8BC51E6263A30B4B5BB8759DABCD1067ABD6E3E94BDBC8B573D9F6A3EBC11CBCD3D8C5FEFBCF613603D1089F93D24078B;
	15539 :	3CC1EC1A3ADCEDD2BD04DCB8BBB58AA4BC76AE77BD43DB8BBC7BDE60BCF6D4493D5E431F3C9E4663BD48B3A13D1820973CB76F2ABD3A6284BB8A42003A83A965;
	15538 :	3C847E293D2C46CC3CB9B0123D272B71BD7B3E173D6BDA603C887824BB38ACE5BD0DADE43CB5EF5B3C0324E03D2946D7BD504D66BB1DC8E73DAA80D9BD125215;
	15537 :	3D0F528CBD3BCAB4BD922B28BB866CE0BD35A3A73D500FD2BAB5794FBBA4805BBD6F50ABBD3BB416BC989C153CE36FCBBD43B2B2BCE00B64BD5C85E03D03A293;
	15536 :	BD135A283B17C830BD5A84FA3BA311523D1E3008BC16DCC0BD1C731A3D81F45F3A20B3FA3D31A5113B950B7D3CE8B5303D033231BC8846A83CAB90FD3C3E64A0;
	15535 :	BC9E63803CBB7E1EBC00F48B3B2E952E3D68F32A3D868D90BCFADFABBCB9195CBD83760F3D6E89F13C9866063C834B7A3CA8CCA4BC5CA4D33DA2938BBB092E39;
	15534 :	BD27B4BBBC20DEADBCB591EABCDE9382BD43BB72BD8CDB213B75272BBD60A4C63D8D75933CBC017E3D9370153D16DE603C6D5901BC2C9A0D3D16A585BD749305;
	15533 :	3D663FF73D961DCDBD59ACDE3D1C0DE6BC04B4003D380EDB3C30D60FBC569700BC59F1423BF1901A3CD3D900BCAA31FC3D6A95233CCAD104BD01DED93D0C2B48;
	15532 :	3D2BA2AF3D95ABF8BCD8E1FD3D43F001BDBBED743C4CA4BCBC136D34BD78D0983D1A251FBD1461CB3CB744333B57F4BB3C13AE44BD2E5AD93C4CE047BD0236EC;
	15531 :	3D35C031BB5014FB3D960FECBD0488E63C6BC07EBC059BB9BB5C2511BD4767FF3CCEF2613DA1E8D3BC85AAFABD0735AA3D54FC79BC037EBDBC1B7E773C7E23B5;
	15530 :	3B766A453D0122143C6B08EB3CB60CE93D2FBE863C622470BD78B5B83C47851ABC4B70F53D9C3F683CD5ADB73CF360AC3CF67E1EBB825C513B99CD813A844AB8;
	15529 :	3D6A3824BC1CE59DBD2FF664BB97FA20BD4D5CD9BB81F5AB3D1CC2873BA457A5BD8498EBBD25F254BCB753B43C1AEEEF3C9AF76B3C1E38A4BC06EAE8BC2189C4;
	15528 :	3D3063F23C9EBA3ABB9CE9293D932DE93D58E077BC8F71FABD23368CBCBA27AF3C9396BBBD0235D2BD1071733B13EE153D4F894CBDC40321BBB93E1ABCEA4BD4;
	15527 :	BD4FDD74BCBAC2EABD02293F3D39E6293C868E82BCB6741FBC1043AD3C9F2A8CBD932746BD2FBD0FBD48C9563D04B7633D3D90E6BD9FE296BDA2CDC4BD164718;
	15526 :	3C165E6B3D11C0363AABF2D73D551A403C628BE23C2210B93D32140F3D24A22F3DB4BE433C5D3260BD90739B3D21EE70BD34B9033D5B33D8BD4405CF3D74C790;
	15525 :	3D06E597BD47A7A7BCAB9787BD47A903BD4141BC3D06A6353D4133CDBC7B06B6BD3514463DAA1A5A3D1402ADBC5968613D452D6EBD0E1ADE3D448A9FBD1CD39F;
	15524 :	BD151D0E3D55C7D1BD92BC373D9143B83B3E2C50BC3C581C3C92276CBD4F6A673D667DEE3D1FFDDF3D06D04DBD9B30543DA9ED5FBD01B2793D178E3C3C9037D5;
	15523 :	BD11E0E03CC331603CAE894D3C4B95A3BC5E0F81BC6BAAF4BD1E3742BCAB9B903C228C36BD1D4661BD259ECFBBAE0C553D12DEF5BB453727BC269FE6BD6FB866;
	15522 :	BD3C84003C932448BCD34C9B3BBC3FFEBCC6F4DF3D51AD80BCF88BCABCA529B9BB484CE03ADE39923AC3FDA13CDD6F7DBCA94DEF3D031FD7BD0897C4BCE3CBC1;
	15521 :	BB562584BC5E53163DA5BFF8BD16CD443DB02922BDA59651BD98C5DA3D4465353CA07226BC2F2D3B3D865F623C797447BD1E43E23D99F1123DB6DFE6BD4DD9DD;
	15520 :	3C8941253D749BD43C3C3E41BCDB03C03D7281E9BCB5AB133B8C4CA83BB89798BD4B8F44BCD23AD2BD5191833C909A73BDA7E8FF3C855DED3C05779EBCBAE0C5;
	15519 :	3BF040D93C13E9BFBC17992E3D3039423A44E28B3CB893FDBD64D169BC8EFE19BCF43A0D3D3DBB57BDAEF932BD3ACF74BCDB56EABCE5876ABD53B225BD0A5852;
	15518 :	3D8CED2C3DAB5A363B715552BD746D18BC30ADDCBCF63BB6BD5320253C034D453D4EE34DBCF9EF353DD043A0BC47969F3D558D75B7E656973D9F37E8BD74E8A5;
	15517 :	BC9CD46C3BEAE1BDBD3337ECBCDC336E3BD6F602BCB68705BD3A39083CC69F183D36D6883CEA873D3D2D0A55BA69E535BD0ECB1DBD13B0C9BD38C478BD248CCE;
	15516 :	BD52C66D3D47CDBBBC4BF7E9BBCECC2D3D767B783E063868BCBDCB953C9D4F533C9280B43C33290DBD41D39DBC2C1736BBE78C8EBD1AA27D3CFD8D423C45965C;
	15515 :	BC8486513C9944813D0A6AFCBC3BB80FBD5620043D346906BCAA6C833CA2368EBD9F5B693B981DCB3B54AFABBB60D3DA3D4F2C4F3CFED71ABC8FEB733CA41898;
	15514 :	3D5548EDBC4262E2BD108ED53D2164D4BD4499E93C048387BD6ACE433C5C358DBD3711F23CC99E54BD73BF0BBAD2431EBCF173D7BCA1D6ECB95EF26C3DABC6F1;
	15513 :	3BF914C3BD2A4EEDBC88539BBD231BF73D57990B3D7348463D1562383B861890BB6732EC3D22F9B5BD211CF9BD1679B33D4C0CAD3C6EA7433C005350BCE3BE40;
	15512 :	BC8489D13D523225BDACDF7CBC0C8A653BCFE714BD07362FBD2891BA3D526D8A3C8562973C98B97BBCD0EBAB3D16F29F3C8CFCA33D0B0DB53CAC8A1FBBB07F0D;
	15511 :	BC6AFDA7BD39B0A93AA15C633C6723923D076DDBBD0AFEAABCBF929B3CF296063CF9E23A3C48E8DB3DA9639A3A8BD16CBB943CC83D941BB93DA60D98BCA7CB1F;
	15510 :	BC931B95BAA9C74CBD5830AF3B9C3CA43D395A9A3D7F94953CBD7EB4BA2A1E60BCD55ADEBD4A895A3D11EFE9BCF7185EBCEEB644BD5EF18F3D0A6807BC2BA0A5;
	15509 :	BD411A7ABD4271633D00E3AF3CBD3ABDBD85FFB3BD6C447C3D54607B3D68D7DE3D1A15C93B8D771FBC1D8F9ABD99ACEB3D020138BCC7CBDBBBD91F333CB0ED69;
	15508 :	BB9B537B3C6ACF97BD8D63213C4A25DE3BDDE768BCF7DE573C8CE8C8BCC3410F3BF04323BCA5C63ABD26864F3C61FF74BC13C9593A47021C3D93CE3BBC39DB62;
	15507 :	3D768A03BD4B16163D87E6813CBB0E2E3D8D0DB23C6DFE83BC15B100BD286C583D905EA23C565C2A3D3BE4543C63167CBCE12BC63D3775CABB61586DBCC02B43;
	15506 :	BBAFD7A9BC9449AFBCEB9E01BD22D136BCC8EEC63D0E00A4BD1E04133D101D1CBCE5C67B3D3924FABCE6DEDA3D994A5C3D2AB4833C2AFAEC3BD8C6DD3D26B091;
	15505 :	3CF81C2FBCEDDFC03CBC927C3C0E875D3C8785F1BCC968693D0FDAFD3D731995BCFF22033AC9DC49BD544CDCBD79F23F3C62C77BBC802D8EBC4440483CD8DF39;
	15504 :	BDE3B462BC7AB5733C09F33ABDBF6575BD5184D2BC5162CBBD23CE2D3C56A8D93C55B03D3CC1F6B73D359ADC3C4D3DEFBCFFEF0CBD30C24D3CF85EFABC795128;
	15503 :	BD0AC8EB3BB32599B894E169BD4150E43D241FA53AA70041BD58D85CBC947B77BD6A3D11BBEB3F6BBB1E154C3B9E2A06BD9C93DF3BB831CABD8229FDBD446F15;
	15502 :	BC1E87B1BCF922E9BCCFAF693CF4E859BCAC05ED3D7C9A0E3A801207BCF741CFBDA46D8DBCFF2D5E3D1B3A143B30DF1BBBF52A0CBC02DA493B425103BD0EDF1E;
	15501 :	3B3E5D84BD37AE13BC8C70F8BCCE78F63C683803BDA4FEE4BCB39D443CDDDE58BD8F1D133A6A6544BD0FE086BC5192F4BD272704BCB869D43ADDA6293D3C0408;
	15500 :	BD00C1463AFF894FBD479F313C63F0F9BCE27FD83D576B923C556ED73C0419FBBD6446F13C9567BB3CB5BC67BBCF7D9ABD8A0205BC7F43FF3C90A830BD0B8415;
	15499 :	3D90DAF6BC161036BD3AB2153D032785BD5058673D219FCD3D24D133398E250F3DC4BE9E3D8A573B3D4730803D5F43543D3DD65A3D974C68BB290FDABCEE6400;
	15498 :	3D7F70E0BD4605933CE97590BD3B320DBB08965CBC0FDA58BCED153F3D487A11BBAFA1503C22A2203C85F1433CD494D3BC734F7C3D160A603C8CC3AE3CB9185E;
	15497 :	BD00AE46BD579F2C3D5AC997BC86D1463D034D2DBD2A149A3CC3ACB13D96D75EBB04BF73BD22BC98BD2E9FD4BC041BBBBCA39CAD3D293665BCB9CA3C3DA768EE;
	15496 :	3C720ED43C04BCD23BCEC01BBCD34ADEBD469B7ABC0CCB3B3C9CFB5C3D62A6B8BDAD1BABBC001CA6BC9C663CBB94E8AB3DAEAE3D3C0DE2663DA7FCBCBB503D6C;
	15495 :	3D5189813D052822BD8230643D7E5D043C2EE4DB3D447BB73C9DD92ABD2A21663D10E27D3D5C5547BB3F2B31BD5C5138BB9341AA3B18FDD1BB365BE2BCB58365;
	15494 :	3C1BAAE4BBAE3BF8BD099F72BD21C819BCCA07B9BBF7BC1C3D1E72423D32671B3C74D45A3DD74C753CA5996DBD0DA9473C141E65BC59C851BA585C453D431F76;
	15493 :	BD4B091F3D8894043C94F8663D823FCBBBCB2DB6BC08F883BC55DAF0BD2451C33D598F743CEB5162BD993D883CA630053D2AD1933BEF34E33D364AAD3D1884BB;
	15492 :	BA4961E6BC3E3773BD9E8BFFBD1B0A4EBD41D438BBE6ADFF3D54A7A9BA34783A3CBAFE563C84FD2A3C1BB00B3D1ABB69BD5502733C05044DBDC8E023BD13C411;
	15491 :	3B839D393C596CDE3C74CEF6BC78571CBD323E7B3CFD2AE9BD8F4B4A3CC4711FB9EC8746BC81852C3C7196A13DB374A8BD199EADBCA8AF3FBD159363BC990C3B;
	15490 :	3D1683803D2A5F073BCE023ABD02DCD8BD2383143C5D934DBD8B5286BCC0A698BC96876E3DB5B8D13DB09050BBF8CF233C8E587B3CB2CA39BD071928BD5DE703;
	15489 :	BCDF6363BB8F03A3BD0C4BF7BC67D0E4BD8102093D0520A13B02F3AC3D7BA3773CFECF353CC42E393D50A8F1BC13B4B6BD1B54DFBD18D652BC6040F23CCE05FE;
	15488 :	3AA630CA3CE15956BD41666A3C9EA8293D57C576BD0BDA703B9CC9A53D8DB1AE3D2926163D98E61D3CB0C2863D4B249EBB904349BD587998BCBE1C64BD59FD6A;
	15487 :	3D727BF1BCD2CB7E3D3A5AA63C950B6F3D51014C3C6973943CBC6EA6BCF0175A3D45C98FBCDBEF403C8535F13D9A2754BC4DD53CBB0A2EC13B568B7FBB93D2F7;
	15486 :	3CB6D6413D48E8C03CB71F553CCB2688BD9802F73B772892BC2E92E8BC5A77813BDA5D503D60D99DBCF920323A3F2F803A602EDA3D87BD2E3D877C873C993278;
	15485 :	3AF04FAFBCA1119E3BE4FF5DBD999130BD1C959B3D53AC20BDC010013BFDC8FF3C8974B83CD583CC3CE93E363D1757F43DAEB5D2BD3301833D16170F3D867E47;
	15484 :	3D03F211BCB88FF03CE4ABCABBFA1C6FBD45A75E3C3BB7A13D4E663ABD851E693D32848BBC39DCF13D9DD5EB3C5B0591BD945287BD73AD9EBC9C5321BCFD6303;
	15483 :	3D9EDC7FBCC583D0BD03724A3D5AD48FBD04D347BB448CFDBC4FE3443BDED193BCF3AC8CBCF963C5BB68AB9DBD00DB153BC658C1BC2926A2390B3271BBB4CC4F;
	15482 :	3ADC721E3D99C8B83B71748E3D8840B53A78E39DBD7C61B03CA850273CC8D737BCB6BB143D791FA63D0078933BFA5D05BC062452BBB0B28E3D5F5F85BCDDBE6B;
	15481 :	BD4D3EC03CC07E4BBD4F48E63D52A5DD3D6CFC28BCDED569BA821CE83C05B8DF3CF264773D6D1D663B2BB986BC6EEAC43C6A22F23CB5774E3BD37A3C3CB5E675;
	15480 :	BD03CBF4BCAB87903C941221BD2BD987BCA45E91BD3E917DBD9B5A76BD1A10B4BD8C92CDBD329503BC19C555BD7F9F1F3C51BC09BD4F6C753C056252BDB411AF;
	15479 :	3BF48D30BD4027CC3C3D835BBCACB9D33DC86746BD08A526BCF532EEBB11DBFF3D3977DA3B7CF3A03CB243AABC4376D53C44FC02BC2AC9E03D3F84943DC0532B;
	15478 :	3C02F4E13CFDFDBEBD3F84B03BD33A80BD0401CEBC105504BCE6930BB985141DBDB17A223D45EEE1BC86C40ABCD3F76ABD46D91FBCD561013D2D787EBBA381F8;
	15477 :	3CA6D1E8BC9DCCCEBD56A3E0BD8B9EACBD190E55BC4DA898BCA37B9F3D1F2D993BF5EF7ABD222F6EBCCF27DF3DA197D73AFE86EA3D0E2685BC02AD0F3BA40E49;
	15476 :	3D8736C1BC9375233D1A29D1BD09ABB0BCC09A6CBC03777F3D0736A3BCDB9B37BD448DED3D3ABFFCBD686462BDCAB1F13D57EE9DBC6015AEBD29633ABCAAA4BB;
	15475 :	3D4D03DFBC1A0EAE3C011CDDBD166F53BD80216EBB802EAEBD4414A33D4AEC4A3D39492EBC9A30B9BBD3C7153D81F67B3C37493A3CEB5655BCCEBEF73CC285DE;
	15474 :	BCF941A43CF11F7E3CC945F83D4919663D91A106BBA53F3E3CA8CDCC3D22CDB2BC6B2BFA3B5D34283CAFC0AFBDBE0C5F3B5E36BDBA5B49EA3D2F4EC2BD011FD1;
	15473 :	BD18B0823C8E1C853C327C583D037126BCC9FD7C3D3080D93D31ACF13C10CABC3D008DD03DA545883C1305073BBAA4B43CC55600BD2C1E35BD1E2A5A3D391115;
	15472 :	3D5CCA2A3CBAA1383D3180F83D281C823C26D957BCF348AC3D88C2D03DA115F33D11C4953C9113403C1FFA5BBCE359BF3D8C96AE3CCF75253CDE8B413C7B6770;
	15471 :	BD3606D7BD3C56BCBCCAD517BD78A9B33C021E2DBC56758FBBC911053C3666C3BD1B570ABC6CE2E7BB54BDD2BC8540633C91F7803CC1DAB53C5A9CB5BC0F74E8;
	15470 :	BD8318803CA3D6923DA13696BCF4B77C3D571C4B3B96226B3B46A50B3BD84764BC52ECF73C0264A93C70E20A3D02EBF23D87C26EBA657E53BC714940BD658236;
	15469 :	BA971CCCBD005B6F3CC15AAA3D3A08213D8C1914BD25675ABD093BB8BD2F52E53C780E773C69F002BD2AB627BCC0F672BD2BF340BD0A249CBD8DDC483C5282A1;
	15468 :	3D976905BBD27401BC8247D5BD262B4CBD5C41CFB920C58EBD30DF043A99F6B1BCB52D083C2147213D9FFC5C3D126FD0BD4764BDBCC2950DBD90531ABC3E69FF;
	15467 :	3D19419B3D1D03BD3CD0606CBCBF1953BCCD8525BCF3FE5CBD35DFB43D6DE1E6BD669BC13CE404D1BBDFD5DABC3F3E103B0EFCF93CF68CB0BBA27AB2BCAF84D7;
	15466 :	3D04EEF2BBC01D6BBC765C81BD37AEAFBC6A4B5A3B56218BBCE4E1C1BBEEAA49BC5912A7BCDB4363BD912F54BB306F75BD97F2D2BD08E5DBBDB1F0E1BD262D7C;
	15465 :	BD1DB68A3C70411CBD9BCEA73B8D79F4BD2D77C1BC8DB3D83CA656313B9985F2BD0094243C8F12883D42CDD73C5FF4D3BC8FBEF03D391DA23D01AEBF3D97D494;
	15464 :	3D87772CBC6868853BEBDE18BCAE15763D72D9793D0D4CCABD5C01BFBD558C5B3D2F05323D8668363CAB5E1BBD5C59353D9222063BECD9A8BD53A1C03C2707EF;
	15463 :	3C0D9F913D83CAD13DA2FFE9BDA3AE1D3D8CB17F3D76E43FBD82DF6A3BD4028BBC86C09FBD17E6083B9E1924BD356AFFBC8D30283CC2D2CA3D8336DBBD0340E1;
	15462 :	BCB677F5BCD546E53CCC88E43DACC4513CF7564DBD0BB5983B6997AF3C76DC8ABBDE7B6FBD7CDCD83DC269413D420EFE3CB48E9F3CF53647BD0650F6BBE70264;
	15461 :	3D463D52BCC9C53CBD2DFC82BCF7A0743D2827823C91FDAB3D1C8AE6BC48174DBD05830F3D65A2E73D25062ABD7E0A0E3D01E1553D3B101ABDB488EF3CF9D0E4;
	15460 :	BD06163DBCA66EF8BC805331BD430CE33DE7D7BEBA8F96D0BC5A4ED3BB11C32BBD462BEFBD303AE03CF31E3A3C5F6E9EBD867B773AD4932F3D06F0C03B94F005;
	15459 :	3D528CC5BD247CF7BD8E9919BC0E0FD1BCDA990CBCF2D4F9BCE8B21DBD063B143B848B99BD042C61BC1C2DE93BE703D1BB3C15ABBD4B2B5BBD8057A7BD1D5A4E;
	15458 :	BD6435DE3CA9A5123D837C083D530E443BF8F3753C8BE21DBD20F7F93D777D59BC3FBFC53D1241D2BC0490E1BD700A523B300386BC9CC1753DB500463C47BA0A;
	15457 :	3D32CF5B3C77F8783B50FA9ABD172D323D1417133D84E1EA3BC431E53D0128E2BC5306523C346F02BC88F49CBC699D7DBC02FE57BCC89EE63D825DAA3D7C3339;
	15456 :	3D1A79FABBF7D845BC5CE481BC991ADC3D48893C3B8DAA673C4087073C0243FDBD36D0043C2C02453C5E35E93A53D7F6BD925CC33CEBAE583D57BD853B3AF526;
	15455 :	BC8622D8BD6CF838BCAF46B6BD1CF3DFBD9100BC3CF66263BD2ABC363D233569BC868A67BC9A30F73CC5CFFDBD4CAA64BC4A08343AB2AABCBCBD26023D18A6FC;
	15454 :	3D33B6A43C3D4BFDBDDC28773D42021CBCCE6E8CBDB017F9BD3EC9543BDC381B3D3F09FE3D189E783D1CBAC6BD640BDE3CB615FABCBDB0213CA00CF5BD34CC09;
	15453 :	BCE52ED33D39CC02BCBC784D3D2B16A83B2D74DDBC7ED481BC8C861BBC9D3BE5BBA72E3E3C296FD3BC3D5FF63CA34FE63CD83A6EBD4E42EB3C6DEA1BBD643FBE;
	15452 :	3DAD6AB53D14705FBCF65EAABCFA39F5BC4FE261BCDB1563B6A73DB4BD34F6493D245860BD0E3870BD3FF75B3ABD5018BC4F1A153D36E720BC2116213B96112B;
	15451 :	BD09A4FCBD5F02563CCE1A27BC43FE9F3CECA162BD900248BD074972BC406F153CE1F18BBD2EBF12BCDDFDA13C1315123904801ABD0CD0BC3D1C285C3D35172F;
	15450 :	BD07830F3D4CFCEB3D8925BBBC46E547B9AF3037BC8F6C38BD2442603D2A75723954E68D3D96234A3B1104D9BCF1EB3A3D98DEB13CD9981D3C5A7F06BBC43F66;
	15449 :	3D56CFAB3D919090BD81A33139F96B89BD7A7F1EBD51F44F3DA4BBE43D18FAB83D34404D3D2F5856BC73EE1ABCF2ED80BD3AE5D73D8A8248BA6477FB3CC2F306;
	15448 :	BBED4B593D9DAF8C3C3981CF3B943130BD39F1D6BC80F1DA38F2DB67BD2EB531BCCA2D1E3CDFD61F3D16C47D3D1F2F0CBCE18F7C3D882C3D3C5E4F5BBD51AF1D;
	15447 :	BD53496B3CA30680BC9652A03D2075793D211770BCC90EB53C972307BD2C0097BD08F67E3D4D6578BD4BFFD6BB16AECB3CCB5206BC747F703D1DB3443D3F22F6;
	15446 :	BAA3D284BC54C2EABB2381FB3D91FA14BB95815B3C84073E3CE9B52B3C4049E5BD718346BB0C4C2D3CFC8D3DBD819C99BC52CB033DDF6D943BB3269E3D1B6F20;
	15445 :	BD4C3D02BD58C88E3D47770FBCE969BE3CA907D5BC3DC78DBCFFD3CEBAB812AA3CB911493D51FD063D00CCDFBD2416783CD5E8AE3D28F2A3BCDDC2EF3CC80915;
	15444 :	BCD661A73E0157A0BB9034F03CEC40ACBD1275283D27378EBCEECF16BC8B039FBC401B5C3C82E2213CCA7985BDA53AA73D88F6A3BDBE53973D7931DBBB0B3839;
	15443 :	3B430CB63D36242FBD59C01FBCA35D223CC1385DBDDE9F0F3D130A23BD2208A03CBB82F03C0A477F3D304ADCBD198E2DBC8D9A48BCD2CD383B6932803D4B2F1E;
	15442 :	BD3796483D804C4DBD395AB23A3D4746BD4DCAAC3DC82D6BBCC939FBBD0FEB03BD2D0B2E3D38D4CE3CD2FF333D2DA598BC820D9DBCB2EB11BCC637F6BC220774;
	15441 :	3D53800FBD50D1BD3D7EC48EBCE4FDC5BC962E8D3D02E41BBCF25C2D3CDC70B73CED37C13DBB10983D12F7BF3CE23723BCA2A6BF3D1115013D8EECB63D708561;
	15440 :	3D2CD20FBCAF145D3D2DC554BD65A15A3D9F01943C8E66AD3D3A2A993CCD8A7DBCB971D8BC978037BD18F2323BA8F637BD31489EBD5B1ACA3CD32990BD4C81D5;
	15439 :	BCBE0D5ABBC55390BC1774343D1588073DA4D066BD72008DBD387253BCF963513CCC215BBD4CE618BCA8B749BD48756EBD2FA6EEBC54C84CBD877E12BD2BAC49;
	15438 :	3D8D36E03D882B473CDA7F09BD85434FBC354CB8BDD7E501BC9C1198BD8EEC373C0798E03C2C673F3C436A383D732600BA5EF9963D8DF5543DAEB61EBD01BFFF;
	15437 :	BAF7ABD53B98A175BAA64960BC33CE23BC6FD95DBD031C0BBD206262BCC749933D2E79D5BCB830473CE0DB49BCD45CCB3D641CB6BC8BF24DBD06CA64BC64573C;
	15436 :	BCC91AD1BCEFB180BC1028CEBCC45D603C1FAEDA3D88BF5A3DB84F923D8526BABBB95C4E3CAACE87BD90010DBD732343BD0ACEC7BC99BBE0BCFB73F13C0D93F1;
	15435 :	BBD3593ABCB5F9663CCEAD69BD50B9E0BD4A8B5A3DA39683BB9589063C9680CCBCB89F95BC858F783D048ABF3C4636923DB7CCA53D17FCBEBD31CC393D321A9E;
	15434 :	3BF0E3333C9A264CBBACFF9E3C15D957BD177F3FBBA0CFA3BD043DB2BCFE2479BD352AA9BC0E414C3CAAB995BC2D22263CD24524BD82A910BD93BC9C3CC571A0;
	15433 :	3D967A37BD0256A6BD307320BCE847CA3D5C7182BD1E8BADBB9784743D203A1F3C15F359BB77A99CBC9C572E3CC17474BA96CD9BBD2FDC783CF78A9EBD21E423;
	15432 :	39F002B63D78F9BEBC2185093D22EA0ABC287562BCA2C188BBE9BCE73CE55527BB87952DBD39646A3CBBA0C63CCDCF84BD5CAD6A3D5B3B263D10E702BD371E40;
	15431 :	3CED9A3BBD2739CC3D054F433AF111383B787AA5BC8E748FBC1116CE3D384F723D0C89C5BD1A62BDBC86F99ABC1F8B823D0700143D89FFFC3D45A07F3D397868;
	15430 :	3D65FC90BC4EB389BD3FD5153D1DB9493D7FA96D3D4462ABBD56F91CBC5AC77E3D61853FBB0F84503D2B391ABD0235773C8FBB983B247BE3BD7D9C4DBB8B44EC;
	15429 :	BD0C65BCBCA12FD9BBCEE4F83BCDAA99BC17291BBC20DBFB3CAB5A28BB10179BBC84EAA6BD4BE0B7BD743A2CBCF0BA0CBD57A746BC35E14ABD29EA07BC5101CA;
	15428 :	3C06979FBD1859493D04A0303C410339BB00A418BCBDB615BD242E85BBAC22FABD0642CFBC9598B23CE1A5B8BBF857DDBC6B40683C602EF83BF1DB33BD01ACFC;
	15427 :	3CBA5903BDB48AEABCBDCC973CAA03D13D020CD7BC1FA675BB461DC23D45B876BB78D5B63D316E48BBE90679BD92F3843CD7B5253B9417243CBAD2203D86905C;
	15426 :	3CB571C9BB849FD7BC99004F3C4186E7BD2886633C9C6076BCC9B4AA3D17C805BD319F13B952AB23BC4B7AC63D8F61803C850A963D372B2DBCC4DBDABB566D8C;
	15425 :	3D9BC973BCA2BBD9BC31F2D6BD3CE4CBBD73BF6CBC5DD3603D4835A53DA043123D3BEAD7BAE9D100BD3401423C3317393B48600ABCE81007BD825E293D0ACF0B;
	15424 :	BD6184FB3CC387F2BCC10DFFBBAA5A89BCE37757BD651CF0BD6A09A03D89068EBA3173AE3D8EE9B5BCAF5970BC55CC89BCF2CF0FBD863F98BCD5E1DEBD238DB6;
	15423 :	BD359D683D0C4AE03D061AEF3C5B202C3CC1491A3C74B1923BF979D5BD6C1F1BBC0BE46CBCC74BA8BC13BECE3CE1E5DDBD31A22EBD58381ABC95FD97BD19760C;
	15422 :	3D7D2E4E3B299B9BBC28146ABBF04700BD20868C3D2537EE3C529381BBE4CAC0BCD064773D4A759FBD0FC55B3CEBA1123CEBADC2BD71EFD2390182AD3D5EBD25;
	15421 :	3C6AA9B63CD15308BC44113ABD43D1CEBC9146EEBD9E2CEB3C24A0123CF3CE103CF91E523B0074A93C09486DBD69EAA6BD2E3B4BBD0A6F003CA2DE223D1A82DC;
	15420 :	BD229BE2BCBB273F3D841A153D3F3AB03CE86EC43DA0C15D3D4306DA3CC46A9FBC69883D3D4B432D3CD685CC3A6DCA50BCE83E933CCB518DBD32BAFBBC72F7FF;
	15419 :	BBBA6979BC3D434E3D79F5B13CE7921EBD58271F3D0F1E973C1DFD8BBD14CB013CB6739BBCCC11373BF4FCC6BC4419C03D096559BC9BE0C2BCED2CCCBD0F0451;
	15418 :	3CBD9B0F3D724FA7BD1028C83BF276E23B939374BBF0D734BD3B56933D049D0BBD2B2997BA2F6DEEBCC5BD15BB42059A3D00B2CEBD21AA403D5D733A3D24FEC9;
	15417 :	BC31CD8EBD53CEB93D286B7DBC1EBE80BD8AD8D7BD83D8A53CE11BB23D07F7D73A43EF85BD0E93AFBAE8B88DBD48E2E2BD5E08DF3D82F97EBC6AD5D53D4A768B;
	15416 :	38E069E73B1F74943D0DC0F53CD433DBBD6B3BDDBC31E565BD6476633CE78196BD44F969BC9B7CBFBD4BB0BE3B4A7B57BC8332D63CCDF64DBCEABE72BD03FA73;
	15415 :	3C049817BCA7DDAF3C0CE6323D29571C3C35D79BBBB8695BBAD08E763BD702CBBA8A12C1BCC5001DBC009738BAE2E302BD1C3369BA8B0161BCC15B3ABCE360BF;
	15414 :	3BE923FDBC407567BD56F007BC04FB6DBD13E629BCF3846ABC36F120BC5A9C71BBC9887A3DB1EDA13D1F2DEEBA7C8DDB3D411FCCBBF8C48BBCBEF003BCB93B93;
	15413 :	3CD3D22B3CB81E303B9B9CFF3CE311CA3BD3FA093D251A0BBB85C4E9BCB535223D4226F63DA80CD9BC81EE7F3CDA781BBC04D1A9BD8FF77439A705F83D4D52AD;
	15412 :	BAFDC4C6BD2175033DBDECA5BCDF14CC3CE426583D16A1E33D357CD7BCA9C3D7BD0224183D01E53F3CB5C323BD82C39ABCD5F6BD3D1CA41FBCD62BE13D0254E2;
	15411 :	BCC1BC323CFD43D03BA7D1ACBD83D07DBC6F03A6BCD3EB47BD93B7B33C9420EFBC4704FC3D3E467D3D5A6BE1BC15F890BBA61713B9ABDE943D276675BCAA5FE0;
	15410 :	BC1FE1BEBD261A123BACFA773BEEC8623C47B4323D3F72AFBD3211AABD038FE73C0221DDBC8C8C573C8E6895BD854736BCD5638DBD58D4A1BC9F7B063CADC67C;
	15409 :	3B91B9F1BC79CE1A3CFD5A683D90C06F3D89B3B2BC8BC59A3C8F645CBD2D23ABBC84CF40BD144825BC57B8BB3D497BCC3CB4A8D3BC95D001BD0AD2E13D7C562A;
	15408 :	BD9161DFBA50DC16BD2478723B992787BC57DD5B3C029B1F3C642B083D37088DBCAD33423D4171113CA0831A3A5EE2133D6831B83D7B71A1BDFC87293D01E42F;
	15407 :	BD0E66233D0B1C08BD7965AD3C0FA2A0BCAAA8F4BC5AED9E3C8956173C75B8553C8F4F623D526600BB9E5737BD3F4F6A3D0A76A73CD8FB7CBD9B7CC4BBD10D85;
	15406 :	BD0B5BF2BC5E3B893D48B1053A50F782BB9710E63CC3336E3DAEE283BC769EC53D3193BD3B77DD263B1EDED03D2FCCB33AD1E9A53C99E9F43DA79EEA3D50A1D8;
	15405 :	BCBAF0E7BD1A8B35BBC5F8A3BD830EBF3C7C9E393D305FEEBD1F12A73D4F392ABB70FBBC3BC6815A3D657D023D2825C6BD3D84FBBC8D29F63D8F8AC2BDA91961;
	15404 :	3D51CCB9BD54EA503CFCF307BCB86DE53C062890BD913E0DBD177775BD3E9E96BD87A7233C2A1BD5BD59BC22BC419CC5BD0252FD3CF9E9D2BCC26AEBBD34C05F;
	15403 :	3D6BE028BD148540BD95069B3BC370F7BCCFEEECBD88C9D43B7E698BBD947DF13C75BE103D04D79CBC75148BBCAFC78BBCC2F3D7BC6D3FAFBD172DF33CB1506C;
	15402 :	3D51887C3BDF81DEBCBD81B1BD168B5FBBB458B6BC0030D0BAE08D59B9B08DE7BD4DFE48BC92295FBD14B171BCDC37EFBD4BCBBFBC0E6C3CBC9CFD75BA8B9ACD;
	15401 :	BD030E853CDCB9B73DC3128B3CC0F7FABD258B95BD4C0C9EBCEB6FA7BCDB27CDBCEDDDB13D7590D1BC8F75A4BC1FC8F0BCCC00F43BE3D9853D1D7B99BC896A2C;
	15400 :	BBEEC46ABD6B4A97BCE24E3BBBFF1616BA52C5483CB42342BBA6A532BCEE026CBC408B073D86356FBC54224B3D3E3163BD00A716BD256E6ABCE39D8CBD3901CA;
	15399 :	BD28F020BCB06B3EBD8897D63C73237D3BE10EFCBBB042EEBC76F4953D1172F13D6DE1763CD2EC3DBBCF95E6BD69E592BCA4BC6CBD04E845BC62C4A83D917287;
	15398 :	3C2F84A1BD0A9914BD095B83BD2EFD6EBCD5B386BCF09C77BC936D1FBC4F46C93D77A19D3C2902BA3BE6606ABC94FC03BC0C8CD1BAE48F433D1A0367BBF78561;
	15397 :	BD217FADBC924B5DBCB6FFDFBD582C023AEE1302BD3447DBBD8B45CF3CDD79B6BBF56197BCEAF92ABD1C2E8D3C5CAC9CBC1AA3063C4AC410BC12514B3D86FA1A;
	15396 :	BD2D85A5BCED08643CE3AAB13D845153BBC8ADA23D0D99F2BD8E6D1E3BCCFAFF3C2B4493BCA53C1CBCDB71C33D29F124BB4D933C3CD55CD73C910962BD667545;
	15395 :	BD5D241F3D8B0F913D9E2A443B207965BC89D4C23B938AB33D1676C3BD6C05EC3D5F1A7CBCF95B70BD6E1F3C3D17DD573D64AC81BCC908BD3AB3152B39B489AD;
	15394 :	BB6D88E93CDBFCAD3D6565B03C37900F3C4453BBBD636B933D315629BCC22D203D96CB29BD1016D93CF6EC3C3C31CD3EBC14F8623D14926B3D0D4660BD3AFC69;
	15393 :	BAA1325B3D35ECE0BC8FE6C4BCB045E5BD387C30BD7DCF59BD7C55F03D4496013C4180923C96438DBD056C8BBD4703EDBD9102BDBD8F17B0BCB0A01D3DB7928C;
	15392 :	BB3BAF383D6C06263D8E7374BB8ED8C93CEBF705BBBDCF883B76AAC5BBC99AC23D9A39F9BCA3FC7BBCE1A8ADBAF17A51BC111D8F3C3D6E4A3D5553B73B991F46;
	15391 :	3B4B529ABC9D81703B8711CB3C05749FBCFA23BFBD3117253CA6757ABD82716F3CD191483D9CC7003D79C38BBCFB74853C94E11CBB99B2D0BC0E9D653CA96892;
	15390 :	3C8709253C959BA13D037D40BCBB0650BC1D4660BBF81FDDBC9402EDBCC864ADBC0972103CC2628B3B3B6D57BD7FBDEEBD1219D93D0248C53CBDAEB43D3986C4;
	15389 :	BD444B623C6D140EBC0F9BA9BD0BF663BD1C7227BB07B3C33D1191863C4614C9BB3EC5B03BE9D2993C7872793C51C728BD250D383D837F03BCB87DEEBC95DEF5;
	15388 :	3D3C20063C6CD1BB3DB07DBABC9C596DBDAE05A33CBD0760BD890049BC5F012B3D90A76F3D201A8BBD68BFD43C0F666F3D48ADBBBD12885FBD32C55ABD913E49;
	15387 :	BD2378533D08DB953D9F68CFBC50848FBD17800ABD168DADBCA928CC3D3CFABCBB50F72DBD0943393BB061C7BC516A77BD4A62B13D345EF43CA3827EBD1C833A;
	15386 :	3CE171D23D0025363C5EC656BC00EE393BB0EF6C3C9AD3813C4874A0BC2281563CD5412E3C9926C0BC0CA75F3DAD89EFBD8042C6BC8769393CD05EA2BCD552C5;
	15385 :	3891D7CB3D5BBD433C8772C5BB539B2B3D225F3DBC9D9C663D0D17E7BD740C613CAA1EF73CA038C03D473420BC942A00BC956CEABC9B6E3A3CFEB75D3D270B59;
	15384 :	BBAEAB5B3DAE96193CD7E1E53D2BD325BCEA13F23CBEAE7E3D1BB5433D58D47FBBE4F86D3D1058CCBBAE2A2C3D04BD3D3D002474BD4667E8BCE99AB5BB2DE3D4;
	15383 :	BD6C9A60BD20BB1A3D908CE1BCCBADEA3C1683003D25D091BCDC8F283D812FFABCC00D79BC585F63BC338E0ABD273373BC8BC3E5BD64FB013C76CC053D133C88;
	15382 :	3CAD444DBD3BE534BB6F7C1C3B91CCD3BB503B3FBCD0F6A6BC802ECABBB1205A3B9CF65DBC01044EBD1FA617BC9FE3FEBB50E0AEBCBCF774BD077DA3BC4751F2;
	15381 :	3D72A7D5BCF434B13B99B21D3C0FD7DC3CEED544BCA633C43CC40BAEBCA58E90BD4D05533D58696BBD681EF83D0458CD3C2ACC2C3D97B29BBC80CD95BDA8CDC3;
	15380 :	BDAFB7423C85DB183D47DB953D4418EA3C8FDCB8BC7DF3B1BC184ECEBC20069F3C18F2723C90AF213C92A89A3C99790FBC8126F23CD514943D5EBC31BD2067EE;
	15379 :	BC6593D8BD97990DBC5C86183D371AC63CF37C513B2B6571BD145821BCB41FDDBCEE61963D183199BD3194BF3D954C653CABC7C3BC40BABD3D94D798BD76EE69;
	15378 :	BB8249643D87053B3D7149AABCA777913C6E94D8BCFE0960BDDCDA4BBD4B2DC5BC6E72F83CC36D4DBD22AB4CBD154FCE3C76184EBDAFDFD93D5223F33D8CF46F;
	15377 :	BCB09F06BD4BB873BC278B713C6EEF99BD99F2F43D808F3A3B16E670BCB70C00BC101BA2BC49ED013CFC2037BC9E8123BD785F62BD08B5DD3D97D8C73CE94FBC;
	15376 :	BCA9B6353D047294BCCEBA07BD9038913D916A1D3D382AF33C8F78D63C2F78603D3A8FF03D11E6863CC1D5BF3D828E473D8ACE033C8D9FF7BD97DEB2BBD92A2F;
	15375 :	BCCE10CB3CDF57F93CDC42583C73218FBBE249063C1E1CEFBCC66487BC8FF16F3D50D99BBCE23BB9BC96600A3C61294B3B7C48123BC09F66BBC85C1D3D768B92;
	15374 :	3C809B46BD26FE0DBB0F67DE3D2873C03C9ADC043D0D57D13C7B1C66BC28C748BB233CD33DAED3E13D2624A73D1B5F3ABC56817F3CA01929BBF70B4ABC2E9FB0;
	15373 :	BD53FB283D14132ABB0E13563C19071DBD004AE73C1FD18CBD394A22BB4F7D9BBB8BDE093D94D6DFBC235B56BCBB34493D135B7D3C9CA43ABD5E86A63D1FCE19;
	15372 :	3D8957BABD1F7DA1BD078C72BCDA5ED9BD3AF3163DC1E91BBD859827BD50A070BC206A9BBD13D4BB3C1815B13B6E5D93BD0C6E263DB482083BA414763DC788C2;
	15371 :	3B34DE113C5B083B3B5213BCBC799D313D01B4F8BD911B513C8864D7BC3C33B13D1991B63D6F6ECE3D6109F5BD9243033CCFEB2CBB98049DBCC55AB5BD1FE3EE;
	15370 :	BD9F93B2BA20EE7FBC9747B5BCA449D33D59F739BC4BD77D3D2215BF3D4532B6BC70CB773D27D25EBD839627BCFFD77BBD35BA3ABCDDE8D1BD14E0BABD883F5C;
	15369 :	3D5522943D3B80BE3DA6CB7ABCD201A2BD7B60C3BD22F89E3D0375FFBC56F62A3CD3C4B23B86475BBD3A31FF3B83F76FBCF464A6BD135FD73C036E343A12170F;
	15368 :	3B82DFB9BC56DBEDBD3D74583AF3F2FE3D143D063D78B283BCC91AABBC4D5FB9BD5E44B7BC1E3884BCEB7E11BCF190EB3D424E14BAD1712F3D29BA16BD44E5F1;
	15367 :	BD1674A7BCF09EFB3C4458CF3D9DB93A3C4A9A4EBC7516C5BCD82E613B6ED113BC65C89F3C3B9D753BEEB5593D90DA0EBCBA4A23BB4277F3BD0717FFBC640076;
	15366 :	3D0AEEA03D3778AE3C2C50C43D9832F4BB35EAF7BD48E000BDB86F90BD222EBABD97AA033D582C76BB8F8EC6BBFC62CC3C2141B7BD57EBA2BCB72EF93C653F9F;
	15365 :	BD01908FBC6879173D706865BD1165F13D09B8C13D8D262DBC87F787BCF4DF4BBB833C80BC9D222F3D9CABB3BD0CD163BCD70A703D17A2253C4FCD27BC46DBF4;
	15364 :	3C688484BCBC28F2BD2B9C973D38E2FD3C27329ABD8DEB34BC48968D3D3E06D7BD0E1417BCCFAF5A3D0FDFE8BCC6B8DFBCE72B70BCC0D6563A0BE425BD677E0D;
	15363 :	BCCB1C4F3C5276F1BC0AAFA63BDD3D23BD2DF99A3C8F74CBBCE10ED23BB1B7B8BC0986DE3D627AEE3C718DF93D10EBE8BD6B724BBA7A1894BBE24D5F3BF652C0;
	15362 :	3D1A201EB8384D69BCEFC1AF3D44C2C13C86DCAF3CE61D0B3C5786ACBCE9DAD23D125459BB67389E3B0A67823D02B818BCEA9497BD35EFC3BC7005C03D3BB34D;
	15361 :	BCBA62773C1DB03A3D0BA87FBCF29CABBD65064D3D612C3FBD11C1BD3C77F2FDBD53F684BD022FED3CD66F7C3C3486C9BC50EEFA3D977ED43C0D9C6E3CE9BDA2;
	15360 :	3BC9B829BD9C04543C9AA3A63D77DD643D55A6C83C1A1E723D4CEE71BD1A2DB8BCB2714FBC37A93CBCEDA27EBD05BB70BCCCA82BBBD5137E3CFAE93A3D2C0CA7;
	15359 :	3D3ACD8DBC6D5D623C45DE0D3D25C6FB3CD900D03D8AA4F53CFD4CD2BCA336813C33E71BBD15494D3C714C2A3C8757DABBE8F5543C0A644C3D4A88723D18F997;
	15358 :	3CB42899BB0D3E8A3D3B54FD3CA2E3403C46B9663C2494EE3C23579C3BD81FF8B9B4D9743D47A60F3CD0EF073944E526BD5A10A33C83263BBD23A605BD0335F8;
	15357 :	BD6D94F53D17D9E5BCFA9DFCBC87D1BDBB5C506CBC440505BC98B3A63D6C0599BD541232BD4BFFCE3D3AB6373A37F0EBBD76D968BD43CB3F3D8E6AE1BB6CB64B;
	15356 :	BD256141B80CDCE83D73DEB2BBD958F93D4AC869BD3DF1713BCA86F33C2A67A8BD6BA5153A742EF9BB83B414BCCC3726BC97EA87BC77BC8ABD00FAAE3CC95F72;
	15355 :	3D432D4FBC7731BB3C71F707BC9E54813D9D3F1A3CCE71793C887E5DBD392397BC52AC583D08D2C23D5E46CBBC390CA43CCA606EBC2622813D65DCB5BC6F4ED2;
	15354 :	BBFAAEFF3CE5D54D3C97A224BD1D40133D73CA28BA8471CD3D0B5B663C50DC7D3CDAB821BCF20AAFBD320523BD30717E3D4C13713B01A6683CE052563CA6AE63;
	15353 :	BC1BB0C7BCCBE7A43D20F283BA9A76EF3D0C3A23BC87D6963CB6838BBC9F2A95BD3A8C043CA1A066BB1EC6FC3C0DB79FBCB51E03BD1D910ABC4F4ECEBCAB3CBD;
	15352 :	BC541041BC78D63C3C86C84EBD299637BC55FAFD3D7ED92FBD188F67BC9066D73D14C7D5BD600113BB4E8F16BC8F5A083D4695BE3D2F7C4D3CAC68543CA268B0;
	15351 :	3BA57CAF3D29E80ABD2A2CB8BCBDA88B3D16F12CBCB8097FBBA4016CBC041E463D8F0F6DBB82C5EF3C884DA137D935F53D603D2B3C50BB8EBD835B98BC8AA05B;
	15350 :	3D464AF1BD22DA793CD860A6BBCFF6603D64F9A03D78708DBCDA88FEBCC7E5DCBD4B6DDCBD84B65CBCD7AFF5BD66E6CA3CB2CA6C3C0BA1333C304291BD482466;
	15349 :	BBDEBB92BD46A9AA3BA7CFB7BCB6FB833CA49DAC3C8FDBC8BBE0186DBD16D9EEBD26B5BA3D88363DBD3E3F3D3D868C13BCCD3C633C514562BD1B64683BA7FD45;
	15348 :	BCF94B443CC0302CBCA6DDB0BBE8B5BF3D91F7BDBD41D4BB3BC7D2BCBBBCFC4E3D1FCD313BE7F79FBC307C6B3C6586643D198F6BBD1B954BBC42784ABCBAA60D;
	15347 :	3C5E04723D53B72C3D9E5445BCB1DD07BCEC962A3C63B5D7BCA67B96B9D94E70BD5043F73CC74F5CBD4877FE3C2A845A3D4DCF14BC941295BC696B15BCBED8AE;
	15346 :	BCD967263CB3987FBCA2DAFFBC7A1467BD0668483D5FC2BA3CC4EB773BBA268FBCC4F562BC8B5F3F3CFFCED0BD5A5ABC3CEA11F03A7964F63D22A9EFBB20837B;
	15345 :	3D214E05BCF01DB23D0ED2B6BD4E785DBCD00144BBD526F53DA16F923D4C672D3C029DB7BD8DE5373948CD2ABD6528443D3393A0BD1C2B70BBF57215BD25DC83;
	15344 :	3C45D6CBBCCE4819BC8206AB3C7A59DA3CDA02D23D48A447BD6CD030BDC12E3CBD1A4906BCF0C8A8BD2E0ADBBD2B9EF13CFE880B3D0E9281BBAD421A3BEC6B24;
	15343 :	3C4EF6F33D2D8DD73D0640ABBC4F88B0BD3C86C4BBAB0094BCC7FCBA3CCAA210BCC7D103BD7928583C2B13E53D53F7903CAA4E86BD308190BBF049153D287875;
	15342 :	BD0650BABCC0DE7D3CD0FD193DB21990BB3EF5AE362536653C75A9823C81A520BA97557DBD2549D53CB49B82BB0593F23A259421BD016A00BCD6E9DCBD1EDF2D;
	15341 :	BD1CB2023C238B393CC507E83D18D4FEBCECC90F3BCECC33BC4E48B3BC1D67DFBBC363BA3BF3BA5E3D9AF443BC196F3ABC82AD05BCE402A2BD7A2F5A3D84AD52;
	15340 :	BB6E788BBC16D15E3CFA866CBD3353A1BD3E84653D09415D3D50F64DBC0819C13C13D53DBDA7FE063D2378A63D037B3A3B4F93643D380EE1BC7C4D5E3C1E0640;
	15339 :	BD04FD62BD05B4623D94D5BBBC28DCF73D3AD37F3B4DCEFD3C641AFD3912AC9D3D4F3244BCEA022EBD1D3E25BD070F8FBCC779F73CCB0501BCD0E5ADBCE42C8B;
	15338 :	3CB7DB843D3C30FE3C019443BC84D32ABC12B890BC8CD52D3C3907ACBCFBDD39BC502A38BCB95065BD47550DBBFD8393BCC1B206BD18B7F03C4AACB1BCDC1939;
	15337 :	BB9063B33C8249073D65E76B3C4630DEBD491BC1BC8818CB3C353B32BD4D14053C911FA93D83966EBCAE5EF8BCD94B92BC908EB6BC1405A3BD100CD63CB3AC64;
	15336 :	BCDCD8293CA4602C3CAEEA2DBD3EBCA33D3021843D468420BD09D293BCF2F5893D500D453C002FBB3D286B9ABD48CB6A3D1A41A83C8005703D13F048BB30357A;
	15335 :	3BC76DB73D03AE4CBD2B9E233C3CF1F13CDE7F7F3C6D25743C4E55AEBD1FE1AD3D42164B3A163FA3BD1A5A7EBD254DB7BB3D88CE3BA1220ABCF23C69BC86823B;
	15334 :	3CB8D9AA3D3990D83D929D25BC9153BDBD1236C8BD3AC4E8BCD84B9EBD03F3FB3DB9ADC53DEB6B0EBC23925DBAB4C4353C803DC5BCBBB9BDBCC09E7BBD482E19;
	15333 :	3C0C02F13C14B54DBD22CD6FBBDA7B183C65DB08BC871E2439BE9FF8BB648BD2BC274A413D0CB6523CA6E008BC6A3D26BD5079013D8ACA7E3C4B50C93AD566EE;
	15332 :	BD2ECBEEBC2956BD3DC035E6BA9368BB3C530B9A3CE8C90DBC01A57F3C87F892BAC267BABD930D01BCA3DDF53917155E3C2CA0623D1718283B512C02BCFF3D7C;
	15331 :	BCDE2CABBD10D2FEBD119B5DBC7D46C23CAEC065B9FDA9B93BCE16C33D8E436CBD071FB2BD106467BCEFE75BBB6C8755BC248E6DBCF13EAF3D9379C0BCECF76D;
	15330 :	BCD0ED85BB730EFCBC88E7ADBBDEDDA0BD465B2A3BEE719C3C8939033A29DA5A3B53CEB7BCC75F6ABCDC15E3BCE41AEB395D1FB4BD57E5393D6A03993D9BCDC6;
	15329 :	3CA9EF28BCA8C320BCAED20BB99FA6B73C9722BEBC90BCBAB9633EED3D21E783BCDE961EBB2219A53CC8208A3DB58EE2BCE0D8AABD5B079CBD2E07AB3C8FFFB6;
	15328 :	BD8022923D02A359BAF33EC23CA057A4BC00CBC53C883569BCD4C2DE3C9B40C7BCCD8330BD44A24EBCDCCCBDBD3315A5BCF47BDCBCE5C64BBBCE9128BD23F45C;
	15327 :	3C6DD6293CC54DA0BD0A2543BD7554E5BCF494E5BCD78C913D4C4446BBC28EE73CDC944FBD16D79CBCDB10083D217727BC964FAFBC4A9298BC5A2A773BAE9ACE;
	15326 :	3D5523CCBD48D9333D18EB05BC99DDD3BCBBBA0ABD2758B23CFAB4F0BCD8745E3D3E3948BC51ADA3BD0DF2D8BD9DB3D4BD05C4DFBCCAB5DA3D8FF2D63D8BC72D;
	15325 :	BD2BAC2CBD65F57BBAA79815BCA4A4303D4CA58FBCA450C73D4B94EEBCEC8E413D6C9310BC3BE6B83A373A98BD0F46683C4BA9C73D13446CBBDB6E19BD48DE03;
	15324 :	3CFBE8B1BC7C50663D26B79C3C0AD163BA00B55ABC6B18B33CD3E2883C925EBCBBF829BC3D10CC6FBD20003EBC8D7A48BBA26DEF3CE9E042BC0C47C73C76DE19;
	15323 :	3C271DB6BC65C9EFBC14175DBC44A2213C43881CBCC3D2BFBAA528C3BCA9412E3D1E517FBD20A32D3A95BCBCBBD851A93D0F2E0FBD465CAA3D0A0A9F3B248D3E;
	15322 :	3B5408CC3C83100F3CAE54EEBC870BE53B8679C9BBDBE537BCE3C6453CFCA0CCBD07C700BC87C53BBCFAF3983D5CC726BC9A8C2C3D2144523DAB5A0BBD0C19AD;
	15321 :	BBF455323D8CFBF73D334763B985038DBCAD42443D07CF31BCE3E32C3AA516A13D2B673C3DC60146BC9E11BA3CD745EBBD199FB13D656898BCE5F2963CB22543;
	15320 :	BC50EE60BC999911BD3260C7BD48476ABD4C391F3B993A67BC731BC43C4BA397BC3176C9BD058A713C0ED6F0BC9CB240BB21FB4CBC91E07B3CACD06ABCDCE00A;
	15319 :	3B0B2305BC937D9ABCB96B443A7121393CC67FEA3B2CF0F9BCBA284F3CCA4461BCC6BF0FBB21093B3D573F263C0C3DF83D940E463AD24A77BC4D28163D988F5C;
	15318 :	BC429C97BD238431BD19B1943CA497713CA06FEEBD3FEDC6BD2E0D593BFC3F8A3D64B87E3C43C11F3D562E413CFAA5CE3AEFE7A33C10FCA2BCDC587DBDC729AE;
	15317 :	BDA221773C97C562BD7087D83C3FD7D1BCFAFC9CBCD87ED33CF1081C3D57B523BB1AEC713D7B56653B51795DBCD06C18BD96A2EA3CB1D0983BD51B493C0A1ED1;
	15316 :	3BCD1799BD87914DBD371F433D97DC93BCA664BDBC7363923D1A354EBD104BECBC8A0AB83C3D1B24BD159720BCDEB92C3C42A2A73D61D9D73CDBFE673C917324;
	15315 :	3D3914BE3DB234633D429A5EBBA17FEA3C40F8473C8140C93C9CD4DABD0E0FC3BC80223F3CBDD10F3D007F8A3C5A29E33D212CCCBD5F8B86BB673D75BC776AFB;
	15314 :	BC947AC53D8D19D0BD35A3993D264625BC96A6AE3D2519673A884C48BB6571233D3CE8F5BC6BDD25BD2166EABD62E6E23D79CF793B58ADF9BD1C8C273C8D616F;
	15313 :	BAB0AE7C3D5C1104BC9173B0BCAEFB2DBD46A1C3BD6972C6BD6C6E323CBBEB52BAEFD1E6BA59F9E73C8EE223BC8A1F413B20FBD8BC542540BAF38FD53D0A6E19;
	15312 :	BCD256193D9F42083D51F4FCBC762B65BD7B783A3D336D63BC6EE095BD36729B3D767B753B097D8CBBA716EABCAD061CBC83DD99BCC062413C06F6873C905A15;
	15311 :	3BD498883C9F92413C07A01CBB97010E3C3F6E41BC998F493D270FE7BD6665D53C3B54B73C39BB193C0E6E9EBBE610503C67B18EBD352E47BCB4F6913D8AE273;
	15310 :	3C5EB27B3C8981403B8812E5BBFED6373CE2468ABC1E82393C732D143D8AC7063C00CDF83CCA58EFBC836FD33C38B1673C07B935BD3467E23A9399923DB90E66;
	15309 :	BCC14777BCAADF9A3CD6F8CBBCF24E92BBE4047DBC2CB5F33D6229403D4468F2BD145927BBEE47C33CC75CF7BC441E5D3D28AF153BB984BEBD39470FBD0B240C;
	15308 :	3DA64B843D65CB4E3D1BA3A7BC5CE0B53D34D819BD3A9A91BD215C7DBCE52800BD329DC63D0A4E17BCE759323CDB47103DA139A3BD1179E03B279477BCE76423;
	15307 :	BCA6FEC43D7961783A0077C23D7A85D33CA5DF9A3BE2FD9ABD4E21F3BD120107BCBA0B1EBD5ADBE3BCDBDC85BD0862F5BD57CFAB3D9796123D6FCC933BDE464C;
	15306 :	B9030B2B3CF3F1B23941DE64BC9E0FB3BC696D423CDA7C0BBAF2106BBCCDFCD33CFDFDA33D8533B2BDC2238E3B1AA3DBBC99E427BC6633A1BAC7EF64B9B61F07;
	15305 :	BCB785A73C5C5C733D81A21EBC1994BE3DA6F5023D173D6B3C2FB65DBD0DB80FBC17D8283DB5B811BC9B3B99BC123E89BCA25162BC29A593BCE5B55B3D313C45;
	15304 :	BD26072B3D8BB6C5BD05547C3D1B6640BD3D77923CC6D2B7BAC661C53D2F75B6BAB6BDA7BD1700803CBE6FEFBC85B421BD2928E03D98EC14BD192D383BB8A4B1;
	15303 :	BCF9885D3D21A5B1BD13B1F4BD0AA9CF3D239BE53CB084853CCFFD613CD2A9BEBC7968823D0BA709BD6E2B453D5EDFB33B8023F53B09AAB3BCF2E8CD3CAA4789;
	15302 :	BD548DF6BC8EB22BBD0B53B2BC4BB1973CB835C53BE69E45BC67B11E3D0C42093C24987C3C275A0DBCBC6C3FBC8B748ABCD1BBE7BCCFEB50BD1CFA39BDA344B5;
	15301 :	BCD563F5BB5BB53A3C9BD941BC9B1B20BD092BA33D3DF52C3D29D6C33B3D73C03D690BDF3D1C2DD23B575D8EBAEB6ED53D219F7E3D77131A3CBED3993D215381;
	15300 :	BCB5CA663B6DDBA9BD630AE23D22CE68BD0F8580BD048A063C210144BC5B09AABD49B5B73B7703CEBD03C31DBCB7DF89BD3825D83DBE885B3CD8E1DBBC966616;
	15299 :	BCB0FEA13B938793BD3209203BF8ABACBBE36F4FBC475B183B9F5A4DBDBDFA8BBCACDFB03BDD49F1BD2B03553D5EA5B3BD43D3A4BCE69A38BCB1E3383C80C532;
	15298 :	BC55107D3D069442BD6429953C85DE6A3B05BE303CB56D12BD510E6C3CAA624DBD38ED42BC28305B3CE35091BCAB74853B2D8370BDD637073D6CBD87BC1D79B9;
	15297 :	BC03E7AB3BF722933CCE907EBD37FCD2BCC462393CB41BD53D271805BD7417ED3D6C7583BD0E02CC3CD2FF2CBB5EA61EBD17D8A2BD6046A2BC938DD93CC2065F;
	15296 :	BDA2C16BBD5A4283BACFE3D4BAC5360B3D4311C7BAF79314BC9982753C6396CABC2D91913C8F44363D6BB8483D8B96CA3D9382603BC128EDBC41FADE3CEF0579;
	15295 :	3D26F920BD43FE7F3D009C923D206DFB3C8E42FDBA16A75DBD4900433CFF8922BC2E62FBBD555CB83D250D59BC004C81BB38C7BDBC01A2FD3CD26B1DBC5C9BFE;
	15294 :	BD199877BCC08C883B7F05353D8228673C81212ABBA43CCA3BC4EBCB3D4E1C863C0BDF1C3CC289723CC0571A3C03B273BAFC8B0ABC2CD9D9BD1210233D6B204E;
	15293 :	3D305AC23B178E193B9B96D4BD9A0107BCE7C0593A9DEE85BC68A8DD3B72322DBD8B71BB3D2FD9BCBD06E090BCAF44A63D127405BAABE730398F273D3C9B045A;
	15292 :	BD80C2E43CA17A00BC12434D3CC36B04BCD4B7DFBC1A7F14BC2C9393BD9A1A183D2BF0783C04504E3D37D92CB993FD0CBD185C99BD385778BD1857253D9594FB;
	15291 :	3D83E8113C03ED4DBD7C4440BBFBA0263C5E1880BD7D5E463D142A6ABCE5146B3C918621BC9340643DA0F48CBD230B72BD354892BD50ED2FBD8840E1BB8C677A;
	15290 :	3D8E90813CD3EF993B67FA3BBD16E3E2BD3FB7583C94483D3CC7145EBD3EE9333C2BD57A3CCECB5F3D2E2E55BD2441A7BD01CCA1BC25C66CBCE44A593CACC4B9;
	15289 :	BCAD3E0E3C8EC58A3D6E8ADF3C95BB423C5CE8093AB62DA2BC4C1F84BB8F8657BC5E7AE83C8B04083CDA71E4BCFD256D3C4FFA3FBD3502333C3AF82EBBFC1AFD;
	15288 :	3B8DB7003D34A15D3AF2F1233CAC2A283D0B84823D4C32693D1DDAD8BD6DE7853D5A6867BB42902BBD00E6913D22016EBD2112FD3D612052BD1FE908BB7A1E53;
	15287 :	BC957A65BCC95898BCDD0079BCB7876DBCF9AA113D452D52BC93226EBC40258CBD1504CE3D50F792BD3CF99CBD7FC2953D237BC2BD84B236BD3FBA2ABC96CE8B;
	15286 :	BD25A983BCD31364BA8D5EF93C9339B13B8224B63D4DC5C13C48A9793CCB67FF3D10FC68BCBEA07BBDA6AD8CBC8124523C302888BC66A47CBCA70B2C3B10C12D;
	15285 :	3C1BE705BCE959AEBD3D6461BCD5A6F2BC1076F8BC4BE8313CC755713B6B18B93B1E5DA6BCEC83C63C92578F3C4E39CE3C2FC3D83D4C96FC3DC2141CBD0737B1;
	15284 :	3CDA5C52BD305F8D3D0629663D84F3673CE8C64C3C7151773C857E97BBA23A83BB86BB61BCD28204BCA0374CBD0302D8BD5C77E2BD1788FF3C685EA0BC343FB4;
	15283 :	BCA75E153D9545FABAA6A9793C1F2C693C807EC7BB375243BCBEAD113BE71EAE3BA602963D888174BCE7C3ED3CA862DBBD156B8EBC5A3D943CDC7AD9BC81E0FA;
	15282 :	BC10B5433B40C2DA3BB994493D5C8C1ABCCAC2583CA4BD9BBD5FE4A93C95F4D43D5269283D7E18CF3CDE802B3D1B9C273D54AD1DBB8C8DA5BD81B5A03C385830;
	15281 :	BBE940F53D72CE983D7C272FBC9705533DB6BB313910038B3C48AFFABCAF0258BC80D2FA3B0334F43C2CA8E43C852860BCD9E31A3D8D98DFBD6FC834BCC9A122;
	15280 :	3D18564D3CB6795C3D247481BCBCDC183D6194ABBD001192BC364C31BC252E843C37EA113C0C0CE63D01FFF73B8805153C1CE33ABCD62626BD99B60B3CA95A7F;
	15279 :	3D121597BD8204703CB08A44BC07F926BCE76A6DBD055E943D89E6F4BC64984B3CC57D07BB803F883C933DC13CC19045BC4BD49F3D1C83103AF1B35E3B834A2D;
	15278 :	BD8BCB343CBD22003D2F5367BCB8EAB6BD39C3923D0A1D96BC539AC03BFA176D3B629AF73D1B426BBD2F9D313A8C2391BCEFF9E2BD14EE2E3C1F57C3BC3F3694;
	15277 :	BC5897823BF4F7503CFF8F13BD00836FB79E3963BCFB6A693D0AB0CC3D4C55AB3CCAAB91BD4B2911BD83B2E53C61E27B3C116A563D8340C83D53EEDF3D2E5E87;
	15276 :	BCFA2F30BCA72D1B3D8E0E59BC8271FABC3C04BEBC15B4B6BB71C71E3D8F7B093C2AE45DBC8CC12BBCDECBD8BC14A2BDB9323D6A3D66E98A3D2741763D3DA21B;
	15275 :	BD8069DDBC652A84BBA8F1F2BCD49E6F3D34CA97BC8DEC7FBC93393E3C838FA9BD1976163CB3CD94BC206274BCC256B83CBBFC50BD083E9D3C772DD9BA256922;
	15274 :	BD2B979A3D9194FEBC302F65BD253A603D84D88D3D22FF3F3CA968F83C1DFBDE3DA28446BD0F866BBD85E76A3BBD84723D6CD19FBA21C6F23C9F442ABCAF1025;
	15273 :	BD392D93BCC126F73D2806183D3341653D5EEBAFBB85A20DBA8AC08A3C8D08953C4A5FBF3D72D30D3CFF9477BCC33C20BB1833DCBBE36E293D152A8ABDB52CCF;
	15272 :	3CAB4746BC7B3E123DB05FFD3D05535C3A8EA318BCC2BDB8BD3E4FBC3C2F89BBBC748DD7BD5B0430BD3109A83CA90F40BD25F208BD16B4443C02024BBB28D74F;
	15271 :	3CD56AE2BC6C5BCF3C81001CBD60070EBD5BEF3FBD65152EBD28875F3D1B3ED03CC68DCABD0A0E613D8861B13D581E35BD200AA4392BA65EBBF515353BC82DCD;
	15270 :	3D8EEFB03AFF92CF3CDB875DBC51F68D3D2568F73D8141773C579F75BC3CB0593CDC93AD3D652F08BD6938843D2D4C2EBD194E9EBD43EC46BD1303333CFA27A8;
	15269 :	BCCBBD4BBCF4189ABA97E97D3CD76008BC0B593EBBE2208CBD2B2371BD47E189BD7AD8953DA7D059BBAD0AA83D5DD039BD5991D7BD3EA43EBD2BE77ABC80E0DB;
	15268 :	3C5862C5BCADC9FEBC1C464ABCD2F172BCCA80963CEC580C3C4255AE3BB6ADDB3D99E8BC3B4CE727BD51A621BD219C4BBD616B843CBC1EB03BCC4A52BC7921BF;
	15267 :	3CEDC0E53D777333BC22E6273D82FF243D2A8CE5BD334D52BCED6C313BAED4ADBCF6E9953C396CEDBD0DF446BD4D7DB43D303BB336C1A1CF3CE801FABCDF2D72;
	15266 :	392A6002BD66D9EB3D364A92BD282CD4BD176BE3BD44A3393C18F9FB3CB0A412B9D295B6BD15600D3CE150B6BD2CFB85BD814A9B3D327AD4BD38D13FBCB33548;
	15265 :	3D45DD5FBCD3519BBC32407ABA4C640FBC11866BBC64DEF83B54B7A73CED159F3C70CE56BC8DC15A3D2DDE11BC7C55313BFD7B5DBD0EEEDABCE027DD3C6C9600;
	15264 :	3DA26D6FBC7A880ABA41C894BCA2E42C3D6C06A73D9DC409BD9F1B22BD286B14BCA31E9DBCD4303ABC9202E53CFBBAB3BC74F30B3B70AD20BD86B7533D3CE617;
	15263 :	BBA25D113D44DA933C2858063CC768BB3CCBC89ABCB6D31D3CF28AE4BD657E2EBD0E03923D332E71BCFACB253A82D164BBE3E27C3B7E35693B8F6775BC5D20F6;
	15262 :	3D386211BD0B5E3EBABE0D98BC125C13BD0B4AC0BCB561C33C765B06BBA3CE043D1FE28E3C1347ECBD0044C93D3C9A6ABC460E30BBE6D4E4BC9CC5883D2BB9EC;
	15261 :	BC9D8ADDBB86FBB13D594CC93C8EF412BD4068D93B19941DBCE1434F3CD3BDB93D2EBA4CBD3A9B03BB72565DBC86F7FC3D729D59BD178764BC9802523CE94167;
	15260 :	BD0C8D9CBCA6F7DDBCBD64633D48359ABCD21FF83CB0B1F63CACB877BCFFC00FBD3CA8D73D786D62BC81FDDC3B9E58D2BB8162183C6144333D963E7F3CDEF4F8;
	15259 :	3AEF8694BC93B96D3CBC40ADBCA4FD003D88E53A3D5BF1EE3CA739423C68FB76BCCB1B643C931B10B7C12A2CBC888FDBBC706AE3BDC942093A2770E0BC0BAFAE;
	15258 :	BBFC9514BB090231BBB8143D3D54C643BD4608CEBCADCFAFBCA2BB693C57C30ABCB465A73B09D95FBD28F953BC5150D53C9380FDBD58D576BD7C9ED7BA916646;
	15257 :	BB36F5943C869820BD2CEFFBBCF26A37BD3EAA323C7D7ECDBCB31392BD715F713D1628C33C1307993C785658BD3174613C069893BDA0E64ABC05E95B3DAF573D;
	15256 :	BD3DAD573BFF31DFBD0D2280BD0F74A63C9C5B6DBCABCD52BD8B7053BD0837633D19EDC2BD21781C3D22A917BCA285223C7DCEB1BCD98E91BD7882403C8B4514;
	15255 :	BC26535FBCD452D3BC0246443CDA01AE3D4F593C3C9D3692BD179476BB9F6BDE3B6CB73D3CC1E5B63C8593EBBD78C3C0BC8D97FFBD07B3EF3BD82E823C5B0F8F;
	15254 :	3BFA30BEBAAF60663CA83A3DBC9ECF063C0F3F173BA20041BC94EF973C8B5B0D3D4904D53D482EFEBD66E1F5BCA1D783BBD08047BD18AAC93D8727C3BD6E1E3F;
	15253 :	3CB450D4BD17C257BD19CA06BAA38A08BC8118EC3D499A6BBCB5E917BD5097603C05457FBCD7B5BABCEAA9DEBCBB5AD8BD0505193A8BD7803C66BCD5BCBAA66F;
	15252 :	BD34D8873D37AA6D3D4780843D30FEBDBC81C8BABD197973BC8B4D76BC8C96EE3C25869D3BFEED3EBBA18AC4BCEBF868BC92068D3C81841BBC15019BBD079BE8;
	15251 :	BD5BE3B3BD4204C5BCD4DDE03C512399BAACE2973C92947F3D82B445BD8E94C3BC2594FDBD49421D3D96364CBBFA92393CE321A1BC9D9CB6BC5A9EDCBCB85025;
	15250 :	3C5726EEBCCF97D03D9593023C756DC4BCD9AF91BC98E602BD2C3206BB1CFDFEBC2347FEBD841CFE3C5CDF70BD6BC6D53C95D69BBAD685C0391FA5F4BBB3C633;
	15249 :	3C2043F63B4E42BBBBEE13293D4D2C063D65243CBD3FCB06BD1169043CC9939CBD0E0937BD0F3D1E3C64B758BAFDCF9BBD0E4D33BD0EDF4F3CA0C9E7BD9AEE9A;
	15248 :	BD013E4ABB4548D23D16C861BC54EA1E3CD9B291BD3CD714BC20A81EBC96FCA83D178A74BD30892DBCD8642D3C75DC723BCE8D133C403B4CBC007581BC94451D;
	15247 :	3BAADA48BD01736039891C6ABC5CD3443C2056FA3CF66190BD394FCCBD30351FBD6BA2133CD4E6F4BC3446B53B8E1808BC6B056ABBB55B7B3C92476DBD04DAC9;
	15246 :	3C0659ACBCC795803CCD4AF83D93CC5FBC5C84393A8EDDD33CBED4563BF4F2703C6E04DDBD2B5FF6BCA078163D757F75BC6EFB373BD66A6E3D372331BCD3E872;
	15245 :	3B055CD3BD47F1A0BCDCB2FA3C7A836DBD5283A83D34D5933CF9AC6CBC6DD566BD8D1FEA3C7640EEBC83D38E3C32E3273D1D451FBDA49E093C2291C0BD09FE4A;
	15244 :	BC95EDC3BB9D6E3C3DBD92D3BC7041AD3D11259CBCB523D3BD02E277BD2A9E47BC4D0D56BD4F6F153DB2307DBCBE0140BC9186D43C893F7E3C5D4AB43D2EB57B;
	15243 :	BD465E99BC02B20FBCA4DB4ABD087357BD6E8EE73D86A12BBC60CC3BBC901D8F3D41E5253C42623ABC9826B33C4A95C6BAA690683D4E90FB3B8272FF3C4FEB67;
	15242 :	BD2E62D53CDD4D053ACE929FBAB63828BCA29F6ABCE00070BC3E0A25BCD862E93A5A561F3B1A5BF6BCC0DCB8B8C109043C51A83F3A3082D2BBDC87DA3AA4F44E;
	15241 :	BD27D38C3D301F663D3D8BBB3C8A243ABD30E2FDBD0FA3493C6592E2BCE18EEFBC4ED71C3C96E3A53B2A49673CF2641FBC46A140BD40B7BDBC422BAB3C0770EB;
	15240 :	BD30D1F4BC011093BC16EA4EBBD9AF31BD1FAB93BD81CA7E3B36F770BAE1C9D8BC9D5AFA3B9D9C4DBD341D303DAD9BC13CADE28FBD01A1FD3C5BD45B3C79E910;
	15239 :	BC4D28763B878D9EBCDA7EBCBCEEAF133CEDA807BD038135BD80AA313CB98DAE3CD20D4ABC8E0AEC3D227626BCD479F5BA611E4CBD50F44D3C91201C3DB9B8A7;
	15238 :	BD3049D9BBD7AA2B3BE1302DBD812E91BD33D473BBA9E31ABD09150A3C314503BD4BC89FBCDA4AE9BCA461E73D4719F93CE514DB3D40E92D3C1315DD3C1C318D;
	15237 :	3D97DAD7BCD988F33B885A06BC1F9E02BD00696EBD6547043C20B2C53D31CD273D045521BD2FB6F9BD5615BC3C55762A3C4D0B0FBD924756BC78C1BC3C52FA2E;
	15236 :	BD120C03BB5C15F83D7763B33C4A2F023C3CABCB3CF25E293D4EEADEBC79F710BBD3B3253D01B797BC9D39DE3D1C4D3B3CF1CACE3C9B15FE3CA6A3C13D7433AB;
	15235 :	3C42BE9CBC1B91853D5BA0F93C880851BBCA6DE8BBDC24043A4FADB73A1152423D52F7D33BA97F9D3D8B8DD03D310AD4BCFFF034BD6B9526BC33D276BB57EC0B;
	15234 :	3CA81EA6BCC857413B90BE8D3C9AE5DF3BAB65EABD5AE91E3D0091B43CA9B3E53D5A1A873C8B87283D4CA6933D0315223D6FEC35BCB1E2C2BBF6298F3CC564CC;
	15233 :	3C7E47393CE5D16A3CDEFA34BD0E0E75BC588275BD6451DCBD22A1A63D0F84DB3D71E1EFBB072AD8BCEE078ABC5D3F3C3D88F8FABD640726BD0BB820BD4EB9A8;
	15232 :	3CBBF075BB3203223C9155A1BC6F11A2BC347C1C3B96538F3CA5BB683C210AC83C33875FBCC3C753BCFB8E803D15FEC4BD1F147ABBD2169C3D421D2A3C579168;
	15231 :	BD90731DBD2F05E7BB988660BCBF1707BC36147CBAA76513BA8F082FBD44866E3C89A0A7BD40E22B3D7B82643B2BBE3A3B33EC0CBD1F7B6CBCE5DF37BBB9CAD0;
	15230 :	BD397C673C0DC204BD0A10943CA6E7AA3C035AB2BBCCD7573D348A7CBCB55AFE3A56A0DB3C911EEF3BD7C249BCC62F9CBCA817803DAD7C6B3D2096AF3CBEED8E;
	15229 :	BD36ED16BCC62B2DBD91B126BC1B124F3C9A7EE43BCB5C003C950A75BBB3A658BD313E963D6296833D6B38C9BB97978FBC6142663CF5E7FD3D9CBCC43CB51C58;
	15228 :	BCA8BA553C760F183DD4638CBCC255F1BCE10630BD48FAB5BC1E5EE43C9296F93D3D9404BD45D92B3D3BEC7FBBB20BE43D9AFDD53C34B47BBB8E7EBA3A5C5ED9;
	15227 :	BCA1DFF0BCF7AB04BAEE33323D427FF8BC6CDA32BD003F2B3C8A748A3C85B9B2BC321E4ABC913CA43C814467BC72DBF83C4F6E9D3D915EDFBC71CCB83BCEA7A5;
	15226 :	3CE2AFBB3D4534133C6E1D223D2D7FAE3BFF69BBBA0C1AA03DC6ED25BCE4E1313CE3C9C7BC897CC43D973911BCA5215CBD1FC3CABC817BC0BDCD5809BCCF797C;
	15225 :	3A1033D33D84DB3B3D1914003C06C181BD5E5C69BD69C30E3D50F1233CBB88463CBBC560BC9D14B83C48CD353D160AFDBD4D8BD43BD8FE813C669CBB3CBF7E05;
	15224 :	BBDFB1F4BC296DA8BD17A2643D2957EB3911A90E3D325C1D3D1C05203D7A1C05BC8110323D4EDF733D00622C3D8A82EB3CBE25B03C13C861BC831FAFBC9DDCFE;
	15223 :	3BDDEB08BCEBF348BD3CA67DBCC6029CBCF9CD193D2B73E73D338DC03D61CD8CBD429A3E3D7DBD033BD2B0C93D192C7BBC5D8812BD1B5B89BC988C053C16E089;
	15222 :	BC310ADDBBF0BC7D3BA37DFABD44B2523C391A973D1F9D10BCDA130BBD2BAEC1BC1D44A43D8F7DCF3B245C41BCAD046EBD6A142DBD3D93E6BD12894CBB7AEAB6;
	15221 :	3C4504163B3A6A943D230AC0BBCF2C3FBD2B75103CC5547A3C31EBCD3DB750803D335FC13D5654C2BC912E62BD0B04FBBD72052A3DAAEFDDBC8218483BA76E92;
	15220 :	BCD8310B3C35B480BBB244B53CE4AC0DBD146DA4BCA52E65BD1F0EC8BABD18DEBD24C1B5BC3091B8BC3CBDEABD073E86BC649E4F3CFE78C63CF1C0E33BEC90A6;
	15219 :	3AD70743BCA7F6AFBD31DB8ABD0C63423B8DA428BD032C2ABD3AEA35BC444ED23D08D3693D4B4E53BC9C93B43CD304113C12C0993CDC99F7BC3F29333CCA9C78;
	15218 :	BCCBE448BA981AA13C191CEF3B2658E9BC27F8DB3C5BAADBBD0055C4BC51133839C1DEA43C870BF13C2B9283BC875F593C20E6C1BD81DD6B3C5CC5C13D685F7B;
	15217 :	BCBB5452BCA6C4783DA1C2843BB2B04EBB7F2ED33C90456B3C9AA44EBBB06B3ABB2DEA6ABD4D5C703CF1A8ECBD3050C3BCA5EF0B3B94BDC03C01FA6A3D850418;
	15216 :	BB6E4DDD3D4E72B03D88D28CBD61CF133D27A55DBD3D9E1F3D01E51BBC571612BC8E8060BD412458BB680F303CCAEC253C434210BCEA91E4BD126289BC74BE63;
	15215 :	BBFC241CBCBA21E53C91D6F03C6F16F1BD26EDB23D3BA312BD055E5BBC93E7273BE4B9D9BCA6B02D3BC99ADDBD00B1BEBC9BBCA63B522CDB3CB5E9FABD0A81AD;
	15214 :	3D53AEFCBD7354293CA2D9A4BD23E065BD4ADBFCBB4E021CBCAEC03FBC3DA3E23C145A933D8AA42B3C129B963CAC372ABD15FF493C6B35B03D19AA663BD40C57;
	15213 :	3D22A3493D4FCE11BD1F793B3D2C55FDBCBC94ABBCBB46053D45A6533C02E748BD5A6E2C3BBF1838BC363B70BCC02CB73CC2C77A3CCF120EBC0776E93D00CC5E;
	15212 :	3C1E045DBCF8C1EABD0B93A53C9F6A21BCD6329F3CCF720E3AC157093C8186F7BD14AA733BBF488BBD5CEEF33D112076BB8A02293D5E25323AC1BBA53D9C7A75;
	15211 :	BD1B1CF2BB4E2703BC14E75CBB38ED0A3CA2E9C63CF8367B3C95F65FBC4AAF3C3BB1C1FABCE21C233D6F8DA7BD0C2BD53D63DB17BD1F21C0BBBA2F6B3B61B956;
	15210 :	3D39A07D3D1E2606BD4EC10BBCC3B4A63BF4EDFBBCBA3CC9BBA67DA1BD2181BB3C7F9A7C3D95A61A3D4E8333BD2D7A78BD5A14D43D01F3933BFCBAC9BC0FD8D4;
	15209 :	BB450A813D7562623DE808B8BC067B3C3D9DF8DEBD0D3718BBB5D7633CD0981A3C78C7173D151E89BCB557D1BC7A34C13B81C04ABD1735EFBD20C1B93CD355E1;
	15208 :	BBA87C57BAD1FCBDBBB62A903CC4CBD53D2314A9BD0BC7E8BC74D576BC805D99BC43F09CBD30371FBCE8A78E3D24507BBD1DAF943C67F2513D170B6ABCEF9385;
	15207 :	3C0DC6B33D518DCBBD285D0D3D82FEA03CB9453DBC711668BBFE62B83CAA5D293CBE66233D67975F3D7C96EC3D3EA5DB3C0A65F4BD2F34CABD27B0C0BB75AA7A;
	15206 :	BD02C65DBD075A943CD137533D36713EBCBBFF53BB87D2073D3A7D5ABD05CA8DBCA7C6E03CE7D8023D2F02043CC914083D233D7ABCE16DD9BCEF25323C31DC8B;
	15205 :	BC9A6906BD2719CD3D85201BBC7D1F533D24D2B93D0359F5BD785279BC8028BDBC865FE53CDF69A73D0014383CAA013CBD4B6AD7BC921722BD17696F3C60457A;
	15204 :	3D95FF9DBD2573DBBD2356C6BD22027CBD08F88DBC7D53C93BBA45AFBC13C6B8BD2C2B7E3BFC5A7ABC3073DBBBD0A1973CBD6D40BBC8E22B3C922029BD2245B7;
	15203 :	3C84DD8BBD0FCED03D62C4A23C35CE92BD146E2FBB1113CFBCF67158BCBCE9AEBC50A1D83C74A544BCC002CFBB500CBFBD10103CBD8BEFDEBCCDEF00BC899D6A;
	15202 :	3D3DA9B03D4501B0BCD84BE13C9A054EBCD87ABCBD437FCE3D157FB13D204CF53D8672393DBABADBBD017C623D7101FF3D6EAE25BCD3DA873CC37A613D34C8B5;
	15201 :	BC12E7C83C7A1560BCAF0D9BBC4989383B7F81173C634547BCE8BC8ABD0FB5063D0589D3BCE9F2A43CF9D1453B3364843D595C563D4F9DB3BD24C9963D9C6FF5;
	15200 :	BCD3A6B7BD5CDB2DBD191F543B096F1F3D1AE87CBCFC1B693D31D6BDBC081581BC4C25973C477D5EBCAC20ABBC63FE8A3D475223BCE8BF2E3B92E4A5BD24C746;
	15199 :	3CF673D3BD13A3D03D16FA023D83EFA5BD5E8C953C5AD8A23C4E45D73B724E6FBB8CF7C9BD004D953CF940C33D0F88EB3C19E5D1BD10E59D3D9D0BDD3C9204C1;
	15198 :	BC2454E3BCE935F43C41F0323C2AB57CBC9AEB75BD8E03153CA2CA643C5391BB3BBA63653D345A8EBD548EF7BB0F65AB3C62542E3CBD2BD83C44EBFF3A81D554;
	15197 :	3D2D323A3D8A8C7ABD327E21BC9EBFBCBC817137BCBC31713CBE4304BD4FC2DCBD2E914E3C6EDDCA3C32BB163BC5E4553BBB884C3C9E09233DAAA4B8BD4E557C;
	15196 :	BD14E8E3BBB17D673D878D4B3D1EA5AEBD3210ED3CAD1AFF3D0D3A08BD31387ABD34E520BC8144B73D15EF323C9F1124BD88DECD3AA294DCBC81C97E3B530079;
	15195 :	3C17DE833CD06A94BD174A483A7092463D1D38453D64145D3CD5DDDFBD650F2DBBA1A3B93DABAA1C3CA942943CD4C51DBCDF47ECBD22EEA53D51EF5ABD2EC090;
	15194 :	BC2ED8943CE46FD93D037F903C86BC823D7788C4BC7780CA3CAEBE773CABAE56BDC8A51FBB09B3DB3B2189F33C4355EF3D9AA9D83BEF5D16BD5F1FE4BBF0B46C;
	15193 :	BCF369263AC41F42BD83E4C43D846B323C9A1598BD064DFBBB83B2E13C883416BC34197A3C4808E4BD00E8963D5B2B35BBB3BEA9BD14BDF2BD690D333D8C4446;
	15192 :	BAF12442BC8188503CEB9E38BCC3F96CBC74841CBD48649CBC610F7D3D1772173C96B38BBB1BA1D53D056A0E3C05F347BA9EBC3A3D0841633CE755513C0E27EB;
	15191 :	B919A29B3C1EC4883BD5F07A3CD94FB0BC61A9DD3C47CB78BA870407BC8C512C3D41ECC83C2B24CABB104FB9BD13949DBC913B44BCD1B010BD0A89B4BC70073D;
	15190 :	3ACB9B5FBC900CED3C8C40BF3D50F92B3D0DBBC73BCE48023D08C052BD02EA0C3C67B6F6BD239603BB5585BEBD94B52C3CFE517DBC4E3E8E3CCAF3163A58F0C3;
	15189 :	BB821817BD117B59BCA8EC92BD4D1581BD218A3C3C8FB170BD06BEADBBC75423BCD1B1413D7A224DBCC869A23D9F153839AA2CF6BC0BA609BC8E544BBCEB54EC;
	15188 :	3B8373ADBD22C35ABD276DF4BB07F12FBD1A838EBD33F4F1BD3718F63BFAED44BC829DAEBCACF0A8BB78855D3C0750CABB6A5256BAC26CB5BC3E37F13CB45C4D;
	15187 :	3CFEAD263D0F04DF3D8759C93D5DE453BD0CD3A5BC6AE559BD437322BCAACA13BD1C157E3C3643D83D14F44BBAF2B475BD4B6B55BBB4E37CBD3D0DBBBC414A3C;
	15186 :	3CFDC32ABD9F6BD9BD01B71D3D29D020BC96E395BC7816C53C09D55A3D0F37BCBBA05DA1BD0B01413BA3D661BC6090A83C96C9B33D4049293B303D803D1B3064;
	15185 :	3CAD13053CA38670BC8F98B33C5152C23BB27D35BC9877CC3D68CB84BC1D0BC8BD2A03B73D0E6F0D3D17422C3CAF2A513BE36814BD2D989BBB4D8E1B3B6AD41E;
	15184 :	3CE80CE1BAF05BD5BC9C4926BD976FFE3D42307F3D885179BC395BB03CABDD5B3C2AE55D3C957CCABC697ECB3D7F15D73CE4E901BBE1C033BD3859B23D21AAA7;
	15183 :	3B2CF1B03D82B9D7BD27EC903D270A84BA244E7D3CE4D6B3BD04275DBCF8A943370905A23D38F9BDBD0153FA3D43D9AABC878321BC0F47C43D320DA73D53D37A;
	15182 :	3D20765BBBE995813CB51342BC24BEF53CF034223C65D4A2BBFA1BE9BCA069183D23796FBD90FD953D6C2651BC5912853A3FDEFABAE520023CFDEC88BC2B9BAB;
	15181 :	3B7CEB9ABCCC2D653CDEFB44BBF9F93F3D6EEFFFBCF7DBA23CC551E93D9B18D93DA2FBE8BB8839F3BC53769FBD07DE4B3D3ACD2ABCC960243C6073F6BB0B3657;
	15180 :	3A3D31203BA5A9063D02BB11BD23DAC63D15F10CBCA69753BCA61A543BB265783D90CFB1BCE423E83B9A46B33BC257BEBD2806E13D0120823CB1A79DBBE5C08F;
	15179 :	BAA9A275BC7CF942BCEB74033D54A90BBCF90BAE3D13048B3C9A2B383C8333753DBD78933CED317CBD3779FEBCB317BABC816B2FBC9CCD4CBB1F98813C7B0D0A;
	15178 :	BCAD91FABBBAB355BD906C273ADB1CB2BC9C73863C31ABD8BD4F5CC83D6719FD3D7B02583D1A4D423CEB9C433C0F02883D082955BD2A03193B68790DBC43B0AA;
	15177 :	BAE3758EBA3CE5A13D5FAA153C37B68EBCC774D73CB633AF3CE11E3CBC8FEC4A3BE2A0203C4F1E073CE83955BD048D1A3CC01E5C3D8F665DBC1F58D73CC92802;
	15176 :	3B604C9ABC811AA3BD608914BCE492C2BCF82EDDBC08D3593BC31A0DBBAA0F823D9AF465BCE6AF61BCED1D13BD9770633C42E6B33B9DE8BBBB686F2CBCBFA7D3;
	15175 :	BD6CE76ABA996DD0BD0353453D9E8178BC22A1AA3CDAA339BD0A9EC03CBDC794BD3C6617BD47AB3ABD2EC0A2BCA43780BC772D38BB9E3824BC718C813B891885;
	15174 :	3BE8445A3CC5878C3B244D32BC4DA7A33D7182413CA55A1CBC4D3D2E3BED19D03B4802833D17EBC53D2806803C8DBB243CCF89A63A8C7C07BCDDC3D5BCD1C57D;
	15173 :	3D68B144BD06ACDA3D86AA65BAC0FA7DBB2AA4A63C30696EBACEA9F8BD2FB6ECBC8236083D255FBF3D028D50BC9F77E5BD22F44BBCA7A8693D8377D3BD44AFA7;
	15172 :	BD02A9D83CA2331C3D90859DBCC217F4BD5FF60BBB3D5A9B3DA1415F3D10BB34BCDC57A83CB7F886BC399DE23C16D5473D6B3F37BAD1EDA9BC8C85B1BBAEDBD6;
	15171 :	3D57872ABC68CF553C31F2C5BD027A9FBBA5B56FBBC7298EBC2E5C22BD6434E4BD26FF99BCD3141EBD34A86ABD3DBAB23B5816413D4338F3BBF4F3A1BCCC9D75;
	15170 :	BD0EBFC83DC41D86BD117253BC85A56C3CE97BB9BC33B628BD1D124BBCA1882FBD0FB753BCE2F8C8BC3FE510BC933D03BD50E0243D02360F3CD2F7DF3D31A0C7;
	15169 :	BCBAB7F2BB276F773C8CC4023DB8CD7E3D20A6AA3CE963B5BD187386BC8A67B23C7761DB3BEE2C923BD3C8383D7BC61EBB8843673C53FC31BCEA6E1C3C03765E;
	15168 :	3C780460BCF8CA0D3D75CBEDBD1F7428BC679963BB3A61B7BD47C5B13B993C86BD1880EDBC63A1713D9027543BD6943EBB49A0653C2D2E1D3D1E3E18BD01AFDB;
	15167 :	3D2BD0EF3D076A15BC62613F3CDBD84ABD0F3867BC2045033D233A56BD2E648F3A0FD25EBA85E488BC76DD34BC3AF4D73DC911EFBCDC5FECBB60688ABD0B7FE3;
	15166 :	BD0DF180BC7A4F82BCE8837A3DB5CC033C98824CBD56F077BC4DA7D2BC6A284BBC0C64AEBC853FCDBB555700BD17057DBC6763EB3CE27396BD4EFBAC3BF9C593;
	15165 :	3D5BA362BD008887BD0386813D1255D2BB69F0853CF54E2A3C991626BD6C595ABCC1AF3ABD410A8C3D0D99FDBAA69AF9BBE2AD0BBB8FD0A0BD6AC4FCBA4A1AD6;
	15164 :	3D772DF83C42721EBD7913393D97C3BCBCC56C6ABD85BD46BD15561E3D92CF203CB33F7EBC07533F3D5597B73C39AD14BD1644C0BC6ED5B13CF8B823BD50A687;
	15163 :	3D831360BC5CE135BCFE86FFB963E7FCBCAC4AFABC8AD367BC8E66F53C9E540F3BA26238385743353B9C2DA7BC9A858E3B71B8493C01A97B3C5D65993CB004B8;
	15162 :	3D5E3A993C4418363C8D2B103C1C3E5BBC0343D6B7B51BBABC07142BBB48465C3D5E64133C695BB83CB55378BD475C783D7257CA3A4C18573D8B31DEBBD1611C;
	15161 :	BCA06690BC3A0374BC35DFA43C92EB1EBC4EDFF9BCE51C143BA75383BCDBC08BBD84D2183CDCB1D93D6849553C5E97CBB9E20EFFBC6155E23CC1CBA8BD8FBDB4;
	15160 :	3D555E99BC3B87BF3BCF923ABCCCBF0D3D04990EBCBEA8793C60F7513C8ECCC83CEE46093A39A165BBC7D2BEBCA0FAC3BB6FE0D4BD102590BC4B76AF3BDFAF8C;
	15159 :	3D7BCBABBD1C55CC3D0D268ABCCCF9ACBCA7FFBBBD117F3BBC984497BCD4AF973C95454C3B3F5546BC72E4AABCEDBEC2BCAED9463DDF15A5BD328C94BD3E74FD;
	15158 :	BBA670A6BCF037063D56511CBCA3175CBCF77D373CE29074BCAE39D83CEDC00D3C744CECB7998907BD8C5466BD4CA326BD0806DE3B52E67ABCBE7A57BC93E81B;
	15157 :	3C5B0B4B3D93AA87BC8252213CB61AB43D1375E2BD3FF93E3D6787B6BD1BE0703AAE85DABC095C633D7935A63D771D4B3C7EC3D9BC9174D0BCC05ECB3BFF263C;
	15156 :	BCBE15C03C7585263D8E07EFBCB4061DBC690B5F3756B2603D9AB9B3BD23765F3CAF5CA33DBA7EA6BB907428BD110E4EBCCEA942BC64CC293CD28C8FBD029633;
	15155 :	BC38A090BCC040DDBD695AEBBC55D69ABC763DFB3C9C33253CBB373F3AA528F03C9DA41EBD902C48BCBB53143D184EBE3A30AEBEBD111941BD06D5643D12780D;
	15154 :	3D132F4E3D274FDFBC9248E4BD3FF6B03C8FF11C3C692B23BD45BD9EBD0ABC713D5FE4EE3CB758BC3CEC0544BBA979103C246547BD25E7C23C23EDEDBC982F3A;
	15153 :	BCDD94F83CF5309B3C489A9B3D8B984FBA3F37B13C81CE52BC9A25D6BB40F078BD018A78BD0B2EE53D82C51D3C1FFAA2BC2C36CEBD11ABE5BC3F72EDBD03ED88;
	15152 :	BC849498BC3ACEE73DC58B223C3550AABB703A553D5DCB85BBC54E513D63DCA8BCB6F2293C7EB39CBD702088BC0D48A73D895657BD6DF3EC3D9C0016BBB5C3F1;
	15151 :	3CBE0947BC184179BC676BD4BCD61C31BD5316FA3D40287E3B7ACEFFBD0A4AD3BBA3F91FBC3FFF173D8B16D13CA6B9333D876252BC5BED3ABD1F9EDA3D7F9F91;
	15150 :	3CC9F7F1BC7C911DBD48CF4C3D8A4FA6BC952D673C3333C2BC859C6DBCF80197BD46DD963BC7F082BD50DC673BAFE4B8BD61C4B4BCD6C201BCE024983B95EE55;
	15149 :	BC72CDDA3D49585D3C98AADFBA912E0CBDD353633D698DC83D486019BB8A26A33CAB37DE3A881C64BC551E93BB74183B3C7DDBB03D67A66E3C8528D13C813385;
	15148 :	BD5BDB32BC6CF6D63D85FA59BC1ED2A1BC4F784D3D7A9A40BC1530943C78A9FD3D97A7363D2811C5BCAB595C3C41FE243C89C6733BA17EF9BD2B22333DAA1372;
	15147 :	BD0E4797BD2A939B3D898DC4BD46443BBD1871133C0E402C3D24123D3D7757043C85B6D2BCB0BA443C6121A13C1E3366BC73B4B13BDD98A1BC79BE033D8533CE;
	15146 :	3C81EDE3BB4632CBBC82F253BD4C93183C317656BDB738473D2A2BE9BBFDE011BD1449583D618917BD2836C23D50819FBD664A873D4B59BBBCB24DAE3C9C9E82;
	15145 :	3D5AB60A3D811D333C96BAF53C1042533D4AB07BBC2D19BC3A6694CC3D2F102F3B04C2BB3C87C7323C28E99EBC4392A73C87B38439CF24AABBDE529FBD99EDC2;
	15144 :	3D01F43ABB423102BC2E1D8F3D993E233B8681F03DC2BFCC3D3B2EB4BB295A2CBCF2F9573C1DAF383C524FA53D9B4C453D9EA39EBCCAE836BC95E692398B6C94;
	15143 :	BD7FD85B3C69CBEFBD00914F3C80CB52BD3D7B9F3B6D09EFBBA898EA3CA6BC613CBA7AF7BD00DADABC0991DCBBB72F5F3D22991B3CAF7852BD29D2FABD2F60B6;
	15142 :	BC2582B03D09311DBCC86362BC932A5A3D8F235F3D483C32BD1A8BFCBD7F14B0BBD93BA9BC233556BC294565BB657230BD2EA4DCBD6AEE96BD01C300BC8D854A;
	15141 :	3B8A4111BBF3191DBB90E0493C3D4F67BD1A96443D0CA84BBC77688B3B6A03423CC5BA193C82AFB6BA84ED4E3D6CF4913D5540DABC60D2103C43CAC53C61C510;
	15140 :	3D09FF84BCDD5E7CBC707B693D367991BD30E028BCAECC0A3D41647D3BCD6103BBA8CE053A7B4DDD3D12F6BFBC1F62E63A9DAE033D1749743CF7182FBC109A26;
	15139 :	BCD56B0D3D276F4E398CB329BC576E0F3BAE52EDBCECB06A3B8A0C89BBB05803BAA91CA13D25AED63B9E335E3D91FF8A3D7D657A3B213E05BD433EAC3BD3F8FE;
	15138 :	BD1ADCD1BD75F5D93C1E68633D281BC2BD0C33753D8E9CC13B6C61703C9823C13C2ABA3EBDAA0A1D3D2010AF3D6082DFBC9ECDB3BD64672F3D095F0D3C1AA432;
	15137 :	3CDBB3B33BAA0B7C3D91B54D3CB77E133CB180F8BC21E18D3BE30B7DBD4088E6BD6D97C1BD02E622BD0377813CA6D5E3BC4AB781BC0677253D12A8853D491483;
	15136 :	3D3963A7BBAA1F923C45CA543C916B703C00BF2BBCF85F59BD2535163D15FE71BD3D7643BC06B92BBBE27541BC6D92C5BB20E19CBCA6B8B5BD6102293D037163;
	15135 :	3D9DCB66BDA11538BD130F463C1E531DBC33FE1F3D5BFF5F3D222863BD51376ABC03F10B3BF5BA93BC9C3255BC31DAAD3C8789FE3D7D9DF03CDBB71EBC6A13EC;
	15134 :	3DA4F4A1BD8719B6BD820D38BCA85473BC34E2A5BCACC79BBD0A9E77BBECF2F13D347558BD8066F8BC5D87C3BCA2FB143D6311A23BE969EABD28134CBD23A1B4;
	15133 :	3C27317BBC956CDE3D91471FBCE18B753CD3228C3D693B8D3AD3C92B3D8F9F803C8D5EF0BB10ABEC3B720AF1BB4BB0DABC3ED8E4BD30C180BD3A6C9B3CD5CB90;
	15132 :	BCD41AB4BCCC36DABC29FFFBBD3C31D93C9F8AAA3C91534C3BF242F33CEFAB123CB9AE3ABAAAB5F4BC94AF173C1A451ABBDB1E93BCC9DE8EBD0726D2BCB3ECA9;
	15131 :	3D0750AEBBB5DC913DB9566BBC0BEAF73D6144743D755B3E3CDBDD2A3CD112893D92F2F53DBC472F3D68D90A3BDF8C91BBF5FFECBCD72556BCDFF0C03D0B5918;
	15130 :	BD29E1733A593ACB3D75679CBCB294F2BC0379F73C4EE72ABCBC84D5BD28167A3A3CE4C33D0C251EBC97EF0F3D28B98F3D2B7BCCBBC168243CF8E935BD4CD782;
	15129 :	BCBBE9FE3D9127F13D57B9623CC6D720BC6C37853C9BDADEBD581DACBCCA6B20BC9022B03DA35B82BD2A0066BD2D16DEBCCA978F3CB533AD3D129229BC19EDF6;
	15128 :	3DB82E003D946456BD531302BD1AFC50BC0CF6483D4467CF3D4756583B39578EBD48DAAD3CF1D4CF3D1177FCBBEE2DE9BBE0BF2D3CCD63973DA74DA3BD62DAAA;
	15127 :	BC284459BC1D08473D2773A9BD8C51C93C95AEC9BC9E16EEBD653E3EBC50A8C23DD08FAE3B848890BBDBB9F93D53832ABD1323143BE65C513D6DD5E6BC962442;
	15126 :	3CB5AFCFBC08BBE0BCDBA14C3D515C0F3B9335AB3CE7A9D8BD798AF0BD3A3C913C39F708BC9ADE26BCA2E4E83C96E22C3D90F588BDABC77EBD0D9978BBE89B55;
	15125 :	BD74C22C3D11B3BBBD03E68A3C535CC83CB2D4BE3CCF28BB3C92BC0F3B1B03363D58AD2C3C1F7401BCE98DC43BC06A51BC4A5FE63DB4F39DBCE91017BD12ADD2;
	15124 :	BBE707663BDFD383BBDDA7A7BD540B303D8F7FC6BCA01561BC3F2D81390684A83CC2F930BD876DFFBCE7F50BBCDA24513C9622193C6607053C0E2498BCDB6615;
	15123 :	BD3FDE853C13486ABCDF4D59BD61CFF0BC5564513CE462F3BD0902D03D57556ABBD9CDB3BD209664BA7EB3D2BD0A4295BD1973E93B53878EBD2123313CABF4C3;
	15122 :	3D54DF263C85A755BD1047A8BD0DA8643CBFD446BC9A625CBD46C305BA3CC00E3BC6C54A3CD7BEA03CE74CE8BB916D613C13EF37BB627CBDBCEADD82BB19A989;
	15121 :	BA949585BD3E00B63CA43F64BD96EB06BA4B26363D522396BC118D643D7198B43D4627F5BD1BD33CBC96B195BC1BC289BC10F5153C25D94FBC35BF08BD381765;
	15120 :	3C4A7F9FBCD124BEBD4A5453BCE37A48BC4A24073D1E1A613D33648FBCD22704BC097269BC5A7A643D3E817B3D12DDDE3B9094A2BD1B36AC3C944F7C3CA5CB4E;
	15119 :	BD35AA463D4F860FBD4AF9ECBCF973E6BD0C95623D9EBFCBBCD7DDAEBC14FB0D3C995D3ABB29771BBD4506F8BD2BFF12BD81F2653D4A8750BD1896873C364EB4;
	15118 :	BD3EF3393D506691BD896AC0BB9390B73D661EEB3CF53FA93C8C428E3BEAEBB4BC2B82463CB24B9BBCCBD8D4BC067DB63C9F7ED5BD56347B3C0AF981BD00ACAF;
	15117 :	BD911157BCB7B8FC3D5224223D04B16ABD010F1E3CCCB41B3CDAD2A1BC50D162BD097F28BBD235B3BC1768A0BD84016C3C3A3010BD18E3303D0B8A033CE4644E;
	15116 :	B9A4DB223D4D658F3BA402593C1301673D186B12B79E96DCBCC8D7DF3D946A10BD33BFBE3ADF2DAEBB91D4FEBC85882C3CF6E48DBCB5CDC5BD5494D8BD3216A3;
	15115 :	BB3DFF26BBE928353A8F08733C1243923D6D9988BD230EBA3DBBFD7BBCA029E5BCD078283C8B90423D25905C3C2711C53BDA028EBC31C32C3CE4EC10BC5C2EE1;
	15114 :	3D651E3B3C5471543D20BF533D5AF5C6BB80BAD8BCC2F3D8BC96CDBEBD205DE4BC24DA72BCB6C0753D13C4443C8F56EF3CDCF0683A8502483D889CE8BD3D3FF2;
	15113 :	3CF30CDD3CBD874B3D011ECABD4166D4BCFDB162BD1064D3BC9BBA83BB738191BD36778CBC3E84B9BCACC56EBD12FB6BBC9D479C3CD8B0D73C47BA76BC828690;
	15112 :	3D07E6C8BD44CDAD392A9189BCAC744E3CDA2BAABD5D9F883B88C890BD476B463D444E8CBC3DEAA93BBDB44ABD2691B03C9B6B163D296F243D4CF05ABCB119B1;
	15111 :	BA2252A4BD7473DE3BF420BDBCAB83B53D84B2FE3B4EC7D93D22594FBC1398DABCC17126BA676AD43D411EF8BC301081BCA1684BBCCD0C773D413E0EBC8A7D25;
	15110 :	3D6FF6ADBC9D855DBBB292B5BDB77C4BBBE78D43BC5F88A7BC9C2DB5BD5CC7E8BCC13746BC0A06D6BBAAE3893CA092ADBD5862FEBD3F169B3DA30635BCD568C4;
	15109 :	3D35ECD93D0E3DAFBAE787B53C61E526BC2B445DBD84DC0CBC840906BBBBE0DB3C27BD723C41B108BCC393393D7E29C0BD4A881FBD729F1D3D4E03373C979059;
	15108 :	BC60D07EBD38A90F3CFD4447BC0661DE3C79FC673C4B8C87BC98BC9E3D20D0463C07E7D3BC0582D6BCCF0B1CBCCCE01BBCA5F3FD3C55AD51BCAA39E8BB902DC7;
	15107 :	3CFE4AC23B2643533CA9D44E3C13E4B4BBDB2A89BB9D8DCBBDADC1BD3B70F8EFBD0F75293C20C8B93CCF6D333D25D0713B113C13BCD5BBBBBD91FB273D0DBB61;
	15106 :	3D732145BBC6DD10BD81B6363C5FEEF33A89072CB9BF4FDD3CFC45223D19454DBCD3145ABC1875E8BD0356343D6F2946BC9950143C19890CBBDF689EBCF85379;
	15105 :	3D885649BAA3E605BBA99AF4BD0A14A5BD48DF343B194D853CA0530F3D2C6222BBC2EA403CF8F6CBBD01BF50BCEC7938BD115BD43C12747B3D67A56EBD86C65D;
	15104 :	BB6BB8DABC79FA28BCC1838BBC17A7D0BD21A5F73CDAF7273BCFB72C3D8D54373B24A827BD4FA5073CE9A3313D5E23793D93DED4BBDD7E84BD97B940BCB5B178;
	15103 :	BD166D8A3C90563ABD3F4F633B8B07AF3BF1DEE13C8F0043BBDC08DC3D5CAFE5BCCC420E3CAF1ACF3C31052DB9EBAB803D69D472BC4F70063A3916BA3C6A86BB;
	15102 :	3D022347BD052CC83C142CFF3D20FDE03C6C044E39B745103D3BDD93BCBEA341BBE433423D41CF44BC4AE1823C0BE4AA3B4650A4BD08E6B13C1BF7C5BCE7411D;
	15101 :	3B73B9C53D22A2E3BD5209EB3D4021273C208A93BD0CBBC43ABC9FA33D1343CE3D784931BCBEAF0D3CFE65B0BCCCE464BC871587BC80470D3D2F1B3D3D1919F7;
	15100 :	BC84EC3DBC8CAF4EBCC479A5BD505E64BD1B024FBC9E1B003D889FB4BB302A0FBB25FAC73CA4020ABCA8B92BBBEED233BD151CF13B03AA4A3C88B256BD275567;
	15099 :	BD85AE51BC92876CBC35157E3D6E8A133A65A9D93BF3D0BC3CF810C13D522F0B3C5C0420BB37B690BB81FC0FBC8F7E5D3C9B9B24BD7079DFBB1D6448BBE88B1F;
	15098 :	3D07F977BC346346BC82EEE6BD18B36CBBB4FCA6BD81021FBCAEB56DBD38C983BC9E782BBD704F323BD92B59BC28B26F3D1E17BFBC477199BA432F0FBC87386B;
	15097 :	BC910BA23CC45AC43D2BEC7DBC9B8CB0BD0AB3CE3C9E66A3BCAF93533B9346C93D35997CBC298F93BCA6D734BD393638BCBF7C123D601231BCD6CB443D3AA43F;
	15096 :	3C067FC239A3D882BD6AF4E73BA201633DBCE59ABCCABF5DBC739001BC1249CCBCA6C687BCDD346C3D87393DBB6CB7AABCA0CFB73D11FE32BD108DE0BD51AE9A;
	15095 :	BD323CEABC5F8E58BCD899C2BCA43457BB27B1F03D2151DBBC0C34BABBA69EF33B7A76D7BC5EAC3DBD16DC823D3CF19ABB82EE8F3D960F33BD5172773B31AA3C;
	15094 :	BBC132A8BC91D8A2BD8054893D320702BD301D953B3A6111BB84617EBC4DF2643D9FAE3E3DE3889BBC830F863C9ED34CBAA4EAB2BB27135EBBDA784ABD13DB7C;
	15093 :	BD5B05F7BA26E0DB3CEEA5903D1574B93D4AC38A3D93AE8A3A177B8BBD79430C3C201A703D271431B6ABBCC6BCEE29A6BD2D7A3DBD81D80DBC91350B3C564313;
	15092 :	BCE62F0DBBE27EE53C21CA873CEC6C733D07C291BBFB3127BCF0BE263DAB3104BC8245993BC7CE1E3D4E8DC0BC9F33623C8A626AB95C5910BD42371E3D17548A;
	15091 :	BD304B72BC789F0EBCBFED0A3D1933FD3B7EE88D3C6981E93D0447A03CCB6820BA214893BCA25C5CBC0496FFBC6D33613C34D6A93CC158CDBCA768813CCE073D;
	15090 :	BC6C9984BC4C22C93DB15E3FBC880F473D28547CBD84BCC1BD07E8F83CA8F63EBD2B9B4ABBBC40C73C5D9DD7BD0179513A02130EBD49556B3AE3BC9F3D1E5783;
	15089 :	3DD53486BD84E3CA3B7966CA3D3E4C493D886B53BD0481013D79F6C6BC864DE4BCF0CE34BBF51997BCB1146CBC8C31933CA46176BD02BCB53CF3260BBCAB7780;
	15088 :	BD2186313BA645093D0859D5BCC91CC13CBD8F573B2E14AE3D08A4D13D7E3916BCFD29D23B4D0B9FBC30A28CBCA07887BC28EB07BC82BE643C8F8B93BCCE2B8C;
	15087 :	BAB651C33C1874B2BC19B2C13CA912D3BD28CC4F3B2B3B213C9BD3DD3CCA9E783D43A2FBBD641108BD2773B6BBAA9E51BC46236BB90A7A1FBBB44172BCDE0A95;
	15086 :	BC4538F6BCE73AC7BCA1D028BD1C88363C82F1383D3D07713D01A3D3BCF07CB1BCB1531A3A845FA5BCCD6C2DBCBEB290BCA2CBC0BC5E179BBC69274DBC1B1ADF;
	15085 :	BC8AB5D33D26BA2D3D12ED0FBC174DAB3D4693BABCB6F98F3D363446BC653B2B3D0ABBDABCC5358B3DA8E5A8BD3B05F2BD5BAAD83D1FBD983D9ACED73CCAB472;
	15084 :	BD057F2DBCD19AE9BB69F1A9BC8BE30E3D1E0B0BBCB090AEBD7D27DD3D91EBB8BA90B5FCBC7A776CBCF1B3B6BC3A921BBC96B2713CE9FD173CD01DD03D563A89;
	15083 :	3CBAC16BBC578E713DEDC0073BBE6100BD5222C53D1317483D311F0EBD2CA758BCEE1D5E3C2C8E8A3C71D5553C8C4B89BD3B6353BD066D6F3C5AD5263D960405;
	15082 :	3D2003CD3BDEA3F3BD325775BB1CEF9BBD22013E3D7ADEDDBC0318F5BBD6A336BB9EACD9BC24FD98BCE765C7BCD53ED63BD36D683CC263503D63591BBD106058;
	15081 :	BB3145E03D25863CBD48086DBC7D450ABC382859BD898E44BCF9068A3C1E06CF3D1F3DA83D6CF82DBCE083803C039145BB42C22FB904E794BCA301D63C50030D;
	15080 :	BC4BC57C3D217B5FBC37FD933BD35FDFBB8C07933D7DE1163B1D76CD3C2CB3A1BCEA59383D850812BC7CC227BD108E153D444E37BCEA9CD03C8DE99C3D1F20F9;
	15079 :	3C45C1163C743147BC8985CB3D44E2A3BD1961FC3B6A3F033AB4C56BBD1790C43CABA348BD2A82FB3D343B98BCBB1692BCC0CA1ABABAB754BD04D7F6BD1046EF;
	15078 :	BD519D243D5765ADBD8373AFBCB30D02BD151B08BCE9F3F8BC2383833D16E463BCAAA062BD06305FBA2E1A513D3758923C287EF6BC62DBEDBD1BE8063D06CB68;
	15077 :	BBF2B90DBD6FE5E73D5586CBBD5D4511BD5CD0A8BD4616123D1A901EBBA25279BD534CEE3C7226843CB4BF593C37E0FE3BECE0C6BCD8B0BDBC89F178BD341FF0;
	15076 :	3C53E8603C0799033D9C8040BD07484FBD86D393BCD64B13BD6E41A4BD68659BBC537F7FBC5DF2F5BC787A5FBC020011BC0D6FF5BA8AB2D23CF99DAC3D10A1B7;
	15075 :	BD1E39F53CEC75813CF46B53BC2A17EEBB99E7A7BC5A0850BC47B3B3BB848F65BC8CE8AFBCCD39D3BC9934D33D7D685C3C76BAF13CFE8DCC3A14389FBB70B6B5;
	15074 :	3D4EBA3F3CEDD420BD0530A53CA92808BCB0D60DBD8803C63D06B5C93BE9F82B3D1D87F5BCAB5D053D17ACEEBBD024F5BCBA203F3C797B8C3D0DDF793CE7E719;
	15073 :	3C82145BBB3D5A263D76BE003CFC242E3B8EDE1DBCCE96713D7A7D8DBC17F7DCBC73B8F0BAD55B2ABD5C933EBCE85987BCE78D83BCDF0422BC15EA3B3D377BAD;
	15072 :	BD16DF88BB66A0E5BCFD8EE23BF2270BBC9891773CD77F8B3D0B1C303D3AC543BC9CA16BBD3165E2BBD77349BCD9B478BD7B56D8BD449A7CBD2355EDBC08ED85;
	15071 :	3C883A5A3C8470BC3A42E5B73C3F50D13BEC1378BAF0E7E0BBC03A95BCAF4E76BD2DA0FABCCE33D83D5D8E08BD8128423D1F6D203CD543EBBD04DCE0BDA7581B;
	15070 :	BD3C5B563D4EC6C53D815A3CBD1ADFB2BCB4B9FA3C351F2ABCAE7396BC199F48BBCE141EBC11BD0FBCD3E647BD337B59BB1398DF3D34D3C3BC9BE942BC40C909;
	15069 :	3D4CED19BC847BFC3BA15117BC9B5E9ABD6C29CD3C8774AC3D8195713D2A0BDCBC170B2DBBC3E71ABAC0E999BC7E7ADDBC83E6DE3D2D93243D07B169BD55ABA6;
	15068 :	BCB32C5DBDA569E33D787A4B3B8775B4BC271DF03CE9FF753C3BC1303D2845D6BBBA2C6D3B36FF8FBC68FAB5BCB09FB2BBA4CA86BD4CE847BAF3F334BC9B5E30;
	15067 :	3B5461053D2522E7BC982C373AC4E74A3C58CCCF3C3383933CC11AF63D2362E83C511497BC63244ABCAD4B38BD437721BCCFEA99BD35FB08BD9908683D7EBFF7;
	15066 :	3D61EFEA3C6BAD5DBD8F320F3CA2E917BD2337E3BD2B2B4D3D8161F33DB8A31A3C8043033D174BFB3D9739AB3C0CE762BD0D765CBD28ADB83C0B70AD3CF29FDE;
	15065 :	BD47AA083D1E8604BC4B583ABD1953BABC3485CA3D297573BD3058B53B83DBD43CF80E823D1AAB52BD48E76D3C07A4D23D5AA5513D0F3A733D2404B83CAB28D2;
	15064 :	BD1E4895BCF7FAB5BD2D75903D8E0C7A3B8E25553A19BE17BD10264F3CE80132BCA30488BD0760B43A8922EFBD084605BD31BDD7BC8630ED3BB66F31BB002481;
	15063 :	BD1B8401BCC1CA9C3D52FF1BBCBD5EF0BD87E4D93C7B11143B9439D43C0D6B72BD2B85823D5360743C25EEA6BC8B1174BC369841BD2AEA00BC8750D83C812F35;
	15062 :	BC255CDE3C2782AFBC57CCBA3D6A11E23D1952DC3C9B28B13D01099BBC69D0DCBD3E3AFEBC421A463D837126BD5B28D4BB81B8A6BCAA0B7A3DA3E452BC0A0388;
	15061 :	3D98CBBFBABD5EBF3CFA3F6E3D9D11863CB5FFE6BC5D497CBBD95249BC9F437EBD13319BBBB238C4BC6FB583BC003632BD76BB8CBD58E23B3C766EDABCD36DE1;
	15060 :	BD175BCFBCD0F3F9BDB089C53BD917EDBC6FC6B8BC7DA9633D358A62BCC7C171BCA62FE5BC7DCE323C4209CA3D9DD2D63D1CA12BBC7A82D6BCAA81CCBADF8071;
	15059 :	BD8269AD3D9D652EBCA0B0D4BD80FC4CBCE83BAE3D33BDB2BCD80059BC06B9E1BC7B19633D3AF3323C6740253D06CCEFBB90AFE1BD80A7713B113B2E3D3B291D;
	15058 :	BC7642C13A9181D33D087C833CD66AFA3BE2A3563DA1B162BD0529A0BCAF21323D8C6D96BD1A071E3D06409DBB6C51F93C4C911FBD3D9C8B3D36DC5BBC87B5BD;
	15057 :	BB8FEE17BD4292193AE334283C77CD05BB2EC6D6BCA96AC93D5891843C544C9CBB50985FBCB04398BD882E42BB641620BC207367BD05525A3BBE4431BCC3B113;
	15056 :	BD0B0905BD12EF033D3333753D2EBE553C17CA5D3D07F76C3BCE110ABCDE83DD3DA269AB3D2B9D03BBC220B23D6835193CD7888A3B57F4FBBB36517ABC75AECF;
	15055 :	3D255B533CAAB2A7BC0949B6BD8243073C902B613C3C7718BD257D3B3C8E2DC9BD8C043DBAE6FF37BD4895663CD42F2CBD2B417E3AB15A7E3CB8DBB4BCF44BDC;
	15054 :	BCE85C01BD28208F3D5353CBBD013B433D323A5B3D2672F63D56A5E6B9EA96CA3D4167CFBC739A57BCC4DC5EBC5FEABCBB4C08C2BC2D1A143D4B50143CD7897A;
	15053 :	BD11F2FEBC3ED4643CA864FFBBF718E03D15DCFF3D53365ABD3F1D4F3D2B89B4BD2981A1BC550CAD3D1AB7C3BD59C0513D4D1B7DBD1A1DFCBC3062EABCBB3A3B;
	15052 :	3A16887EBD2CB287BD5D6D963D83A24A3CF20631BD416476BD81ED23BBC7D653BC4F59B2BA4963123B2C142CBC79F53EBC73738E3CA0A591BA98164B3D96AA62;
	15051 :	3CBBF73EBB6E295DBCD8C672BBF7F030BC26AC23BC28F40D3CB26C81BCB9CED23C60E54DBD3B9F3DBC833DD33B50BDFF3CAED4DFBD06CB2CBC3EC2BBBC0E193C;
	15050 :	BB8895BEBB8773E73D874D333BE67025BC063F45BD2DC23EBD06DC3FBD21EDD63C67EA4CBD666428BC483C40396C35FBBCA1C582BCBB2B4A3A70466ABBA0EEFF;
	15049 :	BCF3E4573D1986D2BAA4D470BCC258913CC2D99DBBF816E73BFD8A913CCC5EDA3D092361BD0374203CBC7C813BE3227CBC0E5781BD218A2F3D0247E1BCFB168C;
	15048 :	3BC46683BD08F8D2BCE898543CCCB93DBC05830C3D1027103D16E28EBC84B5C53A3CCD2BBCE82DD7BC85C1CDBC14DA15BCA2BF293CB984D13D013E033D89CEDE;
	15047 :	3C5B15FABAE6C6CCBC879B29BBB67272BC9D699ABD263C8CBC133775BD846B13BD4E76E8BD4D4F4BBAE092913C0B5FE13CFFBC4C3CE6AD70BCCF0C663D6F0BAC;
	15046 :	3BEE4A723C448DFB3C97A60DBD332AF53CE13BECBC86B184BCF8B1C73CAAE8FDBD42826C3BAC1A473C00E36FBD05FDD53D50CC63BC8D6921BCA2B44BBD3055A5;
	15045 :	BD2B904E3AFAF317BC71EB4D3C81AC563D32CF0E3D10F9C83C91608B39AD60833C1A1623BBFED774BD1023073CC6A1C2BCCA02883D8F5A0EBD0313F4B817D2A5;
	15044 :	BCA13D1A3C2CE80D3CBD249D3CB84FBA3D47EE0B3C5BD2703BCC1FC53DA13A92BD00EE003BB061A8BC2E2F923C899784BD0A85D7BD09A025BCA48BCCBC6E728D;
	15043 :	BC1BE719BC34076CBCC848E83CE2243ABC2CA85F3D577E723D037A98BD0D57BABC3C817F3C3BE08DBCCFB3AB3D0596DBBCF84BE4BD1F96F4BD07FA223CE6BC49;
	15042 :	3D9F1DBA3D06C9C63CC40813BAA1EFDA3D0662903D642D8E3B6FF42A3CB745133D50ACD23CE922873D637C9C3D8F70A03D389A5DBCAAD2DFBD03199EBACB73DA;
	15041 :	BD01EE1ABC748486BC344359BC8E7DFF3CCD890FBD21AF063C56AB12BD6556ADBCFD0A643CB76A66BD56A8BEBC50CA52BC8713943ABE20173CBCFCC1BD60AD58;
	15040 :	BBACDC1B3CD61EAEBD5495B93D25CE6BBC98B8E53D4E06143D821E03BC4AA281BD2A0B62BCFD0CDB3BCE3C473CE4D4EF3CB9585B3B6DAED33C6C742BBCAF6B31;
	15039 :	BD1984993D9CA199BD8247843C7717B73C1630653CCD099BBCC1805EBCD705633D085F4FBD2E45403AF531333DA4F6D7BDCBE8753C2820743C87A8773BAC9995;
	15038 :	3D843921BB89F240BD21621B3D1093C3BCBAC1B93D811CF6BCCA50EF3CEF56423D829DB1BC583249BD0687BABCB79641BD0986CD3CDCA6FF3BE528C5BC7B60CB;
	15037 :	BB8BC16B3C421A7D3D4C81E8BD40F2C83C359DBD3C6796BD3D58E9293A940BEE3CF374A9BD160FADBCE0AADABD1FAD9CBCF14579BD182EC4BC680736BC1872EA;
	15036 :	BD83D7C73D57416C3D6A80B2BC9ACD10BBBDCA4EBD06AEE7BC700A783D146F193BCEB0A1BC369923BC495ADABCF7DE7D3C9A7306BD5579F3BCF116AF3CB452CD;
	15035 :	BD220F63BD4334BFBC083191BC83DF343D8834F63AC28D27BD21FF4ABD50D5BCBD2E162E3D3424E13C29283D3C26C3EF3D7D99CEBC81452F3DB57CD6BC603D16;
	15034 :	3D4670E6BD07724CBCED64103C345D10BD0C78C5BCC98A52BB6B92D7BD46CEF93D37F17BBD07ADEABC9BFC69BCC193783B1C29E13C98A016BD04D0803C24EE5A;
	15033 :	BCD5D9E83D45F313BC809195BD10D13C3C9085B93D8007EEBADBF8543CE4323DBD48AFC73D79C52ABD221464BB80AA81BCBAAAC4BBE6EF85BBFCE79ABD6E3917;
	15032 :	BCC3AB7BBCCE00F1BBC583053D533366BD1455583D3F93663D2B555B3D6C1C66BD2B1F2EBBD6F7FD3C83D0B9BD5C6169BC7EEC043D5952FCBD24AD0BBB4D8069;
	15031 :	BC921D5CBCC81BF73D45C0C13C984C42BADA37B0BC812FF73D36D9C3BC7E8945BC8033D33D0E5838BCC196D8BC2541623D488D14BD4CD84CBCA28C8D3C392D9B;
	15030 :	3D98C1F23D81CBE63C11BDCA3D0136C3BB837CD8BD834AD63C4AE8053CA67D7CBD49FFA43D99184ABCB204023D27A57ABD3B6D043CF24D34BA811AE83D1F47DA;
	15029 :	3D69850C3DA536ABBCB2075FBC11C1B8BD0C00AFBCC9CBFC3AF521503D9C7B603CF65546BC5CC3AABCB3EAF9BC664D843CCEA02A3B97A08CBD38E035BBA7F9F0;
	15028 :	3C92E7743BB64ECF3D1518D7BD1C204F3CEFB2B13D554A56BD0A3E2F3CB67DAA3BFA66E83B2746C1BC4DC8923C112AFD3C180D46BD2E753EBB966166BD342E7A;
	15027 :	3D8EBDE4BB584D173D95C7FC3D4B4AB13A63AC8CBD3FB7D3BAF4694B3B142D163DD68189BD1FA3423DC882123D13CB543C741CC6BC24EABC3C1FAF82BCCED8E0;
	15026 :	3D3A30ABBB8CC472BCAC0772BB97D6043C7643C63BBB98FABCE14BA93A1E9E53BC1534C33C6548643C1F38783CADFE0FBC44E968BC46CBCE3D8669E13C577E56;
	15025 :	BC8870CC3C9724303C836A833C9AA8B23D3E166DBD414D8F3A915556BD9CC33FBBC58202BD5D07F5BC0D30CC3D0859A6BD02CA2A3CCAAF6FBD128E6ABCD94A02;
	15024 :	BCCA9AF43C9902093D17BF6B3C602003BD4A40C7BC02F0B63CA27BA5BCE5D46CBC97008DBCCCF8193CB2580839D22BA43D048028BCD372DABD4FD20DBD00EE9E;
	15023 :	BC990C1CBD16B72E3AF49761BD10123F3BFE71DFBBF76B00BAB4D7D5BC73D6FD3D1F770A3C350CE3BCD775F03CC444F73C81B344BC88BD83BBD7A50BBC51E688;
	15022 :	BD0A14193C66F92D3CB77806BD90874FBD9A5F50BB85E3CBBCBA82ACBC5BE6DA3D043A1EBD9D26FA3D98ABFF3B92139B3D17DF803D62CFA23CB9E3E4BC2556F1;
	15021 :	3CB3ADDEBB432B71BC948CD3BB8DE0FB3DB269FB3C36151ABCAB65CD3C2CE35FBC848BCDBC009916BC00A18CBD82C4573D111161BCAF94E1BC108EFC3CF914FA;
	15020 :	BCDA77F83D3D26EB3D382E0DBC2FE0083C1202C5BCF4EB02BDBA96D03D7974BF399D0D25BBEFA4173D5B8B0CBD90D8EFBCCFFA3D3D3359BFBD084B7A3B17B96D;
	15019 :	BD1776AEBD1A3B203BCF91693D3C13B1B91C7CB1BD9C84733D9AA9673D28A49DBC910BAFB9BB163FBC0316C1BD2B9278BD5804B9BC56C627BBB4CBC8BBD39AB9;
	15018 :	3D1F1073BCA8C5973AD5BB95B9B844FDBD1DD9D7BC8B546E3D26C8DEBCB260D43D07789BBD9E43853C1746FABBE8CD2A3D832474BC84A4DB3B9FBC473C3137B0;
	15017 :	BC06D9003D2CAE64BBEB89D7BB9C769BBC69A33D3C9741D7BB05009DB8B4EE62BD3E17B6BD0C8DBBBCF4209BBD038FFFBD25BC24BD3914303C243E743DA79312;
	15016 :	3CDA6A6ABAC68E61BCC63B72BA9174DB3CA8B77ABD940480BC4AC80E3B9F2C183C10C91ABC0904613CC8390E3B6A9648BD666102BC98ACE1BC0A0137BCB537E6;
	15015 :	BD4A017FBC985AD73CC4D8513AA264303D65A3853D43F2463B34DF93BACC944C3D81D4FBBC7F2ED3BD1300663A2FCE1B3D5AD7C5BC1F78F4BCDBA716BD1C7D38;
	15014 :	BB0371AB3D0565163C2B90AABD527E11BC8E70AEBC082893BCFA6718BCE07869BD17DC85BD3934083A1143E6BC6840313C59B91E3CB6134E3C904F0CBCF4E740;
	15013 :	3CA420A73C773A653D164429BC8B47793CDC19D2BA5C6EF33D63F636BBEFBC00BD0DD78B3D296E54BBDD619FBD5CC114BCC4481A390206DD3C4CB85BBC0604AB;
	15012 :	3B7F6C96BD842B883D3B60B5BC38C77ABC9D53BEBD6507723BAC2C0D3CA525513A12C99B3C31F73BBB33AED33CB279973D8B8EB33B2C5865BD269DB43B699403;
	15011 :	BC8C2C313B9510D3BD0543CBBD597D133C92098DBCE9A159BA23A37C3943B793BC155C28BC2445BE3C15B8EABB9E29E93B4638983D87F07D3D372BE53D824386;
	15010 :	BC991F493BF2CFD83D47301ABD08AF61BD70538EBB58B3143D2E3505BD2190BFBA6006EA3B7AF43D3D9103E9BC2AA96DBCA66A36BCB6D123BC8321B73DA3936C;
	15009 :	BC71F7E5BAA47A223D2BD9413D9A08133B927B3DBCEC49193BA77F22BC407D9DBB542D27BD28B3443C1981513CCF0B303D607DB5BC21E073BC6880F13BD8997E;
	15008 :	BCCAC19A3D0235203D6E9D6EBD5B609CBD1A02153CD138833C707FAFBCDAB1EEBC6580C9BC370B0BBD0E189DBD1BEC0BBD5689CABCECD24938F090843D0922D7;
	15007 :	B7B56A733D30D32ABC63882FBC3EDC9EBD02B753BD461111BB91FE99BD6C49693D693FEBBD06342C3B57A1F73C7438613C60190A3CE5C93E3C88E1D93C5E9E41;
	15006 :	BD8545963B8EFAD93D8C32E1BD93FBE13C8A59BA3C16F4DE3CE8AFAEBD741DC8BD225D493BB3C97ABD12106BBCF03D9C3D2214873CFED1B7BC07D1C33CDE3902;
	15005 :	BD0B4459BD6307D6BD4F8B41BD196C02BD4C518CBD0C38153C9F8683BB32BBEDBC2E3E94BD590FA13D7791FC3B8EE792BA040032BD6634C93D48E8693A9D7973;
	15004 :	3DAB62BCBCE69AE33B98CBB6BD07A6113D824B55BCCFBB1DBC83A7D9BD57CF3FBCCDA4F7BD0DD3A9BD801CD4BC520EC5BC9875363C27AB6A3D248D873CA4635B;
	15003 :	3CDA246B3C92FF16BBE2B23A3BBA0474BCE17D17BD3E7FAA3C59F72B3C0C28983D171189BC316CEDBC0F34A13C8EB807BD8649D4BBAD2CCDBC24DF873CD3624E;
	15002 :	3A638D9CBBDA5693BD5F18B0BC2380323D29D79EBD11C2AE3C1D78233B9E04FA3D97A671BD13AB693D0EC2AA3CC11CA43C95BB09BCAED70B3DA8534E3C7E0941;
	15001 :	BB5F1FD93D8040263CC7355439551541BAA54E8D3D69058ABCFAE1F5BD072D8FBC3B074CBD5D3B413C72273DBCCC6881BC96A4BC3C0ED3B63C7377F7BC925B96;
	15000 :	3C25A1D23D0CCC8E3C477CD53C999201BCB7BEA53B8EC738BCED1766BC8406FBBCF4C5313AD940043AE3F784BC93BC023DB6450E3C49271FBD0935543CFE8C1F;
	14999 :	3CFEED7D3D133F953C14303B3D169EF9BD35F8B4BD10AE213BC1885E3BB361E0BD6A4F7D3C52F7423C1CCD353C8603F6BB9E5B30388318AB3C55F3D3BD180591;
	14998 :	3CAEACDABC6E63623D90EFEFBC6C61F3BCF46779BD9702E6BCB626FDBD13C34E3C728AD1BC54E99CBCD33223BC7A6CEFBCCEC2C63D1B3F833B2EC6E23C9CB71F;
	14997 :	BB170AA1BD503D4CBC82331DBD14A6E9BCF6B022BC4307973D6775B0BC7992B4BCF4A029BBEF11623AD78DD03C43AA0DBCD226A43A1844B0BCEF6C903D9688BB;
	14996 :	BC5E35513D235D50BAB910D73C0BA325BB122307BCFE51A73D2F8BAF3D928136BBAC6B04BCE77652BC8AAB10BD1F2106BB7C04C53CC7DF973D73BD403D5FC157;
	14995 :	3D9B81D6BD5937B5BD1E373DBC7232B83D8EDCA23CDCDD78BCBE0884BC23AB593C7689403B6FD912BCCD33E83D8A1E213DBC62D7BCB5E3BF3CE433EA3CA7FC00;
	14994 :	BD0B09F33D7202F2BD299C00BA96DE89BD103E88BCE97CB03C20FF203C2F9612BCC2163E39BCADE4BD9F850F3CF786673D6617EABCA28E79BD2FA3E13BE8ACB4;
	14993 :	BCA1F916BBEB39E63D53F4C2BD1C43633CA5C75FBB04B0423D07C31ABB9E17A5BC5B77063954C6173D4176773BC039F33B9A46B2BD32522DBCD13FC63CAA16A8;
	14992 :	3CA7B4183CF103CD3D614AA43D17946D393A7D833B80533A3D4364E03D1CEE713B8CEA6BBBB4250A3D52C5C4BD3BA941BCBE22F03B7D39F2BC34D71A3CBB8D44;
	14991 :	3D930658BD18DDFDBCD7514A3C1AF10D3BA8ACBABC96E20EBC95EDB8BCA12C543CA8217C3C03A459BD34C7DA3C6321E43D835CB3BCE614BE3CB591C4BD84254F;
	14990 :	3D0B7A333C9E906A3D0B8087BD414D9CBCD0A2943C17EC79BD7DDECFBB8FF766BCC975CFBC3D9367BD2687DDBBC828793CEE77E53D54B904BD3A94DE3CECA0E6;
	14989 :	3CDE47ABBD16C3AA3C5CAF99BC72D2FEBD2EFD3DBD1672DC3D1536063C1A3D2DBC9797CE3D216238BB20862FBAEA40D63CC3C1433C4B3908BB69F84B3D217D7F;
	14988 :	BC1AA0D43BEDBF9BBD0BCEA43BAE3415BCE32592BD35A680BD0DB21BBCFEEE56BCE3BDCABC9BE4BEBCB63E85BC3BD5F7BD8503F4BD080F4B3C148D603D41736B;
	14987 :	BBD5BD663C9D66E23B2AD171BC2B9C5E3D71E2F1BDC51705BD37CD19BC61E3BABCCE0CB83DA621EE3CA2B14EBD196AE13B9E61CC3A7A3FED3D4FD1003D8BD51B;
	14986 :	3BE416ED3D324B58BCFA8A1B3CC3F3233C4716F33CFB5BBA3D92481E3D8757673C7D17D53DAD80F0BAE81D893D8C219DBD0EAFD03D29A8443D680CD5BCA96594;
	14985 :	BD0C55B93D5F3DE4BD3539B7BC6BF2593D2C57C63D7E79093CFDA3BA3C1A869B3D1789593D1EA2A33C3D09C1BBC1A6BD3C835F353B84FE11BD28F44C3D383BEF;
	14984 :	BCA6CA2C3C0C8F20BDA299763D9F7B0E3C462C45BCAC2F913D7326793D9499EF3BD4C355BD166863BD225827BD3FEEC23C1B47B63B0FBEE7BCAD5216BC0812A6;
	14983 :	BCDDABD83CF4126D3DB867A4BAC0852C3CCFCC55BD886B1A3D3560423D46C6DCBCBED084BCCD0DD53D0BCC29BC3625C33D0B1AC83C7662AABC9DB4033CD70142;
	14982 :	BB17C67FBCD9F8B6BC533AAD3D251B113C3560F5BA94EC663CF621BEBCC4A557BC1088C2BD2C77BBBC146A863C957909BC9031FBBC3295C0BC27688DBC9A5CA3;
	14981 :	BCC44A87BBE2E8983D13DBB63CD9BDC23D823C8EBBE56D10BD30169B3BAB547D3CAB93A63C9EFA9A3D2EEAECBD001CB53BC3FD9EBCF86803BB75CD2EBCE2B2E5;
	14980 :	BC8122D93BBB98473ADDC280BB9A5D56BCAAEE293D41C37BBDAEC1FB3D1C87BFBD2F5F89BCDE16B33C02D7663D48F908BD65D3BDBD422BB13C281C353CCA880A;
	14979 :	3BA25C08BD2425FCBC97F6213C84EEBABC0640B5BCA05F17BD82379B3BB043E8BD0DDD6C3C906873BC63D370BC942B7E3BFE69A53D1453253DAD6E1B3D29EF23;
	14978 :	3C82BA0D39E7D5C53BF4A06C3BF5D73FBCC5C69CBCF1D872BC798FFABCF6298CBCB88CC6BBD45619BD0FA64FBC965488BC904083BD0683113B7099183C303BF4;
	14977 :	3CE60D8CBCEFDBAB3D3D507F3D8CA625BD6F0BB63A76C3243CD7C6C33C05FBEDBD258D9ABD872D5FBCA33B9B3CA7F51ABD0265CDBC796C32BCCC0F8B3C5D58F1;
	14976 :	3D55E905BD8173533BA8466CBC502FB73B303493BD2A35483BB621D8BBF30F89BD6C3D803D2E8B58BD3535A93D7AEF12BD2ADC8BBD2F96DE3CEB623C3C4EE6EE;
	14975 :	BC17719B3B7CCF34BD7A7053BCE372F5BD26DD493D95A3ADBB0BB738BD169E0EBBB83FA8BD0C59B0BC2D5332BD040AAD3C684BB5BC83C1C5BC08EA273BB25BB0;
	14974 :	3D09F494BCDEC1BA3D7AE14C3CC1AD7ABCC008193D6BF46B3C9395733D50AAC6BC95AB793CEED733BAE791A93D318B05BD1F252EBC8FD05BBCE090863D94B41A;
	14973 :	BB31898A3AEF730A3D7D60BDBC20F95E3D1F4DFF3CEBDA7ABD12E485BC9FA03A3D2F70EABBC8A6CEBD45ED04BCEBBC3D3D8F2297BCC2BE223AAA19A73D0C312C;
	14972 :	BBDD73C53BC13DFABBC484A43D5475283B9851173C9A7BD73BDE6226B9A7C981BD832759BCA2EE35BCE40E26BC5838103C1FBA55BC6C62BABC4FD7953D8969AE;
	14971 :	3D92480FBBEB2BCB3C29C1E2BC616D733BC9F91A3D8566C03D6846A2BC9527983D321FDF3C640CB9BC8350C8BC497957BCED78C3BD4D17E1BD77A9E23B0090D1;
	14970 :	3D36A9E83BC158023C539A21BD3EF16F3C4216B6BC0420843BB71C5FBCC8F4C6BD3BD511BD8161D73BC01877BC32C279BB76D7303D5AF72CB90FE5C339808EBE;
	14969 :	3AAE00E5BD11A9CCBA912C0A3D0CA4CEBCBD6462BD827F123CD8BB9A3B4F97C1BCD9B1923D4A1277BC8D0DC3BB960F69BBD34478BC119004BCEA4CA1BC8D045E;
	14968 :	3C8C4D20BC7438AFBC7DAE123A97B987BC5A35813C0D0C493C15EFE73C182C7F3DA98F09BCD59AC43C53BBC7BCFFFFCDBBC3095D3D0A0F953C318F163BC28E70;
	14967 :	BB7DA9BCBC7524DB3CC910B73CC5B5F53CBB0D2B3D57B48CBC62F595BD219D8ABAD5CBF03BC4A8C73A838CA5BD6515503C4818703CF558E03D3954FD3D4EABB4;
	14966 :	BC6C8D1BBD39D92DBC208522BBF5652F3C2F1BBA3B58B81EBC3C25A53C8363C33CDB52513CEFDFADBC069970BAB5050B3D6AC01FBD404326BD48CA2E3D2EE246;
	14965 :	3B3CAE1FBC1398DCBBDFF63B3CD02F8F3C1900583CD8B7C53CA877A2BCDE997CBC4E3EB53CFBE6113C95A68D3D03EA483CB01F38BC95CD27BAAFDEF93CE850A7;
	14964 :	3B0A8EECBC507CDD3CAB5ACDBCF7678F3DA15357BD0EB2D0BD09B0B23C45BF083B9C7C45BD2365F0BCFCCA973A612E8C3B9CC4EC3D5A939FBB2986523B440E2A;
	14963 :	3B8200D53C4A0E3E3C9660953D910774BC1C164A3DC313213D966C2C3AF1B717BCB0AD613DA5276CBD49EE9ABBF7FBC9BAED60D2BD4876BDBC08DDFABD1FF22E;
	14962 :	3D8839803CCB37993BFFB02BBCFF349FBB66AAB83CAD5BC2BC988866BBF31A26BC9C95033C7AAF3ABC381CB53D7127443D055F603A7B7B1DBCFD57DABC94B05C;
	14961 :	BCA28D2ABD1A7D66BC83CBDBBCB1382ABCE037313D9239F4BCB2E328BB2BA6313D008CB9BD246965BC872AC1BCEE70393CAED9B4BD187F2CBD12CD78BC2DBD15;
	14960 :	BD529447BCA9E3D43D1A3B9D3CFF70183D3AEE183D4DA81FBC46A963BD109B21BD775760BC78B631BC95E4FEBBDD58433BF058E33B0218A63C0CB16FBC222715;
	14959 :	3CA0861C3CE3A670BCFD48B1BBB19CAE3C33BF423D857DB53CCA025EBD1D4CFD3D9C87B63B01BAD93CA1B79B3D7CF9883C4F0AF3BCDA69C9BC7042393C52AE51;
	14958 :	3D1755163BB51ED1BC34DB89BD462867BC44842DBB99181A3C4DDB923CBACCC73B535E083D708D33BD364D44BC377C893BE831A3BC1EE13A3D28C198BBABBFB1;
	14957 :	BCBDAD9DBD4B1CEC3CB11ED4BC8CFC063CCABB27BCFACE2E3C69623BBCB2201FBD182A0C3CD9F1F6BA275A2C3B24F4853BEA8A673D3177253CBEC961BD3A4DDC;
	14956 :	3D343AF2BC95FEEB3D9F388DBD0B1E3D3C595B38BD105F53BD3D23D8BD9B8C23BD1E14F0BD11501BBD6308CCBB7D2CEF3D64C4553CC1390CBCB6E7CD3D00D9E3;
	14955 :	BD4947C3BC912D2E3D0AE86D39F8C65DBBE2EF78BD20B7DABCB390953BE1544CBB1B1A78BBAB4DDCBC3D5157BCBEEA94BC5E5573BC0141F03D17ACA73B18D4FC;
	14954 :	3C8CABC5BC1267103CAC312B3D5F3C793CFDDBA33C86BDFEBD4CA5C83CA6778E3D37578A3D5D344B3D941CBCBCA63F823CCE29B3BCBA91703D55F6FFBD06BA20;
	14953 :	3CE28B07BC3B2740BB1AF7F4BBBAC90F3C9D3BF8BC42944F3D1AA870BC582B9ABD7B88793D4B3363BC5B75BABC724C35BCCBD744BCB159E83C0B39303BAA8888;
	14952 :	BBEA5924BD8815B13D1EA8023C381A7CBC8B79F63C96DCC93CCE67B73D072E103CF857E73D45F5DFBC83584B3A88F52DBCC1F3733D63228BBD33C99D3C67B59D;
	14951 :	BCA462C33D3C54AEBC2E9CEABC6EDF14BD40A7A7BCC9012EBCCC70D53D254D493D7B7F83BD466CC3BD0F7CDFBBF80828BD4560E7BC90C8793C6929B03B731571;
	14950 :	3CDF167E3B4BE6423C40AF94BC8977CDBBB1FE46BC8A5DEEBCB58C683CC5B241BBF255AC3C8FBC81BC4DE6953D49A5C73D8166D93CE113C93BEC338FBB167D4C;
	14949 :	BC202B9F3D174DD23CB38975BD921C2FBC14967B3D0F320BBD27683ABD339CD33AD27D79BB1A44B23D25030F3BBCB0923D2F3DA13A165B64BCF2157D3C969DBC;
	14948 :	BD49AD0A3D074188BD08CB60BD15835D3D1559053C431C18BD15291DBCA3A14539CA1B0FBC230EB4BCFC7660BBF7240C3D044289BCFB08C73C74FCED3BB3BB30;
	14947 :	BD0CFE6A3D2BFAAF3CA3D5CC3D48C1A4BD57032A3D3758C93BA17CBA3C2955A53DADC6E8BCF047DE3C6B37D03D7EE5BB3CD6AB55BCD548DF3D6828AEBD7B137D;
	14946 :	BD824D10BC9EF0BBBCD0CDF23CD52200BD2DD479BB9737FFBC95B6EE3D3E681BBCCEFFD7BC973F65BD04DC47BC9BB4B63CCA2E49BC5CBBF93D6F4D1DBB96D138;
	14945 :	BC9F7B3DBA84069ABD5BCF48BCA4FD813D5E9F63BCC8B7263CB95EBC3CEA5A3EBD411D3D3CB743BD3ABE0CDFBBE044BDBCF7D6AFBD81BA64BD056D6D3D0ADB98;
	14944 :	BBF70E0BBD4887EEBCDC2BE53CAA19D1BCC89B23BCCA646A3C9A9261BC165FD7BC093223BD0409DBBD86325ABCD2D852BB8D8EF23C0C6CBBBCFB10DFBD7BD110;
	14943 :	BD7C4E043D3503AC3C8305ACBD09074FBC850269BCB308D5BC67A4DB3CC6F763BC9F39BF3B5CF9E83CACC3033D7AEC70BCF650E7BD0443A7BCAF6A063B000AE7;
	14942 :	3D163EFF3C10BE0A3D5A1F6BBD4527E13CA2F0BC3CF9EA89BC1FC3BC3B14D341BD3B2DAE3D6D34F13C7B6F6B3D660705BCF2DC573C07E94A3D7D9C953D57A9AD;
	14941 :	BCFC8D3B3D680946BBE3C091BD4092C93D97F9913B8172D0BCACC9973CB048693B6DD48BBD0C1575BCFAB8B2BD6EFE2C3CA5454A3BDB32083D0DD423BD0BE23E;
	14940 :	BCDEBF1E3D4697DFBCB769E63DC9192B3AFF083A3CE8A3F13D9404BE3C0966AFBC539D4DBCC0EA2ABD79E048BD6D6D4ABCAD154C3D367068BD30AC2DBC5FBD2C;
	14939 :	BC28C0C8BA9F3DC83D1775BD3D4C37FABD813C443A95B8523D7FE097BD53DFA2BD45A3C9BCA282923D3946023C5698B0BD3F5399BD35B88EB9F0D2723CB29273;
	14938 :	3D54F4DA3B274433BCF69C073C9FE046BA1D649CBD2F124CBC60C29B3D946357BBE4812B3CDB4C79BC691CF8BCE4EE2B3D48DA80BDB4A382BB8C45003C173BDE;
	14937 :	3CF5933FBCDCD8FC3C8E88D93CD6F78ABD3629CDBBF756CBBCF7D9AABCBA1B54BD105BC8BC2F74B63CCC2F48BCB25D5ABD288B883D673EA6BD0F5E153D391337;
	14936 :	BD2EE90DBD4E8BDDBD74C86C3A679E4D3D4B4DE1BD8E8E8FBD4F7432BB8CD160BD96A607BBE4D37CBCF1EABCBC502C673CE66C72BD7FE34BBCF42D073ADE3046;
	14935 :	BDAE1D06BD1CB8833CCB53953B865D173CB767413C9106A3BD70BB3CBCAFCBB63D7E560FBD4D9A7BBCB32A29BD1545A73D038307BC6B06CFBD77D101BC258AA4;
	14934 :	BDBFC4043C47B638BBED4CECBCB79D61BC2F9EDDBD146D70BD4E1456BD1A43FDBCAE15483B9B35123C72D901BC9529B2BC949EB8BDD1B88ABC0BF86BBD890548;
	14933 :	BC96C6453C96A5163CBA6C39BDAD9B143D4BC55B3D62CBE43D057FE8BD8A7FAF3D190B933CE268FDBD2F592A3C770988BCB2DD7FBD1EADB13D99DE0CBBEFFD92;
	14932 :	3BD272C53CBFB8A13D2596143D321F39BC81E1EC3C6A82343D7504823D11CA6E3D99C84D3C9F74283D71B658BD44ED233D81DDDD3D3519223BEF4141BCB27C00;
	14931 :	BC45CB62BC4399643BF9829B3CADC2DFBCF6478BBC9CE66ABD8176063D42D620BC9A2646BD60711FBBCD74EFBBD7829D3D9593413D285AA7BD6234A33D67BE51;
	14930 :	3CCB1514BD8DBCF4BD878011BB3411A8BB2265DF3C0C2A43BCB7C236BCC95F59BD220F273BD975653D6D4209BC8B4E433C28E915BD0A8EF7BC1A7A0C3DB141AC;
	14929 :	3D1DDE273D35B208BD07A51D3C1CBA923D3BB51FBD7868C93C17DC5FBCDF5EE3BCD1B74F3C5D74093C45822CBCB7B5D43CDF2C4FBD1B8553BC8D994FBC9B7604;
	14928 :	BD2685B3BC94365E3D2716B5BBD60A853CDC306E3CC0EE45BD34C5163D3C5F12BD3F51F2BD00A13E3CB146423C7BD8EC3CF088AC3A3402263D509CC23B6C0653;
	14927 :	BCD830C63D89CD41BD3A6776BBAD5AC9BCC796AFBC73948EBDCC8D513D0F2E533D5C9C103CDC7A5A3BC11CF0BD1588E6BA2114B33D802B873D2CD5AEBD473899;
	14926 :	BD1313FEBC452037BCA7E773BCAB3052BCF3C8A43D859E9C3B38538D3D9DE7ADBC0F3D82BCEE676EBB38DA3C3D75C38DB95B0D6D3B18E437BD6E16FABA86F65B;
	14925 :	3DA5CC3D3C71E3383CBCC699BCADAC7ABC9200D1BCA82701BCAA5C9A3B1E4C093D17D275BCC32A00BD0A32EF3D1E87DE3D6E95A33D6926CF3C5597753CA8C66B;
	14924 :	3D19AF423C4AC2323C1A5C8A3D3C3E0E3B8AA0133CDD184EBC34BBBA3C42063A3D87B01E3AA0F7A7BBAA2E2CBCA81DB9BC86C3CC3D4E6419BD070D2D3C851369;
	14923 :	3D349FF23CBFEB05BCE7087C3D39D3FFBD3112B8BD8596233C66E2A2BCCF0D21BDB9140B3D8954E6BD05F843BC9964243BD72DEDBB778FA5BD15E9313D2437E1;
	14922 :	3D2F2D713ADC5578BC8B8F08BC8C62E1BD4E4472BCA06E893A4C31AE39B39C4DBA645326BBD2EAF43C344805BBC38C25BC3FD783BB177F4D3D397EA3BC1A5B0F;
	14921 :	3CD618423D077539BA93BC803B82177A3D228652BC3B2F2CBC1D6B4EBC0B10E33C2294E93C740CA9BD20CFE03CF8CEC7BC5C1A853D40D4903D2607BEBD2A6EAC;
	14920 :	3C3C0DD8BB6F4FF43CE62C51BD28404DBD34D4583D6195203C80521D3D2221B13CE9530FBB31B2023C3B7CF6BD0ED31D3D8246E33C015AC2BCCE59BC3D26E8D3;
	14919 :	3D8258DBBCF2D201BD039FC83C54296DBC2C3C8F3CB0BB22BC6DAE81BCD7D5C93C9BDFD4BCED4DC43D1882073B8058353C3C3DB1BC2CE50F3D05D0223C87A7D2;
	14918 :	3D660FE73D62DD763D7FD8063D10A5F3BCD721FABC616ADA3D07B7A3BC8488963D57046E3D16D855BDE90ED0B887E156BCA9FC973D3E03A5BD4995713DA75F07;
	14917 :	BD6312BABC4D94E4BC9956C7BDB89E5ABD85AFADBD17480F3C92CBE6BB99560C3D80F5BF3D2884013D465F5CBC90047BBD49E57FBCC76E0BBCD2406B3DB7C393;
	14916 :	3BDEA803BBFBF5683D5FFFCD3BEE7FF83D3440ECBD02380DBC6D87BDBC3B32E13C37399FBDCB80F93D381358BD8767C43CC288D3BC4E97673D8233B0B9289BFA;
	14915 :	3DA22C543C9AAF623C4DAE79BC0AC0B9BA0B2391BD3668423C9CA06EBCF3161ABD7C7867BD9793A2BD4303F03D9AF42CBCB1547EBC4D8A92BCD5FF5ABD16CD2D;
	14914 :	BD2FB830BC97F32C3B032309BD46C6AFBCBEA0C0BCC2FA0A3CF44F423B14D841BD1E3E423AFFFE223DB1C5863B88B897BCB8BCB13B308ECDBA9137BCBD378C22;
	14913 :	3C9CA7023CD72EB5BD7690CF3D20286BBD04C1BD3C0918133D9496D53DD5F92BBC2C64513DB25203BCE159523D227D4DBC9DDC31BD762ED23C7F05FFBCB26617;
	14912 :	3B282CEBBD59D32C3D92FD7FBD60DF663D4129C33D0CD9FFBD186CD73D7F3C8FBD03DD3DBC88F0D8BD323C74BCC1EC9F3CC7307EBC3C6546BD4DB531BD363492;
	14911 :	3DCBD439BCFB929CBD57AB92BD91A6BABCAA4A363C03DE12BC3F90EA3AF23FF63B53E2FABD82E54E3DAC51083CF587063CC505B1BCFA332DBD7D82BABCA74C41;
	14910 :	3D6056AEBD93F2433C183FECBD0BFF673D785852BB2386643D1126B9BCF69D173B8355AD3CB61DA0BC3778EABA3CCDE53C83D353BAA1A77ABC907967BC144AC2;
	14909 :	BD4348CFBCCA9F15BD48768A3D1999023D1BB20DBCE86CE23AC1704F3D150232BC8EF3BA3CB982D1BCA0B421BD95FE7EBD5AECE33D0B58B7BCBAD9B9BD06E484;
	14908 :	BD406583BD536FA2BBCFC081BD6C9092BD8188F0BD5B5381BDA1BABABBF2B9B53D1565D8BCD1D034BAE8BDE6BD2407C3BC89FABCBC3C4CF8BC8C748D3CC58CBC;
	14907 :	BCAADD33BD2CF1413BEF98FF3C969B823D28A55BBBE6F8F3BC325E1C3BBD2B4DBD0D2B46BCA5788C3D099A223CE895C03CF34295BD311B61BB14509F3D00C10F;
	14906 :	3D6B8DA03C433C07BD8690473C2E2027BCE9C88B3ADE2AD03CA1A2063C44449EBC91FC783D88BC41BD5240183D6CA50A3BBC11763D3376AD3C65FFD53AEAB948;
	14905 :	BD0245943D5171A23D19E5A1BD1AF4773D50B38A3D81C35BBD2670F73D1234873CC9369F3D83FE523C91E304BCCECB80BC72680EBD7E2FB4BBF841773C0E47D5;
	14904 :	BBA23EFCBD8309C4BD9A75283D4C2057BC2FEB563C7103003CA816F83C85BF56BD1743733CEF0ACABB66A225BAB60D8F3D7B440EBCB0E73FBD575E47BCF793F0;
	14903 :	BD06B1403D42772D3C93505B3A69E9FE3B8B3AA73D6FD5A039E9C8943D1BFBC13C03D95CBCBD87003C948ECA3AE57984BC9C01F9BD00A865BD2254E93D98E597;
	14902 :	BD8B32AB3C1144F8BC8CED693CC41119BC3129583C978506BD402C8B3CA422C73D6840FFBB0F3D56BBEF1009BD6F1287BD4B02C63D1DAFDF3D23B39CBD42492B;
	14901 :	3D41F186BA4321C43BD0FBE83D841F1ABCC04A61BB87651EBD9213D1BD229CC3BCBAFD533D8132943C21D8523CFDB0413D32939DBD6C8107BD880F533CAF01A4;
	14900 :	3D7E57A5BCB4B5FEBC9FF1DA3DC64310BC2CABA33D4E21093D80471EBD937A66BD982D5C3C0CE9DD3CD16A013DBEE2113D9DFDE2BD88AD9BBC58694DBD509C86;
	14899 :	BA66B84F3D0BEE463B9F955E3C83D223BCA106B2BCA32FDDBA05852BBDC283FDBC7E83F83D3593773C60BB2A3D5EE7D43D5CF377BB2617BBBD6D1D853D397697;
	14898 :	3BE1038DBD1AF563BC133385BD818F01BB0CCCF83D44D8BBBC8A79803BDE6E483D2FC9DBBCE917803B367A9F3BC545BDBD58CC17BC6F0E1D3CFEC8F13B88FC4C;
	14897 :	BC08C6FDBC3DFD2D3D8006E13DD67298B9F628AE3C6634A33D27DE36BB112495BBE966993CBEF4243D232655BD280015BCAD08B6BDB8CA49BD330EB23C2A5BA8;
	14896 :	3CBFD750BCADE8363BE7663BBD81E8223D9465983C1FF68E3AFD78FE3AC59FC03D756D8D3D6644093D2C74273D33F0E03C09F42E3D70C804BC25FF543A720826;
	14895 :	3C50EA613D2058753C88111CBD9317C7BBF846343D467C84BC3489E9BD4283B73D2AD2443C88AA79BC83B444BCC8D383BC7D7701BD99D2383C6BF9FC3C9FA12F;
	14894 :	3DD35670BC298E33BDC484733D14CAACBC3704BA3CB5EB56BCB90E45BD30EA67BCD8846F3C9335FDBD1FD5F0BD2E2EE53C4035143C2E41663B8E19D63D450A9F;
	14893 :	3CEBE232BC9645DB3D0AB572BC15F54A3C8AC8B53DAFFC80BCB1F13FBD8EB8473CAA27BEBC840F07BDA17D8B3CD9B6473CCF373B3BBFB773BD2CAE9B3CF97FAA;
	14892 :	BD8AF991BC987892BCF645133CC49B1C3D88298F3D922CDA3D1C18433D7DCF2FBD112CB9BC235A6E3CC3674DBC3FDD153D2932DABC8E3C483BEE45E53DBD3B13;
	14891 :	3C6238F0BC15D1B83D01A695BC7DE1C73C50A906BD951A463C49B0E63CE28ADD3D55D18C3D0E87D3BD8A6214BCDADD223BB76140BAFEB235BCE4BE033B742007;
	14890 :	3CBEA885BCDD75FBBCDD4F2CBBF8FAC63CB4F4AABCC427BFBD2091663CAFEC11BC85F1943C279685BC8A8D223CD4FE113D8628303B46F8C23C407FABBD87E600;
	14889 :	3D99441B3BBAF8B3BD4847753B9EB1EFBCEAEB56BC24BF88BCC6061D3D0B5A23BC4C69853D5045B7BD9575FC3D60574EBCA8EEF9BD636828BD33AE4FBD5D8E86;
	14888 :	BD356E83BD8F37043C565C813B99011FBDA7D304BD8E642CBCB078C5BD0C996A3D8CFE36BD1936CFBC74541C3B4B0F413CDE75CFBC2152543D5E41C03C288BD7;
	14887 :	3CD8FA98BD0C5B74BD1D0BF4BD1139283D441E2D3CC6A178BC47EE7EBD5E934EBCC451C2BA973B2CBD04857DBC73B237BC6C29BF3C4F13DB3D7815E7BCC44033;
	14886 :	3D3384F33D1CC6ED3C95421B3D55DE6B3D452564BC03C5B1BD2A1D7D3CAD84753CF5EF18BD4D5EF83C9E3278BCB63B183CB44B15BD0700F0BCE1452F3B1F51AC;
	14885 :	3D00156ABD737885B91BE34A3D4811DC3D16658E3D2F7E6DBC4CDFAE3C87B3F33BDAE7AFBD51483E3C0ADE9B3D2D7D18BD0539443C0E71EBBD8212FABA9EC131;
	14884 :	BD3A3E9F3C249A41BC1ECF283AB439B03D2A5225BD7721573BEA55943CD31F1DBD659027BA3387693C6F5359BC32B3FABCC7712D3C6C176F3D50CDC0BC9F3024;
	14883 :	3B1B8230BD5786273BDE627EBD035CC0BD49CE373D906ECF3D8ED9CFBCE9CD13BC0F4B9D3D1DDB313CBFAAE63D7B3CA0BD89F0A6BD927941BC31C046BC0C5345;
	14882 :	3DA42944BD7C64E1BC83FEBA3CC4BC443D85DCD7BCEBC420BCE447E5BCC37CBF3CED27563C8043473C5A5A713D72186FBC7950DFBBC01E923DB00589BD3AB79D;
	14881 :	3C09C7DD3C4CE4E0BCA7092ABB2D55FA3CD9037B3D22EA203D0A9A97BB9980CEBCEBD682BD0FFD8C3C8A7FA1BCA7E737BC2BB2A8BD10F6CF3D135E7DBC90B6AD;
	14880 :	39ABC4A2BD88D0BD3D25BB243C4B6569BC4BAD6C3D0AC5FE3D29813B3A8250FCBC97BEF4BCF3DB533D181BE83C40CBF83CC032BB3C5F9B19BAED82453D12248E;
	14879 :	3D84E3823D37956BBD32E9F1BC5A8682BC14C5FB3D80BD86BD3858F7BD23F9883D2A76933C3860D93C0526E03BDD5F563C8A8D55BBF46F14BD0818DD3D011049;
	14878 :	3CD0B3AC3C9A2B16BD3FDB73BBFCB26B3D0CC05FBD2F8C273D19FF8EBD65B2123D02E7B93D9ECEF1BD4B039ABC50CD6A3C2B52483D2FF347BCEF363C3CF6497C;
	14877 :	BD1DDEF73DA10C433CBAC3363D560AC1BBB7D9B3BCC90507BB42E54FBCC88A50BD7A498EBC5F71DC3D46B6413C8D6ADCBB3534923BB200103CCFF01B3AF05EA2;
	14876 :	3C4D1A3C3C12908A3CF40BCFBC80B4593D213878BD1A11AC3CAFD6DDBC4FD969BCA1FB9CBD5677593CBF3170BBF96D863AFF30AC3C741D50BC399105BBCB39E8;
	14875 :	BBF93A4CBCC940653D669A0A3CA9A7B93D420CD8BD6E2FFC3C72FA1EBCEA25263D615B933B720B053ADAD2C7BD0A88073C2F9CA2BC2DA23E3D5F70EBBC2D0491;
	14874 :	BC1DBD83BC0915E43D282E5D3D2122373CE4D5B7BD4F1AD3BCD6A9FEBD29AF0F3D0F693D3A2855B83D4FDD1E3BA3951BBB90654ABC5C49E53D9A65B4BCB195FE;
	14873 :	BD28C18BBD0859C5BD123361BC17456ABD014571BCA14D9C3C91BCCABD85CFBCBD2DA0FCBDA2C36C3D555907BD25BD363D12D50B3CA9B7853CBEE07C3D040BC4;
	14872 :	BD373D623CA93AB13DA0DCDD3C8B2987BD30DCE93C300702BD0C2657BCD2B5383BE8A90D3CB123193D14C644B8CF5788BBF6ACCC3D6DE0353CFE538D3D1D4305;
	14871 :	BCE2C28DBD359EBCBBBE03ECBC5E13DC3C977B05BC07F9C2BB8E25CE3CD960023A1C6F373D360D063C213F323C4232A23D0B536EBD192D453C28938F3C1B2584;
	14870 :	3DA8A0493D329ADBBC930F943CE724803C217F023D4285DABCFEB53FBD2AA0C4BC53939A3CB06878BD2C6EF53C4E5EEA3D99D5CFBD0BE1BBBC0EAF47BD05A9E9;
	14869 :	3D726B82BCB6C1F1BDA12C583DBFB6513BB24ACF3D829EA63B1A44DD3D429CDA3C68805F3BF2F7A53C7DDE683D1674983DB844C1BB093CE73DA394B7BBAF722D;
	14868 :	BD3166B5BCF4B4EDBD443AEABD5943E23B12863CBC8017123C207AC63D8215863D5DB74F3BE75A613CBDDC71BCAD86FBBD0D38BFBD1745BBBD4719403CC4FB8C;
	14867 :	3D3A52A23DA9970E3D1EBB7DBD5913D3BCD61BA4BC36BADCBBB958A5BCAA3BBFBDC91A30BD1191C83D383B543D6DAD25BC935CBCBC673E073CDE2A71BB547EBA;
	14866 :	3B8F1140BC0744AABD5019653B24FDB53D0F45D53D75E7BE3B9D079DBC517C3FBD1732D83CDE8848BC0CC8543D53F485BC02886DBCDE4E553C80511DBD353CD4;
	14865 :	3D4C9FC4BBC421C9BD3D1A19BC458A113C7EDD6A3D2C33403B20A2E43D2602FDBD120DDB3D6AAB23BCD6E9813B3A0358BD69FE5FBD03F6533C6499FCBCE1CB39;
	14864 :	3C7058FBBD2D52293DCEB704BD157FF13C199F9D3BF4E0023CBF536CBD378DA53CE1B32BBD19F0D03D146E203C034E453C6366F43CE94314BD3279FCB8A42C40;
	14863 :	BCE9CD7ABCE48C633C9F7FE0BD05DF5EBD2A1B69BDB03BC1BCE24529BD8438EFBBED440F3DAFB862BD313783BDAEE6B2BC1F2E85BBC0AC8D3C3D77DF3CA2C810;
	14862 :	3C38F2193C114FE03CB49BEF3D7E800D3D9D1683BD4063F7BBCF4931BC7B012D3C5BE7AE3D92F330BD37975D3D166128BCA4F32C3C9A7ACF3D607463BD1AC658;
	14861 :	BD1E3C253B76E5113CD404043BF2D670BC91D5B2BA83365BBCB78029BC92E4BA3D67E17A39A668FFBC193961BCEC7CB5BD11E61B3B8CFB04BCCE80483D01CB43;
	14860 :	BC24CD2C3CB3A97D3C658423BC43A3FEBD2415373D87C697BC5020353C3209AEBCA75447BCC88BF8BC591DBF3C3F9C583C6EDEDABBDD68293C511AACBD2D03F7;
	14859 :	BC0B2E8DBC246F343C9BB2053DBBC5C5BC9C394A3C5EA6C93D0FECC5BCCBC3103CDCB18BBD2B17A23C62199EBB540FCFBD43D1823D390B67BC3430F1BC2F3582;
	14858 :	3D06E8573CE6BCAD3C210387BD2D1210BC98FEE2BC12CE29BCDADBEE3D4266C13CC199AFBC0396513B94D802BCBBD7EB3D86EA363B8348343CA21C67BD0E0958;
	14857 :	3C0F0D4DBC2A0C7EBB355D023DA8DDB1BCBCB206BD6925CCBD0A2319BC003C433C2B7347BC0C582EBD049E08BCDEE4E7BC46B0B73D6943A8BC6CDFE23A0D7442;
	14856 :	3CF99DC7BBC1606839042F23BC2D10BCBD3D1481BCE05DA6BC061CA5BC4874853CE83968BC8F60263CBA6997BC4C14B4BC2021123BF0452B3C9EB6C43C7ADEA6;
	14855 :	3C51680CBCDBDB243C38FC8CBD5D2A433AB484F4BC93675CBBB987E4BC3AE0633D1AE0F0BD125AE4BBD8E70CBB8CAF96BB1CFD563CEFC143BCCDEBBBBBBA8517;
	14854 :	BC8569D73D7EC9E2BCDE18A1BD028AF7BC22650A3AB8AA67BD36AC7FBD43AF6F3D73AED83C0F58E53C95EDCB3B33DABE3C7059C83D501DB6BB35C662BC1BF798;
	14853 :	BC1E50EBBC6FDD033CF297D63CF360E53D07B68A3D4E67FDBC8690D4BC2A8777BC176603BAF1D30B3C663944BC40BF173BB18D1F3D23567F3D8F57513C4463BB;
	14852 :	3D092553BC8D557D3CF892A2BCD9C35D3C52631B3DAC6554BD16A6F8BCD1895D3D5875DF3B235370BD667E003D46303C3DC66E58BD296CCF3C122720BBEB5832;
	14851 :	BCB0B0B83CC5E4513C132692BD2F5525BC2D90683B5CCDAA3C816510BC46438EBCFC3CA23C6E5DD2BD911EFE3CE960EDBB40EFE7BD5705133D58FFE9BD2BF412;
	14850 :	BBE7BD16BCECCF653CA37060BC03E0A2BD278A203ADD50F8BD309DEABCFFCF01BC6F9818BCE96C733DA2A1CEBCBB18693D58AE2BBCAB4FA83CA1F3093D819DF6;
	14849 :	B7D1E118BB90680DBB4051513D5A43FABC49249DBD335DCDBC29E588BD358152BCDA9C6BBB3FFBC1BCB3D460BC72DB353D2E1898BD05D212BC80DBF63C755084;
	14848 :	BA65D3C0BCC4D3263C85B050BCCD10E63CCCC7E63A8678EEBCD2D44B3DA5D053BC8108A33C25B73BBC39B6FEBACA21B9BD1CBB66BB8DBDF23A2DCF433B8137B5;
	14847 :	3D19B8BF3D445174BBB653683CE12BE4BCA18ADDBC52CCD7BB90C13A3BE5F07B3D964EEEBBF95875BC48C0D7BCB26CA73CB18E5E3D536C1ABB624107BC9A971C;
	14846 :	BBE7854FBC1875BBBCC27F26BCBDFE3BBC8C3D19BD0C70BF3DA082833CA6DB05BCE01B74BB557D5A3D79715DBCEA3AA53A4B105ABC341F6B3CB1A3733C826F8F;
	14845 :	3CDA77263D48EC1ABD07C7E4BD44B0D4BC02A27DBC46A9963D05D3EEBC09EF77BC13F77DBD16EFE43D7C5E4ABBE22146BC9B8DA13DA906B33D2E415B3D2EE4F6;
	14844 :	BB3AEE12BC83F373BC8DD7DDBC9134FDBC9EB17DBBFCC1BABC7744753D37EBC8BC928C32BD0323ECBC20F06F3C7DDB28BD05D9763C3EC4C43C8956633C89E189;
	14843 :	3D8A4E8E3CD718B7BD6E682C3D5AE4FBBD037EDB3CF07F4BBCE075B4BC0889B13CDE30063C7AF14F3BCBD23A3D73C9BD3C1456D7BCE5B066BC8AB0AB3CD77FF2;
	14842 :	3DC5D703BCD1515FBC299C72BA7CABA03D938077BD90AADBBD05199D3CC3013E3C9E8790BCB7E4CB3B6067CFBCC111A3BD5F6D683C596FEE3D9BED61BCE4E883;
	14841 :	BC30F22A3C84288ABC30A90B3A7853DCBD18EB923D181B823CB55751BCE80211BCC77C243D11CCCE3D511D713D0E1F5B3C268E813C73BE0F3B80F62DBD072BBD;
	14840 :	3C084B433C38F444BCC42649BCAC2B76BC3534D0BBFBF33AB9920E65BCD64D793CE60FEB3D1F3DA43CD7575DBCF3BD083D52B6B9BCCD87F23C2373283B2383A4;
