-- begin_signature 
-- ddr_init_ins_gen
-- end_signature   
WIDTH=512;         
DEPTH=15558;      
ADDRESS_RADIX=UNS; 
DATA_RADIX=HEX;    

CONTENT BEGIN       
	15557 :	BCF91B57BD072A0FBC886098BB04ED66BD4FFF81BD15E7533D509EB439F3E8CABD4269423CB16AF5BCC686C03D20807ABD32E800BD32B28ABD343C20BCBAC42D;
	15556 :	BD40BCF73D00C841BD6656BABCAC697EBC99F9F13D789907BBD2349F3D275FF0BB8B1A6D3DC2F8F73DA49FA03D8115EABCF7AA8EBCC0464ABC9AB264BD082C63;
	15555 :	BD7441B73B74A033BC9B20E93D7B6D9ABD77EEC73C933131BC9096DDBD99BD5E3D8FA5F1BC9302B5BB171344BD0844083D1D96BFBD12F8B8B8302784BD350FE4;
	15554 :	3C60F5743C564A7D3AC689983D29ECB73BB7B57FBD5D0752B97683DBBCDFFCD03CF9D92D3D0E3691BCE8A98BBCEAA8F33CAD0E843D91290B3D4613733CB8AA58;
	15553 :	3DB5EBF5BD75A8413B2BE14C3BCFEDAEBCB62046BCA10BB3BA84E17FBCB0CD413DCADD97BC43A5ED3C27D7AF3DA2A070BCD22596BB30B264BD227DA03D4B7DC7;
	15552 :	3C8C7F3BBD4140633CD9E9BF3BA8B0E9BC7D3AA6BD0581103B43BD24B8738C653DB447873D3A32553CB1D4053A8411133D4DC954BD446ED4BCF19AECBC54345C;
	15551 :	3BE88B53BCD50128BC2959C1BB93F7F6BD62F17FBC17EA453C105E263D177E763D1CF589BBE5F29C3D8C70FD3C40FA91BCDBA0DEBB1602F33C22DB62BCF32248;
	15550 :	3C173FC53D3675D3BB0291413CED3F413C8E3E283CCDB46EBC6CD801BC01908A3D072BB73B3A89D2BD7107763D824B813D89714B3C46191BBCC046B4BBA72BFE;
	15549 :	BC08AD51BD974B5F3D4BBCB93CD02DD23D95CCE1BD34A0BDBD782D203B11BD9C3D8E1E25BC5713AA3D99E7193D9A22FFBC7A7B03BA401CAF3AE950C9BC8DB52C;
	15548 :	BBF964B13D0562993D49D147BD6CEEF83C2C39BFBD0FEDC8BD43C780BCA724CBBC9995D33D6D2910BB4CF77ABD8BB2BF3DA02607BD0AE9BABD713C58BC5A59CB;
	15547 :	3C348564BC3250283D0B7EBA3BFDA7D6BD6ED8E7BD42353DBC6DE2D4BD0AA65BBD306147B8B770EBBC929F9F3D21CB7ABC06CA103D45FDC43D8D93053D65ED89;
	15546 :	3D6959523CE7F2D2BB8B14AB3C8C6063BD04A96C3C006F263D88FE793D0A7000BB863585BC9F9A6EBC8DC6403B402C0CBD11FBD3BD83948A3D881A1ABCBA7CF8;
	15545 :	3B5944ADBD5C57A4BD675B4E3AA0435DBC68C20EBD6352733D8B89993C42B3293B25B408BC754884BC94691E3B88B0E53D3CFB253BFE907BBCFF470A3D072AEC;
	15544 :	BCC2AD98BBAFAD153D2096753BA8333A3D43E76BBD034D35BD2B810D3C99227DBCFF9A6C3D7D2A893C08AC7FBBAF4B52BCAC4582BC988CB2BC62B0D7BC85E2C1;
	15543 :	BD0A23E7BCFF90163D4B15A23CC5C16D3D2D732B3B69D3693ADA3B98BCC9BAB5BC621006BA4C72BE3D36B9D4BD128D3ABC434EDDBC8869F4BD01AED8BC8C67B5;
	15542 :	3C33E5C53BB03F953D4E82C83CAAC1FBBBEDEC8BBD46C9F53B6C7E74BB33642C3D5E4FA8BCAD34A0BB7D117EBCE7FB7A3D0FEC763C9219773B701485BC04F71F;
	15541 :	BD317907BC09F522BBBBEF7B3D129BAFBCAB82CD3CF0D043BCFCF1D2BB70947BBB2C0754BD2F4DCDBD41D40FBC825BDCBCCE2E6E3CA5F633BC2289C93D24E0D8;
	15540 :	3C96E9E63C562828BD0190F73C6351D43D30C6FABCC2A3783D20BB6BBC8A63713D8D0330BCBCFB22BBB76B62BCC23E543CEF3605BCB07379BB44A8223C3765A0;
	15539 :	3B8945D03CB0BC563D1597833D3693B83C5CC6D33D6BF272BC9D69D8BA86C36A3CBAFC4B3CE3729E3CC5105F3D2C6B8EBC7BE9C6BC167AD23D6E8019BD0E569E;
	15538 :	3BC541AA3DC2A183BBBA8692BD74467F3BFB4B30BC575F7BBD2D2AE2BD14AC86BC1E85ADBCF6C0D73D24791CBCCAFCBE3D016C133DA42AB83CAFD9403C6B78AF;
	15537 :	3C0077C7BD9CC3663D2AE4623C833373BC15BA69BC1E10163D8F0501BD422F64BD5119523D0374A43C18180F3CC42A13BC9A3962BCE7FBD73C7E585BBD704E95;
	15536 :	3C4138DF3B9D8EE23CFD696F3C28A674BB80A552BD370DAEBC27A361BD1B7ACBBAA92ACDBD9BD2893C2B69EBBD1EEF26BC2241423D8A89973C8EA8523C0F950B;
	15535 :	BBD57DD7BD10001C3D129253BD5CDEEFBCAA233C3DAD0D013D056505BCC2F2473C326415BD243EF6BCDCB324BC3F8380BCF30E9C3D547D89BC4E8464BCA93A67;
	15534 :	3D9E7292BC323F9EBC65FF2E3CFA042B3C1BF4713D9EDF1A3D476D04BD95CF36BC6AC03EBD5A7F563BFC4778BC4B49A2BC783B8B3D42A8603D561A87BD30A3F9;
	15533 :	3C8CA8093CB8979FBD5186A43D4011493D9020403B727FCE3C9ECCACBD1B70613D17C1A7BC6EA2A6BC2C6C8B3C198CB43CE471983C90975E3D8EAF113C18AE31;
	15532 :	BD1004F8BD084490BCD2CBE3BC0F6D073C4EA4073D0401803D523F4B3BB59376BD5B185ABC2825BABD3EB2E13B8C2B3D3A5E98D2BCC946C23D0C0C19BCD7D1F0;
	15531 :	3CE7B305BD2949F43A2DEF35BCD932413CC76DAD3D027F64BD2378B4BCA231C33D8A77033C4363D6BD732D273D144F9DBC8400B0BCDA09DAB85413903C71E002;
	15530 :	3D83406A3C21F6F63B196E8A3CDE5641BB895C313D2670853D8BB65F3C1DBA3E3AD222483C874CAA3C7AB9903C3C29D7BBE1EA01BCD8D7163BD17AB7B989A801;
	15529 :	3DACB5733D4AFD913A509AD7BC2D19753C141BD6BC5DB850BC2F4C6FBD117FB83D025D693D30AB3EBCB2B9B4BC153EC93C3D903C3C3844603D7C1DE4BD2AB53F;
	15528 :	3DA6AB883C8FE1B4BC87B3453D67579C3D82D9863BA1159ABD6CC78C3B144A0A3BC949F1BCA15134BCD284313CB2F8733DA26ADCBCD6B2B1BC87571F3C485962;
	15527 :	3CFA973BBD33AEDD3BB7296DB970C9F6BD6BBDAFBC24A32FBC84C309BCC8E156BC18B41E3D9756923D1264E4BCD1FFBCBD11DCE3BCFAF6393D8BCF4EBC8EAEF8;
	15526 :	3CE27B4E3BE0B5753D8DD73CBCBDB7823CE4D823BD1E16B93CEC23DFBCF7FB813D812A273CA8AA3C3C376484BCE06BEEBB7013A8BBD98B3D3D535D9FBC81646A;
	15525 :	3C3D08CC3D0E050A3C3C1863BD450F0F3C3900D73C7908973C7503CDBD2B9ABCBD3F63C8BB8E88B5BD19FA373C16CC3CBCD0567C3C87FE2FBC7D89CABC848700;
	15524 :	3BC879C63D4F84E23D404A8B3CAEE9CB3CB7654C3BAE7D323D62FCE9BC301FBFBD46028FBD555EABBD03DFA9BD098BF0BC2EF65DBD5ECB27BD5DF0D9BC255477;
	15523 :	BD0228773D07904F3D098EE8BBB94BB83D1184D13D74B0C23CED5445BD4E31DEBB47451DBD75EA65BCAA93BEBBEE4CAA3C7B5AAE3D0FEB80BC93B0923D047941;
	15522 :	3C9E5261BC3BB61ABDC47537BABB6AA6BCA967CF3CCCE7A83CFD05703D43E32FBBC4A927BD6C69C63D20910B3D493F87BC38B82C3D6E123E3CD59469BD4A6DA0;
	15521 :	3C2DD101BBC474D2BC9B6C64BC33F08C3D9E0476BC9B2523BD261F1BBCA365B0BD3582AF3C289EDB3DBD138CBD420A7CBD06D7A93C76F7DB3D3EEE803D12A273;
	15520 :	3BCC95023C9318AD3D03A86A3B4D7E583D174E983B9D1B2A3D5E3C29BC2E9F0E3B24EBFC3CE2C28E3D370C70BC9610FEBC9D2E16BB3C6F5CBCE32DFFBC004454;
	15519 :	BD1E2FD63D8708543BD5D8D6BCECC51FBD48414F3C9132E2BD7992BCBD194415BD39ADD2BD6A44703CFBFEAEBD0ACFD9BD134F293CF5B3C93CEAAA9E3C941BF7;
	15518 :	3D0FD8053CE8C5653CFD76293D6735C63C693F423C701BC4BB9B9E513D97C49C3CB8A04C3C8FD62B3D014C0FBCDF5B70BB0C7A79BC8A1DF53B416887BD09E9FC;
	15517 :	BD71721B399714FCBCE4FFFDBC14F5A43CF8B698BD5643553BDDBA753C71797B3D1171D73D22D1B3BC3DFC2FBD10472B3CB05EC2BC136FE23C887EBEBD42F880;
	15516 :	BC7B749FBCE63EB73D07DCB1BD0673CFBC40C510BCB0FDB5BB6F5D9F3CA665713C60CAC9BCB122E33B28D8813CE449CEBD9B424CBC0EFFA7BD034CE5BC8A4E61;
	15515 :	BD35AB3ABCBBCFD8BB4A639DBD64A0A33C9FF30ABCB29A753CA14CABBC6CF893BD025B61BCC9D7D9BD77FDE5BB53F66CBCE4A0FABCFB18E53CD9D1C33B8F1481;
	15514 :	BC0D0938BD4250613D1EC7C4BD64E54DBD2D6F65BD43292ABB720F3BBD1CA2A6B916495D3BC6486FBD44CD013A31346D3C8DE9023D844825B8534F88BC4A789D;
	15513 :	3CFFBBF93CDAFD43BCC1AC1B3D3D1BBEBA4DC47F3C6429F93D21F94DBC25619BBDABA7A2BD985BB0BCAD4291BC916AC23CE927AEBCEF43F53C4AC8FABC671157;
	15512 :	BD9F62563CD11CDBBC5AAB43BCC1A5D43D4D5B153D0088ECBC32807ABD08350BBC0FF7EC3D0837BFBD49681DBD224D223C9E9C2EBD3BC0BABD4B40883D81B08B;
	15511 :	3D3178B23DBA69323D120A373CE771FBBCBDDB933CF17637BD06DF5EBB8E5C6FBC273450BD0C09F93BC620CD3D39E9CEBD77D723BD262FEA3CE62B5DBCE79805;
	15510 :	BCDA0CADBC8FCD5CBC894D3FBC94ABB0BC849C15BD702936BCEF214FBCE3780A3D5A0C283D0CC08C3CB451A7BCD17C4C3CDCDA8C3CFF97D93D2F4B19BB7A8624;
	15509 :	BCC5FFA4BD9222783CEC1D9C3D0B26B83D1818CBBD0FFDD5BC6A0F433D002AB73D146DC9BBB158673D0033B93C297F5EBB6CBA29BBD7B76BBC81C746BCB654EE;
	15508 :	3B0C6C96BD0DCBADBD513491BD25A6F63D023C21BBA77CC43C9BC32BBCB41A473C4A3C49BCAC36AB3B3465543CF83452BD196D4CBCA5045B3C83385D3BF92F7C;
	15507 :	3CB3E7C03D1FBB6CBD4F70923CC8AC923CF4824FBC556F49BC41C0D7BC19C8E8BC64A4113CA8EDD1BC4A645A3C35E0A0BC4C78023D1836BCBC8E612B3C625B42;
	15506 :	3CA71B7B3CE3F7A33C1347D6BB48006CBD4C88D7BCE38F56BD7D71A73D000B1DBC1B5B573B77459B3CD03C763B9BD115BCC3886C3C1AE433BC26A24EBC5FBEC9;
	15505 :	BCEAE8933CA6366CBB0FE418BB9440CDBC7DAD31BD256D903D0D43FD3C8E73E73B24A7443A3D9E9FBD0AB9AEBBF67031BB45E52E3D283248BD2E277D3CCA297C;
	15504 :	3CD21BDABCF84AA2BBA67894BC98955ABD62ED4C3CAA08C03D2A68313D0480343BE1E295BCF8F083BB787E4BBC0EF443BB8353343D7106B4BB40DB173C8C378A;
	15503 :	3CA6B12FBBF2D81BBD1932943CD418853CECE61ABCB0B131BBB87DA33CCF9B173C8A74EABD4F45683C2D54773D102DB23B908F85BD790F37BCD861C2BC3381A1;
	15502 :	BC9E7557BC60D2F338F72A9CBB2990A6BBF11D5F3BB15D04BD57A464BD3805EBBD8902C0BC3D5C67BD1C31E03BC83737BCFD6D883CAF499CBD3D6CA53D35695B;
	15501 :	3CE7009F3C8F76D83D2BFF4FBD011AB03D486EB0BD4A8EB43C5BFA57BD23BC643C2350313D8C63383D435B8DBCE66AADBC4E5384BD32439B3C88BEEABD156219;
	15500 :	3CAEBC283DA6407D3D473700BD9401173D9B71F6BCFBA56F3CD6DCB5BD7A30DDBD0E297A3CA580823D8941F7BC998A31BD59EA49BCB916EF3C1E60D3BBB7D8C8;
	15499 :	3CAAC13EBD5B81BBBD0FA8BEBC44A9CB3BA8442EBCBC7D16BC968352BCBE81463D29C6503D57214E3C87CE15BCD0AADDBCFB137EBC84906BBC6CCC5A3C83DE3E;
	15498 :	BCA641EBBD0AD4403C048F183BEB43613CBAD64D3C244C823D28B62CBB121DD03BD0B680BCCB195FBC84E2A3BD83AC6DBC330A7BBD297709BAE69115BB913C65;
	15497 :	BCE5A6343D90A2B53CBFC8D63D80D4F03C8ECE6DBCBB86C03DB6B9333C4CF5B7BC836CD1BCB91B7BBB25BA34BB2266E43C3BCE053D22047FBBC38A0DBC8F208D;
	15496 :	3D2C520D3CC429B6BC29DD08BD2575DD3C808F2ABD41D858BD8B87A0BCC0ADEB3D3D0569BD0036FABC97F90ABCE017CE3C84E44E3D1D05C83D944E7C3CF37043;
	15495 :	BC1D26B2BC9BDDACBB65A47FBB2194EE3D1ACF8EBCDE9550BAF979FDBD893E7BBD7F1618BD46E7163DA35D99BD2BBCB13D47805B3D6308D5BCA09D56BD81399E;
	15494 :	BD0D4C4EBD3504553C8554203C82982C3D0479F9BD0909AE3C957B97BCEF9AE3BB8FB1763CAEBEF8BD05E8F1BD447B733D444898BBAA51593D8A6A1BBCD6A28B;
	15493 :	3D718096BB90AA63BD8BCEBEBD41DEAD3D54F990BA1821E83CFDF60A3C4BC2123C7368263D35B8E43CFB3A193D56F6CF3D629AB23B9FE058BC8D1BB33D82674D;
	15492 :	BBCE64E63D19E45D3BBB4742BD3B10E63C21A3783C9C8BF23BB578C4BC5A6941BD79B50CBD00820D3D359EE0BDACDB493D1B81A7BBB9818E3D3AC936BCF1BDF5;
	15491 :	BD19E76BBC7489043C833AD9BC8D5641BD55B095BD1827D4BD0F7531BCD6B7293D3305313BA4DB7ABCDC51E73DD72C0A3CE3F7DE3B18DFBFBB241F0EBC01FDDB;
	15490 :	BD607BCB3DC130E9BCD4F81ABD24B2D83CBB4BE83B6180C4BCF95852BADDC93DBD7964C33D2711353DB0859F3DA1D6663D9FFE9F3D8D27583D67AA66BCF88F6E;
	15489 :	3AFA1C1FBC974ADF3D7204BE3C16DD1C3D2C354F3DACB5073C8805BFBD494734BD0F55613DA486583BF2D4ADBD0706EABC67D84A3D3636A1BC8B866A3D4FD932;
	15488 :	BCA69F083D337102BD086861BCE7E8A2BD399982BD0B118B3C7BC01BBCFF29EB3D0009813D88DF55BBDA04F2BC2AF041BD1A98EFBBA180C5BD2514B13D01C0C5;
	15487 :	BD1588A5BB8046B4BD9E6A00BD58E7F03CFDA7283D24B3843D26C49A3BFD50E53A66D17E3CA7BC83BB22DEAFBCE38BFEBBEDD3CEBC13298EBCC8D26DBD61B110;
	15486 :	BDA9A28CBD9DD6303BA152113C5CDECB3D051315BD871E4CBD36D201BCA421233C49E4263C3483993D8A5C97BCE0DC333C358459BD10594639B103A2BD22E109;
	15485 :	BCA1DDB1BCEF4EEEBCBC7BBBBC45C994BC2BF4FCBC7B2E623CA2C0523D4E2050BA0D79673D82BB483D64D2BA3D2A0CA4BD0FFEC7BC09B4BABC27A0093C99F82D;
	15484 :	3D25F104BC8A235E3C9ACD24BD1D84453C7DE7BDBA312FEE3CCE244EBCD36FF8BCB64C6F3CE8DD70BD809DAABCC21A0CBC3427D8BCEEA1EBBA8C1D423CB34FA6;
	15483 :	3B9AC37C3CCCF4EABD33B5CC3DB54E963CC391953C6345D7BC72A0E1BC880D023D007D06BB484D233CCA8EFA3C6D36B1BC8E371ABD6A35DABC368C743DC37A41;
	15482 :	BD3C2F35BCDE12E8BC7E0DC6BC85C0E9BD430E48BC934630BC35E4233D62AC07BD8DC415BC2F3E73BC7801C3BC8A80A8BC8C11D9BB58A7AE3BDBF73D3D037351;
	15481 :	BD210F4DBBEB50A2BCED4A44BD59F36BBD1EC4D43D9E14E6BC50AC353B1548D6BD00F0283D248456BBF0E722BD57BFAABCFA00103D9250FB3D00E681BD1FBCE8;
	15480 :	3D9627133CC6643FBADC21DE39E63BADBC9881543CFB0AF6BA1250FEBD4437B6BCEADA933CD4EFFDB6F54163BC88D5D93C1608D8BC63999D3D96E160BD373101;
	15479 :	BC8A0ABF3D4E55323C6DCE67BC27ED13BCEE1616BC6A5E95BD4B53E03D842FC8BC70B15B3CA8713EBCB6C9213D0281FB3C365EB9BC3C8B013B5D5E3D3BD997D6;
	15478 :	BD72E441BCBA6EFABD721981BBEE9F733D8EC78CBC2D598FBC9DBDCF3C4B6ED9BD093B47BC9D1F9CBD0AB860BD231D8D3BA7B990BD486613BD0848443B2E3FE8;
	15477 :	3D2496233CAC5C1CBBF4A8DA3C86783ABB6652B13C6370D03B4D883EBCD84F613CE065E1BD058A3CBD1436563D052A1FBC70EC39BCB7A1DC3D345877397ADA31;
	15476 :	3C051E1FBC9C45F6BC281EC63CA719D63C8CD9A6BCB9E6D1BB5CDCE13D83851CBCC3D1FBBBD0A02F3D0F303A3BEB1941BC0DD61E3D4DB655BD021971BCE0FB7B;
	15475 :	3D4F9B1A3D01DE48BD6436A73D53496E3DC0B6E13DC39A49BD3B9B483B518CEE3D43F386BCC38A983C71D9A0BC7877F1BC2A4828BB0132253D0D3B513ABFDD6A;
	15474 :	3D54CC37BDB15A623B8C6F93BD346AD13CF7370DBD72E966BC85F9E13C3D686A3D848822BB8AEF85BC9157E53CD83ECCBBA4DB8F3D8F1707BD133FC33A9C1D9E;
	15473 :	3D18457B3D34C947BD080931BD23FE6C3D7A4A903D4242F7BC46951D3B4D478BBC9573E0BCCDA921BCB2A43B3D3129893D680ACB3B361A0C3C058D9D3D72FB34;
	15472 :	3D80045EBC0C6FAEBD0E66FE3B280AA1BD1BD2C83C3A15E03B7A8088BCAAA492BB4CFD103D0290723BC117383CB2CF733C0180D63CC045B6BD2209DC3D05E286;
	15471 :	BCDFCF6ABB5E1F81393EBE483C87980DBCCFB8F3BB10259CBD07EEA33D6E54413CD79D3B3CF6B1F53CFCE61D3C096DCFBCAE3CCB3B9F794A3CF425063B600CE7;
	15470 :	3A21188DBD5171413D45EBE7BC1138BF3CB913213C5A99603D006F85BD1422593D86D4F13DB5DA1F3B192974BD0C3C41BCA8E45C3BA31E0E386471D1BD4D0D00;
	15469 :	3C515F283C8C70743AB0E5BA3CCADD3E3D3BD4503CDDB20EBCDF6E843CAC8BA93D0BD2B2BC3CB24E3CE4751CBC4F4F7B3CE694193D1B38C2BC398D0DBD226F4F;
	15468 :	BCF64B37BCAFF311BD0BD5D53C0D444FBD1A72F1BD14BA83BB26C21ABD1013E3BD436100BC9FF35FBDA76936BD20215E3DC134613CC757ECBD2E6CD63BFD7F5A;
	15467 :	BD2368A0BBFF37C2BD2F1809BD0D6BF43B218B873BE9706FBB58D4CCBC9385043B9493FCB93F09633C1361A1BD226636BD272E8EBC666E183D9837023D8A300D;
	15466 :	3D056FB03CAA4CD93BDF0310BC667CAABD08756BBBE587253D9EBA95BCD214F13C73D05FBD9C1E873B8F76D93D699F373D917F833AA538823D8DD5013C87112B;
	15465 :	BBEC09FA3D0CC643BB837995BCD4FE4EBC1690FDBD0B57D43CFC0C46BDB18E5A3D31D6023C35897E3C1D630B3D3D865A3CE671BDBD1093D4BD0F9E1ABC52D564;
	15464 :	3C8C1131BD57A3F43D44630BBD87B572BCB1A0BCBDA348D1BD2CED8F3CE13781BD6741B6BBED70933CCCB3773DD8A164BC9C0EDE3B21777ABD293F89BD60162E;
	15463 :	BCD61DE43D681AC73C3CCA9FBD2486073C3A10A03CADCAC3BD6DCA9E3CD9BC653D0716EF3BB43BBB3D1D3AACBD21CDCB3D275ED3BC5EFE3CBCB8D4333C36598E;
	15462 :	BDA674A9BC69D824BCC288813DA9A008BCE56A293D020AE43C32D8DF3CB07EAC3A70C1143D1BB49F3C95315BB9DF5C323D705758BD33BADF3D3A05E0BA7BED24;
	15461 :	3CE41BBF3DCE04C9BD8FEE153C386019BDAB1C17BCCC3D2EBADE2E67BB88B002BD80B57E3C79B99DBD6058F1BC31AECA3D02034B3C43F8693CF3B1E5BB980703;
	15460 :	3DA41D073D80D6653AA18EA53A80F4683C647E39BC9BD220BCF4819D3C6EAB1D3A945C93BCD4F03DBD34AB32BD831F833D4AA31ABBFA599A3DECB2533D835FA4;
	15459 :	3CC68674BD1679F1BC52FB54BD29D952BC9ECA72BCE1BF32BCD418403D88D1B1BA2EA75C3C8380A1BD4CEB9DBD119BC9BD0081743D21A63B3D5E725DBC245557;
	15458 :	3D705A3ABBF06B07BD1C9DEEBC6FE2A33DA8115A3D8AB9D73C6994DDBD80168EBC6156BF3C5C14E33D50EF843A63ED983D8C5906BD69984C3C75EE0A3C9DCBA2;
	15457 :	3D0E6666BD295FEA3C861B7DBD3B96FE3C1DB2DBBD38D1533D588B78BD23EDD0BD397D6E3D805BF43BC4D478BC3D326A3C3CDAB8BB18E25D3D81A6083D896006;
	15456 :	3CACC87F3CC165AFBC32B69BBD2EEE40B9ACFE0CBD73D07EBD90DF143D83763A3C2B3604BD4D68913C8AB8463D0D25DBBD6A0CE7BD25076DBCA80ED63D01FC94;
	15455 :	BD2AEC70BD4ACD78BD1404DDBB9F36403CCA4437BD1E950EBC6016623D1DEA44BC96BAFFBCAE3A783D61EC9D3CBEA9643D1E2DEB3D3D496B3D2731723B18141B;
	15454 :	BD8FD8BC3D9BDFC6BD59FAA1BD32B9C3BBD766D03DCF7519BD6DF248BC90EB1BBC1E5202BC3CA0913D6B4C40BD1D356BBC6D2A0ABC0DFB193CB30E933B891711;
	15453 :	3D460E3FBD534F103D13E0093D4261BE3D3B31C83D4AB1EEBD0D89F8BCA369403B1C62373C3EEE683DAE3C853CB9144C3D77E18B3C53D9453DCFECF13C8500CE;
	15452 :	3D2C8F1EBD66361FBC362A8CBD144EB7BD291B09BBC3DA9BBCDC7C4C3C7E7E45BD3E78BF3D2BABBCBC8B5889BCEA6168BB89E2753D036F14BD442698BD292434;
	15451 :	3C6B51493B717C11BD0E8B233D8327353BF50AB83D8629D03C2E41EDBD1ED64CBD342CD2BCC50981BCA9D2393CF639523B7DD1B6BCAF5FD2BCD88B563D4D8302;
	15450 :	BCB18DE63CEA9F513D50CCB73D6A0A633D007A4EBD1DAF0DBD71025EBCC33E323C74BC13BD0F7050BCB58E343CAB661CBB523C773CD0455C3D438B36BD98D6D6;
	15449 :	BD87F4373C31D13D3D94B9E63D3F5EC6BD393A3ABBF70834BD92AE3BBD074E38BD0885D43DB2A5243CA1D245BD6E3962BC1259813C3B9336BC3F9EA33D9BBC64;
	15448 :	BB65EC75BD6BDFBE3D4CBA16BCE9C6D2BC50A7683D316761BD135F41BD225A9ABD1165B83D9A88183D4D1B21BCE6E34D3DDE8995BC944A4A3DBBE4AF3C914C35;
	15447 :	BC72414BBB04548D3D841D62BC947A3F3C46B14C3D384F2EBCCD79893C283536BCC3F03B3D5079AF3B827AF03C40C221BD8CE4873A915F393C669901BC5C6A5F;
	15446 :	3C57027EBA023C0F3B7A33DBBC8F9D463BB2A2173BE51D533D483061BC7C0891BD54D7EA3DC17F82BB5321733CBA011B3D2AE114BA2D7AACBD48482C3C5BC4AF;
	15445 :	3A97DF93BD0220173CD156FCBC37DA123C5C16F13C39CFAD3D60929EBC2657163C339BCEBD76C71DBD11DECABDE0B037BD1EBA03BD00DA27BD1869BB3CFBEA80;
	15444 :	3C4319F3BCEF151CBCEB0EDC3D4F06FEBD0F48413C36C428BCCCE3C13C96A8DABD2E3676BDA33D8A3D2547ACBD4F5060BC4FA2763D64288FBD03BD51BC57A005;
	15443 :	3D8755783D67E2C73AF8DBE53D82F6E53D197C3E3CB205D6BD96E6BF3BB1220F3C8080E6BC95B5DF3D673E543CF0B0C4BD492AB33D157B4D3C189A093BD7D90F;
	15442 :	3D4903093C0238873C8AE070BCE3B6DCBDBF61B53B7F2075BCD83619BD30D5A5BC5818E33D68DEFCBC5BEB3B3D6B85ED3D515847BD69956BBD3474B7BC40510B;
	15441 :	BCAC92543D08564DBD884B36BC86C5EDBCBE02143AB9D361BD0F57C03D7BB292BD04FB743D6F492A3D931652BCE6CED53D16B61E3BE061253D27B1F03D224AC4;
	15440 :	BBD4A7DCBC021283BA84BA6E3B5F41F1BBD58090BD0AA04BBD2A1085BD9F8FEB3CEBA55EBD4C2F383D7F060FBD2D2B39BD1F3776BD9B165EBD87ED0CBD650929;
	15439 :	BD2E175F3C505466BCEBC479BD99B9303B310895BCA95CF03CE329273C3EF6473DA476333CAC03D63BA64AA3BC034A0ABD3F9AA03D39EDB0BC4C8777BD687B5F;
	15438 :	BD9F2EBABA090E31BCAE9885BBF83014BC7A61B2BD4585D83C60D884BD4A544BBC54C8BB3D670F32BC850E93BCE2C7A03D89C91EBD04F97CBC440C673BDFEC6C;
	15437 :	3DD5F3DDBD0EEACC3C2753923BD55CB53DE2275DBC9957EEBD0039CA3D01DB93BC74BA23BCEB5932BD13FE5EBC193663BD7CDFF0BC154ECE3CADBA303D06D924;
	15436 :	3D0B71083CCBA6333D77FDC83B7F826AB9B0688DBBBC129BBBF54D263D0CFBC63DA791B3BBF78B813DA1AFFA3D6617D03D19E811BD31605FBDAD73F03D8FFC39;
	15435 :	3DA3C9593D066D95BC671EC4BD3E97DBBD36575D3CA7A4B5BD6983CCBB77A52DBC9895BABC2C5E0EBD0B76373CCDB59B3D6C7BF83D6FC59EBD2D7F59BBD2E318;
	15434 :	BD7657353D1DB5833D5454F9BD1578D0BCD5EDCEBD102FBBBC46BFE33BD33D83BC5068893D26868C3BFA9C7B3D902F393CE846F93C69D19C3CF5D79DBD088C29;
	15433 :	3DB150D3BD49EA2DBD36987F3D45626C3B406BF9BBD212DA3C6234293CCADF7CBC43166ABD52680B3C83969ABD47F1B73D11923D3D3F95BD3D72C0A53CAF3333;
	15432 :	BAAD721BBD501E52BD37D97EBD34069F3B2587DEBCC349C2BD2AE84ABC4A43843C62FFB03D50608B3C5AEA89BD60315ABD5610ED3C2498183C73B1373D0930CC;
	15431 :	BC7945C73DB39C01BD85005CBCC828A1BD5F46CFBC0320DABC08279C3BE22A50BD40AD5ABD5294693D383D04BDC8BBF3BD57342CBD262D413B27A8D1BCACD248;
	15430 :	BD9B44843C9836473D0496FCBB9EAB3DBC798D96BD9349343DA61B7DBB8AFD873CE68ADF3C96BC703CFB6CD0BD298FC43B86279ABC6DA01B3C9639393DBF7388;
	15429 :	BD8257FEBDAA33BE3CF38B51BCE8946C3CDE0156BCCA9376BBD8FB6DBDA45CD4BCF9E4683D3F3E963C6565EB3D6813ADBD9D14C1BD05BF32BCAE6FF23D1571E7;
	15428 :	3D5D2FB1BDBB218BBBD1F28DBD696CDDBD6C358FBD236BB83D5A90C9BCDE89F13D2F5386BD061EA63DBE95893C14D00DBC1319ECBBE31AA53D9BDC6D3D66E066;
	15427 :	BAB1BEBABCF76324BD2180C83DA82F61BA9B8FE43D8823513D763155BD969C37BB956D863D6B8CBDBCA7A264BCCA07C1BD33B1DBBCD67CF1BCC229D93CC24FFA;
	15426 :	BD87B6ABBC277E133ABF1287BD6E5B743C4F3086BC783FAE3D12CDDD3DAA69F8BC79E56A3C7E3618BCA2F23B3D0D11D7BD753EB7BCB30598BC760833BD3554EF;
	15425 :	BA82AC4BBD03EC033D3791EE3D3343DEBC79E0733D4982B53A7C2C0B3C334A9D3C4D8D693D049B103C794DD5BD31E354BBCD5F9BBC236DD4BD382EFE3D1652FE;
	15424 :	3C80769F3CA5A27ABCE37CC6BCF3497B3C0A947CBD996B503CC30BCEBD914C0ABC1A8A33BD310F513C0523883CD360083D809E68BC04B0823CE12593BD8714D7;
	15423 :	3C6B57E43C80F203BDC5E71E3D29CD1C3D8B1E2DBD01DA1A3DA10D4ABB6C4174BB9FA773BC51A2C43DCFE92EBCB855D2BC807B1BBB9B6DD2BB171B613D969E10;
	15422 :	3C9E85C0BD78F77D3D680F78BD8DCA56BD34AD483D908BC3BCFED37E3CD53094BD24A7143D372960BCC7709E3CBAA2393D404526BC580F5B3C0ACEBA3A6C4C1B;
	15421 :	BD89AFD9BD1823633BF667E8BD8C93633C2A76C53D145FDB3B3492A3BBF35A3A3CBBF7A73D2D83463C979561BC9D4EDBBD600E3BBC43757DBD1BB6E1BCB4685D;
	15420 :	BD39CD59BC298B303D0A6AE0BC2F6A80BD4CE4E3BCF6C4FFBC8E8C4FBD8CF803BC0A5C183DA262C13D7C5C823D4B3D7E3D05CBDE3D43E54BBB858E7ABD74B5F8;
	15419 :	3B3EAB233CD30F873D17C44ABD93B3133C8C991FBD5D53093C9231173DBB7E743DC1B5543CC27DA5BDBF98B4BAC9B3F4BBEE45083CCDB584BBBD4027BD6858AD;
	15418 :	BBE40662BC9407383C00D7FA3B91EFA9BD8C6458BD5BE4C53D14697FBC0B0B1A3CE16F2A3D720DEC3CBE3459BE110E77BD454B59BD2AF4A5BD4F9DC73CACB5F7;
	15417 :	BD58E1F43DCAF89DBD4E7B7ABA4C21DBBC5C87C3BD9221E2BB4C3985BD2BF15BBD0CDC133CFFCEFFBD030D49BD625526BD1EF5E5BD11957A3C9D0F99BC5DA11C;
	15416 :	3C26614F3D2B0F7D3D1EC8003C9725343D22AAC3BD266E1CBC980B04BCE23350BD912507BCAE9F893DACB0923B233AC83CE03D90BB12EE533CF4ADF9BCD6E292;
	15415 :	BC678B3A3BA5AEBABD3F2B5CBD561DDDBD5D38DB3D85B7D73CE9A00CBD8987103C47A0E83C1A1DBCBC8EDACEBD2A2989BD0C96F8BD3A12363CFEF755BDC2FFAC;
	15414 :	3C434FB23B21BBA93CE894C03D4B3C413CB157F53D537EDE3D81CC353D8F4F87BD09DF793B3E99C6BCD738083CBBCF18BCF886DD3C4B17E43D05BC4C3D570DFB;
	15413 :	3C50AC02BC81B2E6BDA71E7F3D50B8043C17100F3D806F04BC9D2D683D2C8581BC8FF78E3CBD9B17BCB851A2BC36B569BC955674BD733794BD9ED7B2BD3B0072;
	15412 :	3CB7F1833D026DAD3C1367A9BC948BC43C9222A9BC6C6887BC1039813D9289DB3CDE2B22BD672BE8BD3F4B533CE30063BC4EABCEBDAAC1643D6EE583BD8D1BC5;
	15411 :	BBC0DCE3BD2150C23DBC2B8DBC3B8E8FBCCACC8B3D7EF94B3C8C565FBCA310ADBD40E943BD378139BD86429F3B2FAE51BCD35EA7BCAF43BF3C0B891CBCD7BA3B;
	15410 :	BCFDC8523C1271593D632D7F3C02A08BBD3B7FD5BCE90963BBB52633BCEBBAF8BCD5C2DD3C2742F8BBC55A2F3C8ED29DBD4D60F9BC46D7A8BCEA2DB4BB596AC7;
	15409 :	3BB5D49FBD02B510BD2A043B3C1B2225BD07D8B53BCA22013D51B266BC3CCAA13D9E7586BC809EFE3B41095B3D7A6DE8BD416AD4BD99EEE0BCED6352BCF860E5;
	15408 :	BD57CFDDBC7A35E2BCEC0B56BD8B78253CBC80AC3BDA8C4C3CB435E1BCDDC3DB3C8C8B873CDF5D9D3D02D43FBD6C8852BD3DEC5FBD80B506BCD035033C37D3F4;
	15407 :	3D96ED72BD674186BCB20FE63CEF9AE1BB97B8833DC0D44F3C984C47BC4E518F3D89C8F93D9CC4913D646E6F3A8B874C3D86C33ABBF46EBA3D2575AA3D82914A;
	15406 :	3C6B55C8BD298B84B9F465B5BCCEAB223D3CD0343D9D11043C7B5A163D7DAEE13D018CF43D1323013C823168BD28E10FBCD9B231BD7928A4BDADFDE5BD6D7989;
	15405 :	3D24DE53BD6D3AA7BD51E3CF3ADCD208BCF87725BD1854C13C8A776A3D55E8EDBC95AE9F3C2F5BFEBD06A81C3C5E0CA33DB3E6DD3D08B60EBD3129B6BD92C3B0;
	15404 :	3C3B091D3C736ED5BD4FE30D3D472148BD6F1B55BCA605D9BD146490BC7402C4BD3FA4283CE798FABCE8692CBC86E6DE3D2BC7003D4F1ADB3CEF07D5BDB13F86;
	15403 :	3D017FAFBD6049FABD25D23F3D9C23273D8E98813D6A8263BC02EFFEBCBB50BC3D12F7F2BB5C7051BC1B659F3D513D7D3D3483583BAA054ABDC8F9D83C79C8CA;
	15402 :	BCF2BFF43BA2497CBC03E04EBD662B45BCD51E1ABDA474F5BB28A8D03DA7C82C3D4E1DF73DACD7DE3C48BCF2BCDB7D0A3D62E9403BFBB57DBC9E8F49BD1177DE;
	15401 :	BC7D88BE3D82FA70BD40A4023D269C5FBD181D7DBC176DA4BC9A62C9BCADCD21BC0224003C4559C9BD8E9738BCC226BBBB9F86EE3D27B5DA3C55005F3D139A75;
	15400 :	BD2FA64ABD753F843C625BF9BD971BBABD8F9C873D5FC280BBB10C55BD33777F3CCE37FABBFD37ACBD6C1B6A3D6DD062BD62045A3BEF4F8C3D5CEE54BD6F5F52;
	15399 :	BD683CED3DA46BA1BC5FB5763D2063293D6C103F3D42C18EBD90BBDEBD6970183CB08A5CBD4EF4373CDCF14CBD1B387FBD917117BCC0F0A5BD833E92BCE0F2A9;
	15398 :	3D1C64FE3AA95D5ABCE330C4BCC5A0A63D51C225BCA5026EBD48AEB33D4ECDD93D273D803C59D5E43C813054BCEA78183D90E3533AB4FB86BD17ED97BC977B50;
	15397 :	BC381D803D1BA9DEBCF4B82F3D24FE463CA840973C844DF8BC5253463CEBF792BD450AF3BCEEFEC53BCB72F03CDBDC08BCF908633DCD62B23CE42647BCB4604B;
	15396 :	BC389D253D30298FBD3A74EFBD1460DEBC8A6F003C2420AB3D922B7CBD67A98E3BD83FD2BC97716B3D2D829E3D8F19203C599A323D1331FD3D0CE9523CCDA5F9;
	15395 :	3DA550CABCEF3C5A3D8C19163CDE24C53D9C006F3C3BE16D3D37299D3B97D534BD239C53BC8E81F43D95FE97BB47E4D3BC2DA695BCFCAE3C3B04CC643C3115E7;
	15394 :	BCB3CAA5BC2195463BCF91AABD52C50D3D1062D73BA195153D222D88BD5999FEBD6C67D5BB9A4EC43D0DFF34BC4410FF3C4063C43D8844813D03D3843D2B2DFE;
	15393 :	3D518AB8BD4DDBD83BFD1233BD75506ABC879339BD139B8FBDCE9B38BD0D16933D1C8B673CD2760B3D9C9EE8BD085630BB9B6A173C98A197BC394BC6BDCEED91;
	15392 :	BCADEF573D8105273C546764BD588D1D3D8926923C421405BD5117353D07BBD4BD76DB2ABD19BE0C3D6B35DD3DAA89D63CA8A2973B9538563CD50819BCB327B7;
	15391 :	BD5EDC34BCEE5A293D7962773D320AA53B8F2E5FBD937D673BA478E93D8A573E3D5537DF3D220B09BD316AA1BD381BF03BE0D333BDB11C973C9140533D8A778C;
	15390 :	BCF594423D3563613D28D5683B8BC1E03D3D3C2ABC81C5A1BDCC0E71BCD07C8C3CAFB8423CC471E53D841A523D964BE4BC07E5453D340E563CD2AC093D4297A0;
	15389 :	BDC63D33BB49872F3D62B324BC670358BD32C314BB727549BB0FE1C83D578C993C501705BBEF386FBC0E980E3D6EB70C3D9364FD3D850CB33B624C733CBB7ED4;
	15388 :	BD1C2DE83C373A84BCFA7546BCCE6D64BDA5C914BCC9F3963C4FF8F0BC09C2D33D5E00CB3D542FCDB929918F3CFDAF2539A18C1CBD08AF42BD0445BF3CD3599F;
	15387 :	BCDB009DBCFFF3F2BB72FE97BC5CC6DBB979CBB2BC81ADF9BB7652583DB668103C5469C73D60E369BC8852903D6200663D1DB2E83CDFBC23BD39D0C03AA44953;
	15386 :	3D378FCF3CDB13CD3D7806B9BC0011F43C92536C3D2363DABD24AF60BCD7DE0F3C93CE3EBB53412C3C41938FBCFAF9823D464DC5BAC77FA13D843BE63C8B7263;
	15385 :	BD1B45713D074CE43CA7118BBD26A2603CB95063BC94A0313AABF6A83D8BA949BDD219A8BD7DF23E3DA4B9463D17B21BBCC3867CBC8FD366BC361DEC3C052C87;
	15384 :	3D87DAA0BB9BA8CE3D196629BC76C15DBD9AF233BB2FC11B3C9D0D6D3C91E1B63C8EDEB03C5DF398BB8BB506BD29EA143C3F21B4BCC3142ABCB0E61A3CABC8E4;
	15383 :	3B34E0E5BD71CB18BCF868B4BCAE8818BCA5327A3D0A4F083C58FDFF3B8C1355BC80BB3ABD90FFC9BA0F4B48BBA27AE9BCFF6030BB2599F23D565CE63C53E199;
	15382 :	BD0CCCAB3BD246C23CB2BC59BD0C971A3D4214D1BDD89CE7BC4BB497BBAC06C53CCDCFE93CD1A26ABC152AB53B8A118E3BBD91663D8396023C083355BC36F133;
	15381 :	BCE543A53ABA8082BCD77977BB2622043B096B6B3D3AB43DBD9306513BFC60963D1C54213D20A157BC91282ABD293B5E3BFD2368BCEAE469BC8DB8343DE10915;
	15380 :	3CEEE5B3BCD0C3123C42529BBC0E04FA3C0D9DBDBC67B83EBD1313E2BDA30736BD816DC8BD126F8ABD10056D3D94C3EF3C91C43B3CFC35C23D1BE82D3C87309B;
	15379 :	3D906740BBD6157FBCF0D0693D604BF53CC762F73D1659CB3A9516DBBCCC31093DCE25FD3D35FC37BD782A28BCA7C84D3D65B930BCC7462B3DD4A1933D42D387;
	15378 :	3C8D835CBD9E2FD23DB0A7FBBD6F4614BB813939BC3C58533CACBED3BB90D3BD3CF22D72BD876A213CDD41F7BBADB1DA3D03D2ECBD8FCB453D20D20E3CA3744E;
	15377 :	3D60524DBD0B72443C37AF263CE2D55D3D5C716FBD0D05643C1CCAFEBDB165CCBCC16E0D3D6E9C973C56BD70BC81F7743DD18C44BBEACC08BC9A6152BD3DE972;
	15376 :	BDD08D743D2E6A823D28AB3BBD677038BD3CDE96BDB3A56D3CE5B5283D335D543BAE95983D55F3783D084355BDB611E5BD94929A3D25846ABD89BB08BC5274DE;
	15375 :	BCA3539F3CA45EA1BD6ED96A3C98956CBD1FF82F3D94672DBC5E760C3D55C3B13D51DBC4BC6D296C3D2FC3073D26AA51BBC2B543BBD2DDDEBBA028DDBD492C6A;
	15374 :	3DA4FA5DBBDA367E3CBE2CBC3CE379C33D4999EE3D16D408BC8EDE4ABC8960353D4CAFFE3D183F24BC386E9EBCE60B16BD329AC13D6592063C7A03983CBD84E8;
	15373 :	3D0C07AB3C5922303D07CF22BD11F6A63CDA09D03DA3F6603CC2513EBC9C3B583D631670BCD4239ABB7B2D18BCE664F5BB61093BBD09BA673DC70F6D3D940241;
	15372 :	3CBD0125BD31199B3B856CC2BC4162FA3D2AF969BB3636373CFC20E03D11230EBD4328E4BD273D2EBBE2D7B23BF0077F3C352C23BCEFF9EBBDAF93DB3B132B91;
	15371 :	3D5E3FD9BCCF28443D2BC1BD3D95C94C3D0F5289BDBE232D3D047875BD1D88343D7979C13D6579CC3CF6969DBC8E87183D11069C39B82842BC93E15E3C82EAA0;
	15370 :	BD35207A38396EAEBDA1A9AFBC2F59B7BC79C37ABD0E4873BD8F38613CFE13B7BCF10CA8BD3D0B423C7D2A2D3C799A743D85191EBC4DCC11BCC1DC16BCC07096;
	15369 :	3D12119D3BD1F016BCEBBEF3BCAEAFFD3D72A2BEBD66A2B23D791A83BD7B0260BD2BF9EABC7DB8B73C2FA4DD3C7675023D4BDD66BCE1D3C9BC91494D39CB0D96;
	15368 :	BC9977FFBC19253FBD0BAA9B3D2B9F373DA1C086BD771C6D3DA47A89BCC9EB633CDD4A6FBD4B403F3BCA7AFDBCBA75C43D420CA2BCB67322BC795703BD018BC9;
	15367 :	BB90B9833D1DD76DBC58ED64BD87191D3D9CD71ABA822717BCDC488A3CE84F93BC52878B3D783089BCDCCDD73D90FB063D3377093CBA63873CF49C70BD441B0B;
	15366 :	3D7D77ADBCE9300D3D11339BBD39039F3D698842BD9953523D1C0104BCFEF1353D11305E3CC193723C58314EBD399F603D0BB9773C89A6363D0772A53A93794D;
	15365 :	BB239252BD2CBC9EBD91B42A3D69A99B3B23022ABC1E17E3BD7ADFD6BD810972BDA1CCD53A9D6AF3BCB78DC9BCCC15F1BC0EE0D3398EFD35BCC25888BC9BCC8E;
	15364 :	3B3783053B8B298EBD9928D7BD38FEA93C9F3EC0BD0DFC35BD06497C3C31AEEEBC9C8AF13D70FC9EBB475B8F3CA1171D3D5CDCE5BD10093BBC43C5C43C6055F6;
	15363 :	BCFC492F3CBBBC3BBD48663CBC8FFBB53C9913863D57EBA43D85BCAFBD6018A6BC94C5AFBCAE33C239C8429B3C4AF9BD3D224656BD7AA47C3BA77AF23D0151B5;
	15362 :	BC83B883BC838FF9BD31420BBDAE4A7E39F97AFDBD8AD5103D0645B83CC395FFBD637E4E3D6D52AD3B2898B53B97FF40BD1D039F3CCB3C02BDA2F78A3C66E29C;
	15361 :	BD61A62FBCE5953A3D685E163CE66B45BD8A7B4CBD908DA73A9D4CC33DA8A5C3BC898855BCF844E9BC4DD79FBD6E2D683D980572BD4CF2773BFFD2E3BD98A699;
	15360 :	3AB0D203BCEE2549BCC34EE0BCE052BEBCA42981BD86AE0C3C8901E9BD1E4F8DBC632A633D1822C03BE04884BD4382E4BD8CE1D9BD058E76BD336E12BC877729;
	15359 :	3CF8D0D83BFA90833BC8FF91BC8D77C0BB6DA65EBD9DE58B3C83EC5FBD2F88313C2FDDB1BDC379CE388754A9BC826E0C3BDA43813CF74D81BCDC8F78BC59CA74;
	15358 :	BC22D87E3D52C94C3B2CA072BD355E81BD9211FABCBC72413C8E419F3DC2A353BC6E11C2BC5D61783C64E1F3BC1D4C4B3D137C603C94A8FD3D58FF67BD827B5B;
	15357 :	3C1663D8BB93D8E7BD30EC48BC989CD33CB11C83BC838E933C03BA62BB36FD73BC2260E03DAC30903D83E12E3C02A30C3DD0FD77BDAC3FCF3B5C3BBF3CC2DFC8;
	15356 :	BCB5A0B9BD315742BC58CFCEBC186EFBBCC7EC0B3D013D73BBC1E0863D0E008BBD115F85BD9C72B13D2299C43C923C6EBC26CBA73D79F7DABD5767DF3C307127;
	15355 :	BC66D2513CC44A87BD27F16FBC4AA9B7BD2426543BA3DD0F3C111D463D3B3B35BD2F61003CEDFB0B3D3F864CBD1EDA5C3C6161D6BCD56CBC397935B4BD01E865;
	15354 :	3D89F3D7BD2E4AB5BAA1F3F43C912C45BDA8DA7DBCDF3D92BD762602BD90BF22BCB6A242BD6B9B30BD8477223D8870623D370E463D53EF8BBCFC5ABEBD338D40;
	15353 :	3E0767BBBD0DA311BC1D649DBC94E6483D62688C3D44847ABD0C4AF4BD740B33BC921372BD091CD8BC963C78BD802B133D5BA332BB6DD6213D663345BD47DB77;
	15352 :	39E9BD5A3D5B2971BBD477513D3F64D0BBC2526E3D855E393BEC2EF9BC54B122BAA372BEBD716D68BC3BE8173DAFC88E3C1D56DC3D35E5713CDC444A3D58DBFA;
	15351 :	BD7D56E83C3C5940BD28113F3C7BCDF8BDB34F48BD38A685BD399AC33D028B9FBC160721BD23815FBCB6C6F53D9439B2BD93CB0FBD812D3CBD1646DF3D360C94;
	15350 :	3CBE19B83C835426BCB9DFE83C28F0C83C9F3CA5BB1694173B9597AD3CACEDE83D939843BC80CC543CAC15C6BD49B2E6BC6FD5743CD90077BD4B2F55BD176221;
	15349 :	BBF30D193D43E3C63D55F03A3C72E406BD7C476BBD301CD63C16174ABC53FDDFBBA1E621BC9B6EA03D2248CCBD9CE868BD1BF608BD1D75FCBCE487A43ABDFDDA;
	15348 :	BCCB99C6BBD406563C3E578B3D6C0176BD79510CBDA2C5B53CE5DDDBBD04C0DF3CB9276DBD215DB5BD23A6423D443BBABD482DAFBC128C4EBD7A9DBA3CCEA139;
	15347 :	BD5A67B9BCF0B9F0BC4FBCBABD189D4EBC75D20DBB2B460D3C1B703B3CB0ECD83D036B8D393A52783D7FFF79BD076334BC73B164BD205B65BCBB71F6BB7BDB86;
	15346 :	3D4AFE51BDE32FA7BD864F963A90A3F1BD1C999B3BA313D4BCE074F0BC974C5ABD1D78DFBCACE830BCB3E7C53D2256E33D4F91753D207A193CEC8E3A3DA46A51;
	15345 :	3D3A6B0EBC0B2468BD1C31553C1CBFB6BC0ABB4EBCD614193DF62DFFBCE94965BD7B11323CFD1C693D61FA6FBCB8F9AD3BC715AE3D8BB0BBBB6FBAC6BDB22A9B;
	15344 :	BD9A12CABCA1EAFE3B98BA603D4CCAE9BC9B79EFBD2DD753BC9AD6243C91F6EB3CB60AC3BCCEE270BCA17648BCA447313D6E5CF5BBEB298DBC89166F3BFD9495;
	15343 :	BD70D9213D04A65F3B1B05B8BC55625ABD22E76E3DB95EBA3C8E323B3D14984BBB8943FB3C8F44F5BD24F0AE3CC87708BD4146E03D323C5DBB156F103D23C8D7;
	15342 :	BD6C37C2BCC282E83D4CB5A63C5A4816BA5210213D31ADD63BD62602BD01003B3D01221C3CD165893DD1C25D3BB1CD9A3D97A36C3BC54DE13C50B44DBD0C1D11;
	15341 :	BCCC52B8BD5CF31BBC019332BBE27EAF3D12E7B1BCA2D2DDBB2C994BBC5DB300BCDAF35A3D85DBE73C9CB31DBD14151BBCEF6EABBBA2B4FA3C95680FBD14B2B0;
	15340 :	BB7D9E723AC9D029BCFF8697BD1358253D64B4993CB82C9DBCC127493D415D55BDBC7DCABCE66F42BD0C13313D55AACF3DA1DBCF3D9E6CF0BCB0D9463D48A099;
	15339 :	3D8718A03CC586883CFD39F23C2EFE97BCD617113B6C92A53C8B29BD3D02E9363C6CFDC2BD11D96CBBE01834BD180A7CBDDBCF88BDECEDAABD3B8623BBC58505;
	15338 :	BD60570CBD236969BC587E57BD8A0729BD5B4F293C6FA7DABCB5226B3D8B60563D654273BDC41971BD20F123BCA52FA43D07F4233CFDCA493D3214283D8AE8B8;
	15337 :	BD27EAE7BD5B8CDBBC45BF25BD9F70133BCF9CA2BD481925BCFDE8FB3C4198BA3DC090A83D5011D3BC9448233B91BFF13DA00A2C3D40C7BCBD75D5E3BC9D8500;
	15336 :	3CC59FCA39C2119EBC6802533B76EE193C0ED2783C8BC764BCEAA8F4BBBAC330BC39CBB9BCF21E56BD8A13383A7B81BF3C887A563CB814C53D2D8AE83CB2BF2E;
	15335 :	BC5441BFBC9C6AF7BD7E680CBC7C4FB2BA7588333CB6E64F3D7D74DFBCD88689BBFE572EBDBB4EB6BCE14AA8BD0DBCD73CF2EF253DA056F43D359D963CF55888;
	15334 :	3CAADFFABB3DDBE7BD96476A3C6B0E74BD50A3D3BC0E8912BC9B393ABC336BBF3DB2C7BC3CD60804BD753313BC79F24D3D1E8C533C5F98ACBD94E6083CE05144;
	15333 :	399B5A213CDB4C6E3D01E514BC854E0A3D919C593B1B53313DAECBC2BD56B8453CCA025ABD900F3B3B4182DC3CE6F7D43D64C63A3AD450EFBCD272483DAC4103;
	15332 :	3D8BD6633D9A1410BC409A613C6836203DA5D8E2BDDA999FBC69481DBC052D56BD4F9BF9BC9FB9DB3C1E7ECE3DBAEDFE3D278E79BD164226BDC092223D69A22C;
	15331 :	3DCB0607BCEBFEF73D7AD1573D49E18E3C976344BD0059F23D62AA0B3D3DA1CC3BBEC982BD0849EABD7D238D3D9597B43D527F0F3D831703BD8137A73D31BE84;
	15330 :	3D13B15EBD40546A3C6F28783D23CD813AA7E24E3D03305A3D0380C4BCA1C3A8BCE0785D3D9FEE5BBC5B6DB3BBE092BF3D8956B0BD76224B3D239E82BC09BCFA;
	15329 :	BDBA4EB93DA4B11F3CA846CCBD4990A1BD4DE259BCB190ED3DA454B5BC2083903DA33F1E3C075268BD60FFADBD0591B73C09679FBCFD0E8B3D6342A3B8B1917B;
	15328 :	3C9DE09F3D879521BCDC4244BC8DD91C3D29AA273CB7C966BD5CDDAABD1BA4A2BCC93039BCAE14FFBD2DC1B53CBCF3283D87EE763D084539BD226263BCA0B21D;
	15327 :	3D92357ABDD322F2BA1F1F02BB5EB6AE3D89A5C43B66B8473D8512F43D644ACD3D6B7BD5BD48F1A03BBFDB69BC0697FFBC6B49213C7DA092BCCF9C50BA46DFD0;
	15326 :	BB21C31F3C3FB6563DCEF6F4BD5274723C8B4CEBBD743490BCB72D5F3D69981F3D06C4D93D9AAAC63C9E6D92BBEEBE52BD10C696BDAEC491BD8CD388BC1A5C6B;
	15325 :	3B52AC95BC8FA49DBD0BBFA2BD3051C3BD3486A13CD1E4B7BCC9899F3CB3B3FA3BEA8545BAD5A3463C59671D3D896508BC6DF118BC5258C7BB8E80AD3D8DA134;
	15324 :	BCC5B2AD3C17A7A5BCCE8575BD5D7F403D906765BCF5DB7CBBF714D7BD1AC7A43C48D7383D4DD8D63D137A06BC8B2F80BD39163E3CA3BF033D0EC8DCBCE36669;
	15323 :	3C20AE50BD453825BC1E09853CA9BD1BBC1C74293D72627EBD6D6BA43B173FC3BC92C1213C9CD769BC90BE57BCE481573C5B355ABDA4F2DBBD6434053D5812CF;
	15322 :	BD58D4D9BD43A3E23B00830ABC43CC4ABCCCC7F4BC19438FBDB199693D854AE73D5EE091BCCD595FBD83DAD83C90F1583BA3F8AFBCBD8390BC1E9D89BD85290E;
	15321 :	BD21FD22BD2A9651BD4082B43D01F1CEBD4F68933BE1C43DBC4948E83C2B1B90BD5BFE6EBD0E05993B33A5903DBFCB60BC664C883ADE4F88BC55D809BD5929E2;
	15320 :	BD387BF83D86822E3D2758E23A533603BCFA0C173D6E0DD4BCA1A5133B8639CFBD35546C3ABCD8F03CB2DFAABC4AC8BFBD959A583CDA840B3D198B6BBDA01257;
	15319 :	BC5683223D02B334BD8B69153C61B94BBD0B4331BD0136D1BC886AFEBCF5E80A3C37704C3D3E6BFFBC42E334BCD46A583D3DEAE53CC930363D2CB813BCCB5B19;
	15318 :	BD44EC223D4289523D3EBE433D09003B3D1CC4803D74C748BBB8C9DD3D54CB613D227907BD2B9E8B3CC45ADEBC263DA43C4284FEBD0B1BB7BD2F5CBABD32BE98;
	15317 :	3C82F6D73D95DA053B3D371C3BBEF0AB3D8ACE53BB9192513D9D074EBD3EB2E2BD356A6FBD194234BD2AEE3ABBFA43D63D6CEC2FBD30D4633D135BDDBD863EDA;
	15316 :	3DA94735BD95BEE0BCEAA441BD959040BC8A2ED8BC6F14DB3C6B4AFE3D8EEBC0BCAD7596BD46AB8C3DC771EE3DCD148C3BF8011ABB8B4DD83C97C90FBD27830D;
	15315 :	3D3A07863D9CE83D3D539318BC3DE6643C7C11893C9A482F3D06B254BC1EF9053CBECBCDBD91B914BD5B3F5B3C247C603DE05236BBA6614BBD106AACBD1F7312;
	15314 :	BD46C47DB87436AE3C86A23C3D2CF9223D56F96ABC9641D23CC4C6843D773692BB8394093CDFBF26BD4CC3F9BDB93601BC9035AC3C9B237D3B06335D3C61D2D3;
	15313 :	BCFB951DBD39013A3C3DBE2F3BF5648FBD4B6ED33D2A465A3CFC7521BD7E79A5BC58A5423BA7DFE3BD90D0CC3D8AE122BA569CEBBD1239453D146C98BD29F66B;
	15312 :	3DADDC05BD3B96B8BCA9A1FE3C004BCCBD139BE9BD2497F9BD7B5C86BD46566E3CBBF8A43D81D1A3BCD6FD53BCABB8EB3D18C50C3BA9EB3F3D887BF7BB375B11;
	15311 :	BD3B7BB63CF175ABBBB64C7DBD17CC013D0CF179BB6D6A97BD46D8A93CD1BFAF3C75569D3D421C443C5BFC76BBFDEFD4BBD9CB82BC49B2A9BA9DAA9B3D130112;
	15310 :	3C42DDBD3DB24F873D24FA363D1055ADBDF36752BC38646C3D332A9CBD59AC60BD008BC93CD2322DBC0280CC3C411E63BD0BC6B03D2E94853B604CECBD3BC6C7;
	15309 :	BD631605BC9121F53C9E7F333B8EFCA93D5FFBE7BCC635C4BCECD4673CCCC977BC141C36BCDFCC4C3D8C41263BA361FC3C289B29BC2E54093CB6631A3C0FD916;
	15308 :	BB5E723BBC6F91D63B87993DBC3F6B353C40D3CFBB2CDDB43D1491AB3B923378BD4A00F6BBEAAF66BD55996DBD44C9A83D032C503D5CB2AF3BBF1407BC8BE947;
	15307 :	39270F393D0462B83D554580BD2B1719BBD70C0CBB91E0E73DE33143BC92CC0EBD082777BD110C3BBB9504E4BC99DEAA3B1D0BA83C743C8A3D119E1F3D43C69D;
	15306 :	3D3C31BA3D1DE1423D15010D3C2AD1F13C9AB93BBB4E605DBD0136EABC9BAD58BD29F79F3D7C8BAABC8D223ABCBC206BBB20E0B03D8EB25A3D8DF7583C5190C2;
	15305 :	3CD89BB73BF6C44BBB490853BCE4323E3C921D743CA4B40A3D2E2240BD0130693CF5AEA8BCE21C41BD071ED6BD84E611BB536B6FBD34CE5F3C17E2D7BCCE101D;
	15304 :	3D0F2E5F39A89CF63CA2E5F2BCCE7F0E3BE73461BC3996E13BD530C43DB8BBC43BE16E0FBBC678363D432726BCB353D2BC476AA9BC87560DBC2AD94BBCDED767;
	15303 :	BCF31CA6BC6B1CCDBB0A57BDBCA5F2B0BD5E6DD3BC968B75BCC61A51BDAA1C483D862A38BD10A083BC2A691ABDBE06E73AC50A8A3B35EE91BD37F2D4BBAE83C3;
	15302 :	BCB79F0238F206223CA72D183C42A85E3CBA0AED3D8A25713D6613EC3CD49B133D0F080CBD3AF4E03CD46E23BCCF4CC33D502EC43D1FECA0BCFBF3C53D885D78;
	15301 :	3C87F14F3C3D1403BCE2E544BD726F8B3CBAD064BB2809EBBD23C7733D7C8073BCE7E5CF3C33851A3CCEBC273D6FB292BD069A74BCBDB3C83D6F4BB1BCEBF9D5;
	15300 :	3D3CE9EEBD199628BD1DEE6E3D6B3917BD5CE635BC24C4D03C51D62ABC058771BCE796E7BCE15FBE3B35824DBD2B97A5BCBC86323CB8FD9FBD4D2CF93D94874D;
	15299 :	3CC5D714BBA4EF9FBD2CEBD3BC9ECCC7BCE956DABCDCC6D5BCFAC814BB514346BD823E9DBD4E5F8C3D625414BD3A69E53CFD9E6BBD414B223CCC8D9C3D811076;
	15298 :	3DA44CB13D2017ECB7FE3CFEBC92B1F53D1786A03D4E129DBC8638F0BD924A28BD81AC5F3C5AD6623D38A1EC3CCDB9CDBB70489DBD925F0ABC26426BBC2BA011;
	15297 :	BD6C098E3CD0DAF0BC0976E83D28F795BD631B953CE6F766BC9E5C153D6DF849BCBEEDB63D3CC00A3D97FBB93CF119773C8716BA3CC03A8A3DCB65073D7BE121;
	15296 :	BC85FE74BAA99ED6BC842F9A3CC4985B3C724F13BC3A9D913CBC53B7BDB222703C836301BC31D5033D7485003CD10E10BD3FB145BCC08989BC003AEC3D566EBB;
	15295 :	BD6858FEBD033AFFBC6AF6FBBD04B3623CF6C6BE3C1D80833D88C576BB6777E23D3B8C143D526C213D96F09CBD8466873D1AA9053C9C538ABD02F9293B168C4B;
	15294 :	BC85BF9E3D4A98D53C7AEAD7BB45789F3C292EB439A7B3E23D0F2E1CBD3B1A673B8EE2EEBD1DE7C13DE10C873D667CDABD0E14523D4C7D3E3A92F7903D75A0F9;
	15293 :	BC850B503CA3B1F0BD7F00E83DAD3DFEBD380D613BECB9ECBCBF5E43BCA6C765BD35382CBA99DB2BBD26259B3D1E59643C8CCC06BD7154063D4717423CD7FEB9;
	15292 :	3D830B55BBC7CA763DA18DFDBD2A7202BD2D4B1BBCFE13B6BD16E07FBCC3814BBCD45167BD820ADF3D252E42BD45A2263C9EA9353BAF0834BBD106EC3BE91564;
	15291 :	3C7C2EB33C970429BB881A283D82776ABC08ADE93D170BA8BCAF01D4BCC4F54B3C959BC9BD01886A3D1C3D043D66420C3D308E8D3AB9E36BBD65A9D93D3937DA;
	15290 :	BC88F07CBD15FDA93D8BEADD3CC0391ABC5F64533D3899C83C319231BD0F3ADF3D905BAF3C01692FBD0A17F1BD0200B33C35741C3C37CD953C2F995DBD5E6421;
	15289 :	3BB3FBB8BD3F3B05BA98FC983C348A1DBC61E5003CDFE911BC9A5A55BCDA75B9BC5CF1AE3C820B42BD4404243CF01CA43D024A05BB6B6E613D8F32E4BD5D8EB3;
	15288 :	BA76438BBB001014BC6A75D53D96864CBD4DE3673D4094F7B9FB2DA53C2A22C23CA76C8FBA239F9C3CB7C5993C76E63C3CB0C1A23CE14EDCBCC3BD223B447DB9;
	15287 :	3C42A97FBC1DAE263B26BB47BD842571BD7D3E6FBD839F3EBCF94597BC33F18A3B4675C33D9FBFBB3D3A90BA3CB6F77D3CED585BBD0B7FDF3B61F8CDBCF7CCA2;
	15286 :	3C9B09AABD40DC733C400EA43D6CF84E3C488130BD46F7B73D36E575BCF9C5FF3B15276FBC270210BD46206ABD8E706F3C66294EBCD06D93BC8C4712BBF29C6F;
	15285 :	BC8104883D2BD4DD3C99B7363D6C28C93C37043CBD73CCCFBCC43C65BD4F603BBBDC958ABCD7AE353D5390D6BC9D7920BC2179453D5D6F00BD24FAF93C7EFFE4;
	15284 :	3C1D503DBCD7AF16BC7085DABD4566253BE2E633BBE16ABBBC7018F13CB99DFE3B9CE3593C1C1EB43D384D4F3A4466233BE09A033C057762BB90588EBD4A183A;
	15283 :	BC7C30D63D8386CDBD1208083D4504973D3779CF3C9F9F8C3D6A0CAB3D43CF9F3C9FF605BC1364C63CE303F43DB2A2B5BDCA948A3C05CC463D2E40D23D379B8B;
	15282 :	BDA36231BC59AF903D3D8BF2BCA9E8F7BC998A7ABC8603C53CA205FDBD71CA94BD871B553B146F313B35D77A3DB73C24BD8BDE38BD01CB523D082087BC91332B;
	15281 :	BC2C4DC3BD60BB4BBDBFAE23BCF33B093BE4384BBC7DCC91BD08EAF73CEF27A53D28B11C3D9BA3F439EEDD513D01D070BCA012863D370743BC2067E7BD1CF6E2;
	15280 :	BB8855D539C03C49BC02C64A3C1E4DB4BD5A04A63B5134A8BCC9F4C8BD21D2EB3B22B93CBDB4A5E63D71BBA1BD2B424FBD063B733D1D51F0BB8886D0BDA323B3;
	15279 :	BD3D57CB3D6D85613C0C0E583CAE2516BC5F05F73C68FEFFBD8FE5B2BCFE97D33C7D2923BD07C550BD87A5DFBCF5BBB03C468FB73D01242ABC33CAED3C1B6860;
	15278 :	3C46428FBD667E5BBD553BA2BD58DA56BCE09A903BBE037BBB00A8F43D1B2449BDB8625BBD19044F3C0B1FC1BC31BC4FBC50B3193D0B4228BD2D81C1BD07F9DA;
	15277 :	BC972F5DBC45EEF4BD149B993BECDA28BD8F4517BD4312F83CFA265BBBB46E10399E6FE1BC995C19BB0E31EC3C1EBA893D2E7DBD3D34F5C1BCC25FB83DAC9097;
	15276 :	BC2590373D458D6D3D35BE52BCE371EFBCF808DD3C201834BCD8C5963C02E1D63C328C8EBD0A24563D5C723CBC56020A3D446D7F3CA753EA3AA740673C9E2EB7;
	15275 :	BD09914ABC79B86B3D05D3E33C17DF673D4EBB1ABD05C28F3CCB3F163C538D1F3D179BE73D97C76EBD0012503C12E07C3D8AFD53BD0358F23D5F59B43C317871;
	15274 :	BCB222833D5812D7BD7BE6A53C8D0C143CB30AD5BCFF3D7E3CC75D4E3D2E39C9BC88FFF0BD341FD53D735D9D3D4319DF3D0B16563CDDD107BD01AD9D3D0BCD7F;
	15273 :	BC104D49BD0BB510BC7CF2F43BF63AC3BC6DD7233B81A789BD80FDE33D0EB22F3D0FF678BCD989D43CB01943BC16195D3D590894BCC62EF5BC47239B3D0190F5;
	15272 :	BCE663153D174F503CEC229D3D0E2E5B3D9D9FF0BCE50849BCB24F9FBCDC6CBCBA33AA81BD2EBA2A3D01865E3D3CADBD3D103AA8BAFB8C7A3B853C973D1E8384;
	15271 :	BD1C6834BD45E3CABCDEA2903CAA75A8BAE3B1983D4FAFE8BD68BB3C3D1FB865BC23E169BCA1A5DEBAE31A553CF02A9ABD5C5F3F3CBB9B533A3F60CABD292812;
	15270 :	BD32AA94BD5E84693DB5EC27BA0AE5A0BCB6A1D6BB773D1C3D55C2453D772D363D4253733C51F9D3BD02386BBC9F2B543A8C1FE03CAFF2D3BCD0CB9F3DB87195;
	15269 :	3CBABE373CE95E7FBC1D91003D550B72BD907A8BBDBF9D29BC80DAEB3CA9EF58BD245FF7BC6340D53D1A71943D69C20B3D4EE1C7BC1876D7BC320AF13D5BE9BA;
	15268 :	BC0EFCE8BBDD0F0DBC31FFFDBD0436323C46F6E83D134405BC1E4EABBB2CC7243C8079533B9CC74D3D80192ABC43B15C3D148A5FBCD158BBBD1AF015BD052BAF;
	15267 :	BBFC69EA3C0426823BFA7B8CBCCE88613D53C01B3A7977C5BBF5F0BD3D974A1FBCCE72CFBBF93244BCCE623C3C1F2579BD1F7330BCE725D6BC8C19BABD155835;
	15266 :	BD8E7694BD38E8BF3D3BE465BCD56F4FBD2DD8083BEFDA9B3C39FAD63C8905FEBBC81DF8BCF9D84DBA361D833D8A03A3BD612B4D3CCED77A3BC85BC83D05E3BB;
	15265 :	BB9008203B9E9DCA3DB0AC46BD32AC523C421159BCADE291BC6514333A9DE5A2BB26913BBD433566BCD93B2EBD549F5A3B01D867BC3B6B1B3B859BBA390CFBD9;
	15264 :	3CACEB3A3B147B6E3B1392C03C31A0B43D0AA3F03C27E730BD515DF7BCFB87F1BD31E97BBB9184CEBCD2C2CBBCA4BA17BD4D2F1C3C83CF723D59039BBDABCA49;
	15263 :	BCF241133CF70FD73C8733B9BC9721E63D19764C3C2FAAA93CCE96BD3BE455F33D1E98FABD4ED984BC4F9B983C4F96EEBBE9FEB73D9147B1BC6B8A9F38F893EA;
	15262 :	BD4DDE8CBD5ED34E3C7C47DE3D1F203EBCCC50D53C9A0FD0BCD2E41CBD5A9211BC5E34563CAEFD9FBD76EAAF3D6A43B1BD0DA14ABC6796D13D255D85BB76627C;
	15261 :	3B6E0BEF3D89B22FBCCDAE483D60C3973D8567E83D1572BBBD402B61BD8A4906BD03ED2ABC42CCD3BBB987C1BD016EE2BC22810EBA5CE842BD152BC53D0FDEAB;
	15260 :	3D19D9303CDB42613C4115CABCDE20CABCFFA6F0BB4CBD39BC5691B5BD83D6EDBC9A5F133CFFCF613C92C2A33DA736423D96CFCB3D33548FBCD16F3C39FDC80A;
	15259 :	BD0ED1373CF111D9BD65F42ABC7D7E40BC974A6F3BF8B6963B9245523D2115ECBC4384623C59691BBC363E923C250D733DB60B623D29B2423CF854B0BD3B7A1D;
	15258 :	BC65E863BD741589BCEC1281BC4E14023BCF3ADD3D3139A43B9E62CDBCD9FEC0BD9211FB3D8EE6353BAA960B3D18C9743D0883C2BC0D3816BBDBD1423CC402C8;
	15257 :	BD99C5F03CA960FABC8636AB3C57C2193BE3DA90BCAD6238BC97C5F7BBAAE5F3BCDDF98C3D9D6ACF3D4801D5BCE0936DBD7408923C7BE8A23BCB5395BCB2F20E;
	15256 :	BD19E3533C39188CBC71DCBEBC074E823D8CE2D5BD8921B13B945FD7B902CC24BD09DB0EBCA486A8BD0F0A0F3D69B69EBD0D11A1BCED7A34BCBAD811BCE9E16F;
	15255 :	BCA1822E3DBF889DBCFFDE023C955B7B3CBFCBF13AC07E453CDCBF04BCA5F334BD060530BD3DE04ABD21FABB3B296CB9BD0D2480BC5F8EB3BB873AFFBD4885C7;
	15254 :	3CF92606BD4AB2163C5E8855BCE21141BBAF429C3D2AA055BC83026C3DACA23E3D036D4DBB4A39793D50FAF8BD7FC74EBCA7493CBD1907C73CF2AFDBBDB9A58A;
	15253 :	3CB62B143DA5BA42BCBFE461BBC1A3043D51CD6D3DD98D123C073B7C3CB9FE0FBC9DBF6CBD364CC8BD76B7C83D296C96BC0C7BB3BD2816EABD1E504BBC9166A7;
	15252 :	BD6DF33A3D0215E3BC3911353CC6421F3B2BF136BC38E9143D8D0A3F3C6100B53DA33D1E3B40FE54BC58EB833CDC58EFBC7B590C3D09923ABC0F686BBD000CA5;
	15251 :	BC04B6373C477C3E3D8314BA3C09B54ABD31F1E6BCCC80863D172C3B3B177AD3BCEADF413C13DA263CDCF422BB84DB9ABCECB8DCBDADFFC13D42F06FBD856C49;
	15250 :	BC8D48A0BD4C36F6BBB91403BD2F6209BC9328BCBCDD56613D42EE6E3CDD4B123C93A85E3D973EFFBD0FEAD13CB583E13CB61F643AB14B953C56C9C83CDB235A;
	15249 :	BCC90DE5BC800C073D33BD913CD19C0CBC2E9DDF3D8DAF553B6E9CA83CEA8D763CACE43DBD299664BD94E7783CB95D6B3C4AA1B23D35C5A1BD3C4173BC1BAD42;
	15248 :	BD016D9A3DAE7505BCA6480EBBB7A0F6BB602303BD25E86C3D07D977BD7A8E753CC93DC83D8444FD3D397E68BB2DDD17BD187AF1BD8638323CCD0986BBB1065D;
	15247 :	3CFCBCA9BC96E34CBD802AC83CCC93033C8CC4F23D5504CFBC2310B53D26E89A3AFC42E63D4FC3503D3987203D21BB9F3DCEE7343C7198DE3D188917BC637986;
	15246 :	3C539BF0BC53DF513D0B328DBC345DA23CF704433AD38FCB3B04EB293CC3E777BD6D49E43DA135B63D62B3BEBCFB77183D0DF63A3D03E9713CBF92473B1CF908;
	15245 :	BD294373BCBC1BE1399A097EBCF918DF3D0FF42ABD07BA6D3CABDC7DBB59271DBCDAF026BD4B0E983D396B963D3984DABB3B5D213D5DDC57BD33C59FBD267BB5;
	15244 :	BD7800093D0EBF96BAC980163C425C5ABC620B85BD26B65BB94D9B783C19CEC93D1FE23EBD68EDDEBCDF6ED63D56B1A93BDB81C83D6F5452BD0B3958BADA00EC;
	15243 :	3B6C973EBBCE749D3CD73B673D99B041BC8573A43D40A1F5BCA60772BBD69682BD81DFB23D9926A5BC58CB6CBCF8C19BBD1295E73CAA50BABC84AD8E3CE73709;
	15242 :	BB836C0BBCD393DE3D32EB95BD36D863BD37D55D3C2E608ABC1890323D15B13F3D569F703D84EC3DBC9DE0ECBD7285803BB11E0BBBE160003CB4640DBD546856;
	15241 :	BCBEA3D7BCCDF723BD0080A53D371BCD3D2F714CBD459E9FBB6881DEBD6E4FA6BC86CCA0BC814874BD158C1CBC9A72A63D07A5B1BD81B8383D12BD3D3DD5AA91;
	15240 :	3D12E8E9BCFB9AA3BD38A13B3D4F39DE3C9B3EDE3C878CF8BC84FD833BC0A3A33CA922F93D00D01E3D0D49CB3D9E4ED8BC0ED1DB3C0320C83C0D4A22BD84A3A5;
	15239 :	BCD8BAEFBCF5BE1B3D4A2D6D3D2855723D8E8CFBBD6465B8BC7DD822BB6824EBBB658C013D344B6F3D274179BCEF94013D27B8733B759A9DBCFE71243C8ED4CD;
	15238 :	3CD3B269BCA00CB23C90F64E3D0F5FF7BCD364C1BD50EFCFBCD656B33BB2CA623C5A24C73C2E15FABD9769AABD40C04D3C9A6F563D5CB827BD7951643D8CD5B7;
	15237 :	BC2391523AF895753D6C16063B9C03CEBC836954BBBAF7F6BBDA3DC23D3E8555BD64A700BCE2B92D3D446370BD3FA5D5BD7467D83C64E8D9BCCF90783D8149F8;
	15236 :	3CC069403DA2A255BCCACD02BCFBEA873CCC8FD7BD3608B23D1774FC3D3FE8723D2EAB4ABCD4524FBCFB154E3B31A332BA69EF91BD592439BA8A1FBD3D969B18;
	15235 :	BD3AFF423B458612BD856FAFBCEC1A90BD0BC5F13D82444A3C4CD09DBCBA334EBCDDCB55BDA1EF2A3D001A3B3CF5B4173D0E3914BD271438BB2E40E7BCB09873;
	15234 :	3D949A373BED63D23D2708A83CBD0B963BB3BADCBD270ADB3D20E6F9BD1F5EC8BA3013AB3D63E18BBC8E5EDDBC05D2F9BCCB854DBD3FA0C6BDA4A57BBC6D40E2;
	15233 :	3CB3C996BD32100DBD3B14D9BCE72DB8BB0AE57ABC7948993B3E8685BCC8C5C5BC8F2DA4BC2D5506BC2C574CBC9BA1BBBD1DAFBABCE4B6FF3CA5B125BCC188EF;
	15232 :	BD77DBD93D5DA5BF3DC253D73A9E182CBC93E4D9BCDCB450BD7B6B5FBCD2BC6ABCF71B94BCA17B1ABCAD2D693C34CF023B3345B63BE112EEBB545C55BD3093E9;
	15231 :	BC8DBB4FBC3D338BBD0FF259BCAEED913D0B62C0BD7EADC9BCA753ACBD89CC583C941EA4BC6225403B2FED833D7CE83ABD070F1ABC300B613C8C23B53D0D120E;
	15230 :	3D31DB513CB913B13C63D2D9BBD29073BC4EAE26BD23002F3BE3BC38BD32D19ABD17B6B6BB043014BBD4993CBC8B9473BC8272553CB8B5813B41FC9EBD20FA24;
	15229 :	BC7703B83B9C495F3D84EC6BBD1B93D23CBA2E76BB096E53BD57EC7E3C6B22DB3C2A2DEFBAB0D9AABD3BD3A93C22AE5E3B91581A3D47930F3C17C1DEBD584138;
	15228 :	BC70639DBC217105BB6C7606BD931736BD4DFD2B3D661C423BD45742BC273CFC3D617B03BC91D78CBD49125DBCC95DC83D56045DBD7FA89BBDADAAB23B1BECAE;
	15227 :	BD0F508BBBA1D043BC8826E4BC571A9C3C65C330BC6B6A96BD000ED0BC01A5E3BBC5E5CB3D44D7BC3D1A8E933C530F803B7ED0F0BC982E73BC70CC303BA97A99;
	15226 :	3C2C4DA63D13258BBDABFFD9BD8044B63D0615B63CD6BB493D06A2733DA0CDDF3D26CEF8BD37C2B73D411C603AE7D44CBCB03554BD6613103D116915BBEFA2BE;
	15225 :	3D6DB95C3A81187C3C45AFD2BD07263ABCFE05EBBCD703F83BDCE42C3D0B61ED3BEA63023D69FC3E3D1EB47BBCD1168F3CADF9263D00773FBCF09241BB141ABF;
	15224 :	BD057288BCA3EC483DB72F59BD8FF0C13C03A35DBC519D303D3F2309BCA2CE333C65BA26BD3976583CD544ABB9C21BD73CE5DDFE3DA37FAEBD685E8BBBC62D0D;
	15223 :	3B01829EBB9B93DDBD6BB879BD08A093BC638582BDAC69D63BAA06D33D9C9CE93D199BCB3CDD0ECDBCFA35743B86B1D13CD01F733CDCF790BCFA5E9C3D562FA3;
	15222 :	BB94CC5F3BB02412BCCC5906BDA764A23BA8E098BD1B135FBC363789BBCA6707BCB040E0BD5A04A3BD097B98BC4D423C3C373115BD08B741BC63E79D3C96FB88;
	15221 :	BC6909873D499EA1BD0FE5F1BBE3201BBC1E9D6CBD30E1A83D900495BCD00C7C3D20E2833D7CD0CDBD190410BBB68E463CBCABE5BCA5D2B33D8035EABCD3C224;
	15220 :	3D01C4F1BCF2933439D9A86FBD4C1D22BD1D0207BBD142933BF80F453D1281903BB6615CBD0EB71CBB1D85A6BCE6934A3CA9CD6EB997F1F43D52DEC33D24E7EC;
	15219 :	BD81A1623BF8B3A8BCFDCDEF3D0178683D53C756BA782EA13B46589CBD92CC6FBC48681BBDDE334A3D620189BD2E62353CCB16943B22E7EB3C67EABCBD82DB0F;
	15218 :	3CC11FD8BAA6A7B23CA9F1AA3C2E0771BD312D4D3CAE4BB6BCE0C480BD0520463CD9415EBD23282DBCF1152BBD4DEC0B3BF3D194BD00290BBD38784C3D0C4593;
	15217 :	3C7C987D3D333D8ABCB2403D39D9E43DBB260CCC3CEF41C3BBC64F563C0855C6BD105DE53CAADB31B7C8E1B4BD0875C6BC15A125BC55711B3D6661E2BD729817;
	15216 :	BC2B1763BD6B368EBD0DE1EF3D0DFA3EBD97683DBC0CF782BC965BAEBD029EEB3BDAE422BC8F789DBC099405BD7B51FABD0BE556BD2049183D52D4793D56FA3C;
	15215 :	BCCF605CBBB964843D1E90AA3AFEBFA13D0D31B3BC9B175D3D3DEC7FBD42D3E03CA4EA07BD00D485BD5C4B083B60A61EBC68808BBD3DCF203CA93C73BD829ED6;
	15214 :	3D2759883D967DBD3D7808B7BCD2D5E1BCE1C4363BF90AA9BB6E0648BCB791BD399E0F0E3C91991E3D1FD312BC9041E03B04CE63BC48E3D4BD2B201FBC4BDC2B;
	15213 :	BD245D2F3CAA0EFEBCCF66CC3CC46A5E3CB1216D3CB66AD8BCB54A233C6A5F6BBC4A2C5CBB976BF13CB665943D2F5E1FBCD429D23CA9D7EBBD867BD13D0217BC;
	15212 :	BCAD98F03C9C30B63C9D3094BCD2BDD93D0B270DBD02DAE5BD40A0253D5FF0183D53CFA73C156634BC892DE53C7A0A73BCAC4A0EBCACACBD3C33E73CBC9A70E5;
	15211 :	3D0A449A3B9DE22F3BD01B4B3CCF660FBCBA619D3D2652493C89038D3C9BF5C0BCEA66B53D91512B3C0EF933BCACBD5B3BD32DBDBC7A5C6EBD09C9853D5D7A2A;
	15210 :	BBBDFC93BC6BAD583D94A241BC2E5B1A3C4A18A03CDAF13BBC0FBFD73C1B86E4BC2A96AEBD587560BCAB7E303CBB99A2BD0184CF3D907C81BC2556D6BD3FA520;
	15209 :	BCB59AD13BF8702BBD128E4FBD000FA6BD0722C8BCD7C3D6BD484514BCBD3A683C555426BD905DEC3D8AC719BC1BA3253D3889DEBD4D7F523BF404153CAD98DB;
	15208 :	BD0B49DB3C82E86C3C0FFCEABC29E55F3C9F166C3B6CCDDA3D7B8BAA3CA1D57ABCA12AC5BC6C2660BC91EEC3BCC6457FBDAD1C7BBC9C899EBA66997C39839F6A;
	15207 :	BCE4D0083D71E587BD0A93FCBD2AF3563D7602ED3B75C8933D5BCCED3AE8676ABC5327E1BCABF13CBC049E4D3C5D370FBD1686BABC10C8B4BCA143133D0971C2;
	15206 :	3D54C5CF3CD79CAFBD4A9092BCE1027EBB2087393C9AB695BD2C70E13C66ECEFBD49034EBCCFE3FDBD613E773D76FE6ABD01A8EEBB579F03BCA12B423CBE6049;
	15205 :	3CA49FB2BBFEE9D2BCD4293C3C02BC2EBA7E9FD9BD13C30E3B4271A93D81976DBCEFFA5EBAB627D93D2445713DBFC3B73BBC09C5BD30CDE8BD1738BB3CF908F0;
	15204 :	BCD62CC03C4302F93BFDB5643D617197BC5661813C838B7B391A5E38BD8297FD3C9C0D16BD3F3C9A3D20E5DABC5C0A353D258ED6BD8E0DCABC1403CDBD116153;
	15203 :	3CE2639C3D44D57F3C3A87F5BD7B40353BDB99D43D1C4415BD67B72CBC65FD113B36CE943D1025D7BCCE00443CC861D2BD085BDFBC8CA3833B67A16BBBBC40DF;
	15202 :	BCF7B85E3C0F40C03D1F38D63D009C513BC52FA7BD4C0322BD1B0708BC560162BD78773DBCD14A7B3C9306DABC55B0563DA0C6353CB9512C3C55F904BCCDF26E;
	15201 :	BCB587FC3B50ADA0BAA6DFE9BC49E365BB20EB08BD37C434BC99D2CDBD0838733C90CF8A3D5DDD433C87F2C43D95CD18BABB41FEBD6F9D3ABD1D8517BAD0ADD6;
	15200 :	BC48A751BCC749F63CF3CBEEBA43D746BD1ED00BBB08C137BC18EE64BC6F31BBBD1E89BC3D97CACA3CBC2BF2BD34DF56BCC4758E3CCED0AA3B50644D3D08FF35;
	15199 :	3CD90389BCCA7AA8BCAA2E263C65A0ABBAB24D57BD439918BCB850BD3D1B300DBCC5C558BC5082093BBBDFB2BC4E334D3C52A913BC803437BC8C8F173D08C450;
	15198 :	BD7F2382B9EDBC32BCED25C6BD2662EE3CA28A473D4BD274BD2C10F43D8D31AA3B06526E3D8986983D406056BCB51E2BBCB33CFA3C5EC4C83D6CFC22B8FEC8C9;
	15197 :	3DB77242BD77BEE53C0F753E3C5BE66C3D1AE4C3BC0BE8DA3DA0C493BD3B2AD1BC3B31F83BAC1CC53C159D32BD4356473D878D543CCA8F0BBC1539E33D9B1464;
	15196 :	3B8BB8B4BD1A4BADBBCA18593C82806C3B0B2BDB3D22085D3B90D751BD99A5D1BC56DDDB3D0088A33D727AF63D1655C2BC27B270BCC126F13C781E6E3D90FF4C;
	15195 :	BD3A810A3CB6BD893D06C7B63C190F4F3D96B8D2BCF524503D3D3AB83D586B8F3D10D818BD06595F3CF06E3FBCE89BA6BCD7432EBD1B0C8BBC39A0B3BD066780;
	15194 :	BCD2ACFCBD86AEB33B128F25BD845187BBACB5CBBBAE8161BD11D5BABD66299DBD139AB53D354DD9BD658FE93D8D0DFF3B94C7233C67809F3D1355033D4D5276;
	15193 :	3C7FDE593D4F45B4BC34DE1B3B1899D43D2FA900BD2D053B3C9EBBA2BC4DECA4BBE7ED25BD5877A63BB2A25A3CB2D001B8CDDA2A3C706714BD206737BCCC594E;
	15192 :	BD7C57E0BC58874A3CD11BFABD1351973CFFFBEFBAA574C8BCB848FDBDAF50153CFEB6DC3D729F1E3C1F180ABCEB96CCBC52100D3D3FAA6EBC8A6557BBFC6C23;
	15191 :	3D71DC7ABC875FE2BC2AC4313C8AAF383D2D0ED13CCFBE23BBF34BA83D384EA53CEC2E88BD50A28BBD6323343D4492CDBD54FD9ABBE2D7683D768904BCDD6582;
	15190 :	3C966E6ABD6AAEA43D5B54223AAD0E89BC30345FBC6234763C8173823CB0DD6EBD1B31E03BBA9B33BC347AD3BCF56EF83BA59DA4BC254ED4BD3404653C875F38;
	15189 :	BD12983ABCCF768A3D82B4163CEF8163BD4FD43B3D6EBEE53D25A4383D26BC3F3CE00D9C38A808A33C6898E43A75549BBCC3EA4E3DCE27E03C9CEBC23D8F0A77;
	15188 :	BC4E4E57BD0F6BE4BC9F0F82BD36217E3D283DE53CD2F6D0BD8676E8BD7E20CA3D0D9BD2BD2891F5BCF1C92B3CAF218439ADE8993C2D0B41BD38B13F3CB966AA;
	15187 :	3C4F43103CC8FE103D4116DBBC536A3D3CA4C7703CC2E7F63D4221023D41721F3D5A5460BC5F4E7DBA795B36BC106BC5BC1963DDBAE7FEBABC07A914BD2F508A;
	15186 :	3C77D6FA3D1553B23D0CA578BCE3A277BBEA88B8BC0B2ACD3DA99A91BD0EC26F3C4E35653BDDA542BBB4DB7F3D1B2952BC3E356CBCB57F36BB9F373A3B256B5C;
	15185 :	BD4BE0BD3D865F663D67F8CEBD44D718BCA82E8A3CDE51AF3C9C084C3D0225A33D39018B3DC2E20CBDB1CFF4BD7BF132BC4AD633BBC0E01CBCEF6F39BC712E1E;
	15184 :	3D2C1DD53CD972CDBC923AA63D0313F73AA0E87B3A0FEDDB3D826F64BCA9DF403D19452DBCC2F55A3D8305133C0B2BE5BC8F9B5CBD316CF13D14738ABC1CAF4A;
	15183 :	3B0655BD3D08E3A6BC1B28DA3D345F003C7986703CAA49DCBC887B853D1AA4083C277BBABD05E6CCBD5F03CBBA7DC2F73CDA06733CB7F89DBBD95BD6BC3E3DE5;
	15182 :	3C8E96DBBBB22BA6BCD014DB3D357F453CEE5655BC8DBFE9BC8986FB3D2A0DD43D9570EF3BAB0332BCD9A7623D5DB718BC49B2C83C8A13693CAE1A6EBDBA76E7;
	15181 :	BC86D37D3BB802673CD4AE253CA58B3C3D00C2393C9CB8593D5BF34BBCB10CF03D635FBABD230B583D6F759EBC86401EBA6EF4E73C3C0FF4BCA71BEB3BCF1265;
	15180 :	3DA868593BF607C13B263DD9BC02B193BD0B8B42BD4732143D7378EEBD121643BD0BB9AFBC23664CBC83C19B3D89957F3D4E3E993D4837A13A97550EBBE85C8B;
	15179 :	BC97FA31BD1CBF263D559BCB3D25A0BABD56F41D3CF18DB9BCC0C5EFBCA852283CBE63B53D4486853D4A1B1A3CD398993DA916903D3740B3BC1D0F98BBD46C6F;
	15178 :	3C9EEA4BBCA3B0C0BD20E004BD258A783D4F9FA8BB401AC73D0CC9F4BA405E083C8FCD113BC10CAF3D138A0F3D0CEACE3D1D920F3D781840BB023C8C3BD2ADE0;
	15177 :	BBC7C4F23905C6A8BD0A4F96B887910ABB6827C3BC05C003BC996D99BC695A0F3C602624BD0DEE5EBCF511F4BD18D26DBD2ED7B8BCDFE3AE3D4D872A3D3FF04C;
	15176 :	BD21EF3F3D55B8603A81AAAB3C7269C8BCE4F698BD1C9F6C3CC143EFBC93E85EBCF0BB883B3D8AE5BD5982C2BD38932BBD7D7A113BBD1BDA3D1D6BBD3B4CCBAD;
	15175 :	3D5B12A63D4ED6F2BD10F41ABD8945CABD555C513D508AE0BC8C7032BC279E8EBD88B4DB3D373369BCA0E147BBA1FB18BC32331DBD16DC523992EA64BCC06643;
	15174 :	BD3DE77D3BA988683CD06EC53CF8DC6E3C541A68BD4DDB393CBB8F6C3D5D9C9ABCEB401EBC631DC1BBAD3454BD615FCC3D65B1AE3D2AD4DB3CEC1C26BA56622D;
	15173 :	BBAE0A1E3C07695EBBC8BD75BD2A17783C84B9D0BC0D9F03BD4E5AD13B1B57BC3CA358B83D212835BC593DB73C45F9983C8DC809BCA8310D3D232CAD3B8FF072;
	15172 :	3C00C075BB6C1915BD3598083BA3D6E1BD418481BCC029203CB31722BC0DEC193DB7C48DBC325A63BC10DA1FBD0904BEBB6E9ADEBD384E053CA85DE73D7F24B0;
	15171 :	BCBD20B4BC12F8BE3CB64E683D610B8FBCDD8429BC21E59CBC81FD70BAEEB5E8BD98C2743D631338BD5F84563D0E091C3BFAEC173C4B82EE3CFD96CDBD3E9B38;
	15170 :	3C9BE60FBD48C7613D90930EBCD8695ABD83CF01BD4A328F3CE84C5A3D1EA540BD8E4E7B3B474DFA3DAE6719BB08CAD83D340CFB3CD8F589BCE22AA1BC72E8A9;
	15169 :	BD208E603D8870843D17B6A2BC4BA553BC9D90A3BCE3C9823D82BEE53AB9AAA73D296986BD7C8AD73BC2376FBC810C7A3D0B4BAB3CCFD34E3C015CD13C5FBFA3;
	15168 :	3C9CE16FBBAA47D0BC7B3E78BB8FE41ABCB1B7AABD7F5DE0B942A28DBD0DD3E9BD40AE643BDA7E633D8293CDBDAFDEE83D370DB6BD3922703D1E00BCBCA1E591;
	15167 :	BD0B4277BB33DFFA3C920B71BD094165BC8810D5BC8CC21DBD3BA3B43A4A3E4A3D4FACF63C95C0C7BD0944F03C889EFA3C9B73CEBA32A63EBCE20BE83D3EF375;
	15166 :	3D7D6A9CBD2019723DF794BCBCE9CEA9BCC54B333D5DB275BD02EC433DA56D613BB0DDD23D6B8A0A3D332EC2BD4B4F45BAF9559FBD07A050BCEC0A61BC064D0B;
	15165 :	BD5E85ADBCE2260DBB09046CBB3C8DBDBD57D61EBADD7C363D9410E2BD83B2E43D66D6983CF05C533D5355963CBC4EBA3D1DFF2B3D028C773B17FB8A3CAD4CF0;
	15164 :	BC7BD653BC5867BD3CA3C88E3B3F7176BCEC6B9EBC98C59A3C23FB103D370B99BD4E09193DA3E9AF3D28AFACBB9000E43D2D01973C35A85E3B8E5B3BBD252EA3;
	15163 :	BB07E7363D1E43C73D105A2C3D6670B8BD61BFF43D5457083DC80848BCE48D71BD8DAFABBCA320BCBC9814AE3D2C020FBD156414BC1C6CF4BCF96FC7BD8659D5;
	15162 :	BBC38A8EBB0D6A813D07AA06BCACF93C3C9822C03C40B1483C9251FF3D3D45393D2325743D9F88B9BA4D7B1E3D75ED0B3C42564DBD4ED5EA3C847E22BC8D4F92;
	15161 :	BC22E346BCE007C6BCEE99A33AD60232BCA1B6CB3C287961BCEF7F5D3C06EA2BBCF9BF3A3CD04F3A3C944A61BC5DAFA93D15E8C0BD190E8EBCB6D956BD8E9701;
	15160 :	3B9766733D5DC1F83BB4D5313D7CFF303D0D0695BC6637013ADCF3613D0E36693C922AFFBC7C5C80BCA24770BD6434C63B4AA322BC8C08DF3CDB83293CFE734C;
	15159 :	BCCA02583D16B6093CF5B9C83CA16ABA3D03427C3BD6001F3D1827373D66531D3C259FAA3D86D3963B0EB8B23C9139D73DA516B1BC6F01F53D53AE7ABD1A0314;
	15158 :	3B8017D9BC459F7C3D3B9AA6BC324B42BC6D6FFFBD0B7D393BCFC4EA3D2CB0133D4BA573BD2FBD833C8FDCACBCB45DCABD4378B03CA95C8EBCD3A4593D33077D;
	15157 :	3D15DF933A0BA4BFBD49E5C4BC4B8DC03D119CA23C2F7CBEBC1AB8AA3D04F80EBD75C47BBD9E23ACBD0A6CE1BD7F594F3C93D496BD4F5614BC6CBF0EBD014ED4;
	15156 :	3C3F9EA43D5A48B23C1022EFBCDA3C0BBD319C513C4601913CE673293D281E75BC6B66323D6CF0C3BC9C70BABD5C33E73CE23F44BAA7BCACBD2B75383CFFF274;
	15155 :	3D3982003D336A003CE25E61BBD48360BBD8CE6D3D405B033A99B8253A234BDF3D0D60B83C952C6C3CB0D47ABCA77CBABB095ECCBD8A305C3CD888DFBC4C61F2;
	15154 :	BC4B8AC3BCD0E56FBCEF57A03D4BF4BF3D8D83E0BC269B233AFEC6EF3D0AE19EBC8C40BCBB6240E53C7FE4773D1E08B2BB931A583BF530373D527A90BBEE6121;
	15153 :	BC34FC7EBC2159313C82092CBC537F45BD1291C7BCF4B5623C49E28BBC20AF65BCB3EFAFBD5E7DB2BC8DEFADBD57ACB13CB33279BD3978423D10553C39C53555;
	15152 :	3B0A5ACEBC40220BBCA66B51BC169B53BB02D51CBCEE8FDA3D17F21CBCA29EF53C98F48ABC8E8A5B3CE99855BC9FD565BD2036563CECBEBDBD064CACBC9F6D17;
	15151 :	BD340EBA3C797031BC8D5975BD3E8CD33D225F5BBCF9D660BB1138BFBD1BEDFE3C63E5053D00019C3C0E378F3CA304543D5480973B7E83C2BD593DE13D0F7776;
	15150 :	BD4D7BB5BD4098763CCA6EF63DC0F3A03BA5DDCDBD2C9C86BD96A016BD38FE54BCAB6AC83D67675D3CE57BEB3D8850A6BD36AD293D9AFF4E3D382CDEBD176637;
	15149 :	BAF3ACAF3B2D0112BCA30F71BA9E4FEF3D5EE9B0BCFA633C3C6D75243C3D0B8CBD2FAFBA3C5D782CBBA635793CBF89013D848FD53DA077013BEDBE423C9ECF5E;
	15148 :	BC88425BBC04031B3D0E49073D04AEC23CEFD90CBC7D0B78BC04A29E3DA57BC9BD78E48CBBEA8F12BBB90D76BD82D3BEBCA2D48B3CD46A96BD1E5C09BBA906A4;
	15147 :	BC2C29C53D345AAABD5C22A8BC849310BD5846A6BD3959C2BC1DA014BC5445D0BBFE628FBC8589123D49B033BD94466E3D8142DE3D23D70DBCCCFC643CF64D48;
	15146 :	3D5EAFEC3C1F8E1FBD63C063BD18C73EBD950A8BBD16DB5CBD5D4833BD41FBA03D1621BABCC6907B3C721805BD5EAE143D5D00CDBC8EBA713D7FE45CBD800B2F;
	15145 :	BBB729B9BC90917EBCB93A06B9FB1F30BBAEA9E3BC6581B7BD80A2E53D1BEF56BD57BE65BB5E0596BCFA6D69BD1A2389BC210D993CB2D78ABDC3C6073DB070B1;
	15144 :	3D01567BBCC0D3CB3DB847DFBC4A57FEBC240CCBBCD9BC51BCE139743B5654B43D0DE9F6BCE0E8A4BD4B10B73CE8D7DEBD6AFBF6BD600FB2BDAD64D23D119E02;
	15143 :	BC9438A13B03080DBCECDC1B3CC37012BB02CB073D3189613BA2E8F8BCC769F73D13E5A33AECE953BC7DC6BA3C49A9ECBC9321DEBB7602293CEA7EE03A0930E9;
	15142 :	BBE7761239927787BCC81ADEBDB171F9BC8A6CF43CBBF44FBD68F0F8BCC4C2E63CCF355A3D581BEDBD76327C3C82576F3D7A6FD83D715C2EBCB2C3533D9809BB;
	15141 :	BCD3CCA03CDEFABDBD078DFABBC3D94EBCEA6982BD65BE18BD0A830B3C49F8FB3D2E6C303C4A1A363D41B7E9BBBBEF1F3A0BD5F8BDB04FB93D4480EDBC8D112A;
	15140 :	BC8CFFBC3CFEB3633CB36E47BD359ECFBC16B8BE3B9F2485B9BBAB3A3D19A9E33DA54273BCF60CDABC7E655BBBD58B833ADA7E9BBD04EFE9BC4D37E9BC0EA162;
	15139 :	BD82148F3D09C8D63C182DBF3D1B3CE33BCA2DF3BBD87316BBE2BB813C928A3C3D3BFE353D0915F0BC0E43483862D269BBEDACA9BD014E023D278774BCE3BB3A;
	15138 :	BB724298BD4BACE7BBE41CDCBB922A7ABD1085F3BD4E1A7EBD809F1CBD8594153C4CE509BD30116ABC9B6BA4BCC26658BD2850A8BD52E6EB3C03EF73BD3C6FCC;
	15137 :	3CF5AE28BD18AD9ABD387655BD5A074C3CDBA6513D03D34FBD7DD1B83D1885C8BD8FB13FBCDEC6863CA024D13C7AA09CBC09239C3D3E1F7E3D43E01C3CAB46FA;
	15136 :	BB3D22E6BD7E1F6EBCFEE6993C96DF7CBB567F46BBACF247BC481D4E3BC461323C6BBAD4BD7B9C033D4B346A3D5947183D11D1533C8186333D96B4C83D1129DB;
	15135 :	3D1CA24DBC4FC964BCAD0E4FBD00B808BCC033C0BB24F38BBBA45A7FBCE80410BC51678ABD055B29BCFDA184BB44EE5ABCE9F92CBCA69CE5BA33A8613B8ED69E;
	15134 :	BD2BC132BB43DA703D4312A13D279CCDBD23FA793CB498D1BCA83B023B86365B3CA595EC3BA1A1CFBBC59FA23C8FCE5FBC29FE9ABC42D8B73D6669EB3D83E8EE;
	15133 :	3C925FBE3A580F8CBD739753BD102AACBCFDF7923CA022A2BCE416AE3B9EDEDC3C4D35D53C4AE30EBD5251B93C12AB3FBCBB72F9BC1C8E41BDA0D8B5BBA47AE7;
	15132 :	BB5AED213CCCCA5EBBEFAB303A5C5ABF3D9C9BE8BD325A9F3C9A573F3D65BCC8BBE08ABE3C8E53943D4190E5BAAB59E83C86AD0E3CB4762E3CE7DDBABD852DE5;
	15131 :	3D4D85613D285DCFBD96ACFFBC6C0247BB5DA5453D0299B43C321D32BCCF5EF83D12B4403DB6C42CBC8A67D1BCE61ABD3CA12820BD52FFD0BD65D8363D5C2C10;
	15130 :	3C98F46F3D60FE4C3D57EBB6BCC8C94A3D6B5939BC0A3454BD0D2D4EBDAF15653D678527BD175448BD3B4FB73D7ED9DABD08E41D3D5A4E503D1E3E03BD9448A3;
	15129 :	3CCD956DBD01514ABCF46BEBBD0D10A03D10E18A3D07B99CBB6C6663BCFB70EF3C6513E4BD31BE143D7DD1013C92C0023D57B8673C227BB83CF9765E3BB7374C;
	15128 :	BC9BE18EBB024C843D21813EBD289F6F3C8C1DC5BD241A7DBCCA4861BCE48BFEBCD570E83AC820C93BC03E68BD6AC47CBD772ABCBC9BDEEFBD0FD4E63CEA9C0A;
	15127 :	BD504E7DBB6923C43CA6A2E0BD8ED8BFBC9F3A6A3D0008B83C282F1DBD1FDAF23C347F1EBD32C3F53C7980353C97DA49BC768FF7BD0C1F69BCF03663BB90165F;
	15126 :	BBF44C7F3B5BCC17BC70EA38BD69E8123D8515E93D788E6F3D7DECCA3CD50341BD07E74BBCA974ACBD487417BD072193BC42114CBCCC06B4BB2E0D223D416E14;
	15125 :	3CA0092DBB91A5A3BC608F8EBC1B65053C975E1FBCD5CAEABC6BF5DE3D3343CD3D5B3A92BD1507973D8C92EEBDB658073D05FC95BCAF8E6BBC2CE7BC3D84E9D6;
	15124 :	BC9894193D20E5D3BCEA83333D5BD7423DADA8A0BC0F25DABD14545A3DA38249BD0EDB8B3C5D02D93D162DD53C9640D5B9FDA9F5BD1D3094BCFB3EEBBCB65FA6;
	15123 :	3CF5B7AB3D44495E3D05E1B03DBECAC9BC008AFBBCE238DEBC9C47173D7F46FBBD0CCE40BD4934D4BCF49F1CBCFD408A3B018187BC5EB86C3CF7E0A53C8EAE51;
	15122 :	3D4B7A6D3C50DB4D3DBE93863C581948BD10F10ABD273F3CBD6086C3BC5EA4703CE6D754BBA3C2393C86ADFB3D69CDDE3D42BD36BD033F7D3D8DB6953A810443;
	15121 :	BD2D673EBC890A4BBD8280FFBC1B67ABBD7422063CD12DFABC2BA34F3CF76F193ABA17F2BD017C283B83CCC1BD80D5D3BD502858BD184C103C20C9A0BC895E8D;
	15120 :	3BEFF1AFBC6016453C4260D73C1927C8BA32E78BBD5CD8C13D71D8DB3CF695EE3C19BCF6BB93582E3CE67C5BBCB500AEBC80453CBD65FFBE3D6EC3ABBD12EABB;
	15119 :	3D4930733C8B77FDBCEBAFC03D07143DBA8032F23D4F85ECBD9AD77D3C922B1F3D62262BBD0C96563CDFDF173ABB63AE3CC5CDF7BDA37DC53C08AE2BBD1F35F4;
	15118 :	3B93C540BC0576A2BD470A053D15F60A3D79CD523B78F664BC9A9E5FBD3991B43D05A12B3D893EEB3D0889A73BC2437D3C1416DA3C53CD883D830BD3BD286813;
	15117 :	3D43CC87BC9134D9BD2965423D6B295E3D86FED13CE41EEA3ABED57ABC8E6801BC0B7D01BCA7C9C43CADF5EB3B4B8F41BD06A0EA3D55EB283A8474223D0840FF;
	15116 :	3D4E55DC3C96C6C6BD4C5866BD19E1A0BC5C3E63BD5A56AFBCE8F0C23C7B9AA0BC88C0D4BD240A343D79DD9B3C30DDFEBCF0516D3CD48F8CBD3CFBDB3D4F6686;
	15115 :	BB24018C3C0480E93CB4C064BD75FB0DBC80C309BD7004ECBD3865ADBCBBD575BD5A664B3C149A9D3CA3C2833C97A1CDBAF1B2F63B0B7E85BD0326D4BD83DCF5;
	15114 :	BC7F5AFFBCBC97C43B4CAFAFBC131C2B3CFE63DEBC81E9F6BCEFC2A4BC9D73EBBD717C2E3C2D26A1BD3536803C2A18B53C24135B3DB12660BD3B8661BD40CAB5;
	15113 :	3BD6CC47BD2983E0BB68F4E2BC62735B3DACB96FBA25251C3C2FBCF93D4D042B3D2BF888BD543FD6BD62115CBCE369B93CFB17303DB43D2E3D874BF83C555B4B;
	15112 :	3C3CCEA73C1298E13D8DDEC0BDBFC0D73DC01A6DBCC62D09BD09B003BD4B45FDBCED5F59BD4F92643CFEDD363C74AC63BC63B19DBDA3F1C53CDDC98C3D0018DC;
	15111 :	3D18272DBD4303DA3D5B0BB23D276192BC7DFD263D31F15BBD0B33C6BC7491D8BBBEF7E5BD0FAEC93D318DFD3C65F2FE3DA0DD0F3CEBAA553C3FD288BBDD8241;
	15110 :	3D5A9ABA3CB2948E3D5FA6ABBD35339ABC336E8ABD4C96CF3C5699E6BD09D790BD1246423D08B9BEBD6B1B05BC82A086BCC517653CEABCC8BC292C22BD0EC7DD;
	15109 :	3CD6B1783D4F94E93D8DA4B0BD563D07BD105BBBBC1F57483D3E218DBBA8B6AF3CCFF60BBD12303ABD2BF7133CF43CB2BC04A8783C7513A2BD0022053D4B76FE;
	15108 :	BCB69D5FBCF149ED3D5736FFBD8E7187BD17B73BBC52C4823C9A793BBD11C76BBD0A937DBC971B8C3CA87C75BBA4233C3D8F8D66BD028CCDBC8CCB15BCBD5729;
	15107 :	3D8DF2BE3B9B05A1BCE57F2D3C87DE8E3C9BD58CBCBF3CE93D0016FB3D8029623A3B966ABD0EC3D4BD3507D0BCA6D7A23C21FC96BCE52E2FBC00B9B03C1662AA;
	15106 :	3D057DCE3D6D72F2BCCDAEA3BCFB67A83C5A01343B65450C3C4677B8BCC2CE333BE4A386BD64CC44BCD82E9EBD54E79CBD0EE9C1BC50BAD0BCE4967E3DAEA6E7;
	15105 :	3D65E34EBDBEB0573DB2CA1B3C052E3BBD83DA99BBB2C2BCBC12EAA1BC7E2DF2BBEE9CE33D848210BD457D233D954284BCF2E43B3D2BD952BD12BCF93CC9E582;
	15104 :	BD23AB97BCB6CE84BD3C87643C8286ECBCD002E73CA4513BB903EA333D61F1E73DE1E435BD3EE363BC58FF743BBDC7ED3D16C535BCD9BD313C99D2A9BC76A85D;
	15103 :	BD5056833D1378CABD4110ED3D0EEEC9BCE608DABD915F5E3BACFAA33CCD51B5BD7A156B398E3B07BBF1A4B23CFCA41FBBE97A153CFBC3173BEE9AD7BD243708;
	15102 :	399117183C170566BDD1720ABACECEFCBCB6F84B3CBD34CBBC5173703C8E8219BC1C03853D764A8DBD631F9CBD57AF0EBD018DC73C94B459BC76A8533CD034BF;
	15101 :	BD33619CBD2CC6BEBC7DA7673C453B663D77E8183D806E233C99AD213DEA95A2BCFF5BA5BCEDC5ED3C54AD91BCDE5D143C5084603DA02740BCD897C4BCD2ECDE;
	15100 :	3B01027D3D1500F03CA6D0B5BD919D36BC8DA56A3CEA6E6F3C1E27FABC27D728BD0B6039BC8E61AB3C6625263D3EF5113CE32B3E3D87D07C3D02E34C3DBD53DB;
	15099 :	BDB5F3C0BD2E685E3C9F01203C78387FBC8DC1A3BC2AEE473C98F51CBD0417073AB1B6B03B6BFB983D08E3E9BD471752BBD8EF633C9DFCEABC8C40563CA80E18;
	15098 :	BD19AA613C160DE1BD5F0610BC25296EBD09AB1C3BDC5D27BCE27BDDBB93E88D3B87275BBD48C594BC985CAE3D4CAA5F3D99FF243D318C2D3C6882CDBD113C9F;
	15097 :	BC494BB0BC9C4A1F3DB791EF3C4C9A97BBFAB478BDA94700BD1EB41ABE024FCF3CED7FBBBC96A323394BE231BC6F8C7E3C73091EBB9700FA3D77F0853AF141DA;
	15096 :	BD0C7F493B6E03303BE70B323D4288D73D03AA0FBB9D00AE3BFCC7A7BD2909C63C01FB4E3D40019CBCB1D03FBD04686CBAEA0F2CBD9838B2BD5AB314BD24F619;
	15095 :	3C52F4863D2212BFBD170DCD3C21B64E3CC27AE9BC3738553D4B81FABBA14631BCB2DF513CA8820D3D296A4CBC1AB05DBC88A703BD4ECCB8BD23400ABD4BDBE1;
	15094 :	3C02152BBD9FA6173C31258F3C919287BCC607483D2585E03C2FE5803C581216BC27938B3D4B5260BC76E4B2BD6282F7BC0954D53D47932F3C27C5983D834700;
	15093 :	BCC1281E3CEDA8CD3C9169593D3C30FF3C111CE03D798C843CD7A8B4BCC3F75D3B8116073C50915C3D05455EBD1088F83C3C19F0BCD570013C106B47BD27A6E6;
	15092 :	3B95F7C33D5BD12F3D7610CB3C31C6F3BCA53650BD143910BDB0588F3B1CF2D33D21D82FBCC28D1FBCA8B7ED3CE44C823C9F7CE63C8560F3BD5B15C63D834A03;
	15091 :	BCEB5402BCE0E3B03C6531283C073961BCBA00D0BD0D5750BC31A8EB3D04A14B3BBCBB7BBD83DDC93D6DE72A3C984B37BCD85FBDBC02AA8B3C724BDFBCC89077;
	15090 :	3D73199F3D723DC43D4940733BD2CBDEBD1BADF8BCF33FA93CBC4264BCC5E7B13C4AE457BC5A169A3D87AA6BB8C1FB6C3C19ACD0BD0EE1013D2A0CF23C121020;
	15089 :	3CCF50893CE88D18BCCD3EB9BCD9D1283D797E8DBD240EB83D6FD26C3D1BF8053D2C65C13D26075EBB60B917BD9871C6BD058F63BC541BF93BA4FEC13D3D2A13;
	15088 :	BD45F530BA8901E9BCE4952ABD4EAEA23C9CA02E3C722F9DBD1B54ABBD2C10DC3C2D600BBD82629B3B42A06DBDBDB708BC9896CFBCAA38FA3D52C2D73C2037F6;
	15087 :	BD87C512BC9A01E8BBBA7D583CE5FF79BC6E21B9BC192B903A52B0533D87CE2E3CD1D7423D65BCC8BD877AA4BD257B40BC9D06F93D0DB9A7BBC3146A3C1B27CE;
	15086 :	3B23D06E3C896EACBBB98F75BC6632083A9A6BFD3D872845BCB79A113DAF4A523D433F6F3D0DD72D3D700476BD51BC1A3CDFC6F1BD656527BCEB172E3B03D406;
	15085 :	BCA1176DBC77CB873BB74D703D0B6371BC90FDD53C95F7E33D40A59BBC8EE3A43B93C1493CD955A23D42639B3D5FA2393CF1E6A9BC4C02E4BC85A01DBCD13476;
	15084 :	BCC7277ABDA9FB303C537C1EBD208BE23B49C0093DCC44993D6DBE983C960ADA3DA137CA3D12A8AC3BDD89C83CF4903CBB947A873D4FF1813D0654EFBC9B7C2B;
	15083 :	BCBCBE97BBE12C72BCEC08053D2E33893CD5166E3D2BC15F3CF1447D3C480269BD2C67423D97198ABD6235253D6037333BCFF572BBED8EA0BC58CF2F3CDF2846;
	15082 :	3CFE4ADF3D19B5B33D5016D53D0987633C351AA5B95CE184BCD380583CCAD5C43D5BED163C97D55F3D27CAC8BD04ED023C8526E03CBED4C2BD12CF9DBD61F492;
	15081 :	BC819BF53D3AFD8C3BC1D0233D6AD4AD3CF9A6C4BA6D2BA83D291CEBBB7995CEBD68D2DF3B1BD0A4BD1745F2BBDDF4013AE1B4F9BC9C7343BD22953FBD5009B5;
	15080 :	BD0035103CBC46E2BD49FE123CF4322BBCAD59C0BCE769243CD3693F3C54C0BBBD3469E6BAECA654BD586D9E3D33A70ABA4880F7BB8C36BABAFEC46DBCA08E19;
	15079 :	3D060668BD6A86483CB2FFBFBD4F8B983D77BE5DBB5754D9BC97F14BBD08000D3CC16BAA3D1E47283D8D3BB03D4F54D5BC3497313CED61A53D4DC71C3D571145;
	15078 :	BB57FF4CBD2BC7D8BBFEC021BCD466423C6832BCBD4737753CE3E7C43BBD70413CEB6F95BC9D33893D04F6813CED9FCCBC2DCB3FB9E0B69D3CA4A0DFBD4CE7B1;
	15077 :	BD8039CA3A6B4E84BDFEF35FBD39A34E3C9C1BB2BD235E333C7BD8DFBBA195B4BCCAA35ABC7F25BA3D2ABEF3BD02979F3D2E74053C0B7D0F3D4CDE98BC07C2D7;
	15076 :	3C8031FD3D13094DBC1D16EFBCC5FAE8BD010C2B3D4DCB67BCBD55623CE3929CBACDEDADBC1C42403B12D8B5BCAAD609BCB742923C91FD153CD54F743B00E73A;
	15075 :	3C5DA496BD9F01C83D301E7B3C3F27303C0DFF8DBC84E6B23D9C62A1BC169226BD82B5DE3D7951BFBCA28215BCD8181F3D2BE55D3D77C7F5BD360B7F3D900C81;
	15074 :	3C9E9A0F3C3716ECBCAFBBA1BD229ECFBDAB9F4C3C18B770BDBCF559BD7D4B18BD86D948BCA3723A3B9B69013BCBF7253CA629543BB6B1EC3D88FC91BD35001B;
	15073 :	3D16BAAF3C99505F3D7C83E3BC55BC5E3C82281BBBCF85ACBD18542DBC36493ABD34EA46BCC07D7D3DB09650BC9965DDBBD8516E3BA33AEC3D0B2188BD46F66A;
	15072 :	3C8238313CDFCD61BD4EA6A23CBEC627BC908F22BC9AAAF1BD8FC815BD07CED83B224CEABD03E7393D5DD1913CBD2E2ABC795F6EB95C379FBB6385C83CF1BBAF;
	15071 :	BD06080EBC5FEC623CB1B7CCBDB16B1B3D1ED3ADBDC44026BCCA1986BC0A0EB13CE14B51BB93E12BBC1F8B00BCAC106B3D465FD0BC2DA6FEBCCFB00DBC36E557;
	15070 :	3BAD3E16BD4FEDFD3C884915BCDA216ABD2E0CCABD17A170BCFB3B1E3CC07FAD3BB06F723DA716CF3D38BCF8BD8D440ABCDAD4D9BC1DBB183CA809C83DAE90D3;
	15069 :	3C924DA23D4BC7863D60A644BCA48C6D3D5D5E2B3D47F8413DA057CB3D173A3C3D07324BBD71F270BC9693E53C487C7D3D29BA6E3D43A66B3CDD122BBC8F93F5;
	15068 :	BC3A1F63BCA7E9FC3CAEC0683D9642193DA618E8390991403D00B55E3D06FA2E3B918046BCA67E82BD217F8EBCD876FCBD939D6ABC902D433D16CFA33B6E8AFB;
	15067 :	3CDE3CCA3C9F08703D924EA1BCCE58083D10BC1ABC387396BD505CB83CCF016ABCC9F02A3A5347B43D08F83ABD74BF6FBBE7D9693CA6B1D8BCD173073CCCDF9B;
	15066 :	3D827FAA3CB8FDBFBCCEDE51BDAB9982BB88FB803B03A8D1BD04389DBC81CAD33B1F52AEBD90B352BD9656B03C850E6D3D6A10C8BCEC79EF3D8C19CCBDA6DC56;
	15065 :	BC522EE7BD4B1EFEBB9BDD7FBCCFC9E93C60CC4338E26057BD1F1DC9BCBDC19BBD8265BC3D89D8E13D77EA73BC1FE171BCE69589BD1B82CA3D6C50B0BC61BE2E;
	15064 :	BD46EBEDBD20D3CD3D564BEB3C1A0DC73D44DCFB3CA3C2B23C293508BD5ADECBBCBB35A13D293A95BC9FE7A5BCF21B6E3CC18E79BD15AA5EBAF2F41E3D23EAF8;
	15063 :	BD1A33DABCA526D83C97024F3D8E0E63BC4277C8BCB2A495BB99A0D53D3E2CDDBBCBCA363D292656BDAC63E2BCD07F4E3D9E7A943CAAF740BD31FBC2BA80E595;
	15062 :	BC24C8C83C7531063C5DC5E5BCEA4766BDBB4D863CFCB13DBC2F611F3CC9EB4C3CA69BA33CA23B1B3C7DD79D3C5960553C8192DE3CFD9497BCCA0DDFBD39507C;
	15061 :	3CCDC9BB3BD8CBF2BD121C6F3D0E1CEBBD947FB4BC98E052BCEDA3273CF801E6BCE83482BC9D36AD3C165812BB707064BD55A8753C886DE33D0BF4CC3D23DB8F;
	15060 :	BD05CCA13D51838C3CBE40CE3C1E4638380D3C48BD5B917DBD193C133B5F2CFD3D656B1DBCEA88053BBD5527BC2A9861BD437656BDAB041A3D155AB8BC6F3098;
	15059 :	BCC6E3A73C1D5D9F3C99B43BBD457101BD3CF8DA3D39C8A33CD3A0ACBCFF4DDDBCCD0D183C22E539BD0458C93D1384C83C21BE903D03D0683CD10CAA3B95E815;
	15058 :	BCF239F83A75798C3B6699C83C30D39FBD81A53F3D3D5C423CF408A43D3D35E8BBE303783C66C56CBBE0946BBC8C90163C793FA73D3970CABCE615A7BCBD2D3B;
	15057 :	3B6780C73C5B4BF53D1B4388BC93AA55BCC2D19A3BFEAE8E3D2E5296BD81B4A5BCA865FB3D18A4D73D4986F8BCBDBBBFBCE15088BC10E146BC71A9F5BAF7537F;
	15056 :	3C1CD4EE3BF367F73CBECCBD3CE1935C3C616755BD5E2CA33CD16790BA839F57BD90205ABD05B144BDA5CBD33BF61B56BD5601503D8373E03D642CF03D87EB95;
	15055 :	3C20979E3D59FB75BB0DBC3D3C3F5EF3BD03744B3D1AE9B93C40C3273D07A303BC77558BBD3C6546BC5865D7BD544E62BBB778A33D0EFCE83D5D83FE3CAB68D7;
	15054 :	BB9B89F93D92D1AABBD05DCABBB30CA23D1E9104BD311F433AFD246B3BB870693DB1333A3CFBE183BB087B10BD67A46BBD6B00BD3C38E068BCAB3D08BDA027E1;
	15053 :	3C45801D3B80D9BDBCBE6F123D1F38CE3D2BE8EBBC82BD7939DC7457BD2017203BA194CDBC5917633CB118FA3C1031723C5F23BABD129E1F3D6EE85B3CB63F1D;
	15052 :	B90616ED3D1669B8BA80C9B2BD354865BC865C80BCE4C1FCBC6806EBBCFC4650391C00563C17A135BCD5FF57BBF724883D09235CBBC442413AAF0DA43D05F6DA;
	15051 :	BD3939BBBDA341333C3FF29B3C20C9B43B3C650A3C9B2547BD40545DBC452FDDBB26879BBB3FF41FBD3CF9A2BD2F4865BD069C21BC3A59D6BD0BB5B4BC2820B2;
	15050 :	3DA5BB313C50C089BC5F4350BADAA6C73C0747C83C901398BBEE2F65BD34AE79BCD7EE5C3CCBC93FBC81ECF9BD2B5A2D3D62ED423A513603BB4F81DCBCCDFC54;
	15049 :	BD0839E83D040912BD557CC1BACF32E2BC96CF96BCD506AABCFECFBD3D221570BC3AB2003CD8DE8F39275EB93C16AE60BC81A2BC3D0F69283D3397353C82F60D;
	15048 :	3D8C62FA3B5E3386BD65C85C3D71C6363D74E6A03D367DD53BC6FC7BBD426305BB1B2199BD45CCC5BD463C5CBC58D3203D040DC9BD12C0963D29E4C43CADCAC1;
	15047 :	3D8CC1DDBD6E78DA3AAEDC94BCBEE8E63CBA263A3D9795F53D675E5ABC9038803C9B115A3D0E10F83D16CECABCEB1D983B906CD63A7E74A7BCBD3DEEBCB6CDD3;
	15046 :	BC8D0F82BD71713BBD397AB53D4AF6F13D294FEE3D596E6CBA3B13083D1869DF3DB5CE473B90B821BB1E72E5BD867C953C1796A43CA0CA2ABC355A86BD68D62C;
	15045 :	BCFEF8AEBD905367BCA819B53C59AF76BD725F12BD1466843D0A590ABD7CF021BD0EBA45BC3FD3F8BCDB605E3D76EE65BCE706283D03F8933BEF679BBD45BE67;
	15044 :	BD0855A7BD27C0443AF59F47BCB54426BD1881843D0DA7693D82BE813DB3F5243C826B9FBC3A37073D1A584ABD042842BC2E9BC3BD31E3893C2E5FA83AE12949;
	15043 :	BD7B137E3D76938ABC5E4CD3BB75F9ADBCC4544F399146A43D94D7AEBC652F3E3C5FF5AEBAB2E12CBD00F5F5BD66A51D3BD679663D94C6183D359A0FBC8536C4;
	15042 :	391768EE3CE212F8BDB15A5D3D7F700EBD8F33923B6364D83D5FF0233CB7135E3CAE067CBD922E4ABD8983DC3D3313983C8D3DCB3D8550353D7EAD9ABCCA4994;
	15041 :	3C17A8F0BD1BB64C3C8C40923C95F6C83C607070BD250740BD0A36D7BD52B6D2BCAE55DB3D901BB93D61ECEF3D09C0D7BD6640843CA4A88C3D80280FBD431D92;
	15040 :	3D3A4B453D447AA23D8060C53B12BC263DA58990BD1533C0BCCAF526BD76E370BD1D70DBBB6DE1A23C9A72333B0D5EDEBCC7C8A23AFE02A0BD8858BABBCBC33C;
	15039 :	3CF5C8E93C45E2763D0E2D1F3D99FB0F3CA69CE7BC954B2C3D71FB4BBCE010663D3EDEF0BCBF008E3C18DE32BD37216DBD71EE023B050C6ABBE315283D295C79;
	15038 :	3BCAA49E3D2E26633CA72C9C3DC176A1BD844867BCA561073C73902B3CEB65DCBB38F24FBD0894CF3D8594B2BCC356903C176441BCC7B26DBCD090D4BCADF77F;
	15037 :	BD172915BD1748B03D22BAEABD14D52ABCE700BCBD7A54F7BD997506BB19B726BD3756E9BCB85CC9BC9D32503CCDFE213C70470F3C515E50BD35AEB6BD1A4726;
	15036 :	BCE9ED123D2144ABBD0A45ADBC998B41BD50340DBCF8233C3D2533B6BC8E81373D089359BD0844C7BCAD17E23D55CAA1BD66501DBD2008A73CAACB5B3CF52097;
	15035 :	3CEA95373CBBF5963D088F10BD4C957DBAC37C63BD005AE43D5B13D53E0BB9B53CE08F2CBC43A212BCCF050EBC3D2CDDBD5B70403C5B3DF2BC33ABC4BC65CBBD;
	15034 :	BD07ACF2BD2CF281BC47B0D8BCCE19323D06825EBCBEF0863CC68641BD82E6DEBD0F392CBD45270CBD6D662B3D46072EBC63AF1CBCC9B58E3C86E3313D857C7A;
	15033 :	3B87E98CBD82166D3BDD0083BD3197083C45D787BD46ADB8BCA3D9CB3CE067343CF7B1A2BD5961E8BCEF56663C918DB83CEDA33FBC4396BF3C1881B43BF4337B;
	15032 :	BC7A51DDBC8A4B82BC271DAA3D7627983C3DAFFABD12F8D83CADB4A2BCF93CFA3D090C81BB0FD098BD737017BCE567FCBC86C3BFBCDCB0983CCFC3A83BCE2B7A;
	15031 :	BC57789C3D9484223C67B71D3C9005CDBD525A0B3DA0FC133D14D9D7BD156D9A3B1772C73D935D55BCD5FD73BD822CE83CFA2C5DBCE0E3423D2F0755BC88A2BB;
	15030 :	3CE06991BCB1D292BC9CDC1D3B8EA621BD0A24753D046EEDBA47EEA83C09325EBCA3FAF2BCCBDE723D2E3092BCAE98D8BCB098843D93B88DBD36840BBD103280;
	15029 :	B95418AC3C0642BF3D0657453D6C8444BD484FA6BA4509CE3D62B178BD82890CBBEC55CB3CF42B0FBB8DA06E3D4399C53C99D6F93D4DFB153C1091AABC5B831D;
	15028 :	BCE610CBBBBB1690BC04D82EBCA979C4BC1F7316BCAE177CBD756208BB28F636BD1CEF463D048AB7BC9B1042BA1DFAD0BD0BC9C4BCB10BD53D4B9376BDB4F484;
	15027 :	BD0EB838BA1E0BD63D095FDDBC5140633C9FB2DCBCA940CABC1EF699BD912919BB3F880EBBF6ED9A3CB2A0323CDD91A13CD99674BA4A1587BC8535FABD0C94D6;
	15026 :	3BE09ECD3D2996773C816515BD3AB002BD6502A9BCF91A073C5CD64C3D7CF0613D3C115EBB156C7BBB96F07D3BD24945BC93D69B3CB1AEFFBCE58E883E00FCC3;
	15025 :	BBA03E793D790BE4BD4056BDBBBCA047BC990452BD9088B93DD8B0993D8704AE3D6414DD3C5F42FFBA87A2073BCF9A70BC0CC6AEBD6DBAA7BD4E7DE83D1495F7;
	15024 :	3CF76597BD111E2BBCE201013CE2E061BC65CA3EBD23B2DE3C3E350D3C754B8B3CE112543C88520D3D6EC0A63AF778CEBCFF81943CE1E8813C85D7373CE7CB54;
	15023 :	3CFA00DBBD485BB5BD356E543D4F70703D2DA31A3C7A18DE3CC18F9A3BD7F8563CA36DCB3CA1D116BD4D6BECBD30FCD4BC9D40D9BC6A1BC83CA36B46BD3900D9;
	15022 :	BC1B77D5BA890E83BB0E60073D790EF9BD65B30B3CA1950E3D049D953D31BD18BD4B089CBCD0B8E33C60F771BC01B80A3C57FDB33CA0005D3D4701083B6473B4;
	15021 :	3CC15C323B7EBE303D0223D3390BC5F03CE3B8813D2AC9C5BC128A30BD1C253C3CF8D0CFBCE21C3F3D62F00ABD2DEF73BCF135CE3D59DFF1BD864D153C93A67C;
	15020 :	BA78E249BC0A37A2BD0E5303BC995274BD0549A93D11BB5C3C69D864BCED7BE8BCA0ABB0BD055DF23B2805CC3D40707E3C925F983D2F3057BD6FF4723C546668;
	15019 :	BB09779CBAF4BC9DBD44B18ABD98BC4CBD1B6F693CEC907E3A93B4B1BC4675D2BCEDFA0A3C4CD5543C962DE7BB8D4D5E3CB228A6BD6C6D96BB1AA5E6BC822089;
	15018 :	BD355228BBC387AD3CA0EC70BCD068973D60E16CBAEC50BC3D19521B3B8E52E4BC5251A4BC5C910B3CD53D06BB2E5B603C08143F3D54FBCD3D40BB34BD68EFCF;
	15017 :	3CBEEE103C46A5C93CFD74DF3D7560853D134BC1BAAB2A253D873E653D4A85A1BD35213ABC6A62CDBD4F47633D500FE23CDF34593D9298B7BD3EA73BBD3BEDA5;
	15016 :	BDDAD6583CB509D4BD40D145BD30D2FF3BD79F38BC977BB6BD1C1E5B3D756035BBEBECBFBC9767743D915BB7BCF8C3403CCD1633BD70EE6CBC0598C23C8263B6;
	15015 :	BD029499BD68983BBD9E90383AEDA79DBC61BC533CCF57403C5D6F66BBFA86E53D2B65123DA181F03C38DAE8BC8937C7BCC761953C90538D3C63600BB92A2210;
	15014 :	3C0FB3863BFDA55ABC94821ABC9FCACEBCCA62043C936138BB234017BD33F402BD264A713C84B7C93B9F3FD3BC54B3AB3CEE651FBD07FDF23D1360133D2EC67F;
	15013 :	3D3B57193D05A513BC7F3D803D38795CBAE877D93D33C71DBC0F1FD8BB4F10CDBD82E7343BD7493D3CA99EF9BCC8C2BE3BC909CE3D5DFA48BB64727BBC0CD08C;
	15012 :	3D103B673C57F059BB39A2793D3A709A3AC464733B85645EBB55F3663CDB765FBCA01CAFBCBBD2613D793CA83C295AF4BC805784BD1A3D553D500986BD8CBC9B;
	15011 :	3C8D0A5A3D0B08033D8F31053C9B5060BC11B3503D18B1F0BBBDBFD7BAEBE5DE3D11F8EFBD4640DABC07E1C43C6D3996BCD400C4BCD6DA2B3C5FB6CABC6DB634;
	15010 :	3C771451BD0F23EBBD61872C3C7A23D13D0AFCE0BC0986673C8CA2E6BC99C0583D4E967FBC8267423D8368283D1F52273B5E31FE3D5B91A83CA60AE7BD0DB09F;
	15009 :	BD6CA0E53CB637663C36A1E23AE852F2BC46609DBC3EDDC73BC36CE33CBED796BC55C8C7B8C66F12BBA198D13D98D1E13D1FA9BD3CDF7182BC2088EDBB9303A8;
	15008 :	B94FFCC3BC8005D53C9E2903BCDB5832BD25D550BC44785B3D19D0C7BC9E3DAABBD5A5D33CAD688ABBB5F8EB3C1692F9BBEB1100BC8AD9DAB95E9F963BB19B16;
	15007 :	3BE2E48E3B1676363C4A800B3CAFCFDFBD3D794FBCB6B667BCEDABFD3D984974BCFA8FB43C98E2BBBB917EDFBD06F608BD70E0BB3ADDC494BCB0D8703D045EC1;
	15006 :	3A0D5A1B3A2F750BBC935C32BD906C353CA63E1FBD03CC283D48601FB9C21EEBBB353ACDBD3E3F8A3DB32E57BCB5C24BBD3CD3A6BD4314FBBD47049ABC336499;
	15005 :	3C35FE683CAD0402BBF3EF8BBD0E00B33CAC9534BC2862A8BD473D513BFA503C3DA90ED83D7442BDBD29A1CD3D6E2302BC204EB5BCFA2F2E3CDAB040BBACB31E;
	15004 :	BCAC72F2BC87122F3D1D46C4BC96F152BD3141E53CD48A28BCB9E77D3CA82517BC0F42B93C74477DBCB1EE4ABD0FC60EBB73CF93BD8EC1873CCD1EF73BF16308;
	15003 :	BC4D6FAB3CCFDBEE3C3604D83D817E723D0B9AA0BC78F6053C97CC473CF4F0B63D2C9265BD2C08A4BD0176FF3C27A54ABC25E551BDDAFC45BA33A009BD0A6148;
	15002 :	BC7E1CEC3D80F7163D9914B7BBFAA0263CA4162CBD0305543D3731C03D8C7F1DBD27B8173D0D7573BC8BEB10BC10EC1C3D17412BBD28CC3CBB93A2E63B173162;
	15001 :	3C70CAEE3D859A133B92BB95BB7E12CBBA0564093D159D69BC678A74BD757E51BC9FF66BBC49E66A38AB5D4E3BE7656A3D9622AB3D96BCB2BCF0A966BC95ADB5;
	15000 :	BBFEF3493D419612BDA54203BAED0E9CBD8EDEC4BC94D581BD27B57BBBDF39A1BD9155BCBD1BC367BD1EDFC6B97590783CCFD3E0BD070ED53C0EC3463D5C5873;
	14999 :	BC0EC68E3C9C32CB3CA091B8BC709C28BC5107C7BD3A5E62BC5A59FE3D31C5FD3CB16F353C318DEDBD2386B2BCE87E5A3D7411553D1613BBBBDE5C8F3D2EAE2A;
	14998 :	BD2438EEBCED5C99BCE533883B9F71C2BC5D60A33D4878AC3D1CEEE43D81C6883D4A19F4BD483344B9AE43663D378DC4BD2AA909BD1CF1543D612D443CA3E58D;
	14997 :	BBAF83D83C46975E3D0D8A563CD58504BCD07C9F3CC40D56BD441C723D454170BCFD867ABD468684BB93933E3D6FA2693B98F8E33B41E1FCBCB69790BD202F89;
	14996 :	3C72BFFB3C4642F1BCB85A00BD363E1C3D86629D3D1777EEBA99CFBE3D3D3905BC16CE743D81CE6DBCD013B5BD91C6D637B4FA67BC9BA5F43C4392C63D2B8298;
	14995 :	BD68FED53CEAC0063CA945F13D028CA9BB380741BD77F2D5BD72B271BD1B6743BC90E33BBB512944BBF86BD23B47AE0EBB4119F83A92503DBD39C68ABD2CE365;
	14994 :	BBCF469A3D3C9F7D3C07603BBBD7ABA7BD5679D8BD70F64ABCE4560C390ADE6BBD9BF4583C72B1B7BBB630FDBC37E4FFBD1AE20D3D02FEBD3CC2BCA5BCF93955;
	14993 :	3D3B20D43DA1963ABB31E5E8BCB9588FBC2E871138711CCF3D8EF57CBD56167BBD764EB8BD0BC8653CAC5FB8BC9E7C1F3D117AAF3C1DA16E3C98190B3D38F76E;
	14992 :	3C218FCD3DABEE3BBD1433F93C9DC7DC3D7D2297BC5D4B6FBCF352C0BC681D003D205C2A3A508A9DBA9C5770BD6DB264BB2996EABCF8065ABBEB53793D2D3E58;
	14991 :	BBEA9022BD47B99C3C7A50D4BD243BB53CEBAD6B3D7FEC4FBD256089BC0DE2F83CB29F4EBCF0009C3DB1F82FBCD3F4E63D2EDDC63C5241C1BCE73768BB42292F;
	14990 :	3D237BA03D7F6249BC9BCDCBBCBB52C83A3A8CA2BB9C1EFE3CF013FEBD2300183D6F5D67B9E1CE04BCE6DF7C3C291327BC528C88BD367397BC93BD73BD71EB0F;
	14989 :	BD638B21BD52D3F5BC90799F3CCBCA593D5D4BC03BA22B17BCE4F8823B131DBEBC507561BD44D91CBCF843183D8FEC4D3DBBFD183ADC13EFBC569BF83B0F5AD4;
	14988 :	3CD441873D03FC9E3CA8AB233B9C851FBC31C026BD378035BCA62DB8BD2042B53C07E9CE3C8C2D153D914DB03BFFA59ABD03A0A33CA253123D90E68DBB8F42ED;
	14987 :	BD80FD9ABC8408BDBBAB70C43CEBA97F3C9585C73CB659F13BAB59D53C1675EFBC2F8631BD315886BD6590663C2117AFBCC1F529BD030FB5BD0FF5DC3C1E4595;
	14986 :	BCD4639DBC988C063BD605A4BCF3E9DDBCEC0B70BCC7C5C23D0363B63A9D131CBAE1A9DF3CA7072E3C02B57D3D01673D3CB5A4FCBD82D89F3D96D020BD24207E;
	14985 :	B9B8C6463D2418AF3D4D4C26BC0F820D3C13AEB93D4E8E583A9D7DB4BC2EEF1EBD1144B33D5F8792BCDC09D43D200F61BCFBF3A1BBB325B33D3581023D877766;
	14984 :	BD0B7053BCA26D88BCE58D65BBFB8008BC3E4C363D631A573D1A2C83BC6130E53AA4B4813CF659EBBD04879CBD4E4DBE3CEB2BC93C0A804D3D02701D3D004666;
	14983 :	3A56E16D3B800EA03C6688CEBBA234E4BA894BD63B82E360BC98D95F3BC534A7BB9A16F3BD8676AB3D0B95DD3C7863623A1CE4EDBCFF60DB3D23AF3FBC85B2B1;
	14982 :	BC912077BC6080A5BD0E4FB8BD58F35C3C6C6C8CBC1E8C39BA8C8A7BBD050923BD0DBD0FBD2711D1BD0ACD42BD528B153CBAF63F3CB69489BD4A28D8BC1D6CD4;
	14981 :	3B9418E93D9320DD3BCC6796BCB2C5F53CC8D06D3C5777A63BD176DF3CB95014BD3076B33C4BC5183C946CDEBC9297EBBB4E65B5BCF3749C3B5CBAB03C5A4CB5;
	14980 :	3C2BC1C4BD00A77F3D6245223BA5F9F53A8EA4F53C8C860FBD0374B2BCE5E37CBC9BA3D9BC40C50F3D7A299DBCBB48B53CC2F4523C96A8423D034E8CBBD25DFE;
	14979 :	BD0DE8A0BD25E10FBB0A81C5BB9631123DAE2CA33C77C4BBBCCE30623CC0B9FE3AD606DFBCA441393B915BF1BCB9EC9E3C911B8EBD03C8AB3CB3657B3CB14841;
	14978 :	BBA368B43D98190FBD446C03BBB96BDCBD7BC68A3AF9EE88BCBFFF9EBC5A3EAFBC9A028A3C9AA3D8BC2794D8BC05B6F9BCF5D89A3C5006003D6B1EA2BCFCF852;
	14977 :	3D49996DBD4500C1BCED4EAD3D3511E5BD4E19A639B540C1BD1EA432BD368C38BCA633CFBCC08E8FBB86017C3DE2FBA0BCE930333CBA8DB63CDA15C3BD381A69;
	14976 :	BC82125CBD3977AA3D1874CF3C7E5E393D190951BCC44D243C3695C03D435E98BCE0CCBCBCD5F74A3BA72559BBBE126B3CDD0BD7BD88127ABBD7D61C3C6556EF;
	14975 :	BD663F23BC328C5EBC526F85BD8914E13D1F92343D148DB53C82C4EE3B2F6264BD72486F3CD56E2EBD2B065B39FFA1E83CEF34C7BCAF468F3B6C6BC63DC7261C;
	14974 :	BD64D043BCF7C63E3CDD8F5C3C86E6583C179F1D3C0A6DB3BDB9956A3CF2E932BD460BCC3C302D433C6884A1BCBC55B93D9739213B8754223CED55943D10A480;
	14973 :	3C9D5E393CF2FE213CC18D6FBCD416ACBCAFD2AFBCFA96B2BC69B6C8BD6D85C8BD8805E1BB9B03CEBD2D7F563CBFAA2DBC0514F6BD0B9AC3B8D6EEE7BB97ABFC;
	14972 :	BC51ABBDBCA0BFB93D4C9741BC1E279A3DABA3543D6258513CE58D6BBD00C72B3CA3F4363CB30797BD31B68E3CE645463C8D9226BD1C5B4C3C27FEF4BD09B9F1;
	14971 :	3D64420E3D8F2C8F3B69A36EBC92192F3CBA86ECBC0B9CD23C41B99B3D7E9F90BCB34490BCE5F2853D7B0C3D3A8C39E63D2F71CEBD1602ACBD8A19163C564ECE;
	14970 :	3B6E37F03D6D183EBCCFE52BBCB567C73DA054DCBD948963BCC645BCBC8D40E43C255162BC86735CBC29270BBB989EA93D34C3DDBC31AAC93D35803BBD94CF88;
	14969 :	BBE66DAA3D072BA43D0DC419BD8C04D83D341055BB8235F9BCB9E39C3D0D8F3ABC987078BDC98A06BCEF559D3D068322BCB9BE36BCA711003C249FD2BCAAA0F1;
	14968 :	3D858E063CD097953C9BFBEF3D9308733D83F8A1BD7036CABD870D54BC627AF33C40F21ABD486AC9BB1291833AB0CCBF3D6E796EBB999CB6BCE3642A3D88E519;
	14967 :	BCEE22173D20A857BCD1B7FCBC8F5C443CEBDDB93B9AE8FABB950F333C14808FBD511C2C3CA8EC0E3CD10F2B3D8CEC0A3BF67153BD1443DE3D5013CC3CF4D894;
	14966 :	BD8A591F3D5414583D476C99BC71FDF0BCB923DDBCBDFF7EBCB779F6BB0C5E43BC8B0C06BD3289ED3D1462033D1BB7103AC83D79BC023A293CB1A0DD3C98A6FA;
	14965 :	BD3138CC3D237DF53C9EA43F3CD78864BD2719F2BD1B68863D0A49C3BB242F0EBB8CD52D3D49BBE9BD5BF8FFBD9CB44EBCA19490BD7DD8C7BCD9BAE73C599D9E;
	14964 :	BB8C1C5C3CBB6D55BBE5F481BD6DEB2FBC3AD1A33C8BEB7D3D907F733D2F99023C40791EBCA6E951BC7411D13BA9C9DABCA7CBD33D898FD1BCD3E0BE3D06E648;
	14963 :	BA5039FA3D3242753C4D99453C69C35CBD17C9FF3D1F6312BD3C8AECBD0A57C3BCAA7084BD402CBFBD91C3CA3D8B69163D8D5AB3BC57DAF83D0D90D03C14DABB;
	14962 :	3D3E34653C40BD8E3D8FA1CB3AD39FA1BCC5413DBCA6EABABC83DAD1BCED01FDBC83DCE6BC1A1475BBAAFED3BC89091A3DC1F554BA3CA33EBD3E4A53BC674A7C;
	14961 :	BC89202BBC9C13BCBCEA7C88BCAEC25A3C506DE63BC4911FBC979EDCBBE0A8243DC022E13CDCB1E93D29AAD73C46754CBCA0502BBD13B40B3CAE2F6E3CB60C17;
	14960 :	3C1FCB943D1358DB3BCEFD6DBCDB425ABD21602F3C413E603CEE8C68BC33E70C3C88E59CBCF9BE42BCC9A6433BCA7B833CE9A1C4BD76F2643BB188433B314FE8;
	14959 :	BC93F999BD3B8F54BD4226303C0886D13D11D33CBB937473BC9C7FE6BC8DE021BCD32757BCCA3C02BA878D9CBCE6D5F9BC82C3303D847B57BBBBF0883D0C9931;
	14958 :	BAAC73023DB525FD3AE94912BD6AD2613D68139BBCF1463B3BC3DE18BCACBEB83D8AFEA73CA2CA963D7E96853D18D5F53B02E33B3CDB9C8CBC3724C63C281C5D;
	14957 :	3D9F91EEBB0AB470BD173AFE3C408C373C6093BA3CE67951BA1428EDBCECAFDBBD06024CBBA61433BBB84722BB97A3C2BC7879BABD3309483D37084EBD45F92E;
	14956 :	3B03EDE1BC9129BEBD050726BCFA9BBABB638506BD01ACB4BD204B953CA62E633D34163A3D749CD23D6663FEBD1A21E23D803A0EBC8AD1F1BCD72AAB3DA28845;
	14955 :	BD8DB3143B8150233C733183BC49A19C3BE76CDDBCC9B98DBD206EC6BA9556E7BD1778A33BD73FD13BB5C0FE3C73ACD53BEB2B163C71511A39A4E69C3B8CF83C;
	14954 :	BBEBE9E7BDA0D658BBAEA824BD992F38BCCA2629BC38243E3C3A08F7BD5289003A786CA1BBBA47D338504C493D005E383D38C3193BF7DCA1BCFD3928BC5394D3;
	14953 :	3D2011E93D0C61B63CAADF9E3C0ADB2B3D196D293BFDEB08BCBC5353BB991FEDBBA9CF413D0026E63D3FC11ABC2A76A8BD1B28EDBC894758BC35EA033C9B9D4D;
	14952 :	3D9C108EBD034F1ABBD334C3BD2FDC85BD3E2B3B3CEC36A33D4C7C8E3C95EE58BC52BCFEBD244DEBBD3553EC3BF5365BBD1284DCBB06681ABC52EB313BA00B58;
	14951 :	BBA6AF503AD29C633D87975EBC34BDFE3C60CEAFBB58ACB4BC08D98E38D89AB03BC07DD2BCF89EF6BBB037A5BC1C30F4BD127F6B3D2E7B20BBACE87CBD134C3E;
	14950 :	BAD1FA2B3A0936CC3BF60BEBBD8FBF793CF132D5BCA45F873D1C77C0BD11F0EC3C3CDF563B8AC84E3D28A3013C6FEE653D0F08DCBC14D8963D8315FE3D9DE05C;
	14949 :	BD2102C53CD25840BCC8DD383D1AF934BD2A88ECBCA06FCEBA622B82BD0718D23D4A7986BD711D783B01A4073D3455C03CA7A85DBC00B6C03CF582F4BC158465;
	14948 :	BBB886593D268E49BC1D168C3CFBABA53C9EBEF4BD8646BFBCC13A0BBAD4C658BCD3CE46BC71E0F3BC7928A03C60F8B53D0526AD3D554EFE3C31026FBBDCD657;
	14947 :	3B9C62DCBBB40CFF3D54AB30BD3644B33D59064F3B122F8DBCFCCFCEBD81B434BCA0E343395FECB2BB0CEE353C202D2EBD166F9C3D510252BD75A11A3D4005CA;
	14946 :	BD9AD2EABA1C15673CDC3C4E3D873FE9BD3325453BEFF45BBCBEF533BCDBCAEFBBC557333D2DFD3E3CF7B46E3C2E6D103D63965BBBBCB6EC3C8B981A3D60CB85;
	14945 :	3C99AF073D2514D13C74AC83BB2B858BBBAA94DC3D0BED823C19349FBC95461EBC945DBD3D6ED2263D6D50A6BCDF7E98BC47E96CBCC90813BD16E15DBC6104DF;
	14944 :	3CA3567BBCC55E6139EC4042BD07458DBD5C0D53BD4631F6BBD777053D0528C7399FDA50BD6218833D9E91E63D1821203B27EF2C3C01A413BC242CD43D200431;
	14943 :	BC846CECBCE1A8183C7688FFBC5FD6633CEA96773CCA25F5BBCBA897BD88C465BCAEAF723D32E3F33CCE8DA7BBBCBA4FBCB66A9A3D64EC733CEA513ABC406AE4;
	14942 :	BC47C800BD41E914BC2910A33A5BF0DA3D411CDD3CB17993BD7852493D0536DDBCECC01F3D243455BCA87BF3BCD803F5BCA69A683DC98F2C3D906949BD159BF7;
	14941 :	3CAA44253A1DDA9E3D601100BD424FC83D04660DBC3AE97DBC350F963CE1838ABC0169313D1008993CD309A13BA4009A3B4D796F3BB077A3BD459539BB7D4994;
	14940 :	BD07A227BB2975EA3B1AF10B3BC473C8BD247991BCB210443DA5937C399BB1DDBC8EF27EBCE895C1BDD0A3163B58C8FD3D744DF5BBE19B3FBC4DC2FF3C8F359F;
	14939 :	3BE46CF43A4DFB163C13383D3C7F7DBD3C573E7EBD7E8EA63B98F6DE3B4D3AB03D9CF4163CEE3750BCDDA804BC835792BC9AA91ABBBE1EB0BCA56917B8685F34;
	14938 :	BD1B728CBC8F8E7F3D25E2773D19691ABD2DE5FCBCC8636C3CA224443D34849AB9961BF3BB920493BB04BE35BD52EAE33C5DDF0EBBDF3D4D3C351246BC2F12A5;
	14937 :	3CEB10A2BD20F8433D439EF8BD1C53F83C73014D3C80ED38BCA0F7A13C94F5053C9B0EC3BB29BBBABBF03043BC0E1A1DBCB7B810BD13A6CFBCBD77C53BF8CBF6;
	14936 :	BC778BC53DB806503AC4261CBD3A04D1BC17B6273CBFC008BA831C6EBC4AFE943C55E2EDBD3A3DCBBD237BC6BCDD0AAB3CA332663C9720D43A88CE4DBC0E7882;
	14935 :	3C8A636C3D88439B3C1FAB58BC0DADBD3D8C0C8CBD4F4A3ABC926F71BCA2CBACBCAFB3EF3C223EE03D83BD8FBCCA2E9DBCE5D28E3D92D45D3CDCE4743D8479F5;
	14934 :	3CDC30EE3C45134CBD40DF3938CE8025BD7710433DA2BEB93A51BBF1BC4B4C573DC11C16BCFCF7C43CD230AFBA8E4F10BD58509CBD34E4243D88FF78BCCF7FC5;
	14933 :	3CEDFC213CE484D83D3C609DBCF64EF0BD7EA51BBCA2D0A13CE040E6BB1C1902BC909D33BC7A27203B3DF3B63D033CC3BCBABF5FBD0534A6BD21CA0ABD34DB10;
	14932 :	3D3A9BEE3C49AE40BBEC3F45BA72F4C0BBFA5DE83D0EA94DBD611450BC72DDF5BBC5FBB6BC05B2F8BBD5488ABDCA07DBBBDE99D2BAF71BCB3D1AB88FBDBB702C;
	14931 :	BCBADF093CF099F23D0A7022BBC2028CBBCFE4F23C2C139EBB365DBC3D8A99B9BC62EF2C3CFFF3393D1471553CCE83BF3CACF4973D832B043D216882BB7BE471;
	14930 :	BC8988F83C97D0D53DB6C70CBCBD22AEBD50011EBC1DFB52BCC037A03D1186ACBCBD56573DBACDCABCC6E7C8BC8AB3543C2EAA69BCD32F0C3D53D1C73C741FC3;
	14929 :	BC8061473DA62AD23D80E204BC5525FABCB2A62ABD25D3403C6DBDBF3CFE7A06BD584E723C8B7E1CBC33D3C83CCC8BCF3BA9AF663CC1D0FFBCABDBCFBCEA8865;
	14928 :	3D3983333D5DFC023D54F4723D782D413C423A12BC9A47353C3D76AFBCC4584E3D05441F3D25A17ABBC0EDF03D9B4F1F3D37E6D93D2CEEBBBC281C5CBD68E0D2;
	14927 :	3D3D347CBD3AD8D5BD412F0EBC87FADDBD199855BC7CEECC3C0AB166BD3DB2B8BD550137BD084422BD2232743D92B60CBD842A59B7CCBB8ABC68F2533D8DB372;
	14926 :	BCBFF498BAC381C5BD3BE8C7BD21411CBCB41B243D4C64553CE5FAA73D9152EF3C21F26E3C37A140BBA3DFD8BC033754BB7951A2BC8502023D0D9EF4BC5276B4;
	14925 :	BCC3B935BC2801A5BD3EC852BD3C524FBD816751BD0FFEAFBCB833BE3D317A0FBD248BE3BCD568873D32C5933D3BD835BC13DC163D1F33E4BD0B1D59BCAE0447;
	14924 :	3D41CF67BCBB93A93C859F863D9D03DA3D295412BD3E6ABFBD5EEA903D13895BBC372EF83D7B3163BAB750F93CA383A73CEA261ABD5F49BFBC779F78BD43EB94;
	14923 :	3C0F13E4BCA744B5BCEA8C293D745F0A3CA2A68C3D84E43F3D096268BD10285ABC2359CABCFD67F8BD0A5141BD11BB133D24705EBCF837693C13429A3D459D30;
	14922 :	3CA65745BA7EF30EBD59AC363BEDE526BCE26F4BBC41FC0BBD916434BC895C913DB22A96BD1F4E773B8EB288BD0A47663D2342523D2435DF3D6838F23D8E0F20;
	14921 :	BD4818AABD4BB1993C7C47D73D057C42BB5B1F893B9DC919BD32C602BC000CD8BCA88475BBEFAC20BCE54870BC9369D0BCF20557BC7CC082BAB7CF0CBC5B51BA;
	14920 :	BD4F8D0B3D827BC6BC59759F3D5A75243D8D32753C52C49F3B06A5D2BD236F00BD27113BBCA5E14BBD42BC57BD1D2397BD913B733CF7541ABC9F55ADBBBEB2FF;
	14919 :	BC52F0A63C9BE4943D29501CBCED7FA7BC33F4A0BC7CC9603DA75832BCE881F8BC8729CFBC13EF1A3CBB3AC6BCF4350E3D822CF5BD65E8213CA258E8BC26270F;
	14918 :	3BCC83663C9934AF3C34DE06BB76E63CBBCAE564BBE325C4BBD60F1EBC938FD83CA659393D1646413C8FF976BCA6D92BBCA752BB3D35412CBBDE707C3D63C6FE;
	14917 :	BD24BD073D7062283B1B7ECC3C48861B3DAB4ADF3D0E085EBD2C89E7BC022B0E3C9FB7D1BC68977EBC6C3AD7BD0326FE3D4158C43D5BFA77BCBA5793BC89CA74;
	14916 :	3D2F5A683D86DF49BD710508BD0E5A0D3D4F36633C814A45BB5A9AC63CBB45283C131D0D3DA182C83D2DB50E3C5ADD49BB84B151BCDF551EBCEAAF1A3C901552;
	14915 :	3D52419F3D81BFE2BD1CC646BCCBCB66BC8CCAAB3D838F2C3D933B903CFBE4903D48A21A3D09D8303D4609DA3D1EB41FBB7B3986BB14CED6BC30BE4FBD6291A8;
	14914 :	BCC61694BCD24D31BC552AA9BDB35AA6BC99022EBC375BB1BD16286C3D0C45093CB265B6BCA461093C3BA3533D1CF6C13CCE16B6BC1D707EBC0BDBB6BC51A2B3;
	14913 :	3D6D1E473CFA05CBBD6DE5A4BD3C03EBBD0DE92EBC61D765BCBE21EA3D46A9ECBD0F79F23CA36D28BCFF75763B93FFD63C9BE951BCFBD2773D05F756BD0DF137;
	14912 :	BD26D378BD3236903D262A42BACEF0BCBC1CBEB9BD66C30CBC2A2B873C37C3F13C90FF52BD0C7953BCF74629BCA64925BD1FBC3F3C11D59FBD3117B33C4CA44B;
	14911 :	BC847DA6BBB6E1483D016DBDBD187B163D8E16D73C3A53633CFC82D83C51F61F3D7F87313D1E94283D0233D33C1A77C63D34D7CCBC81C6DB3CF4D010BCBAB2F6;
	14910 :	3BDFEF7EBC22BEF6B9C92145BD0B530EBD59227CBC4C3734BC8EE1EA3D452DF5BD3CD344BD4E7EE23C1E6DBF3C972EA1BD12FD123A8BFD67BB81F678BD15D6C3;
	14909 :	3C4159783D288AB03CD9738BBCC64395BC0B06E23CC0C35CBCAA0A8DBD15C23CBBF79F3C3B9364153CF06DC6BD3EFA66BA1FE761BD159533BCB2220B3CC945B7;
	14908 :	3BE6E8493B83504ABB228500BD2E137E3C2F9619BCF6881F3D3854F3BD00C8D43B117BC3BCCB5210BBD9D1AFBD65548A3CD54790BD2A8C97BCA849233D326E18;
	14907 :	BC7B9972BCA8153A3D45306BBD1BCBD7BB1767FFBC3D38C13C9C0A6BBCC3D5F0BDA77459BCBF4D203C7EDF7BBCB70E653D89D7863D66B5933D823F773D303D0E;
	14906 :	BCAC7710BA824483BD8059E13D165A64BC337E86BC14A1C4BBDB339EBCB819F63CD459A9BC75FFD53A2E4DEEBBCB88953C7A17B0BC6D6E1C3D883D413D35B6E7;
	14905 :	3C0F69E73CD595773CCED1323D026C7FBC4A5510BCF93E983D34B8A4BCE5E8AD3CA7B7B9BD244AF43D6022D73DA245C5BD47A1CCBCEB4802BC19FD12BC3C5C07;
	14904 :	BD5B9FF2BC9B35B0BCD015673CE45B323B9F5C8C3D6AF9C9BA1F562CBD211A743C38CDA1BCBC6A38BCADBFBC3D5FD366BCBB5426BD5F79B3BC803A153B06F87F;
	14903 :	BD3BF9523C1E96843D047A94BC604386BB5CA968BC92A779BD709F93BD0545D53D80D4B63D22E677BD90F6BDBC774A90BD3287ABBADAA6A23CCD9D8DBC72FB79;
	14902 :	3CC82F9CBD2C951E3BF901343ABD303B3D4F83E03CAC6DC43D05CF883D289C8ABD0EEFBABD086502BC79AEE9BD1E14823C26448DBCCBED2A3AF756873D3BB696;
	14901 :	BCB9CCE93D29BC1BBC8BF3A03D355E143C2B5501BC807AA4BD43869ABD15EC263BF5E8163C5D483DBD5DBAC7BBCF69813D35E2F7BB8146033D1206B23D0DC318;
	14900 :	3D5B7B38BD6586923D1D415F3C243A51BC58F6723D5CB88FBCE97792BCB9F19DBD5C2D79BCFE7AB7BC11F486BD4303403CCF9932BC3686B2BB2694E53CC27BCA;
	14899 :	BD73DAE9BD279ED13D2139203C0D10623C9535F2BC821A39BC3492EE3CA418DFBC58169EBCF54EA2BD0181173D86654FBC1B3C563D70749C3D8F71963CA908B1;
	14898 :	3C714A403D089871BD353D6FBD9C7D803B0C2FB6BD243460BC686555BCB73666BD3CC9E33AD6EA543CE0B0C13C51DD0B3DC397163D2F95D43CF8074B3C45B5A3;
	14897 :	BD1F01113CD8023E3CC229723B59E30CBD37AF29BD34531FBDD612ECBC158436BCB10AC53D740EE8BACD0FA5BCA9609E3C8E2BAC3D2A4418BD961730BCD46D63;
	14896 :	3CD6D303BD0D5E6C3C8DF3003D23C068BCD076983CA083FCBB34DC63BC63E6BB3C83B2EFBBFDC91BBC903EC9BD2875123C6D89D93D4C949BBC7827143D0559F9;
	14895 :	3D1201973C8147EB3CE01CEC3D809895BD2DF2C1BC0EEEA83CDD1817BD254F83BD101B3C3CB415FE3B91255FBCEBC5B83D2F17B03B5FE615BC783E503C33A4A7;
	14894 :	BC8DE0CD3D5527C1BCB1A6673D4264A63D9881DC3D4200F53D155CC1BD264D4D3D3525FF3D00A1E6BD0113FFBD266EAD3D68243B3CA764723D1C0933BD007852;
	14893 :	3CEFA9AC3AD9A1073D0A0C00BD03584C3C19C5393B49A932BD1F217938D161023D25B4D1BC5C8611BD1805233C3B4BFC3D415392BCDE4BE33D945F893CC69417;
	14892 :	3BCDFCE1BD1214DE3D19929DBCB0E2653D2206033CE38945BD22304FBD604A853C48F6BCBD37CB5A3D12631DBD801EB5BD19E74C3C1FFFF0BCF8B1203D37B6AA;
	14891 :	BD2D5032BCAC03EBBCBAC5F23CC975223D71DDF7BCD146CDBD777E943CD05A70BDC536E2BB261084BCCC7830BD1187903D0B3400BC5551E83D92607B3D30028B;
	14890 :	3AAFF4473C6A3F603C2DE28DBCF3C91C3B836499BC8264503D591A823C246FEF3CB8E0C7BCFBC5183D2DE7FD3D3764BB3CDCF1233C9DBEBC3CF4B375BC1D83AC;
	14889 :	3C12A3C23CD3C347BB0B1B08BD581EF73CA3F548BC4AFE90BC828671BD3A53953D2BE1D43D0F71BC3C3350913D61FC80BD27EFC43C2A24B33D6791FA3D408845;
	14888 :	BD6510B33CCE46C73D9CED213C5AB07B3CC294353BA096B4BD24CC5F3DFBCBDE3CF0E111BC993CC4BB6364E73C2F2182BD7FA4DABCD0E66DBC7BB022BC02BE97;
	14887 :	3CBB8A18BB9B70C43D3B5C87BC8CDF053CC14C23BC71A651BB97EA8D3CAE68373D5A58E6BD27C9323BCC9E043D2B27EABC8D8FF2BCC243E93AA2E366BB2C984F;
	14886 :	BCFB87B43C18FBEC3D5DDE02BBDD58E53C5F83CE3C6282DE3D87CEA5BD72A89EBC433C933DCEAB3DBCFE3F8E3CC9B9D2BD3A17B2BD87AD553C2A34613ADF7AA3;
	14885 :	3C47C0F73D16760C3C50D4443CCA149B3DB1DE743D002C443D92F6FC3D38E3733D4F240FBBE66C18BD9CEC6E395DB320BB861C89BC99BA38BD0080673D49D900;
	14884 :	BD5783E23CA148BBBD34BE973C186F28BD18C86FBCE45DDD3CA007113C1E64433D3EB919BCAFAA1C3D02FE8E3C4B5DA3BD412F223CC9D4103BE6622EBC88AB27;
	14883 :	BCA4BA2F3C6CFA853D85A181BC3DF96EBD2E00F4BAC2AF793D0B491C3CB906BFBD4AC9113D8A12203C3776483C7D6D1DBD0011FA3D1268EC3CA8DCB43D27B479;
	14882 :	3DBF902A3B8DE5F4BD61EA443D4B1AA7BC88A99A3D2E48703A60201B3D8B248ABCCEE8D0BCCBA9693C158A87BB3CCA3ABD3F92D63D756C543CBEC3F6BD1EC704;
	14881 :	B9740D88BD2A9EFC3CB19D1FBC3998B53C2397E93D45716FBD2CAA9FBD686FA53D2631AA3C996E613C096D303D57758BBCA4D8E93D19A83F3BF6DA783CE27D9B;
	14880 :	BCB501C63CA9BE013B25F8963CFE6942BBF4220D3D315F1F3D51A2E43BE8C51BBC5F6E51BC79DAE0BCECE8E2BCF0D1143BCC9CCA3D47C6EEBCA2B5ADBD0F884B;
	14879 :	BCADAE5E3D5A55D4BCCBDD26BC171322BD43D3F03CDA86173B9F77783D1E42D03CEE4D44BC42A52D3D02BD37BD447C383D61B80A3D17CC94BD6BFC6A3B13CBBF;
	14878 :	3D12BC9B3B3D0ADABA4ABE45BCE29D3B3C8EA1F13D811AA3BD1ED1ABBD761A2B3CE682A93C6562AEBD81A761BC998E9E3CCA99AF3CFA551BBDBCC2683B388175;
	14877 :	3D4C82D7BC5C2FC9BC1F406A3D74BAE7BD0E316EBCC1A6BBBBF5185CBD6323A13D0F74EFBCA8D6E13CB4F33DBC0A7B193C9BE26DBC8286773D682A8B3D2FB6D5;
	14876 :	BCE2A902BD1AC754BD2030EFBD977778BB7FDB68BCD4474E3D06ECD9BC9B5831BD19DABB3D17043E3D3779E9B909A0DFBB8CAEB8BD37050F3D7A16C63D42991A;
	14875 :	BC0219EA3D8C2252BCC5E1563D373BA43D0E2EE83CD7A36DBD74A7CF3C2978E0BCAE2491BAF716B6BCAC51C13B00AC18BD5F3A3DBCD6FF62BB5E4D573D0B90A4;
	14874 :	BDA3941CBD3498873CFDD820BC1C6B593CFBB743BBB8EFDD3C9E66D1BC6B4177BD00413EBCA3C909BCC3240ABC07DEA6BCFD395E3D2ECA36BCA5C477BD88BE30;
	14873 :	3BF780D23D375226BD2C2BF9BCC7C29D3D91A8A3BCA18FAB3D9075283D355EA33CE5CFD43CAC14343C007B443CF7AC863D1769B93D2026083D138F013CDC4E74;
	14872 :	3DA38C68BB0FF8DF3CF6A2743D077671BD319E32BD1100BABD7DDA1A3D884B8DBD75F642BD6E07343C5DDA3D3B32EA77BD2395553D9A03853D1108063CA37CBD;
	14871 :	BCEF49BA3D5A1C41BBC4EA54B973631CBD01362FBD22616A3D0FD54EBC64AAB63D1A0B113CD86E38BD21BEB5BC1B687CBC494D523D63D3F23C3B59E13B9BEDDE;
	14870 :	394BED84BD1768F13CA902A9BC513762BD20383C3BA8320B3B0A7D03BCE5D8193C7DFFBFBD6FAC913D59D2093B9F1A693CD3A545BD3F00B7BC3353A33D4F9312;
	14869 :	BCBBD34D3D0194793C20CDEC3D458FB83C0664D8BC990920BC939F91BD121EBC3D14D845BD4C75A83C396500BD14386FBD30535FBCE540953D19CBD53D0D76C9;
	14868 :	BBADB012BD0365823CF5D20F398759263CE51419B9F380A7BD13158E3B70F08DBC80387F3A848B37BCF1AA643CC20AE1BD2092CABCFDAC773D64E6933BE982CF;
	14867 :	BD20C1193AFBFA60BBA140CF3C97AA413D7407C6BCAA5189BD16081BBC1388BC3D422CCA3D0E231C3C946B51BA4454D5BD4EA1FB3D9239783CAD769C3C567F13;
	14866 :	BCDCE74B3C4BB7D83B99EDC53D7DD8E0BC61E21DBCF89749BC5961C8B92E9E783D0E5847BCF2B0523D131AEBBC3687593D53ABA5BD0FFA633ACF08913CDAA1AC;
	14865 :	BD8001D7BC74FA21BC80FCF1BBF9B51E3A93C7883D69BC9BBD458007BC641245BCB14B0E3D9D75B13D8A60D3BCF2AA69BC3AC95938BB7FB23C1F245EBC7A67B3;
	14864 :	3C4606F63B7C7D6ABBF4D57C3CDC01BEBC82FB64BD26CBBC3C82F264BD1C91113C76EF323C9989C63A2368C1BCD1CF07BCABAFFBBCBF3222BC30CB0F3C3523B9;
	14863 :	BC375C3F3CCF49A7BC8ECF2BBCD87DC93C851CFC3CD4F2F73DB311BA3D34B90E3AC31E9DBCF31926BD3C468A3D2263DFBD8D952FBD048B30BD74BD55BD4A8645;
	14862 :	BCB32E36BD834D643D9CAD00BD052EBFBC9381903C8C4D5ABD4DD2393CEC14E9BC66955D3D10CA95BC3988B3BC182FC13C00D243BDB1ABAC39EFBCA4BD6C22C2;
	14861 :	BD196C9E3C03AA6FBCC9547EBDA326193B05EDB3BCD785BDBD43DFD33C78E549BC523B51BD04A2FC3D06125DBD604F8DBC7782A23DB524843C9C933CBC9F3F24;
	14860 :	BC2ED586BD2A07C7BD044AC1BCC9BD273D5447743C94C2D7BC88817C3D4D65DB3C5C6380BD0E83F23CFF42813CF341343D723DAF3C164859BD284F77BD343DCD;
	14859 :	3C1099223D81E1ED3CD196DDBD1FCEACBD194A483DA824E73C63BFB5BCBB87AF3CD55F5F3DB2723DBC5387B4BCF8D8F9BCF4A73EBCE832F13BADD43F3B830A61;
	14858 :	BDADFF7BBD0B56403D0A28203D20CD20BCBD49E83D4A53A13B8843D2BD4FB35DBD8A931E3D410848BB762BCBBCE9EBF7BD2718F43DB0CB9BBD0E0950BD51CE82;
	14857 :	BCDDA6F03C103A593C96BFC8BD1E2C233C9F5F053D0F2326BCB1DBE53B13C6633D188CFF3D50BD4A3B35A751BDBD6086BC22284A3D82F52F3CCC1564BCF16DEE;
	14856 :	3B9B7C9EBD1ACC6ABD0150D2BC9CD677BB2A12C2BC9CF9B23CD9E3623BACBFF73D4EC05ABAE87E8ABB3DFE4BBAD0E01F3D9FBC3D3D8783BABD812C303BB94372;
	14855 :	BCF7D1483D8D4B08BD1EFDE63CE8C4A53C4AAD7D3CE275873D1196FCBD39563C3ACD491EBD263D16BC9C797BBCBEA6A8BBAE4E2B3D1B687CBC2A01463D8A8F74;
	14854 :	3C9114E33B2B0F6E3C90294C3D14CD06BC13542EBBD8BE94BC840EE7BB89E2373D2D535B3C1901FFBC70B1833D6542EABCAA4BA43C67AAE2BB06805C3B8229C3;
	14853 :	BC37CE52BCB5D6EE3D59ADEBBCC48A9DBBC95B683D11B5C43C8B9C2E3B4C8AF6BCDB1FC9BBE69ADF3C207A843D0FB0A3BD921594BCBE65FF3C650ABD3D329A6A;
	14852 :	BCAEB094BDA12BA4BCF8519A3DD39E033D58E56A3D69D5B0BB94EF50BCFF62E9BD610167BC6FFE95BD5839623D56111ABD5F9B13BCD445273D5BBDFEBD721545;
	14851 :	3AAAE27F3DBE75093D0725133D1B08253D23F5AB3CA304FABB027BE6BD984600BD2E8966BD398E16BD3CDF4CBCC54F01BD32F7ED3CF57210BC9382EFBD0DB5F9;
	14850 :	BD405775BC0D2A1E3D8EE339BB137259BBC08AA0BD840EE43D0D02913C76BE603D1B8C573D887C55BC3B5093BC78E46BBC8215B5BCD6E5A83D556AA0BD3C17CC;
	14849 :	BCBD07B6BBB748783D00E4A5BC81C0573CACCCFB3D13FE363D2B1E1FBDAF1A35BCE18EE63D6E7464BCE8215A3C83FBF6BD5CBA41BC7D2D55BCC4C78D3DB6B32F;
	14848 :	3D0A68B2BC9D25D43D3EA7F0BDA2C1AB3CB041313D840CC93AC67AEBBD669CDF3CE1CD82BC4551F33C42875A3D70FB97BBD93BF7BCABAC87BD15F4DD3BD3F4AE;
	14847 :	BCEB45413CC9555DBCC9D1D93CC1C54CBD2158F9BC808B7A3CCC6914BD168D38BC0954AFBD73DA4DBD3BF98D3D8EF0ACBD97917DBC354561BCFC25D5BBDC7B52;
	14846 :	BC25CCBA3B145E6FBCA675CABD0BC3EBBD25C1633D894C33BD3279A53BB27C29BD74DB4C3D891DF53C6B08E7BD3B50113D1070413D846FB4BB4BAE69BCF7AE55;
	14845 :	BC58D9F7BD1867F6BD681E373D41865EBAC0A0CC3D94A3953D8A7C333D36FA9ABC9358A6BD705226BD32CCFB3D1ED50C3BE8801EB9D5522E3D0267533B1ACD6F;
	14844 :	3BDC9F923CBE7ABC3D66D83D3CC1727E3C0354983CDAB8E6BD0D4538BC9AD296BC6CF0103C146E76BCCC03B9BD8CA2E83A9A53823D9B2EB1BCC657E4BD222B4F;
	14843 :	BD36C622BAB35C723C8E08D23D8D7D42BB9AEABBBBCE39F63D793027BCD8E7F4BD8C520A3C7953DDBD21CE9FBD3BCF83BD2981FBBD1136443C83F6473C0E435F;
	14842 :	3D84C30E3BBCABA1BD6C30703D06DFC73C2050F5BE0642E9BCA9D9713C247FBC3D912568BD266DF6BC83388FBD3F958E3D6B420A3CF537FD3BB9C334BD688383;
	14841 :	3BCEF138BD9C10DBBC31E510BCF42335BC86D103BD32FC6FBD3EE770BCB250B0BD0E7741BAE974B8BB52E670BB6A3F0A3D0ADAA73CCC00ACBD940E5EBC075320;
	14840 :	BD22320F3D567EF5BC4CC125BB761775BC772889BBE71AD03B9C9199BC8AE584BD513EC4BCA72203BD1EC8B13B81A6283BDEA5E1BD3906D93BB22179BD33C64A;
