-- begin_signature 
-- ddr_init_ins_gen
-- end_signature   
WIDTH=512;         
DEPTH=15558;      
ADDRESS_RADIX=UNS; 
DATA_RADIX=HEX;    

CONTENT BEGIN       
	15557 :	3D192D69BC8CFAB8BD8F4A813D01E5613960C84D3B945FF13D3942FCBD079C52BCE44CEBBCD6BC473D8BFB463D6D07193D518B3E3D782CE6BB5C6CC43C543B18;
	15556 :	3B14AD053DC48A20BD84917C3BA312DB3C9D8547BD0161BF3B955793BD552A70BD67BCC73D15794F3D493117BD02FDBB3D95EC27BD979925BD204330BCA5BEA8;
	15555 :	BD89112EBACA6E433CF3B91E3BACE58E3B435260398716EEBD705A0B3D8B8E1C3BCC8AB33B8DC7BD3B719C213D2A1DCF3CBC20163B393168BC794EA43D3AA87A;
	15554 :	BC3C24B1BD08B2DD3CB7F9473D18F69EBD3B154EBD2B01B0BCB0ED3FBC086A45BBA16789BC355F3FBA9EE2523D265D663CCA6D1BBD52E61C3AA081123D8DBE63;
	15553 :	BCC847EFBCCE9739BD302C743BCED4C8BD925BB23BCFE8B3BCC1D88EBC2AB873BD77D94B3B4EAC8E3D738BE83C6129C83CBCEBD93C6ABB3F3B271B3FBCFCEE4A;
	15552 :	3AECFC173D59C99E3CA52CED3D36895ABD40E5AB3D48F449BD559D123C475C333C8B0F3EBC4E105B3C6C014B3BA5215CBD5F564DBCBD869FBC6E606ABD884090;
	15551 :	BC706FFCBBBAB4283D09F5973C8ECBA8BCFC6AAF3D8687593D658D803CDB49F33C6403AE3CCC62A73B07F89CBD81C48C3C76F8633C245D72BC214AC5BA3875B7;
	15550 :	3D95B3EFBCF57688BBB3F990BCB5098E3A53FABC3CA2D69CBBB2D895BC668C1EBD475DF0BD506E06BC33A179BC8EB15CBC8E6C8ABC262CCDBC045D343BDE7641;
	15549 :	3CDA64613D849EBCBD0BE731BD023E98BD62F5E93C9BB55F3BD0042DBD6F41E7BCF3FAA8BC899F5EBCA2B9D03DACAF02BCB17C10BC48A76E3D08B6AF3D66795C;
	15548 :	3D5353203CCF36ECBCB71477BC84D509BD03BA4F3D8F447B3D9618D63C79ACA1BD85FD9EBD158CD03C3347B33B8C03923C9161223CCA9D863CA837143D1F3183;
	15547 :	3DA8EAA4BC1F00D23D0FA67A3CA9F909BD65CAF5BCFDCA913C865638BD8D0B37BCD30C5EBC8A6014BC7B6F763C083E563CE2D0853BA69C67BC8E58E1BBE144DC;
	15546 :	BCDB7F69BD9BC6E4BD06F2DFBD2408C6BCD7A2003DA9F570BC70042D3C35978FBCA4B8A6BB588F133BFB57BA3CF639FB3C56746A3B88C0023D2B31E8BC5D360A;
	15545 :	BC5345A63D15003BBDA2EEECBDC6A799BCE56EB13D360FB53D27DF4BBD424BB93B69CF0BBD53E284BC92B3E73D9CBE833D5018C7BD1F5E333CCDB347BB706609;
	15544 :	BBFD1F093CC4CD64BD37D3ABBCD907F43C0B3B82BC3AED9ABD1015843C4869ACBD82033D3D106F79BD1DEBA63BCDA523BD03A7853CE957BEBCE7CD87BBDF7C95;
	15543 :	BD0B8207BD384BDEBD6AE230BCEF08AABC9412B83D9528D03BE119A93D3FD999BB8D49AE3C4DCA58BB88FE8F3D235D70BC4BB9F0BCC2DF8D3D8366E3BCB9BF42;
	15542 :	3D4180393B942070BC4F7FA93D0908E7BCFAD189BD8B9966BC272135BC5ADA183D089294BCA91224BB879703BC9C1237BCA51BCB3CDA71863B98C72EBD38678B;
	15541 :	BD5DC764BCE43E9D3D09B1D03D053B903D55960FBC6A75803D856434BDB7B3DDBD22A0B4BD19F765BC133E05BC3624593C213649BC1E55843C2398F6BCD00D81;
	15540 :	BC6AFFD03D5917CEBD17FC8A3CA5A9673C9B08723D293C6C3C90648B3D1353BC3D406FD33ABA6F423C366F23BCFE4B83BBF1299FBC17D30C3CCA614EBD2CDED6;
	15539 :	3A94724F3CBD5E9C3D0CEEB3BD61965FBCD98557BC93A6153C7484DCBD3C77313CBF0CC03C5DF88FBCBDBCDE3CF3CE8E3C869AB2BCD14A63BC9D6E503C8EA79F;
	15538 :	BD04091CBBBB5B9BBB3B0DDDBD4E53CEBD1450B0BC588CAE3D451CB9BD9EEB653D92B1CFBD19E05DBC66CE5C3CF863D83DAB4DE13CAF4138BC461B923D055BB0;
	15537 :	BD848DF1BD35BD5BBBA8C0BFBC87D983BCBFBD98BC876226BC829DC63D4CEE5A3C2C139EBCD237B1BB6A4F2ABC2ECFF7BBD93AB73D0250E7BD124C2F3D4D4BE5;
	15536 :	3CDD3CC53D6847923C60E93A3C24FBABBD43326CBC80BF8BBD4B553B3D0EDA73BB0B1E273D9422F8BB5EFA97BD3B70903CF44EC8BB20C4503B8D3056BBA3D0F2;
	15535 :	BCFD8544BD1CF151BCE56728BBF8537CBD004B87BD4E2105BD27B910BB0E3916BC4AF7C4BD5CFD52BD902F7B3CD63B813D22D2C5BD25466FBD0AEF97BC394A4D;
	15534 :	BCBBBD5CBCB88E843D005E35BCC1E3AF3CC0C9453D0D7E4A3BC073BFB929A63ABD52E43BBD8AD67BBC820FF03D057D133D02000B3CE9C2DC3AC2F7263C5B5123;
	15533 :	3CE971093B81CA693CA32DADBD062A55BD2DC26DBD9D8C2F3D7C00543D6143B1BC013E273AEC29B43D0E1E3FBD2891BEBCCFD4BC3C8BE5FCBC4F01EC3C2BB5F2;
	15532 :	3D735E453CD28793BC4382DFBB89BD4DBDB27F5F3D9BA8583B80132E3D97A2AEBD5FFA433CD96087BCF8BC6BBCB860353D6D4FE4BC2CF87C3BE2F0243DE37761;
	15531 :	3DC93BE33CD6500C3AE87D14BC4720433C2851BB3D154FD0BCC3A096BD25E0F4BCF5039EBDA3620DBD0433B9BBDF2C4ABD39E0473CF0C7CC3CED201CBD98181A;
	15530 :	3BE3A305BD17B62BBB84EC693AF6554C3C0E82893CA4EE24BD2A8C333CDA1009BB04763EBD5EA75A3CF46B2D3B8B2E0A3D1BB03EBCA08F42BB1D87DF3D08C35C;
	15529 :	3C587BFA3D33EBDD3CAB5874BD86264DBC7534403D819555BB9F4201BD1EA611BC7CE72F3CCAAA2A3D2E5AD2BC9075393D12163EBCEE23E9BB83290EBD6EA014;
	15528 :	3C6994D03C7D3ECDBDA41D153D83AA623C70A6303BE40ECABD008F01BBCFEE60BC01667BBB79E8AF3D215DE73CD5E13C3C8770D3BCAB0DE53C20ED163CB6B566;
	15527 :	3BDC20253D8284FDBC50FFD93BF3780F3C16EC4ABC8D1505BC9D3FB4BC75C272BD0D4DEDBBB44B83BD958D903C5F07C73CAE54623D7BF2B63B84565B3D1C6A3E;
	15526 :	BD3DC3E53D6290043D46911F3C881AD1BC5BC7C2BC0D02DCBD1E4A7CBC1A15C83D35411A3C9B2021BD92567ABD5B9150BCA78EBBBD55E729BD48BB7BBC2251DA;
	15525 :	BCD779DEBD8F291E3D8243F93B81E570BD38C5F3BBF46348BD841117BD734F8FBD697281BD4840603D9D0B8ABC9C6CF3BD85122DBB090FB6BC4B6E653C8B45FB;
	15524 :	BD2831B53BD9BC2B3C52D772BBB23CB5BD10E40FBD31B15D3CFCB1273D459BFF3C8744383D02DE1B3C167477BD25EB2EBCE53247BD54B8B83D1F5B543D2024EB;
	15523 :	BCD8FB0F3D29DF1F3DB684503BBC1BE93CA6B7243D9308173CE7A44F3C8DD5EFBC8F08183D20DAF8BDB2F489BCFEEC91BD8985343D002CBFBBD5241EBD09405A;
	15522 :	3D0257183D643AACBC89C47FBCD62BEA3C4AECD1BAB0FF14BD13455CBC814110BC98FD1DBD0D02F13D398F183DBBAC273D22BBBB3CAF31463C02D5F93DA6D655;
	15521 :	3D98C4703C2ECF00BD39617BBC5A02B0BCD3872ABC546B733D5C66C53DBA289D3D0B041CBD1A6F9C3D4446E03D44E9DDBCE0AA6A3D94EA95BCC6AC17BD2ACC17;
	15520 :	BD983E6CBD5A7513BD0E93973B8B3645BD0F34D4BD1564E13C132A0FBCB44AD0BA979B823D7925823D3650DCBC45EE663B1FE0733D16F9E43C061FF9BD4E0F7D;
	15519 :	3D9C2332BD0E66F5BAE8785B3D8A765F3D036C91BD17A76DBC85AE9BB97DB2EB3CA314DC3D2DE1DE3C4F79B2BD599395BD1557893DBE5BA7BCD440813D409782;
	15518 :	BDE01CA93CDB5F723D93FF1C3C08E98DBB17BA37BD8F9479BD20E2E63CE1FAC43BE86FD6BB31D2FEBC1C8FDBBD1EE3D43C7E09CA3DA8C7C1BC892B2AB91DB2CF;
	15517 :	3B02B6363D1BD177BC025C943D0799B43D471E563B7EC6323CC6F34A3CDFD1E7BB10AB153CEFA858BC57BDC2BD21974F3CBCC975BCE2F6BC3CB06C6CBBC401D2;
	15516 :	BAD2140ABC68D8C2BC9CF08139E0B8BFBD669E313D3C5826BC93C410BD257494BB77C9EEBD3E204ABC57E319BD1AD730BD9317EC3D8D48063D06B4A93DAC15AB;
	15515 :	3C98FFAABD606D1EBCB06EF33CA5C651BCE4E52DBC9CE32DBC11BA13BCF779E1BD333EE13CA4594A3BB696773D347FBF3D4140DB3BAB10AE3C576A223CFBBEC4;
	15514 :	3B3EFE85BD413FBABBACFD3A3CDA02793D59D69B3C1B92D03CCB1983BD212D4CBCFBB113BCDBA238BC858C553D54C16C3D2731C33D83AEBB3DA43259BCF1B63C;
	15513 :	3A3BDC6B3CCE0BB3BC14C8703A4D0F26BCA80E6BBB892B48BD7E3063BB938723BD0BC5733D3FEDC13D0B8E93BC6CD694BCCA3F9BBD44F71DBD24B0F5BAC45181;
	15512 :	3D13994F3C8997EC3CC24F363C8CE47FBC872601BDB8A40CBBCF53783DAD888FBD58146F3CAE6506BC9524A43BF9C063BA1466563C07805A3CC945E2BC7F7F2A;
	15511 :	BD76B2F23D2AC45EBD5C6AFA3C7D45BE3C7761EB3D5CFE2C3C36E1583B4A9779BC4933043DABDEF3BB90CFD63CA54D1CBD08C6FF3B8C5A70BCE0F6283CD5778B;
	15510 :	3BDF36843C4CE42D39454BC8BBF0BEEF3C295A893CC4DA1B3D7706473BB1B33B3CBD68F13A6B0DB0BC72C0CCBC7F4F80BC951637BC21FA8ABD310ECA3D6DFF9C;
	15509 :	3CE7C523BD693D0DBCF261933C0F111BBCA7DB49BC636F7C3CBB92933A016F7ABD153DBFBC9D46CB3C043FF8BC9530483CE61448BD012370BBE4F345BD1A9DD3;
	15508 :	3CD6DC44BB77AC653DCAC2213D0AE84ABC82E9F63C173C11BCCB5124BC77EC1DBBBF54BD3BA18CC439F604EBBD7EDDD53D6461C0BC25B9E3BD2E4E0DBC9A7AE3;
	15507 :	3D62C4153D4D9D693AE4B07CBD1E0C693C4B8ADF3D0AE222BD5D61D2BCA73CADBD32B9D03BB499183CDDE260BC9742ACBCF32568BD58E6593CF422763D961C48;
	15506 :	BBA13FE8BD47A7E23C93126DBCB077FB3C7F65493D1153CDBD255DFB3BA5DDB9BD12DE08BC72B11D3D6910553C73C700BD1A9E413C057C4CBD837DA6BCB66BB6;
	15505 :	BC867D4E3B97DF63BD18B2193DBE41823D46A3D5BC3B735F3C0BF5CD3DA67A1EBC2D45273D4FE48F3CCFF369BDDD1B733C9ECFBEBD0399773C11ECD53CAD0B4F;
	15504 :	3D651739BC96FE46BD23A4A13D4F9976BC6AA6533D5A312C3D8335A93BDCFC853CBB505F3DA82646BCEAACC1BCDAEC70BD0359EA3CAB12C2BD273AE9BDC6D2DE;
	15503 :	3DA55F203DD3C60D3B9B50C8BD50A62BBB201FBF3D6F1E5B3CB9A2933D7DB234BD6F60543BF350E93D3A18083D004B393D8A56B9BCD29BF3BD59D156BC0BE886;
	15502 :	BD0F1670BC7365B6BCCC3F973D831ABDBCA858C4BD1847743D1A96F33D12BD85BC6E89DF3D6F920ABC0C07083CCD469CBCC96F243D7852943CAA77F5BC67B884;
	15501 :	3C85B4F1BD992988BD2EAE753DADAACABC20CF50BD0DEC7A3CC72A833CF762D9BD4E7C3F3C94A96B3D197FCFBCFB6215BC46DD243D83E6EB3C8509FBBB8C9435;
	15500 :	BD15E7A0BD8661463C9F4AAB3CA1FFC9BC6D6244BC1DCA553C52D53CBC96117DBD0590033D915196BC5E1863BC8218473D822761BD80F73CBC482FCDBCB6573F;
	15499 :	3C3EDE86BD5084183C8DFE823D830CF5BC0A25FABCD06984BCC1E99ABD1BA6433D75109F3C14C74B3CC2A97E3D6DEA323C3CFAAE3D06EFF2BC30D8D53C878178;
	15498 :	BCC551323CC4D3D4BD2C73F53C731E9D3D0AC902BD37BE053D0F1AC8BD9252DD3BCAA1DCBBC9CC9F3D83FEC03B5F82273B7348D8BD37BBFD3D8B941B3C80A206;
	15497 :	3D2920CDBCE52102BDA70BD3BD33BE2D3D03637539734DA9BCFE4AD93D5B9C38BD06205D3A527147BC1E34213D078454BD377C083D0F472A3CC75A5EBC3500F2;
	15496 :	BC745615BCACF4FB3D2B966FBD44CA3CBD7697B53D7AE8AD3C10F15F3C196276BB47793A3D9DF5BF3C9B11C33D37AD0C3CBAE20ABBD879063D462614BCE36839;
	15495 :	BC95D9CCBDD303733D6CD0F63A92123ABD4FB66C3CA08554BD2BD8BC3D219755BDB860153CE25B55B6D48804BDBDC6163B5F35EB3CD7A8573CC4A9733D338096;
	15494 :	3C86B973BBE23A9BBD4252853D05ECBD3CA6B0913D0E8634BB1692383D02413C3D9ED82EBCEB9F11BAE5D989BBA4E41DBC222921BD8EA23FBD203C33BCFEB8B9;
	15493 :	BCFC439DBBFC3D44BC3F71E5BD3DD1363ABFAB71BD891710BB9D616DBD3DD57D3D8FBC04BD036462BD69AC78BDB5C9E53BF4EF36BB8C4668BDD09E92BCC78E46;
	15492 :	3D94EDCB3C34BCD43D5407E4BCC2E4A43D17F42C3CAFCBA23D3E993CBD03CA12BC9CAB51BD896E4B3CCE18F63D8C2063BC84D290BDA593DEBD3702E5BD136722;
	15491 :	3A2DD4C93C18EB8C3DB708BFBDAA66BA3DC1F121BD005CC73C1D1AA7BCC56E113D301C3C3CC9732CBD6741B93D879BE1BD585F613CFE74DB3D1092093D85548E;
	15490 :	3BC138973D2E12F9BD082B68BD822DD9BC814C253CA5F38BBD3065FE3D8DB753BCCF06B63D2491173C706E9A3D3D374CBD3B77E7BD4F1853BD1EAFA6BBDDFA30;
	15489 :	BD8D7D273CBFE95D3C4B75C13D24EA323DD2C4F9BD1D4D7B3CE7A8E8BD5B7D38BD60C5ADBD8C88303C5732FFBD0AA8A83CF36A3FBBFD4E84BD3A72FC3C640243;
	15488 :	BD045A3DBD0010C33DD9B0F9BDBC0711BD770F5EBD84E7443D2906C2BC2A059DBCA7DF7FBD3974D63D280B4C3BF9E5123DA6D6A0BD03A6F13CC436DDBD17CC99;
	15487 :	BC52E4BABD9C4B343D5D6935BCB11C97BD7041383A89F7AA3DC56E543CEA3732BD956CDFBDC67BD23CC65348BD9146FF3D8DC6623D1C2D683BF82BC53C089837;
	15486 :	3BF7D29C3D36B9003CF06173BCA5BC653C5AFBD8BC446F5EBD239E763D636035BD189AD2BC4209883ACEF1AD3D10111FBCEE85C6BD104C3EBCF1B6DABCBD1840;
	15485 :	3D12F85DBD3B151E3C8A2FD23C97406EBC05BC913CD8B19ABC432CC8BC90531ABC564A5CBD66BE0FBD0AC7FBBB61F2A63D3ECDF5BB11CDBCBCEA0EAA3C2B6B5D;
	15484 :	3CBF7FADBC8FB23DBCF881C63D09CA363A7979FABD1C8092BAFC0102BCC76586BD692106BCDC77273C47F784BC1651F0BD4766313CCE46CE3BBA3DFFBC9F7034;
	15483 :	BCCA19073C64F4E7BC5CF92ABCA23951BC8270FDBDA984763DA2DBAE3DE53A423B3911EB3D8FEE90BB6CBF193C8884D23C1285333D96F243BD4C59F53CDC76CA;
	15482 :	3B63DEBFBD31F45BBB95D9D4BB5B75A5BD7AC295BD280BB9BCC391813D5C28B0BC6114C23D1F5C5CBCD8D58A3D07007E3C93452BBD1829F43C8119F639C45640;
	15481 :	3C62A2E7BD3E3FA6BB4AECEF3D6480D2B90CDB46BC077E57BCB3B7C3BCB088FC3C86F84A3C8DC9753CC9F71ABD281EE5BC7A39113CA3AA45BC3A78E83CB8FC5B;
	15480 :	3D4F73553DD59F413DBE2AB23C8D03983D49D1783BC49AC9BB6C29993B900BD03D1266F43C84F090BC9600C6BD15BD75BD5FF933BC38F60E3CD5A48FBCA67D88;
	15479 :	3CEAA9EABCC0308A3BB7F6BEBCB8B6D5BD8A89083D45AA18BDA1EDB73B81DF653C5F119CBCCBFC26BD01E250BBC280ADBD089DAEBC0D0D0BBCBBDE0B3DBF173A;
	15478 :	BD2A029DBD9D493DBD2E6157BD18887BBC04D9F5BC9B102CBC5BF00CBC7DF3BDBC986FF4BDB3C85C3C9BEE9ABC6F6AC9BD373CA63D3F9F86BC8B0D1DBCFDDDC7;
	15477 :	3D9311E2BD16CF3B3D3675003AAD3AF13D1802683C3554713D1D84163D05D00C3B88C4B23DBCB39FBD2EEE4E3D3AA187BD077D073DB25BB6BD2C31DC3D477D61;
	15476 :	3CC8626CBD13A803BB9B45A4BBCC46513DB90AEC3CE2FA5FBC66FBE03D133F41BD0165EABC73BE1A3CCBCA80BC90DAEF3D873693BCFD0CB3BCAF849E3DC23AD3;
	15475 :	3D72AE94BCD4113DBD422B353BDBF6243D0BADEB3D843BDB3CC5BB2CBD3CFC05BD7A72CF3D9E0F4ABD016AB73CB6222BBCE4969FBD067CF13C6D34023BC796DB;
	15474 :	BCF45AFCBCEC6008BBB8F2AE3C923DEF3CAC13F73CBCAE06BCC9C3F5BD3927ACBDAA05523DB4C1923D5CAA943C39E1A03A956EABBD7385BD3BA234A53D3F19E4;
	15473 :	BD659CA5BD0C860D3DA1781C3CB8B5E13B944799BD12F1973D357DA5BC2A2179BBF407DBBD0AB016B9402C673D2968F3BDEB48D2BD8EACC8BD699FD73C36C75F;
	15472 :	3C55B8363D3FB833BD35ADF6BCFC0BDC3C8C3C82BB0D7EA4BB898391BCA679553D8A1CB7BD66149D3C49973D3D7AB736BBB3D1EFBD913002BC14ACA7BC9F627D;
	15471 :	BD24E2FB3C9F8EDDBD60503D3D5C396BBCFDE25E3BA5E29F3A96C30BBC8A340CBC9AE82E3CCB6D613A218771BC82611DBD0555FDBD0AC0B6BD7868E5BC88F5C8;
	15470 :	3D0141463D6C4CCFBBBD928D3CABCB5B3D7C56053C40D967BD310FA8BCD0A5EE3C44CCD13D1C82523CDB7F1B3D3EF573BBC1197C3D69EFBDBD16F322BC248ABD;
	15469 :	3D96B8E33C576FF43D350B9BBD26FE3E3B246B5C3DC8E505BD33E7E43DC19F293D1600ADBCAED2403D135657BCF8BDA03D93F3433CB5B3D7BCFD781FBD641A31;
	15468 :	BC2323EF3D0C0001BA5B1C5CBD2E1FA83C394AC1BD4AB08ABCA15FC63DF263D2BD1B59D73BC1A5583D1EAC153CF05575BD6BB11CBCF3E6DFBD8654EA3BC5CF5C;
	15467 :	BCA85705BCB7CE78BDA0D405BC9B364CBC5CA0A43D247E1D3DA859FDBCE6FA93BD7F1249BC19EF533D59CCC4BC7D3B45BD011444BD7E47BC3CFE7FADBCA2E120;
	15466 :	BCDB79FFBC0C5C783CD5BE233E1652033C1051A13D6073213B7BD08ABC8F00E5BD1AFF6CBC96FBBEBCC493A7BD5B7CC2BD7B37A13C0B6FA53D07BD143CB8C351;
	15465 :	BD1A11983B9B6AE33D2B90073D60D887BC4759EB3D4C1CFA3D1BDBA2BDCF78F53D8E26113C6BEC3ABBD0646B3D5C4CDCBDF2CE75BC72B178BD63687BBCB1300E;
	15464 :	3B83A6233C970F4E3D6D6FBEBA000ABDBBBDCC8DBC883CBA3B7DCB943ACCCBBABD2AF2DEBD21BDA4BD23634E3D40DC033C39540C3D6849BFBB5210A53D1312F6;
	15463 :	3D8CF226BD01E71BBC8C8496BB412A7FBCCBAD1DBD1338A53DCB3996BA18E2DBBC7B88D1BC3CDE71BD9827B3BD564DB3BC891AEE3C7D7CFDBD7C2EEDBCB6FF24;
	15462 :	BBC480823C9714733D024AAEBD9950143D439186BD885A1DBD51FC373D970CA2BB3781F4BCC34EA43D2701C2BCD96E0B3CDA62F73C296FB4BD648C433C3C3ED5;
	15461 :	3D0F3C9F3BC24D55BC4F231E3D3C2E863CAB78D5BD570B2D3D37949CBC609FD1BD297785BD06FF83BD9D1809BCEAA8703D4BEBD8BCE5DA193C1898D23CF52DAE;
	15460 :	3D9DD1283BD26ACD3D3790AB3CFAD6FD3D979CBF3D8F4057BCF05C733D04C46B3B7DBBF23B6510E2BD04E239BD1E71EFBC2D06F8BCF26563BCB14203BD4A2107;
	15459 :	BC77C462BCC94CC5BC7377CB3DAC99BABD1DF4843B14ED273C82FD20BD94883F3D217D9E3D787D9FBD2EE9E4BCD642AD3D8AD2633C4FA7D03C9C425D3CDDF631;
	15458 :	BD5126FE3CA0F2F13DB3CB79BD8DB9953CB41520BCE586D03CA66299BCD3DBE7BD6084C7BD169D38BCE306853D4CE556BD0B4B183D54FF733D1D7D9E3D085E62;
	15457 :	3D80584E3CB3474CBD478118BC1EF960BD1C31D6BD84A05BBBB5C7A63D60E9DDBD288ED23D729027BD89CF2FBD2A680CBD70FEE53DAD251F3D52E0373D647B92;
	15456 :	BBE43E033D3C7F0F3D40C228BC8E9329BD9DA80EBD1B9B2E3CCDCD543BAFD89CBD2DD822BBCE866D3D165A893BAB82BEBCE8A0E83D0D84993C9687963C918FA0;
	15455 :	BD54B8F53B9004D13D65F4C73CAD880B3DEC16BE3B6C5B953AA096BEBA873FCE3B1A1BD93CA430343D8511023B070D19BC7945D0BD270CD9BCDF5D443A977011;
	15454 :	BD84DEAB3D16CA1A3C9A709F3C6B14DA3C37722BBC4264EABBB7D8213D2B19AA3D516BDDBC226D59BD78AB1EBD278C20BC9A27903C26BF7A3D3A86FEBCBB7D8C;
	15453 :	BD95FC1A3CAFE08EBC0EB549BCFDA878BC8321593CA6087A3D6755D73DBE892BBC8D48A13D5704DEBD1371383CD94FADB9F109653D1C4D9C3CACF6D5BCC877B0;
	15452 :	3D0A9A9A3D4ED3653BBB48A1BD0839F13C424592BD6FDC95BCD588973CAD532D3C65D1C3BC558C1EBB2266B43BDE06DE3DBA7EC6BC9D944F3C2536893CB3AD43;
	15451 :	BD368FF2BC59F6293CA3CE5FBC33DC283CFEF63C3B5A4DCCBDA6E24EBD95AD033D883CFCBBBE7A2D3B75D8953C96056A3C1A76023D760C333ACDE6FC3C2ECC64;
	15450 :	BD1B2F093AB84F2BBD195AC9BD2753183C49612A3DA55EFCBD958329BD74A6213CF619A23D3144533D0A33243D2E5DBFBCB7F5FD3CB62DF7BCF2F27ABD6E9F91;
	15449 :	BCE5D28ABC98078A3B8F5339BC1E8D803C8FCA33BC3EC847BD875E363D1B7502B9D6EE763B8A3E293D9A25CCB9CAE9F63D50B4B1BD42D53CBC1B3BBE3D592FD3;
	15448 :	3D34E59D3C897D743D4DE635BD24D5DBBCDEBD7C3C2C68873B31813ABD7804C1BB6400E73CCAD2763D03D8A93D26801EBC4B2B8DBD54DD2F3D987D34BD1DAA15;
	15447 :	BD44AF173D4B63EA3CEA16C93CB3E1213D16A86A3CED5329BD2878A03D92E658BD55D93DBD2F254FBD2AD3CFBCD5A295BD3E5B3EBC35F202BC14B51ABD8FC0F0;
	15446 :	3D0EE080BCB474BEBB3A9A793D42B5663CCC63E9BA2388673D8C5947BBF24401BCB98420BCC2F1E33D1BBFCFBBB41AFBBCB9E7F73D11EE5BBB2BB0673D2859E3;
	15445 :	BD5A41733D072A04BC8536483A69E2B9BD22C618BBFAAE893D0ED0253CECEC40BCA7887DBD513E873CF610853D97B00DBC97B3C0BD5357303BB85D2938EAB35B;
	15444 :	BC82782BBD834EB7BD45C9113D1A1F353B93DFA9BD3541E73D7D72F1BCA2D344BDAD8BCEBD86DC2C3B8DA51F3C987ED73CA278B7BC89FC83BC7C8AEC3D161991;
	15443 :	3DC932DD3C903096BD3787D9BCD476F3BCF525D4BCA345E4BD9989D83C5DB2D0BCF53E79BD593F5BBD65C800BCFBCCB9B826D5213CA399BE3CACB500BC8935F7;
	15442 :	BC555C78BD81F26F3BE450293D542632BCB9A5E8BCB03472BDB644A53CE36142BD4B43723CBF39433D464DF23D7631CE3C595A623D95C0DB3C35AFEB3D687F01;
	15441 :	3CB211A53C5DABF9BD421B92BDA8852F3BE25DA13C055B48BCFD5BBBBD5CE71F3CB39C98B99E0E093C95BB37BDC115103C700B563CB9C6AB3DC1B8C33CCA8BCE;
	15440 :	BB9DCC0DBD157939BD2192083CE1E258BD902628BB2F553DBD0BC7673CEBE73C3D6CE8B7BD57F66CBDA12D4C3B18FB0DBCD3B198BBAC418B3B6906743C359FD8;
	15439 :	BC2834D83D96FA87BB6DEF0FBD0949C73B394B6CBD74417F38D5DF99BD1D8E873D5707B13CC08B44BD8DCE2FBD1CB7E6BD5380CE3D6BE3A03D9009F8BD17E464;
	15438 :	BC9A6DE3BD8915C3BCFFF2B9BD33A580BC05F72D3CD8A8E5BB7836A5BD0F6DC63C355A2A3D06F3B6BD2AE838BD514DDD3D06FEEF3D8BC6B83D15D250BD3AA830;
	15437 :	3D58F9B43ACE5905BDA2E025BB542F43BD31B1DA3D0DCC563CCBEF903D426782BD8C3B5EBCC78F24BCC40F67BC8AD346BB65E66F3BCC8D5EBD838A093A789A9A;
	15436 :	3DDDAE523CD6DFE1BD8C6444BD176DCFBC12DC3EB98E45FCBBF7DCB13C7ED17A3C5C70773D8EF6C43BDE0A4C3AD14EA93D0495A03C219DE23C33D0B13D6A0F58;
	15435 :	BD4D1DEBBC210A68BCE381D9BD11FAFD3D9A5B0ABD8894AFBD6E91F6BC29A1BBBD6F76243C9DCD77BD17A575BD4226C3BDB5D385B76261B43C32127DBDA5F8B0;
	15434 :	3D308DA4BD09E5FFBDAABDA13D0C6128BD7702E53D8781AE3D0D3E693D1179853C7E0016BBC96A80BC6644013D957396BCEC100FBD97691B3D86C2263C0CD9DC;
	15433 :	3C855AEA3D2679733D88BC7C3D4C35E0BD0D76053CED40433DD6FA40BCEEDF52BD59D1B33C67241F3DFE2B7EBBC806163D7200573DD793AEBBCCD8AC3C46B2FD;
	15432 :	3C339806BD5920163D09D2823D3C35C1BD66CDC93D5E76A83D79351F3CD29ADABC6C5FA63C2468E83CC0D3CE3CE7F51DBC372FE63B5D873B3C891273BD04862C;
	15431 :	BC1CDE64BCA28CCCBD2DBDB4BCD251A0BDB3913B3C364E61BC425EFABDBD8ECDBC47D28BBD2D61DCBBDCF6563C0512173B6366D7BD3AFFF43B47562C3CE7B6ED;
	15430 :	BD43C5633CAE84273AA254693DABB178BC8995FDBC814B5B3A000DF1BD682767BD19D5683BC4B6F23B45E4DC3CDF41B7BCB1936B3CA08B9C3B5128A9BD05977B;
	15429 :	3CCFC55C3D1D01C6BBF42A383DBAE748BBE8A5CC3C80E6B4BC924653BD4395B8BC9FCD193BE93D7D3B125E483C10EB71BD66752DBBEC897FBC9D794C39A83B46;
	15428 :	3D886E9ABBC4252FBCFCDDB33D3B77EC3DABA011BCEE7647BD21FD49BBD133A13DEA38703D2D50453B0CF2FBBD0AD8F03D7559F8BD953660BC9452AEBD9806DB;
	15427 :	3AEEDCE7BC86799FBD5B825BBD6BC48E3D965CB03DAAA901BD7303693CE164B7BC23FD163D9DF0C7BD7FA4243AEF2EECBB739604BC9C9849BC85991C3D26721B;
	15426 :	BA176FEE3CEF9505BD26D7E9BCFAA7C3BDA818A9BCD05E043DC435373CD950503D2F6AFB3DD56329BD4D496FBC8751993E0E2F18BD7E342FBD21E1AE3C9347BC;
	15425 :	BD6B04B23CD4816FBB11E2053D88EAEEBBA373C4BD1F1C853B9E2E733D21A2B6BCDA064ABC08B8BE3DC659E73B86E51CBCDBAEFDBDAADFCBBD5C82A9BC2B6DAB;
	15424 :	3CAC57263CB35B06BD4BDC8BBD17DC223BB1AA603D3464EFBCB4F690BAFDE5D5BD98B585BCA6E5313C24B4223C628E6EBBFC576BBDF4455DBD4A5C453CA1664D;
	15423 :	3D54F84FBCB8F9B63CC4FA7D3DB27AD73C229AC1BD9787FD3C8B9508BC4BB8123CCC6EBA3D66F109BC18D340BCB4CC48BBABBE05BD16B8723D29E930BD402094;
	15422 :	BD078FB6BD7E9DD4BCC316873D6A64BEBB4713BCBD257886BC96C3CF3D936BE1BCDEAEF23CE25873BDA98D38BCDD131C3C2023943D81D5293D03616DBD925981;
	15421 :	3D956734BCE9B2AF3D7AE0053D35DE76BC88A045BC971F73BC97854BBB9C63D7BB9B93473C4142A53D101BE13D04A3BA3D8A329D3D41F4333D38997EBD3EFC98;
	15420 :	3C31139A3CA9756B3D023EF8BC2ADD723D4152F0BCCDC07D3D0522063C99AAF4BD69F2DD3C8E0AD5BDC70FDE3C6841AF3C89E84FBCF35F3CBCEEFFD4BD80D4BB;
	15419 :	3D31CC333C4F1F2C3DAA0EE03C17C8DD3D4569F4BC59D43F3CD53020BDA9FEBC3CED3202BC64D158BC8491E43BEE0461BC9B76D9BD2F6DEBBD4891F53D0B62C5;
	15418 :	3D68AC913CC6C4C7BD654A6CBDA955C73CE1EC543D866148BBB08B693D9FDA643B822C223C08C9DEBD30967B3C911DD23C0BF9F3BB798C7FBCBCEB81BCBF854A;
	15417 :	BB3181043AEEBD073D9CDD533D7A8FFC3D2F3D033C9A9FF5BC1E16C6BCED4D9ABD494AC0B9F4D7013D37AAEBBDA34DE43A9E1E003B7131353C2AF523BD1F0647;
	15416 :	BD3F2A2B3CCBAA0FBD49786E3D4B0E003D0C0A453D338A4DBC5A4E17BDA7FE43BD45EED13CA7449A3C3402CABC3052043C9E8DDF3D27F79F3D2BB74A3D9AB251;
	15415 :	3CC83114BB574BE23C21E0943D2A68C73D4371CD3C0F8E4ABBE2CD1F3D9AED96BD5E45663B3A19043B842AE9BC8F27BE3BAB4C71BD30E7B83B9A9A973CFA5EC4;
	15414 :	BBEDDEB3BC2F1DF0BCEB478C3CAA22B23D2D01ACBCA7A45DBD562C2DBD4802D03D2207C73D097674BD91C422BD8CB87A3B8C61DBBD5414403ACB8C09BD1019B3;
	15413 :	BD840417BBF9112E3D8816BE3D214DDA3D8031C5BD51A0AD3B493AFFBC9ED07E3CF46CD9BCD01B353B8FC5A43D88165B3D00CBFD3B9A0A473BF4D1413C84BFDC;
	15412 :	3DF0C38ABD755E8B3D8F9995BD2E616A3CCB329F3D766BA8B9E4F400BD009A813D25BC133CCAA28E3D2ED2F83C40AABA3DABB2933D87E7F63C8D9B333D1ACD87;
	15411 :	3D0898953D12794FBDCE1E3FBCC1087CBD6555693B8A80B73D0EE4DFBCA82A17BD867690BCF907A1BD219C88BDE5DA863D60972C3D432C083D0415D73C673D32;
	15410 :	3C00B1DB3CE4CB46BD6454C63CB1C4B2BD8A3724BC5E0DC73BA011263D185F62BCBBA4103D3FEE593DAABC4FBD42B7FBBD5662263DDD71883D31C8A83CC9BA2D;
	15409 :	BB5E46493AD796743CD1D6B7BC1104993D749EA53BF71216BCC0D5643C3B00423C30B369BD040B44BA03B4B63D8C1857BCB04E1E3D2505B9BC4878CF3DA6A702;
	15408 :	BBD3AB7CBCE814F03CA5AD68B9D1F9A7BBC1160E3CACDE89BDA91F4DBDD4F336BC74C4B03C08B601BCEF69003D0111B13BA8A9833D2BD2F63D02BFE5BDA7C07D;
	15407 :	3C6D33CE3D9193F5BD2C3BF33C55FD5F3D40ED9FBD0CFC94BD22131EBC5E3D543D99861ABC479FEFBAACE35C3D6375143D628737BB4E12D23BA0596FBD7B69CC;
	15406 :	BCFF95963D02CEE7BC94A93EBDB1E7A5BBCB0B173CDF9BA1BD68B5353C8EF0713CC902A6BD524575BD0FE3B9BC93D5623D7E13A5BC6A4A0F3D2B4D273D6753F2;
	15405 :	BC012A513D18B9193D6FD7E6BC8758FC3D185F363DC6C22F3CB0B0ACBD4F53213D402A153CCAAB2DBD2475BC3D81DBC6BD66EA093D313D943C9264E0BD4DE16A;
	15404 :	3AA66C4FBC9DE883BD64E82CBCEA28D3BD9DFD1B3BB7732BBD519E4FBD4B196EBCFE92703C3F1FF5BB165751BC7755C53D0EC3A1BD1BCD453D34FC4F3CED47E0;
	15403 :	3C676EACBD127C33BD4AB18ABA38DF683C0427A7BC268CFE3D314975BB4EA3743C0D69C9BCB007EABD8CC5B93B9946D43DBFA44D3D083D9F3D3CFDE0BD270F9F;
	15402 :	3D1E17893C28B371BCB16390BCE134ED3CD674A4BD819AABBD38C87EBCF36A083C74C4193D28076CBD74B6253D99CCB23CEAD8ABBC917FEFBCC61BB43CC1FEA7;
	15401 :	BB9E01BABD5B5E143DA3D80F3CD88700BCB7F8A03BA6081ABDDE373F3CD98ED93D762F0D3BF27CE1BB6EEBDA3B2307213B8C7DBB3D2A75D4BB805C2FBD993F2E;
	15400 :	BCC432CDBD3498D8BBE3BC07BD435E023C0DC817BCB3AE33BD038E573BB5F19A3C46FD5CBDEAA549BCF860F53D0D26FDBB5A18343C02496D3D76E0193C6C2C91;
	15399 :	BCD77AB0BCE0202E3D6362ED3C2624493DA799E83CFD19E0BC032B573B74BB68BC7E4F213B1F4ABD3D04ECAFBB3094263BC276B2BE1487843D87430E3C524D24;
	15398 :	BD32661A3BE87AFDBDCF645ABD3DCB853C488CA53D80C3E3BCB94C9FBC021BE2BD911DD9BCD26B9F3DA65063BD6296443D1D4EB53CC848E3BDB2DD5A3D5E4AB6;
	15397 :	BD03CDD9BB1FA111BC46B315BD28C5CBBB2C88F0BD0BD31ABC0E336C3B1116AA3CF5551BBD2F6AA0BC84B187BCA5CB263CB9E05EBB1502343C078BB73D216E10;
	15396 :	BD9841C53A386B49BCADC1BABB04FDD6BC85A067BC0286763DCE8FD0BD10ACCA3D540CEE3D63C3DABACA4C38BD6836053DA6208EBBC32B123B9A2AF83C5173F6;
	15395 :	3D616E79BD9A045B3C0ED8DFBD226237BC09E14838D475503DA4B5F5BC0457793C97E1D7BD0A58593D2BF46C3C8C1A97BC5A54B83DCB25D93D0BB707BD0941B5;
	15394 :	3C80B36BBD64B34CBCE1E1EBBC4E34193D86207A3D0020953D7A6EA83CCABFD6BCD7CE30BD3C0CE43B952154BCDEE393BD2A17D0BCDC5133BD53A1DB3D43D824;
	15393 :	3C9206223DA3048E3D649C063D46C85A3D26E64FBD2821ED3D7C2E843D710A913BAD8E20BD2A3D0B3D13BBCB3DBC5CB23BC5E43DBCADDAEF3D55ADAEBDA651EB;
	15392 :	3C534451BD50C44F3CCB2719BD2B6D02BD1D12FFBD93B31BBD2EEC933D1FF6A5BD77B59A3C912B5F3D265051BC646A93BC41C27CBB64B3CC3D6590B13D6AB304;
	15391 :	3D96B2BEBD01E8303D13B2FDBD189BF93C3A86C73C0293AE3D0DD9D8BB85A7E7BDA60DA23CC60319BD0C778A3D15846FBDAD08343D3109AEBDC6E446BD613792;
	15390 :	3D972735BB508D2DBC7628883D8368043CB574183C8CE7073D20B4BABD46D89E3CBD02C7BDE0438CBBBC0DABBD48A690BBB87533BCB07D993B3FFB45BB01222E;
	15389 :	3CA10AC03C1DF10A3B8E264B3D4F9B80BB8412EABBAE1CF73CC40D3D3CB1CE3E3B54AD803C9CA7B53D4FFDD6BBD984F4BD26F4F83BD676F3BD33CD1CBA23CFF6;
	15388 :	3CF47383BBECED5E3C9C1521BD35AA7C3D79E2003D3F5FA83D3F116DBD79B6EC3D4245B03C9687ADBDA00F27BCF57EDB3DA870E1BCD030CD3C899FACBC6DFB73;
	15387 :	3CFE5BD63D0936A0BDE10BD03DAF6CA03DB45B7ABD877F01BCC57B4EBD1C04753BB9D9F7BC55ED9E3C3E333B3D9CF8E7BE0482BB3C52EE373D20C1F9BC67B978;
	15386 :	3DAFD9DABD718202BD85B76ABCBEBEE5BCA69832BBE978E93D132607BC3FE814BC2615ACBD2BF94ABD815D20BC6390053B38FCFE3D40CAF3BA1A75A8BCB45A14;
	15385 :	BD6411BE3BF37652BC8C4716BD05044B3C0B66493D0086ABBD88DF64B93B98EFBB4BB4663C7C42ED3A3CD1F63B787F06BC8DBB6B3D5F745B3CA565923D0810F2;
	15384 :	BD4735B3BC84ADF6BC174E5CBC75C0FCBD7F2776BD1E9B0EBD9E52B33D6B570DBD7A4930BD571E93BCC82780BDBA1B8CBC8C5D9ABD7A1E94BD164717BCC025E2;
	15383 :	3D19319E3B222203BBEC9FD43D6FFBED3C567FDABDE309E03CE78F9A3D9AD163BDC6D6C2BD8ABE183D5319103D8427AD3BE868E83D0FCC233D816E6D3D2A4A1B;
	15382 :	3DBB8680BB847E8EBDE75A823C3A22833CE102E6BCDB758C3DA8A9453D3380363D3450533C0D314D3D29FF71BB9FF0EDBCC6F818BCEA63C0BD0706703CBD39F5;
	15381 :	BD5CFA633D6AC124BD281B603CF3AC193D84C9783D16F66A3DAFF06CBD0B16A63DA68F123D2070063C887C863B563486BC6A2810BC5D8A5FBCBE7EF5BD86182A;
	15380 :	3CF52D113DAB61D4BD3CE88BBBAE713DBD37BA6CBCB44CADBDA884DA3D3091353D7CFCD4BC7DBC0C3D80F08E3D05A443BA279A37BDA939E3BD319D2EBDADB891;
	15379 :	BD2747653D3F0DA8BD5098C5BC5898A83D58BFA4BD716D893CF083383DA6965BBD63C88C3CD3AFC9BB9ADB573A367F51BCFE0E6D3D79CE0F3DAF5F86BB7F23F0;
	15378 :	BA8B31033C77EAF23D9CD84C3D95BF3ABCD7D53FBA8E596CBAA048243D5361503D26DB7F3D5007CA3D92C929BCDC3AA7BD22A79D3D746E84BD29B3DF3BAA6F9F;
	15377 :	3CF11B243CFA455BBC771DE3BCDF92713CDE738B3D6B1104BD8F35A8BDCBC1DBBD1A1E35BA44CBEDBCC23D91BB8E86E43D4402D73C96B2993D6AC5343D300DBE;
	15376 :	BC59B76A3BAB8244BBFC21CEBBF537113D05356DBDAFD8E73D834F54BD797A43BC4122E8BA796754BD72E75D3CEFE55BBC51A21ABC7875B33CE35F0BBD903409;
	15375 :	3D138CBA3D3CDEAEBC48EDA93D40FF343C2519163D71AC9B3B7216EE3D2B7E7DBD13BA9A3BD767FFBD9719393D064C873DA3B1283CCA114B3D3832D4BD0F2350;
	15374 :	BD2DACE43D72D9893D157C4EBCA3AF4B3BEDDB19BD1CF36B3D384CC7BB43F2C03C4F6461BD981E18BC71950ABC2F68B7BD232B6A3BE7992DBD0FF4A33CD0D32E;
	15373 :	3CF14FE8BC0B5B53BD42219CBAFCC4013C9022A43DE86C2D3C407474BD82A0E03D67F42DBC8229113D1E0CA03D5B09D3BC3526A6BC9604C8BD010AC43CEB00F2;
	15372 :	3D8AE8F73CAE1BD2BC29EEBCBD1C04063CC1DBABBC99DF163C8A57F8BCD8242FBD68BDD0BD1EBCDABD285B96BD287D0FBC59D332BB037F8FBDAF35E23C96D605;
	15371 :	3D7D67AF3D201AE23D89C039BCC33FBA3C8C732A3C8C1E7DBBCAAEAD3D96294A3C26FBE63DAB388F3C87729A3D6F4658BB6C88343AB2399BBC1D5892BD270761;
	15370 :	3CB92CCABD8D3D62BD0D651B3B9CF636BBBDA875BBF451DCBCAB899CBD45DC0C3CEC94E63D7DD7893C2705F53D34F415BD01FAA9BDE6FC78BD035F80BC61DB2A;
	15369 :	BD01113FBD92EC783C545EFFBC2FE40F3C9E883D3C4B69A73D22A1753D1579BCBD1B672A3C250990BDA3B2A03D2D718CBD6BDDE33A08AFEDBD018B46BCF54B9A;
	15368 :	BA4812C4BCCA65B6BC40E3A5BCEF2CEEBCE379B73BB5D577BC50E220BBBD9B5A3D8C97B3BD089CDEBD5FFEA6BCC97C91BCDC6C7C3C71A9753C9DCADCBCC7554E;
	15367 :	BA08CB05BC6A1EAA3A84A1BC3A9923713DA10AD7BDECBADA3D65260C3D8E0C023D59B7083CECDD053D13B6BABCAC91EABC896E2F3DBBD4553D54B96C3D4D835C;
	15366 :	BB8AADEE3B47279ABC83D6CABD5CD7BABD8506853C09E2C3BCF6B2E63D98965CB7D2C082BC83D21B3DC4CAB8BB554D2BBDB5EE1F3DAC453EBD13DA733D51093F;
	15365 :	3E15DF243D2F687A3D37BC49BCAA40FD3D3405483C5914CCBC50448EBD139A88BD0BA40ABCB3FA273C2E4FEFBD26CB1CBD646B1F3AA068B53D0E16B6BD95A119;
	15364 :	3CEBC6413C2118C73CBE6B2A3DA51AEBBCE142303D12B00C3C552F7BBD5A382D3DBBF687BDA4225CBD1D9FABBC92ED4C3D0DBF2B3C36A96A3D751C4A3C2BF2CF;
	15363 :	3CD9F000BD1B93893CE843B13D54A32A3D093976BD0D36ACBCCF702DBD93D535BCE00C723D7F3442BD0EA9E9BC3B8FBC3D175F73BD30C4E6BDCD2D81BD857108;
	15362 :	3D0F65FFBAA9EC01BD61010FBD2F7EB3BD450711BBE4FC7FBCD41E843D44EA5BBD34A230BC9AB0AA3D85D02DBB099914BD287FDA3D2C34503D69899D3DB8BB37;
	15361 :	BD9137BB3CD4D762BB0C3BDFBD0A7E94BCBB1C93BD1F4421BAECF175BCB80E8FBD37932E3D1981FFBD1FB805BD3CB7F6BD6944B9BDA046BD3D800F8F3C9310DF;
	15360 :	BD0200D63DB3EE053B1A80A23C8000463C40FDE33C35BEBB3C2EF243BCF08032BD937808BC35E93DBD60C7353D8F84043CC1069BBDB742F43DAE5A4EBD803806;
	15359 :	BD1088693D1842ECBCACE87B3D26E2BE3CEEF322BC9EACE0BCA958C73D196343BCA3306D3D39AC9C3BFAAF8DBC8CE88BBD0DCB1ABD31BF37BCF8E476BD0BEB88;
	15358 :	BD0B6A913D0CF49F3C79A4183DC71AE7BD89C9CDBBF7AD883D076652BD8258E5BD343D75BD11CD063DC801033D9B8816BDB3F315BD4A68D43D7F87383C697363;
	15357 :	3D3AB4703D3AA8A53D35AE603B050263BDAC64A63D7714BF3D482AB53C6A3B1EBCB8BC78BBE1FFFD3D9DAB99BBE484BE3BC16016BC90EFF43C9893213CE609B7;
	15356 :	3BE29076BB5C91043D0758F73BA69B703CA6D85C3D02A505BB8C850ABC8012E6BD57F35FBB3B30F63C00BDEDBBDBB516BD7822413C1363FCBA8B740DBAC84450;
	15355 :	BBA464C63D74609C3C7079D73D0F310DBDA174C63C01989ABD87D7A4BC3881423D3878DE3DB3D3993CBD623FBCC303203BC0BA803C1603A63C95E05ABD071808;
	15354 :	BCD8B4213D02E7CF3D3081A53CAE50A9BDCB7CD1BD790CBF3BCB1A1D3D3C526A3D0CF34B3A67AC23BCD93051BC2263163AD3D2723C97EEF8BCEF13653C96CB29;
	15353 :	BD48DFB3BC5D7C0A3D42D9ED3D39CAF33D8C726ABC0474A53D47A7F6BB9B54953B65227FBDA5C303BD1BBAD13D56CF89BCC32F07BD5B2C003CAC960DBD227493;
	15352 :	3D37E8D6BD160BAEBB8D7053BD1505AF3CEB1B9CBD01F739BDAA7CFBBD5F17173D7157043D8CE6B33D440612BD48885D3C4ED2123CA2E4BDBCBF400FBC907622;
	15351 :	BD55F9333DA7B69F3C039AE9BC08259C3BF460473A96956EBC8A34763C56D81F3C526A883D15E387BD433ABCBD5597DB3B75368A3CB69ADEBD14BAA5BC8444C2;
	15350 :	BD37BBD83D85F1EABD23EC91BC4004FC3B4A8F22BDCBE4D13D948B9B3B912F3E3B209346BDC79EC7BC1DCC8CBC5B0B14BD712F7E3C784FD63C8DAE843DC61902;
	15349 :	BD024A3A3C0EBD9EBD86B9DC3D32FA70BDB9C2A8BD1808A8BCD6AF6DBC106C06BBF2F54F3D056CD0BD08CAB1BCA22380BD9D789B3BEB0BBF3D2444A6BD915E08;
	15348 :	BC2F46CF3C90885FBD0669ECBAE4DF113D212C3E3BBC26173D29F4A9BB8A88A23D09C509BD2B611D3C2CC3953D21F160BD26ACD23D8F1487BC403A063C80F1F0;
	15347 :	3BBAB046BB672EB63DB5DF67BD25D1F2BD52BA083DF73255BB233B4DBD0E17CBBC5C5700BD65FECEBC212812BCD793A0BD9956DEBD8968AF3DA6EBB6BC7C85CF;
	15346 :	BC780DFABD344875BA3B0C0B3D25AF733C8D2B85BD4CC84FBA1F7A81BD6EDA313CA2BA233D9A8405BD711BEDBC9D765F3CF3AC033BC172A63A09BAEF3CFE58E7;
	15345 :	BCC54415BC090C5E3B8A4B10BC5FD7EDBD84BD733D0C122C3D9954A93D464DCBBD4AC0F33D02B5753B82D15A3C97A7CFBD2F0D903BE5E1D73D7089CABC604FD7;
	15344 :	BD5415323C91F88ABD06AA9ABD6A8A87BC607ADA3D91282B3D695427BD17E047BC469AC5BBC6A9CD3CA465673B989ED4BB821F023D74C8ABBD9540C63CFB05D1;
	15343 :	3CAE30703D898699BC3381DDBA32194B3C1F5F303CAEE323BD0734873D58F5EF3CC82B83BC5BF8CF3D0D2112BBEE7AF9BD23E8E63C6C3937BCCD7144BC0DED66;
	15342 :	3C547ACF3D8F895B3D606A1ABD00836D3CAE47C53D90A3E83C81649BBD90BD0ABCA7F6333C9D7D4ABBD69425BD02961BBC369948BC88DD00BC631C593D21B4A8;
	15341 :	3DACFABE3A82CF50BD706F1B3E0115123D5BAD48BD06A934BD5C77843D24A3DBBCF4E2F93CFB6FB8BBC0BA833D2B68F03CE244253C320CD8BA346BD1BCCEF1B1;
	15340 :	BC8597ECBD13E8143D257FBABD80E2E03CED73DFBDC6F8A93BD2B5EDBC36A5CC3C85D34EBD5DB2123D4318573C3312023D9BEB2FBD8078FEBD3D61473B77F9D5;
	15339 :	3D3168C63BA8B024BCD25922BCD0E7483CBAE7DF3D0D667FBC101E653DB27737BCCFF80A3D243E8EBCAD2527BCE68EF3BD5077CDBCD59234BD1D9DF83DF44C74;
	15338 :	BB1A1EA53D1EB4A5BBBB5A62BDA2F3F6BCDA069CBCDCD4733BAAC1DD3D183D89BD275011BC13EDCE3D4281133C3569C53D326F39BC6760F63C4B3820BCA8DBF7;
	15337 :	BA81867ABADFD71ABD65627B3C78E923BD3C0560BC2729173CF6167C3CB46291BBF82E4E3D5320123A64C8553CBE4B163C4A5CB9BD72A881BD231209BC1E6899;
	15336 :	3C47BC08BBAB0D403D5B0E9FBDB8C2313C854F7C3DD2B4833CE846E3BC88E861BCE5F9873D6663013D31552D3CF698663D8B42C73CC27EFE3B9FC0F2BD24E144;
	15335 :	3AA4266FBAABBF45BC40DD30BDBC9F47BC7EC3D03BF04A1BB80054EEBD0089EC3D380F88BC24952DBD8A56CFBD6E6F413CA79B333D126C533CC18A6DBCFE1F44;
	15334 :	BD23F5CF3AD4F11C3D097B223CA3CC723D44FFCD3CDD74383DCEB1433D5D4D5BB97114E0BBAFF1E83C5C9D2D3BEA67083C1BCD94BC585172BD43396F3D405B86;
	15333 :	3D1F30C43D64569CBC95901B3DAD8CFF3D07D58FBD0874833C7A5FA13D4838D7BC39220BBD15A67BBD16A4443CCCB2A03BA5BACA3CAF4F1DBC463EC8BD052669;
	15332 :	BD167F593B177A483C9232F2390252E73D80CDC93C874176BD275FA7BAB9236A3D253B8CBCEAE5DC3D066CEFBC4ADE7EBCE9738F3D2858F13DAAC70FBC9F7152;
	15331 :	3B571C38BBB47319BD2866E2BD001323BC0CFDA63CFE7925BD08E8323D7E3B733CB2F5C2BD299F793C37D4143D7CC1DF3C0CEF213D4756153D4DADF1BD2E7DC5;
	15330 :	BC1CF9A1BD6F0CE73D81062BBD315528BCC6FDD7BD3C6A843C98327C3D1B2674BCD55D473CD2F4443CBFB0703D00A628BD1775DDBBD2EDDCBD3DBBFE3D13C4BB;
	15329 :	3D8A0318BD120656BC30E9303C1035E5BC3C125BBC85891DBD171A0D3C07D3B9BA08E5BA3A879DD0BD5201FF3D207350BD6B1465BCA804E6BD6B19F53A289283;
	15328 :	BC92A167BC8D990A3CF9FEFE3D8DF09E3C3551113C597D8D3CA402D3BCE5B34E3CF98F99BC4AA5BB3D57F8323D35732BBC42B2083D044782BC2702E63D283578;
	15327 :	BC41856C3D2B4EC0BCE20CB7BCB258FF3BE4DF9A3C4CA9DD3BD1D9173DC07F823CC5295BBD6397183D532C96BD0E5B23BCC76FC7BCF081F73C82A458BD933E0D;
	15326 :	3D5DD8133D036407BCB64DCD3D323F3BBD2F6A603D82F7D23D5DAF2C3AD2C8263C3E856DBD2B8365BCB93DF73CE911A3BD58261E3C5B7A31BD23F5833B955832;
	15325 :	3C4C0B03BCED07F5BC52D6F2BC9E3691BCF5A59EBCBB023C3D76EFD23D0EA4CD3D5D6CE3BB8ABBDC3C97B1FF3CBFD4913D2B81EEBBF80FE43A98B35CBD5A30CF;
	15324 :	3C4A09C4BD2ED6B3BD2DC7833C7312323B0E2000BD543F0EBDA679033D0C6C16BD124D553C6D2EB23D21DE7BBBCCD7C63C1F7AE93C53655F3DB172E03D155B80;
	15323 :	BD8D5F283D2F3DA7BC218FE63D575BEC3DBDC7A2BD11F0573C869EBCBC9C46D6BC75918F3C97E660BD43D8D63DE7689EBC5E22E9BC9681F1BC9E2700BB38C281;
	15322 :	3BC1E9253D5948D63C5D1CBDBC57D5A43C443BCA3CF2DAEABC8EFCCABD403E01BD73BD1F3D357515BC23401C3D333122BC7228073C9D5CA4BC3744FF3D19F7FF;
	15321 :	3D3D0E7BBCC337803D2C06553D2C21383CB17622BB0E24E83D17F8BB3D43BF753D69D9B7BCBF2C3DBCE424E53C237EF03C8604113D217A47BC3481463CE3AAFF;
	15320 :	BC822C1ABD1539E6BCE43F37BCCE55BD3DAAFB933D87FBA0BCAC0E8DBCCE0714BB85A530BCE25E343CE193973DD48B2E3CF3DD58BD9D08E2B996DA98BD897676;
	15319 :	3C81DA7E3C84A2E3BD175FED3BCA97A7BBA370D03CD621F43A8E29223C346955BD090DF23CC6A6E9BD0E27E43C8EF64FBC7470253D172BC93DC6DA6DBD2413F5;
	15318 :	BD343D0DBC53AC99BD078E9FBD95F97BBB16DA30BBD0E58FBC1A720BBD2BB0483CB54950BCA7B539BC9657023D03B8DDBD8192093D8877A9BCE3A6AABD1441FA;
	15317 :	BC09F25B3CB15FEA3DC45C25BCACFE703CC2E2B6BC6106F3BC48232EBCC4813A3BBD12FCBD81F88B3BA6A140BC91E2D6BD3922443CE0AE513C66FE4A3CE0E449;
	15316 :	3D34417C3CCB46C13B9690E3BCB1155E3B981701BCD621313BE3EC9DBC8191853BB914833D7D49B6BCBDC4E03DC6A005BD6F266CBD230C223BFB12DD3CFD8878;
	15315 :	BD1CD3483C308D11BAC25DC93CBECEAB3C8E4322BC9C71BBBC264DC6BC883DF4BD6B0234BB4D4B78BD34E581BD9324A0BBB3B87E3CCA35C33D78ADDCBC6A47B8;
	15314 :	3CEE47A43CFDA9023CC11210BCABA9C3BAEF961D3D804EFF3C4341D63D1258BC3D612B4EBC649979BD19F7E2BD5822B43D5286C4BCD0A9E6BBE0FC9D3BF5D633;
	15313 :	3D6DA77C3C6C077BBDA4219A3C2306C13D9977F4BB15B568BB1775613B37A4ADBD2561B2BB7577D03BC7F8C5BD9D0D8F3C8477A8BB9227D3BC97269E3CC0C272;
	15312 :	BD4CE390BD54F76BBD6000AB3C5A0359BC6205C2BD0A43653C5E0AA1BC0C2E99BD1CA23ABBC530F63DC7495EBD0CA74D3BC105863CA1636F3D1CD9413D8CACE0;
	15311 :	3CC662993CF530383C2A0987BA7822873C4462DB3B5F35793D2EB0DBBDB200C6BD5C8788BCB56F86BCF62F113C9227B9BA2AD33FBD25B3BA3C829820BC8B972F;
	15310 :	BD7B7EA2BD476E5CBCDD5231BD159DB33BAEADE0BCDA19F93D8C75003D2E3CB0BD04FD793ABCC8D23D1897B83BF78F2FBCD939E33D387B84BD3602803AF9DB40;
	15309 :	3D10674BBD45A5853D7D8B583CDCE3B13AE537E7BD1DC9FCBD41D43BBB439E75BB2911CEBD25F460BD2D4E6FBCECC64C3DB73C8BBC1456C7BC9FD9473CE628DD;
	15308 :	BD03792A3CA1FDC5BC5DF6C43D83AABB3DBE65F2BD133254BBF36B973D8C573A3CAE66B73D3847943D962970BD3DFFE03C6FE8E6BD423B13BCA5F38ABD3C8CA8;
	15307 :	3C74919F3A9AFDEDBCFC4074BCB2925ABCBBD56FBCCE85893CA83B08BD1F862F3D0A060E3D5DBB8FBD950E27BD0D8F953C01BEADBBA87894BDAFAC38BC22D822;
	15306 :	BD6904A43D7A93F83D22A6FABD181702BCC8E0EBBD530C13BD5487E03C9EF39EBCDEE7DABAA77BBC3BBD19063D87753A3D2B08CEBC02DD20BC9AA71EBB254E70;
	15305 :	BD03E8273C9374C63CA88BA73D447C67BD19872C3C740D81BB1091F6BD2B45DDBBC6516E3D479926BD6C024EBD8312FBBCAB6DC0BC0B84553BDACA83BBCEB920;
	15304 :	BC8639E73CA58157BD76A19F3C959D463A8CC9563B608B41BC0C1420BD438BE9BD080E9ABD592CDE3D7E4D053D2489633A7134C6BD283EE3BD7F4639BCD08EB1;
	15303 :	3C87E70CBC7C92C23D1AE0E43D5A624BBBD63F723CBCED1CBD574932BD8287303D16C3F93D1EF8DFBDA15968BD1C965FBD2AC9353D66AA66BD0E31E13D96BF77;
	15302 :	BCE31F72BC03F5203D6C2D5A3C467207BD599769BD3635143CEADD74BAFE51DDBCEB2E623CB613DF3CDEBD93BCD485B4BC55EB21BBFCB40EBCD1955C3D1DD8DE;
	15301 :	BC3C4A463CFA577FBD0602BBBD19FCB43CC7DED43D3787903C8AA969BC0D035B3D58C09BBCCAF1AB3CB487B3BCF6CB25BCFD5DB5BC776F553CD5765DBB18D314;
	15300 :	BD5140F53D6EC13CBC6477033D2AA1C93D8095B93C292818BD86664CBD3C27A33D8A1D8F3D3924CBBC7B6300BD0FB59FBCE083E0BC9CF280BC6DB24B3C723D2C;
	15299 :	3AFFD586BD28ACFDBD9C314D3D413F4BBD099F4ABD9F33E7BC096E35BCCF1C363CF19F54BD128F303C1F8CE13D11A7CCBD430104BC4232BC3DB55180BD0D6225;
	15298 :	BC0A11DFBCBC51E73CE4C8263D4B34353D83B96BBD4B7D003B8FC21F3CD7161A3D3433E3BD33E1C1BD62AFC53CE8FCA03D39B5A339CD5EAFBC592C7BBD0F2963;
	15297 :	3CCD0751BD03F3603CFFC673BD14159BBADB5A50BC9519CDBAF1706B3D7244173BC07CCE3D650D0FBD3106193D5BE29CBC7453623D9EAAC5BC9D76B93D0F552C;
	15296 :	3C427DBFBC8D2981BCA279573D7FCB473D0B56683D80EA12BCB6B525BCC852793D1E200EBD87436D3D6C1918BCB225E8BD34D82FBCA805363DB12F6ABD0950C5;
	15295 :	BCBF51D33D0F3017BB4706943D396E133D51BE53BD51A8433D15F7B0BA82D2EC3C9920CFBD0FEEEFBCD6F3393D1F58793AEC46B33C40054DBCFD23DDBC6A4237;
	15294 :	BD5F5F99BD68BA2CBA2D514BBD8165923D9123E13C1501D139B555AABD63DA6E3D1EF5543D7CB1243CAF6EC6BCCBA7BFBB0C456CBC9BC29C3C80ADDE3C94896B;
	15293 :	BD254C4F3C07BCBEBC36CC21BA21FEC9BB2AEC2E3DCF3B2F3C129C11BC007922BCEDD9313D7319DCBD553457BD30E773BC85B1C93B12D5B83D26718BBD06D290;
	15292 :	3DD873993C821E28BD45E3003D0068A23CD4A8233C2FB8143D4F66113D4A8B3DBB4E1BE0BAE0D5283D1B4CB3BB8D4377BD215DB8BD80A473BD4382853D719F9F;
	15291 :	BD330F003D4A4DD0BD5AB8C0BD308C26BCBE154BBC8EBCE63B078E9ABCC506C03D2331013D02635F3B7BD135BD2B4293BB9363F6BC520654BC872B4EBD88EBE2;
	15290 :	BC13354ABD036934BCC2E008BD0D12B6BD09D6AEBC5D13BF3C0B05303CC84033BC6F267DBD744784BC080C17BD00B40C3A2CD594BCACFF2FBC8ECF173D7038C3;
	15289 :	3B47DFCB3CF96B193CB47B4D3D2E8F28BD3164513C82E91A3D8A59803CC6E327BD1907BF3D1E7DEFBD77BBC8BC9AE35A3C5492F93D8A24BABCE4C981BCA98908;
	15288 :	3C19B9CC3BD744E3BCC458D83CAC0CBF3D31B8A33CB057E53C153B80BD5DDADFBC856C8FBD2A52343C36D01DBB2739473C84408CBCABADF73D8A124FBCCB2511;
	15287 :	3DBC9CF7BC8E1F19BC18C9A9BCB163863C4CE6AABCCA4E793D0E68D8BB1F06543C8A2226BD19A0D83C743FC8BC9E4146BB9FC609BD1EC7A83D704372BD9EFB9D;
	15286 :	BCE9D224BD43FC7CBD99F5BB3BF7AD323A9DCC0DBD741F143C7DF71C3CE8D7C23C54212DBC2F6B94BB2C495DBD80E48DBDCE8FAF3D068C9B3C360561BCBE50FA;
	15285 :	BAE7FDFDBD4C3009BCA26905BDD26552BBF434913A9FC32F3D6156AA3D776926BD65AE953D1180FFBBE75D65BCB4B234BBB394833D3A28973D536D2F3C36A4E1;
	15284 :	3BCE7F533CA78CFCBBBB0D073D1508113D227858BC9A18C4BC18D66DBCF21C48BC63121D3CA95B21BCFAC844BCA94C8B3CC1FEF53B87FC3D3C91D296BCBF308B;
	15283 :	3D68C615BD3150B93C7293463D26226CBCFEA72FBC4E7388BCD329613D5EC5FE3CEA82D53D839599BC14E54A3C072D533D8F13A03CB179173C6E35B1BD05AEEC;
	15282 :	3D9B3C543D88758CBD70301D3B28EC05BD7DCA673C3D9F0A3CA1F90F3CAC07153CAFF44C3B7BFFBEBD03A0B73CD6D4FEBD22EA1CBCF097F23CE3A9DC3CA2C596;
	15281 :	BD2221893C8B9CBBBD3BDF3E3D857A1A3D65DCBBBC4F3DEDBD21712EBCADEB1F3DAEED10BBD4746FBD6B826FBC39C428BC42C3BDBC4689EFBD2950BDBCFAB117;
	15280 :	3D77B9643CF2A319BC2108493CE5A3D53CE2F4C6BA6F038EBD8AC2D5BD7A0B2EBC7BACE4BC1CBC7F3CF8BB123C51507E3C7B3B653D742B83BD006B72BCEC8685;
	15279 :	BC1CCDC6BC92FF9D3CFCE619BD3A0ECBBCE444D7BD09D0623CA728AABBCD36A0BD1352803CB09897BD5CAB333C95A65F3D671EA1BD8151653B806C30BCA4A7DA;
	15278 :	BD1B1FE5BAA6280A3D10DB633DB91F623D80676A3C79672BBD480433BCCCD0C3BC78E583BC70E543BD7EB6503CA12A743BD9FEDC3D2FEEB6BCF489223C65A9B9;
	15277 :	BC27DDD9BC16DAD9BCD785EF3D7BFFB6BC321DCEBC9F5AA33CFD68FA3C09F82A3C8B89703D73F2563CF0C2F23B461C163D2E31C7BB8B4703BCC395F6BCC22DF4;
	15276 :	3C0C6FB93CF3094B3D8ECDDDBCE3ACC13C831ABE3DB8F982BCB9049EBD9DB862BD72B550BD38505F3C5D8BF23C8A3E823D416414BD69E0E5BC9323203D4A4D24;
	15275 :	3B37D7BD3D0F6F5FBB104A20BB2C027DBC7DAAEC3D6F1D303D007555BB1CC6C43C9113433DAF2E893D9605F73AA84AFF3BCFFD31BB9E16DEBC8434E43D238781;
	15274 :	3D8D25613CB44CEC3BBB7A06BC5419693C5E4F25BDA544EDBD298CAFBD1B7C54BD07B37D3D86AA203D03E4C63D95AC8ABD4DE9013D624149BD0D8FE53BC01FBA;
	15273 :	BDA347BF3DD0F6FE3D02F290BD0DE278BC27E4213CBBA24B3D8796413CAEF5FF3C7ED588BC957838BCDFB263BC2F7CA63D797887BD7ED54EBBDC726EBC87A19E;
	15272 :	3A0B40E8BDAEE1553D738DD53CCE58F73A00F0E4BCC4FF9EBCF13AE5BD3E3D303D0199683DA0024A3C58D05D3D15F8C83D5275303D7FAA8B3BF15D11BCFF4808;
	15271 :	3D0E3DC93BA6AD403D879D603CAD6DF13BE069ABBB908A86BD33F3663BFB39303BE1C46EBCB4A1CD3BEE8D7ABC6D52B13D5E7671BC7B87AEBB32DC003CBBD068;
	15270 :	BC0FB08DBC74DB4EBDCFA30E3A3EB27A3D977EA93D87AB6C3C958F72BD09E7103D0B1AA9BD1578D23B88F4FDBAEA95903CFAC10B3D7CA84EBCB6B7E83D4D41B7;
	15269 :	3D1ABE243C9D21613BA45274BD4BA0F2BCF92D09BCFA9424BD1DDF84BCD7255E3D7DF8A5BCBC6CA03D00B0503D1EB810BB1BF02EBD80C1163BB803FD3CFB8486;
	15268 :	BDD12CEDBCE4A098BC4C37B3BC939FDFBD171BE73CC3FF223C6B8E45BD2CDB753D22BB9CBC82AED1BD3689393DC7BF1F3CC1CDF63C8173CDBDB98A003D467F80;
	15267 :	3B308926BC2D80CDBBF8B405BD195327BD1B06FA3A0E4EAB3D2977F5B90DA125BD097D4D3B9B92AEBD3B797FBBD3468BBD303BB8BDACF7C8BA757B1C3C4D6169;
	15266 :	3C559C183D84DD353D91F0423B6B095D3BD516A33D5E5D66BDCC88CDBD1231E83D5F24883D128F633CF2297EBAD5C5CEBC73B92A3D99B2813CD87E8BBC05EC28;
	15265 :	3D26DDFABC71BFFB3CC3E1193C59D7763D7510DEBC433EB13D0073F0BCD0A5C1BDA64F6ABC27E15ABD24FE56BCEAC884BC4194A6BD8640EF3D0584173CE6E186;
	15264 :	BBABAD71BCD4C6F43CF8A3D0BB92DC213D2EA955BCE49E42BD3F24E3BD0DC0ABBCF9A6823CD1A262BB891B6F3D2BF2883E039077BB9BDCC73D4DE4C8B9C86A7F;
	15263 :	3D9B4C43BD03A33CBD888057BBCE6568BD8050F7BB9472363CB9A3773D3CE9FB3C25DBE1BCF32875BBC56C813D879BF73C7CC922BC6C014B3CAA2DD53D9D4731;
	15262 :	BCC9F541BD49F011BDA37C00BD777D7EBD9B9AF9BDC9C8053D07E9FBBD2D198ABDC1027B3D7E89A03D889BEDBBAE58A13A2F4F243B4F78E8BD256E6D3D5A3C23;
	15261 :	BD11B2EABC1C563F3D9AE6723D363C7E3D0B91B13D2B4DF73CB2CBB7BCDAB2733D543C5DBD089370BD0F90833C4A330ABCAEA6F33C37525FBC9E5811BD0CB74C;
	15260 :	3CC87183BCCD1945BCEFB5673D350D8FBB91C743BC9F892ABC4424C73ACFB74DBCBBF771BD6F1C3CBC561035BD55D2793A4B5EC13C42C5AEBC815A103D8A462F;
	15259 :	BCECBEE0BD3F1FFEBD2C867CBB9B1EEC3C0AE2ABBCFBE96CBD782B603CD770DEBC656DFCBCE9DB633DAF8E8C3B8AB2D5BD1DE3EE3DAAB2E03D5EC376BD99D6E0;
	15258 :	3D0430CA3CE0231DBDA984A63D0C222FBD6CA5FC3CA3AD58BD0E36EB3CA6E94ABCE25EDA3D7252C93C06CDBE3D17C04DBB11EA953E01CD0B3D19194E3DBD0F84;
	15257 :	BCFF913A3D199C243CC7A77BBCF20884BD5B01E4BD5D39753D5591813D918FB03D4744F03D5D3A30BC490182BC278BEC3D2EB48ABDC14D643D258CFD3D0BFD15;
	15256 :	39CE0B663AE14A373C5FCA1B3C99DA6ABB99333BBDC2A93DBCA161F1BCB4E3D8BCE516133D36D538BCF85E643D1167D3BDC377AFBBFD84FFBE097E103DB22A31;
	15255 :	BD85DB1EBB3CED9C3CD057FD3C66822FBD0896343C47B16DBD21F0733D0D4206BD302884BA72A521BD1F0ABC3D8E9F07BD71A3083CE83B60BC42A50ABDB32450;
	15254 :	BE0B48193C43A3B53D65DBDD3CF90525BBD9BD78BDEA30C23C357E67BC32B86BBD9AA4D1BD1EC060BD4043C13BB4DE6ABCD9E51ABD1EF21A3B6F5F213DA07E57;
	15253 :	BCBCB5C3BCF7776F3D05BF1E3C939C05BD9B62193C5908E6BC42D88CBD9C4D6ABC5941AA3D0FB171BD1B5A613D0E62DC3ADDF0AABD31D7F8BCB6E138BC87B917;
	15252 :	3C19E7AD3D62FEE03CE96B853DAFBFD7BD803836BD0AD81BBDA7852CBC4162CD3CB3E83DBD1D42CBBDB44921BB8FF640BD81BC803D0350ECBC7FE82A3CC79273;
	15251 :	3D9F1508BC489B3E3C481129BDE4BD033D38997DBD5D089F3DA6C9D2BD326BB1BD2055A73D7BCEC63CE93E3E3C5394BF3B5DEC4F3D337984BD07E19BBD1AE002;
	15250 :	3E069A55BC44464B3D2839203CDCEA223D035E083BF4FA3DBD62BEF03C4F4ADB3C9B8BF43C44442EBC0B163A3C036203BB7592BF3D9784253DD9BBB73D2EDE50;
	15249 :	3D2123ECBD651402BD0F9E983C08F9DCBC16DA273B9F2D0B3DA57EC4BD9741A03D84A26E3B5A61923D8749283D83F3983C857750BD54BAA83D45841A3D156213;
	15248 :	BAC344753DF208F33C9D09EE3C1F56163BC69C76BC4C76D23C95D1853D46E7D93D4F28D8BC9C6BA83DBF85D1BAE8231A3D3F04CABC33DEB23D4C541B3D300EE5;
	15247 :	3CE0F2693A5477543ACF9379BD004D93BCB34CCF3C9C159E3CCEAB973DD1FA723D51DA0CBC77D0E93D6189B7BD4CD91DBD010872BC2D2400BCFDA8433D82FE50;
	15246 :	BD47CA503BFE9E063D5F23F23AC08A043D3A35443C484BA33D3ED88CBD8FECE9BD9C6B0FBC5836073D7709793BE27140BAC283333D931C0B3C63B17DBD81E047;
	15245 :	BCF75F343C164B04BD2B658C3D1C04663D3EC6863D539CE03D794EF13C9BFB1D3D0C4A0D3CF763D2399E4E2FBD82B1AEBC95F96ABCEED8CE3CC2417E3C8B3588;
	15244 :	3D45A8A73B577EB73A4B9F19BCFBEABFBD85FD863D0FC0A9BC16E0043DD2DD903C73A0BE3CB74BFDBC9B275B3C19F894BCD7AD2BBC99F444BCC9972C3D5C6DD5;
	15243 :	BC4F592CBC17F041BC72F8F03CD8F016BD994F3E3D047FE33D13EE70BC9C84B53D85EF6CBD087F413D1B972FBCB48681BB1DDF1EBD06F58C3DB6173D3D471D9F;
	15242 :	BD82DFA43CF58F0CBD0F3B9BBD0445273D5C9EE03CD8E77F3DD1813CBC8D33B6BD6045213D184E06BD245A533D14EABABCFC3E3EBD9F51E33D5A604B3C82C986;
	15241 :	BD0085A0BD5CFCA03CBEAE333D5684123CAA052F3CF12E3ABC99A39B3D0DE017BC2107C4BBDC300ABD9AC8D0BC7C83B0BCD9698A3CD00BC5BD35F03BBCB616A3;
	15240 :	BBCC486A3D36C5513B858BEEBD3907753D0459D3BD9B24503CB5C3863B9C81353CFA44E53C9C68CA3D2B29213CE19EC13D0DF29F3CBFBBD63B5ADB94BC70E232;
	15239 :	3D916FE13C1D23D0BC32C05E3C35C757BB726606BD78475FBD9BA9F73CB94DD0BCDA4BCCBC85F9463D424936BD93782FBCDDE0B1BD44B6653D8B4FCC3D302EFA;
	15238 :	3DB282633C9CE1A6BCF7B88C3D4F6D233C85EE403D8818983D41F394BC4AB3ABBC95583DBD14AB94BCCC6CE83DB68972BCFBCB773D8F641F3CDEA9E4BC9B06A5;
	15237 :	3CDC9762BCBDC1073D55BFDDBC291FA53C143A483D69FB793CAA84DBBC9738F5BCD873BF3CA92BAC3D0F393ABC40DE573D76C0B43A1C225CBCD3A6183CBE2552;
	15236 :	3CC67963BD3B3F0C3D4678C83C9FCE42BCF361843DB74BF8BCAB57D0BCA5E6993D49445DBB3F886BBC10AFCCBD997580BC96A8EBBC36F8AABD19F7C1BC3BA1B6;
	15235 :	BD07BFF0BA25F6F03D988B573DB3F940BCE6229CBD0B0900BD2DAD013C35186D3C8B573F3CF9D0FB3D09535C3D22753FBA51E1E0BC4EA7063D4BB27DBCF1BF09;
	15234 :	3C8CDEC1BC066615BD781CC73BDD00ED3CD0869A3D2B4D85BC53F203BD67A9FB3C9526C23DABAE61BD831FF43B12A044BD28B6973D7B812F3D9B31B93CB4A80D;
	15233 :	BD0B7B623C4D90A2BDA266EF3C96351FBC9ABF4DBD2CFFA5BD760E853CEB11333D0E8F15BD447E5ABC0B01A93C140D4EBA89F18C3CCAB36BBD89EAECBC1D74B6;
	15232 :	3BAA7209BD51928D3CB2AC793D39181F3DB9669D3CB2ED44BD3DB6CDBDB8B4F53C4C25983AB4C7D8BC5477B1BBDEF1F0BCD0F65C3D40B8E3BC97FF59BD32DDC8;
	15231 :	BC95B837BCECD96ABCCED1C53C08C4463D6CE88ABD087C743D855FECBD54E1A93D06D1E23CAA907C3C1115823D401D58BD36631BBD7FE4FC3C21E217BCE6C799;
	15230 :	BD33C68D3C247AFABD8950103C9376203BF34C7DBCD3A16EBD0513FD3B00B5673D4599063BC33C163ABAB9803DB5E32A3CF1155FBD308B7ABD6CFD1CBDDE0B83;
	15229 :	BCC396273C7E483F3D65345EBC130FF6BBFA0A1ABC931C4ABCC8AFBEBAA1762B3D1714ECBBB0AF43BD6EE2F3BD005899BCD6C5E93DE7D00BBCABAFAEBD13D838;
	15228 :	3CDAE28CBDA379963AF84FBEBAF60A5D3D54B663BCA73768BCEDD2443DA3AE57BCE668833CECE0773D0067E1B992142F3BA20C8D3B4D65A53C24530B3D209387;
	15227 :	3D2B05FD3D28E2DFBD891FE7BB85BA5F3C8E2F1BBCB23BF6BD60AB233D2E26B53CD1AB35BD4AB93C3C188F643C4445233CB5C569BCAFEB733D1333263C939212;
	15226 :	BD4857FFBC8224BDBD30B848BCB07326BD50FDCE3D4DD4D6BD80C2C1BB2CD0F0BBE4DC7C3D1668AB3D3786C2BC95370BBCEFD9EC3A3BEB863C3C85533D587F7F;
	15225 :	3BCDA6BC3C30D555BCC1160B3E144B08BC86222A3DC385ED3C395F543D7E311EBD0B9FF2BD852EA2BD8598923D82DF8D3C065A773E03FB7E3C5ADA76BD6E7D28;
	15224 :	BAA6BCD03D7268393D4B594CBCB67513BCA3A4A1BCBE47F43BC183063D6C35E33D131376BD2E9743BD29D314BD883F45BD69DFD5BCE57BD7BCAEE268BD1A78CB;
	15223 :	BDDE26213B8B973CBCD22E2BBB8AA6453DB843E23D26093CBCDDFA61BC3FA4EA3D3E3C6FBC519BB0BC530A4EBD4D94463CC6B5DDBD0E5BD6BD2C9DD7BCCB3ED3;
	15222 :	BD5ABE373D6F4C2A3C72EA86BD67ECAE3D4B36F93C46372CBB585F9FBD3F20D93DBC42D7BCD5E0653D49A65DBDA0C45CBD737D703D41C72E3C1A12193D37609A;
	15221 :	3CD6D0DE3C1086773C9FC5F73AABB73B3B87A9D3BC8F3333BD97E25ABD7C79783D8127A4BB0875793DB84CBB3D8367603BBA7ADA3D4EE4DE3C99594F3A4D7DC6;
	15220 :	3D934AD6BCE940343D728A93BD04DE2DBD3BF0F9BD27F4D43D05D500BC9C2BDD3CDD609CBDC3CA45BD732617BCE2AC9BBD90BDBA3CAE3B67BCFC47ECBD0EC5E3;
	15219 :	3C4DDF7B3D5C4F3FBD18EA6A3D27A7673B61C9E93B22EF5D3C7CC085BD12E8BFBD99E995BD5CE7793C125569BCBE5EB23D1E1CB13D4DEC23BBFDCC5D3C24A863;
	15218 :	3D2B40F3BD1353553D6CB41F3C85B81CBDD253C6BD11E77B3B1556883B4A59083D03097DBD080159BD11D8D83D5DD932BD31C3C9BD4844CA3D276752BD4A9B00;
	15217 :	3DA981543D49B85EBD69B2F2BDAA2B8F3D4ADBE1BC58F905BD168386BCC1B5E9BCB0DBE5BC76447FBC66DDB23D63DC9CBD1555CB3A2DC18A3B755757BCA72018;
	15216 :	BCF517CE3BBD6723BDDAA39D3D75394F3D6485D7BD1615B4BCD2131B3D978C86BDB86B8FBDA2F4F0BC9D08F7BB6D13A73DA112FBBD04F9CD3DC5868D3CA2DE57;
	15215 :	3D1CC5E03CCD9D3A3E297BEDBCB211D13C958C6F3D06D9AFBC01A140BC8BE33DBCC380923C9D9DB1BCCF57F43D192EE2BD8C50713CDB24333DA1966A3C9489E4;
	15214 :	BDAA7574BD3816543D6DDE263D33E4513D3E31C4BC6708A73C4D1FEF3C6BD22A3C69C75D3DAEC697BD13BCBDBDBDDC373BAE78383B97E43CBBA1203C3C870362;
	15213 :	3D1119CB3D95F2193D4C98C13C5F90893C7470293D5CED1EBD2A5240BD604CB0BCD1786BBCABD918BCEE848D3DA5BE00BD8EE43BBC682914BD5C9FC93CC789C7;
	15212 :	BD6A0419B9B192D63D134AAA3D21838BBD83D6FF3CC3F5B3BD19F0AE3DB87D443CCB8A73BD6CA9C0BD177720BC9D9FFF3C1FF602BD5307BB3CE61837BD22E404;
	15211 :	3D415B093D3F84C5BD61A6E9BCC175F7BD402C493DC0AFE83D805424BD1CC6033BA10C983D2258CE3D1F9B4FBD10031EBDBF77AA3D2641BFBDC6D253BBCDAD38;
	15210 :	3B303AD6BDA2F973BCF39DA5BCC74B13BD81171D3CB8D54C3C78904D3D7124A5BDDEBE453D53C8C7BC579A9EBCE0B353BD80D85EBD3CAF29BD46B5FF3D95620B;
	15209 :	BDABB5453C02578F3CFFB9C4BCDD1946BBD1FEC3BDB06D4ABD6B3A9F3D5441FC3D855BE3BCE804883D08AA243D34196CBD963AF53DC987E23DA6C2D3BC4A4420;
	15208 :	3C7FEFCC3D0FEE51BA970A833DB4CF23BC020A3E3D5D1F09BD64AC00BD558A4BBD84C2E93C746580BDC332D9BD155475BD46A8033C725FDF3AD09C54BD4179D1;
	15207 :	BB0CF540BC2FC3C23D267CF53D17A7C93BC80CFB3CCC2D313D2155373C1464113D1281453D5A3CC23DA42A31BBCAC1483CA1EEB1B81FEC9F3D03CAE0BC134ADB;
	15206 :	BC0792B13D121A4C3C623304BCEC1F5B3D8A19FCBCA0A18C3C16F3A63C0363B3BCEF699DBD804E89BCE6952639DD1E663D776D62BCC85D4F3D0F7F8BBD842766;
	15205 :	BC2F118BBD0ECBC13A9D2314BD9669E43D5139BB3C975A5EBD709962BD4564813D6CBB66BD6174A4BB290B933B3AF05F3CC0F49B3C5F2ADABBC72B1CBCE56DBA;
	15204 :	BC1C272FBD7DAAECBD85FADCBB85D152BDA659D7BCF8BFDBB95C2E43BC1DAA9ABD483FAFBD0E846CBC87A76F3CBC718F3D2D04FA3D986B4FBD7E448ABCE5962B;
	15203 :	BACFBF15BD4031363DA97E37BC343AFC3C5496EDBD6512F03D687768BD4488653D949D7BB7CB6FB53C3183BABC37ED0ABC0D23EBBC919F1FBC517D913D0A228A;
	15202 :	BC80F5DABD9E30D0BCBE5A4F3DA5762EBD15972D3C73DB93BD18E7BEBD9C810A3C9484B339494D1DBD05E1C3BCAE49A13D175383BD87FCA4BD456A0ABD419E04;
	15201 :	BD1FB9D0BD1B765ABD2217A0BC4D92E6BD13CE243DBE5569BC393823BD6E5D37BCF3EA3EBDB51E06B9E20E4B3D38D3DA3DC5949B3CAA92E13C880D893DB4BF79;
	15200 :	BD63D1CABDAB6517BDA70E8F3CB7462CBA25C5CB3D044749BD2D1791BD36FA0E3DA883123B37A6E33CD6B6223CF148B43DBC4A74BDBE6D88BD7A60AD3D7C7EE0;
	15199 :	3CEA1B113C13BAE6BC7C19293CD5D409BD58E373BCB8332FBD323C16BC4870533D4B0A303D0F7A30BD17A7F93DA96884BD23D81C3D4B1855BD8FFB3D3D3B6151;
	15198 :	3C601A87BC9DE8AE3B21CFA4BD816912BBC513453C9FEF9FBCF7A86A3C9599923D86AD27BC6F1C5A3D706A623D848DD6BC9C1389BBB46E133C00BFEE3982550E;
	15197 :	3C32CEBB3C898EC1BD2EEFBDBC2E5ABBBC983CBDBDA43DBABD4EC318BD84C63EBD3E8AA53D243BCABB8E2C79BB29E6723D17D03C3C5B62623D7B92B3BDD5E693;
	15196 :	BD23DA063B024164BD53E7DA3D698040BCC4C3623CC56F8C3D36F1883D1DF58D3DA13A3E3D958BA1BC146CBC3DF3E9473CA448C33D9C27763C555B663D3D61E6;
	15195 :	3CDFD01F3CD527073B673032BB33B017BC68AE673DA840DA3D19C0923BE69BB9BD00E61CBC2C59CABB9DAAD7BDAE311B3CA9B7C5BD140BECBD8EC02EBDA398C6;
	15194 :	BCFC4055BCA68B8FBD26E9FB3C116FCE3C9EE38CBDA3F9F43D5EC16E3CABF19F3D14F4773CCBCEBF3B65EA1C3D0877C53BCB17BCBBB06EF3BDA460073D3C29C8;
	15193 :	BD911C7FBD4CB1F83CAE4CA7BDC2F9063D5D6B1BBCE354243C743E6BBC7C88513C9AAE58BD9C2BD4BD0136A5BDA561253CD7D3913D13A5EEBCC4D8C13C85D011;
	15192 :	3C6BBA65BD3BC8BBBD80EA583CFAE4B2BC32E2333C97BAD33C051399BC9CB950BCA842B13D43EFF8BC9AEBF63CB5E3143CCCF1B1BD5609C7BD52B2ADBD9FED81;
	15191 :	BCF074C93D8CBF3FBD97021ABD199668BD6E791BBD5C13A9BCCEF99B3D59F8E93C856D80BD686A3DBCEBE731BDB49BB63D2B7537BCC72B7BBC7C301B3D6BB517;
	15190 :	BCFA41743CB2BC9DBD31474D3D512D4DBD0875DEBDF5BB52BB94E2113D253C763CCC79883DDCE86D3C9E08233D0374983C4AEAD13D0A613D3D8BFB4CBC9EDADC;
	15189 :	BCFA7178BD48656FBD7345CC3D550AEABD93D039BD14BED43D1E1B63BD9C51853D571A07BD9E7C0DBCFAC829BD26C7FEBCD91EDD3C76C118BD88A3B53CED11F8;
	15188 :	3BF206343C1CD4B1BD10FDE5BD77D4C0BD46B2073D54D0923CC48407BD13E7C2BD7F67F03D92214ABD070868BB8FEB373DB802033A915D26BD881602BD7E635E;
	15187 :	3C84B1B93CE005FEBD877FD0BACCB78EBCE83698BD607A1C3B86FB04BDA5510EBC862ABD3C85ED5E3CF44C28BCEFC245BD068654BC3ED668BC27DB4EBD48B2CD;
	15186 :	3D19006CBD0435A53AFFDDA5BB7BBA44BCC2FD593C7097413D516D513C9197F1BC86DECB3C5988503D9D30963DDAE6C4BC9F8EEB3DE8E0C1BD874710BD83FAE9;
	15185 :	3D250E573D9CA2093C3DA8FEBD961963BDA9360FBC8076DB3CE8B38EBD263F7ABD4680FCBC7207D5BD272948BC83D7153AFAAEB1BD9725AB3C899EC5BD082325;
	15184 :	BD668F36BCE3A833BC8D5DCEBC5DD2753DA2A4E03D5A33493D401DF2BCE4A95A3CC5C63BBDA24EBD3CF3D2ACBBDD343B3CE8DBE9BD7BE76A3D296A57BDA828A4;
	15183 :	3B88B0BEBD38D03DBCC5B441BD6889C63D43462C3BA55DBFBC8E40B83D122DA7BB8EEE4B3D706BAEBC794ADF3C8F75A1BD0772513CDBA1E63D71A4B73DA4E2F2;
	15182 :	3D659E413D80651E3CD79B29BD207DB23B3B05013BDEDF5EBD63AFBABA29DB35BB0E100BBC0900F5BD97F7153D3684323D0744613CF69DF1BD9390D4BCE73CC6;
	15181 :	BC3C1114BC9DAF353CDA931DBD88A64DBC9E2D68BCCA4C09BC810A5C3D4A01523D23D683BC331A4DBDA96E1C3CDDA6A13B855A873D06C126BD3048113D08C825;
	15180 :	BD9482043D3F7B4F3D9E39733D39BB37BCEC71AF3CCE05103D9B4341BD9CCA80BD8EB7663C5AC33ABB072BACBCBCB972BC9C33C33D0BEECC3BDC62483E0F7261;
	15179 :	3C7229ED3CF59E9F3BB35748BD61147CBDF0782EBC9D419EBBDB89CBBB8F097F3D6252553DBA0E7ABD3430E23CD2F3D9BBA9AC533D913579BC61732C3C69E1F0;
	15178 :	3D07243A3C018B1CBDC45A88BD4E46013CEDFEC33D9013793CD36352BCC15ACFBDBDA4A43C60B091BD9C393C3B7012FFBDCF1475BACDB33BBCA2F1453CE864BE;
	15177 :	3BF70F553DF0702EBCD4D3103CFA1C7ABA5D1B5EBD2E64F8BD4F8815BCB3F179BD4065353CD9D8BC3D4CC9023D56F166BCB7F584BA8C2037BD8AAAF7BDFB433A;
	15176 :	BD2971AD3D7408E5BDA7476ABD5A5EF43D5CB273BC6AA59CBBB97B11BD0AD0B53D5C4A29BDBB2C543D8017B03D7ABB28BD162CA6BBF5C5FB3D0B698D3AFEF083;
	15175 :	3CCB95323CB0B16FBD58A563BD8819943D297EE4BDDEB17A3CCEA7C7BB4009893D0A8663BD6753EE3D09B87C3CB54A973C81C6DE3B9CAA273CCA91CEBD3E05F9;
	15174 :	3D439E4E3D423F3EBCC69E00BD757CC23B8C0BE63CE828BB3D4BF7FBBC012A143D64136F3CBD41EE3BFFB09A3D1F8D883D5181C5BA9E30673B190B433D652F9E;
	15173 :	BD02BC143D2C8BB13DAE2045BD9036B8BC8BC7343CC3AE2BBD21F3723C53803A3CDCAC933CD07142BC2569A7BD78B2D33C958B8E3D324E313C0F9AAFBCE6EDE9;
	15172 :	3D097705BCDEDAC5BD05643D3B4AF39CBC98AE073D8AFEEFBD9E2629BD0E6A44BD3F716B3DBA50333D41004D3D85A4D2BCAA57FFBCC8EA6B3C5F4163BD0BFA9E;
	15171 :	BC94749FBD7EA4A9BD82381ABC0482F93C82FC9E3CDD226ABD0ACAAEBC881A1DBC40D4E73D4965F9BA74FFDEBD04DCFFBC9A9074BC820601BC4AD64CBD8EADE2;
	15170 :	BD411B243D45E867BB8954D03D6038BFBBA1E0C43BF3D7F3BAB20794BBA9207D3C4383E5BD13BFE33C7E9FDFBCD17E153C217D96BDDD1444BCEF4E263D344C22;
	15169 :	3D72DEA73B6AE8503C506466BD57CC3F3D6C1A6A3D5137E2BDC242233D32E61ABD12A9253CF841C8BC8701BD3D45A920BA686D9FBCB593EA3D141F723D270007;
	15168 :	BC07DFD1BC5CBE8C3D7DE13DBD1B8AF53CB4F935BC49B3A43D6F63253D59B4C03D1283CC3D6148693B8DF4A4BD3F4D6D3CBD2F8CBCE6CFA53C918A70BCDDEE01;
	15167 :	3DA01328BDE1BEEA3D4239D6BC47EE4EBCF779BFBD1E04FEBD6EED4A3CBF67733C61E9A33BCAFF7BBC9AB1A5BD43C7DEBD71511FBC70E7CB3C4FA2063D25B429;
	15166 :	3C575411BD7AE22E3D79B5613D13F1F0BD4CCAC73C803752BDBD757A3D9E5C5C3D3E220E3C997E2A3C59DE7DBA8099C83D2445C13C628CD43C44B761BD276886;
	15165 :	BC9B0BFCBD16C7BABDAAA1B73C70274FBD947D8D3CA04FA43CD04617BD7F67B9BDC5DA1ABD61E601BD119244BD111E46BCA9F0513C8635F7BD87DCD43CAF5B2C;
	15164 :	BCCA4B243D8D6FF03C4A414CBCA25A6E3DC4B96CBDD833F3BD0A1657BD5AD5443CB31964BD22AF1E3B173C01BDAE6B593DA3FD27BD21E0463CCC2283BD930610;
	15163 :	3D8A5A7D3C853605BCC61BC3BD9EDC9D3CA5438A3D1EE8963C8408D1BD18C5003D55ECB13D8C70F43D674E38BC4359793A8DD03A3C841C6A3C6C316A3CFC685A;
	15162 :	3C5788CCBD4B989B3D2509543C021C30BACA3459BC7EB335BD617086BD45073DBD639FE7BD4CA7B03CFCA2FD3CB0746EBD5FF3A5BD0D167F3C9D302EBD94BB85;
	15161 :	3D8E360CBC8FFA6ABD7247CCBCFBCFB0BCB7D03ABBA3B439BD6B113BBCE9534A3C4111F1BD01ECEE3818A54FBD1700533D4833CEBD65920C3D80AB9A3CDECFE2;
	15160 :	3BFBCFE53D43E20FBC7C88413D8CD013BD1E9DED3CA496EB3C389B36BC43030D3C48C4BF3C90E2F5BB86D1B2BD031A033C3C365F3D5303EA3D7C31A9BD47A8E2;
	15159 :	BD3A22293C0A097ABCBA6AC8BD25949D3D9E631ABD8BFD14BC5AB18A3D3ED2623D3C7ACB3A6EBCA53D58AAAD3D5F9732BD9C5468BB401FCD3D08AAEBBB7DF009;
	15158 :	3C34077E3C251073BD781C45BD0585F1BBE458C93C525C6EBBB1C01B3CD3A75E3CE3BA12BD0B996A3DA2EBCC3A9706373C4F2EDDBBC738613B9403B4BC02B233;
	15157 :	3D857740BD155275BD66BD3C3CC8F73CBCB6E5C9B981008CBC44D2D6BB409CB0BD83D66CBD3DD9F3BD0B5DC1BC580D7CBBEC10AA3D1C97B63D97D7CE3D5074B7;
	15156 :	3CA6EF34BCFF7DA23C2B13D13D7EE55ABDE42AD53D8A54243BD6B9463C8DC9DE3CD875E1BE00D04F3D01CEBE3D12F4DC3D04F03EBCAB76193C871E113BD38FB9;
	15155 :	3D3A4C043C4B7EA03D9C3EE5BCFDE22ABBB601693D12DC1DBBD0D5483D5C3F20BB81F532BD1D648A3BE9C0F33D9434213CBB007EBD5B32B13D0C0591BCA601D9;
	15154 :	3D806940BB6D87353D50EEE3BDB42F1A3C8DE0B3BD586AE3B97A898E3C5DD6B6BBC3C946BBED30B43CBD30103D33E800BD06B70EBCAE11493D87DFEABC9A75DD;
	15153 :	3AC2F397BCA493233D873A46BD1F94643D0BECBF3D556C7A3D410ED3BC823BC93D4DB774BC5FBAD7BC9DD42FBDE9C76EBD3878B63D70921ABCD84FE83BF821CE;
	15152 :	BCA441D1BCC2206A3CC4D22F3C828A0C3D429A8C3D5E27703CAB1DFD3CC292123CCF7C913DB86641BD3AEA31BCFB54F3BC1E66323DB99CAB3CF8495ABDA2028B;
	15151 :	BD20EA313C03C1F7BD0984D7BCCCD8713D94EFF83D341D58BD464413BDB2B2E13C01AAE13D085C403D0ADA4ABD378B38BD3C5738BCCF6B303D808990BD185CCF;
	15150 :	BD92CC2E3D3179C3BD8C72CC3CFA0409BC3C40B3BD6207ED3DE6A747BBB5297A3BE9DF3BBC9A9D3C3C5963873CBD9A9EBD2949C1BD3B09EFBD6F67E63D4766F0;
	15149 :	3E0AF041BDC31FEB3AE18219BC82CFCEBD649FF4BD33A1E2BCD9E3B83CBB17833D8C0C17BC8878433DB950623BEB1A7F3CFC83C53D03A6C43D5605DF3C4458B2;
	15148 :	BD2CFCD9BCE41D813B4BA7B83CE40B4E3CEFC77E3D5222663D430D793B2DEF483DCB91C9BC425F07BD3D7066BD347F50BD9201AFBD2DBD633C9DE7DABCC2D9C2;
	15147 :	3D353C0C3E01B6DBBD9B734F3D0B0E75BCDF99FCBBE7C2973D8DD1A4BDB0FDE4BC54B31D3C8C348B3D19B8673C84E6BCBC1AD857BD0EB3EF3CC48443BD6EC8F5;
	15146 :	BD07C7D33C8C4F5EBD2172353D6F0C28BD9E1A8C3C711AC1BD18C84F3D90894F3B9C2675BDAB61CD3BF3B0643D697DE93D0B2E133D8237263CBD257CBD899248;
	15145 :	BC75693DBD33708F3C20F9CCBAC0A5BFBCFF6D9D3B9F052EBD8D35F83D5309FF3C8EE6583C8832D1BD05CA95BDA63A80BCC3B2FA3B802AC9BCF7B0193CA6CE8B;
	15144 :	BD30C8C8BDA9529EBD6B23DD3D1F2FE5BD2CB6753D33BDFFBD2CE2063C41AC17BD64019E3BE859953C31B7D3BCF11E943CBF5C3F3D4CFBCDBD81F265BCBA8B13;
	15143 :	BC6AE8233C43FD85BC2AF8C4BC38BBF73CE0360DBC61E9D33CC16C2EBD7E78ADBD9E6054BC9FAE533B42544F3D80E592BC2BD6F2BD8C9F6A3C22DA8A3D190DC8;
	15142 :	3D1B3B393D61E0ABBA6C9A94BC87FC7E3C4A9FB13BA9DC883CC92AF0BC500052BD527C743D15683DBD40ED713AC5A02A3C6A2E29BD9578BD3D5A71CBBDB9370A;
	15141 :	BC3FD1F0BC6CC0DCBC10E10B3D20F3C9BCD292DDBD8F942C3B4D9CABBD2CCFAD3C75BE1EBCA0DE86BD4DBE623DC28F67BC8A9077BC1FE8E03C1991B53B94FD72;
	15140 :	BBE3B159BCA00DD03CC30509BD1816EE3D1179D03DD24BD33D3638B73B741A363D3AEED1BD20EDA93BF7A4C53D16D634BD518E413D3FB214BCC613C03D6A71E7;
	15139 :	BAB5D5053D371F8D3D1BCDD43CE4872FBD664BF8BCC83AB1BCACAC543A243C953D811D9D3CD2BCB0BBD27789BCC576A3BD82A4AABD159D8EBD7867F4BD4E6E9D;
	15138 :	3DA1072A3D837DBB3CAF76CCBCF9C6D3BC229904BD4B43EE3C93D6E53D8973953D01AB2D3D8997D73DC9FD43BD217BAABAE8468ABBAF1B6FBD9ACC99BCF6F1DC;
	15137 :	3CD6C72FBCE70A33BC0D3F08BC8B2E5E3D3AD6483BFD05B0BD7F9C0DBD14F7A1BDB76188BD51956C3D48B73D3BC1A7EE3C0A03F1BD8737FABC74E437BDD6BC00;
	15136 :	BC95C655BDBEB6F5BCB9F72EBCEC2E73BCA75E4C3DBDDFFE3C2C31D33C9DAC973D6A7CCBBC101EBBBC87A22F3DAE8CC93CD3C77A3D5C06063D978E08BD8F0CBF;
	15135 :	BD4423A13D21B24ABC22331CBBC1E6BDBD197FDBBAFAC043BC3E2D51BC52DE77BC119F953D85EA99BD1489043C4134333C838B4EBD8A593ABCA59DD8BD1113C7;
	15134 :	BBDDA406BCA87CDE3D9378ECBD93FA7C3CAC93ECBC68C338BCCBDBA43D8CB0F23D149E633CA287BABB1F01E63C97A6C8BC973E47BCB1DAFB3D1341F6BC8C1CC3;
	15133 :	3D544BDF3C5FA201BD2B905BBD70AD91BD0A1E4B3C026EF3BD96ACC5BD65DD39BBBDA711BB8621D43E0A17C7BCC4A16ABD33DB6BBB2E855BBC9F0DB03C645E2A;
	15132 :	BCFC647A38C7EAF33C5E83CD3D68C18B3C17F2C5BC9539E33AE3BB36BD0087323D889BF83D1068D03D607916BD4C7CBB3D86670D3D37094EBC1B3015BC8300CD;
	15131 :	3D4CA2AB3A410E43BDCE64FFBD038DB53C5C7AE03D9C749F3C2E41163CD5A8B5BCDD09F7BD309B8BBDAA621E3C7A094B3BED51EEBD07A26DBD5F33FEBD05C0E6;
	15130 :	3C09A3913DB088793DB68B01BCDACE793C3BE7AE3D6480E6BD09CA6B3D8E79AE3D7B3C2F3D33F75C3D84898ABCEC1CE53D95F644BD4B174BBD7DA03CBDBC4979;
	15129 :	BD14B560BCAA6C2FBD2B8FBABD0B7C5CBD439C183ADA398FB96759323D685159BD0CA5B43CC96CD73D09239FBBC4E991BCE036F4BD2780AB3CD88C6A3CD62F7C;
	15128 :	3D7F56D93D672C883C05D8CD3D6CAAD53D37C3CF3D0875B83DC0F693BD27E9B53D5C6E67BC5F8ED93C52F0A13D4BD1BCBC740529BBA51A70BB1A2912BD46A6FD;
	15127 :	BCEF10943C2161FABCAC0927BC867C4FBCD536F6BBB8283E3BCAB5B93D0287C63B75EDF73C56ED22BCA12852BC3C0ABDBA58FEB1BCAE0D0A3D8A32BB3D4EC6B5;
	15126 :	BC8F7D343D9C153E3D2E1B96BCE8A2C138E558D3BD43236A3D59EFC63C379F12BC8E07083D58826BBD021C6B3D9390A73D557DBC3D8AD75FBCB5BD0E3D8BB6C0;
	15125 :	3B99CDABBCEB12CBBCC92C833C11D3C33CA2F1B33C28CA5BBD0E5628BDBEAEA4BC8F3C1FBD5020413C5A46BD3C99B5E0BD9D99263C7849143D1FF6B43C4D42B1;
	15124 :	3D81E852BD924CD43D5E26CA3D9267953BD0B3813CF15124BD0EC838BDAD082ABC8C66EB3DBFD54B3BAF0C263DDD1B25BD8479CDBD9F7D45BDA470583D29195B;
	15123 :	BAF82E773CD7A0C4BD85CC04BC309AB03C990A90BC1A5E213D14C7803D0AFC153D43BD4E3CDE430A3D8B2B23BDB3655FBC7594F53CE741A8BB0452DE3CA4381C;
	15122 :	3D34F021BCC060443D496F693D572DA8BCB2560DBD2622513D6B42C13D7D6584BD0CDEC03B58366F3C24DCB9BD2081FABBA3511E3CF1B3C5BD6D129C3DC16287;
	15121 :	BA5320ECBCB2A58C3D93ABD03C5320D1BD90304DBC2627E1BDB1DF82BD07370CBD75F8403D276ABB3BA55DC4BD629FD53D85571B3B4362C0BD14DDE13D685A15;
	15120 :	3D11B57CBD72A9F2BDB5BF07BA75E097BCBCB5CCBC40DC103CE2B15FBD09AE5F3B635F3FBCFB83043CE27EBC3C8843193C10397DBD5CFE69BD7245883DBE1610;
	15119 :	3D424CD4BCD373AABCDB67B13D1662A23D212E5F3D54815C3DB10E04BD293E18BDEBFC293CFA5B92BCD63A8E3B284D023C859620BCED16CF3CB400A1BD209C48;
	15118 :	BDAD7713BD696D6C3B83D39A3C9B3E86BD7C7F783D24376ABD9F94663CD128183D2D7CD63DE370AA3C4784AA3C9058A1BDDB7BC43D15BB7BBDAE65673CD9274D;
	15117 :	BD048EA03CB8C79CBCF6EE263C2A17233C03B7833D8569ABBD1E2639BD584A94BC1E69D0BCE182F7BCDF03F33DC769163C6CF3C1BDB22D51BCB6F02DBC2E843B;
	15116 :	BDBCF69BBCFB03FE3D0D0E523D1E0B53BCC79658BB988916BC3E4D883D4F0EB13CF22DD6BCA34274BD1D4AC6BBFFE113BD11B3D4BC7F4575BBE453883D9C8A7D;
	15115 :	BDD424AD3D97F37C3C51F17EBD3E3F15BD9524BDBCCEB56BBD32EAA53D47BFE0BD2B0A1BBD0788633CA68E4A3D814F58BD76F7CFBC17994FBADAADE33E0461AE;
	15114 :	3C7FE2663D822FD43DA0D8D23BEE14B43B4285343CD651113C13C490BBE3FCD03D7FE15A3D538B413C5BF3583B7545823CAE36CF3D9CC4423D18C1E63CCD8E54;
	15113 :	BD894B2F3D8EC6C73D2608B23B93BD39BD71B4D93C017DDA3D07BE7EBC3AB8FEBD4AA6A9BC4B684BBD242AE93C7FC02C3DD13EDCBCB843043CE4CDFC3D78E4DC;
	15112 :	BD3BF3D7BCDADEE23D17D4AE3CEFDB4DBD8AC76BBD84D1F23D56A59A3D3E0EAD398FADA5BD898421BBD6BC96BDA92C50BD85C6D03D8B9EEA3CB5EB38BB8257FC;
	15111 :	BC06A682BC7F6CA1BBCADB103D03C8543CD3A6D7BD1F4F7C3C5DD2983D9D23FCBD796831BDA53362BD573B733B39B80EBD7DB8A23D6714A93DA525FBBC8B09D7;
	15110 :	BC0788F5BD909787BC72D8AB3D9E1433BD5E347FBD82203E3D4816AA3D83F662BC4606DF3CF51EB93CAADE323CEBA4A8BC429769BC5FA4343CBF9FF33C7F1BD6;
	15109 :	BC728C5ABA20C2AABC274C9A39885BE5BCF3A2C53D898E4C3C0C6391BA72637EBD20CBDCBCD1755EBDBD439C3CD54F073CCE7956BCBE13173C09BD253D217218;
	15108 :	3CF141693CD1E680BD8A82DBBD6E5601BD78DC8B3CDA023CBD551D603D9720BCBD0DC2643D6B305FBCABFD193C62DCE3BCE1C0C83D81B556BD52027F3DCC9F67;
	15107 :	3DD2CC423D3A2333BC884006BCFD3E4D3C7974823DD3B7293D8DBE99BC6C07B2BCEEA1F2BCE69ED5BD80055C3DAB44B1BC82DCC83CBAA1F33D0F50A73C2F43F8;
	15106 :	BD5E4947BD356101BC63BBCABD890C17BBD33EC93B7C84E0BC8DACF03D0CAFAB3C7787F73D87A7023DCB6FFBBC3E00B0BBD8934DBC7BFCCD3CF6C9353CBAC9A3;
	15105 :	BD3793903DB0E3DDBCD8EC0A3D3C0592BD21777FBD028A0FBD54B0C6BCC5B88ABCAE426BBD13294DBBDECC4D3C77E3B93DA3376F3C03C49EBD2D3A4EBCF9E669;
	15104 :	3CDAF4ABBBA1BA0DBC85B205BC6CBCF83CD4CDED3CBE1E6B3C99BC2EBC1C27303C57E4D2BCC573FCBB9915BFBC751BD9BCFD32D4BCC5846B3C886767BC9E2E21;
	15103 :	3D43E9B1BCAAEFB4B9FA628AB968E5E0BD5EEE37390986353D813F01BC9785E8BDB5B8BCBC708D793D8850213CAB7B983BFADEF5BCCBB413BD0E8FFDBDA6FBC3;
	15102 :	BC0CF8FF3D45B2AE3D528C7BBD9134C03CA25A633CB7B6BC3DBB5F5FBBE994E93C91FF203DEA2F70BD1F393CBD20F1B7BD16A49E3CAF5D3ABD59B384BCCC3E36;
	15101 :	3CC0F3C83D9A5723BCBF72143CD321A9BC2B2706BB7EC7B2BD08C595BCCDE23EBC234C9A3C28BA62BC94AA9B3CD72E4F3D5FCCFBBD6A06263DA2A62EBBC0551D;
	15100 :	3D5F22B03D99CD4CBC203FE13C99339FBB9EFB913C790338BC9D4C1F3CA869813BD1844D3C8DD9AD3D7883A5BC5E6F1FBB50937BBB60B6833D4963BE3ACBADD2;
	15099 :	BC3A34613D43DD54BD02239A3C995CBC3C61E36ABCF6513E3D0D899DBD8CC9A6BD0EB334BD04C60BBD0FC2F6BC292AC6BD3FF2B6BC889E15BAD03A0BBC147C85;
	15098 :	BCB68C00BDD62B43BD1AD3CE3CF8A48CBCE5547ABB8F39FDBD65126A3D214A0ABCD820A7BB988279BD6E8A1ABD0677F53D9122063CA6B6F73DB9B58ABD0CAA0C;
	15097 :	BD008712BC950B87BC890D293BF564543D6F20E73B3C12B9BD3B4721BC1770653CFDCBFBBCE2574C3D90C509BC60D281BC541802BD5B21C53C7807BEBD614CF3;
	15096 :	BA0F5342BCA250173DC7C8AA3CE171493D84CC18BBCF4ECDBBEBDFEA3CEB6C713BE2C031BC9AA0C4BCF942D3BC7B5597BCD5D49FBBCC9C7DBDB46E22BD311E26;
	15095 :	3C5BABA03D4F08993D2C19EEBD95AD353D40B495BD36A4EB3CD687D3BB406884BBB68B703D387E163B891038BD687854BD0F3E513C4247DDBC84A7A1BD9688A9;
	15094 :	3D0A4DD1BC92B2D4BCA3CC55BBAEE81EBCF20825BBE168793D89B92CBD0F1BD8BD936D99BC7514C53D8334183D7423203CE947683D0E73AFBD6CD06EBD5B12CB;
	15093 :	3A9049763C6C1F9C3DA8345FBC69C530BD451554BC75B7883D2ED59ABD312AC7B998B4BEBD15A659BC91F819BDA329DF3D0F70983CFF6B1A3A3E9929BD6ABB68;
	15092 :	BCF08E01BD0AFE07BCB013403C57CFC1BD26FE96B9902B503DE3A299BCAD3397BC250A133B8C7B993CBC33453B55B39B3D8A4E1C3CEDDFBBBC5C9C7DBC8608CF;
	15091 :	BD23E7A5BD1B915F3D822AA73D588D9DBCB8520DBD90E68ABD2098D3BDB0FCC33C9E2903BCA18D37BCABDCE9BD280CAABC217C50BD4AE0F2BC9A255D3CEC79AA;
	15090 :	BA0E16FC3DBCFB813BF932653C54DE6A3CC6FB3D3B84BD653D244D7ABD45145E3CEB02CABDB801083AC4FBD3BB8B82C0BD444B2BBCB0F2EEBC55FAA3BCCA4FB5;
	15089 :	3D0734143D94D2883DAD8FCD3C7291B4BD614E0BBD1E2E22BB3D4B4DBCFBE913BC5EF7F03CC78172BC933BD7BD88862EBC2B7A05BBCAF9283CF67D473D4CB7FB;
	15088 :	BBB205A43D329C183CFC196DBD9136A63B4D169B3BE02511BB98C5DF3C9DDFDC3C31B9B4BD139F73BCA1273B3D570D4CBD635DA03CC3DD16BC52C2593CFA3B75;
	15087 :	3D4F9C54BD775336BC406FDBBCCE0E68BD966ECEBCD399ECBC47D3C23D8E6E5C3D16F087BCCD0C52BD48B2123CE971823D9BB0293D2039E23C6B2336BCA209BD;
	15086 :	BB5D35753D74CE043CF3430A3CB88927BD0C2993BBD07831BABFD26A3CA65366BC36E602BBEFCA83BC383267BC384AFE3CBADBA13C1FDC9F3D0F9E8BBD0A9901;
	15085 :	BAF27A5B3B588E20BC26CCD83D1B0D93BBF7EEF4BC937F4FBD0DD0B8BBED5BBBBD0C5AEDBD136A63BCC12CA5BC7966D4BD2AB44FBA0E7B813D88662C3C9F1145;
	15084 :	3C115DA53C82A3F23C78A2743CC2621E3D23CE3A3D9504E6BCEA73593D3572D5BDA34641BB8CBB973D06BC393A7918FC3D2B1C86BCF9466ABC89A4C6BD0893A1;
	15083 :	3CAA4F74BC72F837BD1167B2BD259FFBBD4800FB3C56D11CBCF45E5C3D7BBD363B87AF7C3B6A3FFCBBED89C33D20C3E13B0D7713BD4780FCBD386F8F3D24222E;
	15082 :	BD32CC693D3F8A9B3D9934FF3BF6B3DE3CFC98B9BD8C8FD4BC17AE283D95C7EFBD13ADE23BF10E02BBB92F2B3D530F983CDDA1FD3D6977123D0D580E3C036A63;
	15081 :	3D3E6FA63C1C4B51BCC4122C3B5E69B5BCC6CC4B3C5CE3633C06B18FBDC1A4F9BC90755E3C9BF0273D89F6DD3D1746EA3D395D66BC1BD75F3C32087ABC19B0BB;
	15080 :	BBA55823BC023CBBBCE8CBF53D0DCCD8BD3E15DD3DA30A263CA92DC7BB4562DABC60CE5C3C5AA0E0BCF73BBF3C588B073D4D76373D6A816BBBF7A5D6BD619BA6;
	15079 :	BC6405D4BB16349FBCA54804BD77A1623D370F8A3CBC2C7DBCB7D5A2BCEC50C1BA4855C0BD43B7DB3C7899103DA42F42BD2B4021BCA74D333C683AE33CC86867;
	15078 :	3CAEA602BC8FF01A3C33D091BD320D64BB8EAE07BA98CF2D3C0833473D0E0BD139B2EC05BCF73578BD9CAC9E3D1C26893BE3AAB33D4472C13A3842EFBCDD5F91;
	15077 :	3D89C6713D9526263D39CB04BD61978E3B43D5E83D2579B53CA55799BD0DC45F3D384CAF3D6E1941BD8058AE3B540E69BD93A024BCD689103D1313493D658559;
	15076 :	BC8EB4BABD9AD559BCF283CEBC230D2FBC824AAA3D03B629BCA4EC43BD2F796F3CCE18D43D4652BF3D0385933D3D2D3EBCF6F2E13AC4EE9CBB565D973CD7651B;
	15075 :	BD0EA03E3A422EA53CAA2242BD2F2CA63D118F5C3C700350BD10C2A6BC7B762DBCF2413C3D03BA023C055E6EBC97956D3C3A300FBB6FEBE83CF7ACBFBC401703;
	15074 :	BD55ECB23D0EE964BD8355E1BD09FE2E3DC65C8BBC18E51CBC8EDF70BCC176773D54A96EBD06CA69BC9C5952BD49623C3ACFC8493CD77879BD3626ACBCCE4BAA;
	15073 :	3D38334D3CCE0279BBE7BE82BC805BBA3C98FE913D1AB290BD59372ABA9B57F5BD08FD8ABCDFF654BD33FB5C3D51E533BC1DC40F3D856B68BD852F96BCCB3715;
	15072 :	3CB77D813D0C62A4BB80B1F6BD13A262BD000679BCDEDB17BD068242BDA5E2023DB50E163D444626BD15612AB746A7723C938296BB3F633CBCCB4E64BD39DD3E;
	15071 :	BD836232BD80D44C3D1ECA0A3C1321F8BB75B7383D2B6165BC34C938BCD0E45C3C9003C73CCF20CFBD57B5773CEAF15ABCC807783CE00304BBC7E7A8BD4BA791;
	15070 :	BC6882123D06266BBC4E33CA3A84904D3BB78ED23CEDF54C3CC115A93D6EEA6C3D889C52BD2502CCBBBC6169BCFCA9C63DB846C53B0F8670BCA8985C3D6A8EA3;
	15069 :	3C310A5BBD5694713C3B8A16BD5DD3C83D8C2095BB9C2E19BD14AA1BBD45AA493CDFA9513B9DF6F73D74C4DFBCC8FE85BD04ABE6BCAD0AD73B7543A83C383AEF;
	15068 :	BD6A24FFBCA511ACBC3CAAFF3D27D8793AFFDDFF3CED63473B44581DBBF7135D3C3DEFB03BAA0A64BC59100A3C49C9D9BD38E296BC9D83D43C246258BDAF4792;
	15067 :	3B9D9ED2BC85521C3C8E0CDF3DA2384FBCC271B5BCAB7677BD4E1AC33CB94EC2BD1B66323C4B5648BD1748F13D54B2193CF01D263C15EF48BD00D3D83DB969E1;
	15066 :	3D1C6D883CBCE86A3CEB0ADBBC8CE1B7BC6A68AABCE2AE7FBD2F4AFF3C137C30BC1106983D548470BCF36896BCDD733DBC8BF1BFBC20E241BD179F7DBCB7B033;
	15065 :	3CDB12D53D3542D8BC740FF83C31635ABCDA624CBC5E4DD6BD24BB07BD3C663D3C680278BDB70FE03DECB582BD2A483A3C8F35433D8048BA3D5328543D2D8273;
	15064 :	3D300FC3BD79D8C63D994D9E3D0961A0BD7CBE843C9575653D0053043C322EF6BD03A004BC86087F3CC888143CB00831BD66F2473D885986BCE1E1453CB950F2;
	15063 :	3C091EEC3B6D4C1C3D6667E13D21114F3C47EBA9BD503415BDA13CCCBC020E543CEAB1443CA0BDA1BC64F506BD316F69BC834EA53BC375123D323E513C4AD993;
	15062 :	BBA8D2063CE985FD3AF5E1DBBD2350BABC400730BD19BEC33D889AE83D55F9C8BB8E04D73BD24BD53C908B10BB8A81363C8C4FF2BD2FF5F4BD693C82BBC0A41B;
	15061 :	3C8DA893BD4E324C3B868F2F3C89EA0D3CB80803BC9074833BB11DC8BC8AD1883C410A433D566BB5BCB446253D2870F6BAB07EEEBB8C288E3C3A74363D3AD4C4;
	15060 :	BC99D7773D3039E7BCAEF8FBBCA31E61BD8FF28EBD436FB1BD348953BD233B863DAFEAFCBD3C2CCEBBC62D66BC5C6E1A3D4466FD3D2511B9BD7B48403BEFEC0B;
	15059 :	BC8705EFBC9A4EC6BC35FBD6BD09F54ABD083E343BC044B63CC10C993D9E96DEBC461578BDB0B486BCB23627BD71FEFABD8383C8BD6AC1E73D5B7478BD3F50A1;
	15058 :	BC3A85C6BC8269FDBC8814923D527D423DA43925BC9CB17C3DA1542B3B99FDAEBD7F763FBDA10A543BF1EE6CBD1274C73C1DADF4BCC40C2DBC3428453D26460B;
	15057 :	3D55EDA7BD351F083CA12A4F3D141CC13C6D5419BC6E8F4E3CDFAB66BC2052AABC84AF22BD1D29303C25C58C3D14FF9A3AAF268EBCD48A3CBC80A7D3BD1B1280;
	15056 :	3AD0E637BD8A81C83C092CD5BC9CD20A3C5292283B7524DA3C6C07F53CBE92D1BC109F6D3D1478563D23054B3C2B1E74BBDD843F3D830616BC30F437BCF708A0;
	15055 :	BD6613A33D87760D3C15FC4D3DDBB8583CCEB0123D352CAFBCE501B3BD2788403C66D1B53C46D1A23CD8483EBC17CAB03B7073BE3C89091CBD314293BCBE75B8;
	15054 :	BC4C66DD3D08CF0FBD8704343DE0B500BC89D45BBC75F1F7BB82F753BC35B8343D14EED33C828EAFBD08CF16BD711B25BCC4C49A3C4905EABCA5D4F9BDAF5279;
	15053 :	3C9F2E263D21AFAFBB90E1903BAC20263C925C3EBD391CA63D3D3749BD5D1B2D3D1F2AF4BD3344E43C6DC8583D9EE9D23CDABCAE3D874FE9BD47FF8E39889F1E;
	15052 :	3D0476B8BDA5E275BDA988863D9958ECBCABB654BD98B6683D1B21CE3B61D28C3ADF04EABCE631E2BC6EBAD5BAF7FA9FBCC625C63D8F90BBBCDA7E74BD40BC69;
	15051 :	3C998BB63D13AC3DBD0940DEBCA3BA34BDC7F4D8BCEE3D09BB04247C3CA4CC413C51BD88BD50E5ABBAD71B96BD1D82C53CAFFF0C3B9469843D3DF320BCD5D95A;
	15050 :	BC928C09BBBDDA1F3D31BA9BBD33B735BD569B8DBD885B2B3D4F0EA93D3F45EEBDA7BEC2BD544B7FBBABAE16BC2649963C9B89D3BC74011BBC59D65FBC8617A5;
	15049 :	3C1EDD0A3CA8E8DCBD2333D4BDB0E4F7BC18B9F83D3B8AF03D10B1BABC8934193CB9AEB33CB67DE43D5A56E1BD0459BCBD486BF73D30C3C9BD0B2ADEBC28AE60;
	15048 :	3C97AAEC3DA202DF3DBD12DB3D5FE806BBC217C93D948D503D5AEF153CEDF50EBC66A4003CB29169BD51F4483C260999B87AEF233CDA15F8BD2993D9BCB2B51F;
	15047 :	BDB7F0C8BCEBE5803CD53160BC740C1F3D8EB595BA5D7146BC5FE1813CCE929DBBACE9EBBAD1634B3CAA048F3B746AB4BC4DD3F53DB0E663BD5035263D89E65A;
	15046 :	BD05D695BCB13E333B2E55F4BCA4DE283C988C9A3C998B0B3D7FFE6A3DDD78F33D2AD674BD0580453D42C661BD51CF9FBC6CC0FB3AA3FFDDBCFA37CABCFA594B;
	15045 :	BD81BB39BC6D458BBD33B149BD8C8836BC072F3E3CD14B34BB5070A3BD4084B53D2599FF3D5181253CE6CCD63C4A2B1C3CCB2A05BD070B36BD26FB733C168FC0;
	15044 :	3CBCF2EF3DA9FF6FBD87D4DFBD3368123D5D8A53BD570DAE3BB8E483BD84A0133CA1EC49BD85B4883C474CA13C1358743C1C8D7E3D26BAB63D4B2982BD6A454D;
	15043 :	BC3660163CC36CEBBC0C1E2B3BAA93AE3CABAC35BB25F5F13B929CAB3D73E7223DB31801BD97DEF9BC8857583C8AFEE2BB042D2C3D89D0D9BB50D81B3D4710AB;
	15042 :	3A924A4E3A718B1B3CE81F79BD7B9E2E3CAB036938F7DD7B3D75410F3D0A48373D01B2F53B4CFEF43CF653153D9B9109BD1C036BBCA78A103D83E078BD29C252;
	15041 :	BB481970BC40280F3DA2F4003D6762913D56B9BD3DA3DEF0BD4B3B1B3CB45F40BDF7BB89BD1522E7BD505C46BC9B18893D8B3EC03B93BCD23CB23C15BDB3A888;
	15040 :	3D8DA8263CCED04FBCCBBA293D57BC00BCFA634B3D833683BD4E00723C917DA3BC851CF9BCF4BBA13CF2BFD23D100DF8BCDC334EBD051DE8BC9D874D3C1BA456;
	15039 :	3C95224F3D4A9053BCED7056BD4428DB3C6753FDBD5B30FA3ADE6FDFBD16BE78BC31593B3C860D9C3C06C58ABD0D2EC6BBC9F3013D183A0E3CD284813C426B33;
	15038 :	3D815AFBBC3E66743D7D2FC33C45368CBC8AE8B73CEA0E3ABBD75187BDB134D1BD1818223C8C52B7BCD6F7913D14D52E3D12862F3CC6F0293B487A663D4B893F;
	15037 :	BD06BFEE3D8E3FAEBC357962BCBACF78BD29C7163D7F56C93C59F332BD056ADEBD1CC96C3C97528EBB17FDE2BD03BB413BC8BADC3DD2D3DF3D24A4F73B26EE46;
	15036 :	3D92A627BC6793D6BCDA87EDBC716373BD31ED6BBD3B627FBD44679E3B92A8F7BD04624EBD826D42BBEF60B2BCC65A3CBD0C2C6F3CC114C4BD456FD3BD105DC6;
	15035 :	3B440AF93C1876123C7D011DBC695E79BD1E1FBCBC0908D0BD6203B7BCC474D3BC558B373D1C2D2ABC9FBC74BD28E5373DCCDD533DB46AF93D63B15DBC8E85BE;
	15034 :	BC4811D5BD874172BAC694FA3C976E12BD025C25BB8163143D80B8E83C350CB1BC80094A3D085A7EBD1DD9EDBCB491F13D9090F1BC98F480BCBA2C3CBD781E14;
	15033 :	3CCACC5A3CED469BBC8B14AD3C9E83F43DC959B93C3546B33D91D9EA3C322ED73B39E182BCECB86EBD9DAA773C2AEE20BC20302DBBF81305BCC116973D734A4A;
	15032 :	3B191EB73D943C13BC6865D6BD508E09BD387A9B3D45C3A9BC531FE13D094B2ABCC7B6F73D36154EBCC8E2BCBD486B58BCB20B19BCD3E13C3D2C1EA6BCC6DB6C;
	15031 :	BCF4334E3C656B8CBD2B89763C2367FC3CCF035D3DDFB2D33D9DAF633D0AC2883D4EB2FB3D36960EBD40DA9F3D03A405BD5459B6BCD1FEFD3C27ED3A3C4C718F;
	15030 :	BC5DB4CBBD1A8112BD6335093BEBA28ABD1176703DCBDBE13DA471C33CDBFECC3D75D847BCD3ABC83D285000BC354014BC81ACE4BC20CB553D43232C3DB249BF;
	15029 :	BD6B2D3E3DD3431B3D31CE013D22FBCC3BA2BDE2BB88B2673D5999993DABB2F23DA0C090BD5CDD39BC5A73E1BCEF0336BB51FA74BD3B1F133A9278DF3D1FB935;
	15028 :	3C99B0D03D00FB013D318F0FBC0A43163D7956A9BD2176033CB803B73C974304BB886EADBD0D5487BD5F860ABD1CBF4D3D6F6AD7BD09877FBD41A424BC818CC3;
	15027 :	BA9F2F383D100346BDB6B4BC3C2DFED93D9D5E353D9DFAE6BCF318D8BC7DCA963BD666CF3C461DC3BDB201C9BCFB2A643D34A2223D805D70BDB1710B3C49B7C3;
	15026 :	BD554239BD72B00A3C862082BB87009ABBF1F09B3D84A57B3C720BD8BD1EC2F1BD4825643CD4E3E1BC1C73D3BCBD9543BD36941D3D700686BAAF7A6ABB9701C0;
	15025 :	BD4855D43BA670673992902FBCCA1A3CBC801EE93BEF5E2FBC899809BD8D2159BC3BBAFFBD5E3B993C603FDCBC357C56BB26AE60BD849C74BD88C0C1BD59AC17;
	15024 :	BD904993BC3D3B7CBC43670ABCBD05953CA4972BBC471F0ABD07252EBD8456AFBD2E0F273BFCE305BC4415403D5AEC213C78DC8ABD9EE51EBD12064CBD6B06AB;
	15023 :	3CF3973D3B4FCD36BCA1C9A2BC8443263B6A18D4BD4818EB3D93214CBCE93DDCBC3142673D877013BD1028FE3D6769FFBC4C3BA3BD56D72F3C92A4413D58E8B3;
	15022 :	BCC3D3B83D286170BC290BE6BC8D7A013A07475FBB9568A93D426652BCD0A434BD5FBE443A569BBDBD27D1F73C1AC56A391E51D83D279C773D53E766BB30A9EF;
	15021 :	BD1CEC623C84CEF0BC6038393D4B87FFBC023DFDBD67D4CCBCA23668BD6E78CF3CC1939ABCD74BC73CE417F2BCFF13483C6EF3A53CFEAC27BD0ED534BD2EB882;
	15020 :	BD80EAB63C890C823C28BF8BBC5659F3BD48F63A3D7D96B8BD2BDDC0BD0258BEBB8EFF2ABD2407F83D0689B1BD1953CFBCAB79593D11876CBAE8014A3CD4768C;
	15019 :	3C87883B3D76E3D13C806EE13D86443DBCC23202BC84B0A0BC19B2E6BCAFCBF2BD22701E3BB71AC3BDAD8BB93C2B055BBD2DC1C8BCBD99593D5DF6E03D460EA4;
	15018 :	3AD60C463BCB6DAF3CD89463BC34074A3C739BA03D4D7CA0BD3F2AABBCECAF733C4235CD3D95DDDE3C1D17B93D2F01ADBCDF034ABD8559D0BC805455BD20C3D4;
	15017 :	3C14346EBC31A3873D4421CD3B43801A3D1B91A5BD0AA404BC2572A73C9C4804BCB248173CA3CE7F3CFF6DDEBD4F9733BCA2DA50BCFAD95FBD222FB93D502B81;
	15016 :	BCBF01DE3BF4FB28BC1A59283B0EDC08BC063C673DA5220B3D19EC85BD61954A3C9C47C03D4CB225BC3FDDA8BCD094DFBD970AD13D961E523D464979BD91880D;
	15015 :	3CAF1A2B3D29AB23BCA1CF22BD1BB259BC018C133D50E7FD38A7AD063A6D0D13BC16531EBCA06C543C38BA21BCDC7436BD55AC23BD45BBB8BC5B6DB83CEF37D2;
	15014 :	BCC590DABAD3E9BE3DA747653C45671BBD28ACFE3CB3BC35BD517850BC5C87A43D5734DC3BA4BBA63C640CFCBC11B026BC149A2C3B4BD95A3C333C163BF4A06D;
	15013 :	BD86FF62BC1EDFC73D0E9DCFBCF4592FBD64A99F3DE1358CBD4AD949BCE8C5E3BD6F1E55BDCCA4EABD0C4FD63CB10BC53D3C74DFBC430AE13B2BB874BD1025DE;
	15012 :	BD88B733BC2C9BEF3DBB1F42BBEB26DCBD6538B63D33E0583D8808E1BD194EECBD019FB63D027DBCB93FC73B3C0BD3CCBD336AEF3CA65589BC9C1717BCB607A8;
	15011 :	BC31D98BBD06ACBBBC9B1C29BC6D6DF83C387FB9BD8DD91D3BDB4329BB4E197B3D7F818C3C6861BDBCBD634EBD0DF4DC3C918F773CFA54B6BC130CF6BCCBB305;
	15010 :	3BE87892BB1840653D36AAD2BC7402D83CE623683DAA72A6BCCA90263C4B3D0A3CE9D37CBCB1307C3C2FFE75BC8A10743B9B8D89BD127C9BBCA12424BCB86372;
	15009 :	BD1E10933D46A5B93D9CCBA13D182C4E3CC1B7CABD3F293A3DAAC2EE3C36E3FDBD7A7B07BB517CCB3D229D8DBD21EC46BC3C713F3B2ADDE23C39ED34BC906739;
	15008 :	BD488CC8BD13DBC73D56E3D63DBE4C9BBDA2E3CE3B89C1DBBC959CF1BC18937BBB69D91CBB81E6A93CA5D9F2BC630DBDBC02482EBCCC99D4BD06E5FD3BC92910;
	15007 :	BD2170313D1440083CA9F72BBCDFC416BC840F97BCDC1425BD32BFC23DA7C3913AF096E93D3A1D40BD1B86AABCF7369C3D58F086BD0AC377BC65E149BD86CB80;
	15006 :	3CF73E063D69085CBD72124FBDA8927F3D13082ABCDE330CBC8561143AB076E3BD941FCD3C556E213C5B135E3DA36954BBAD7C0E3D62B6F73D04014B3D2C680B;
	15005 :	3DAC5148BC9977C93D0A7E19BD8DD3C0BAC8FB5B3B41D0823C1C201B3D62E6FB3D8E9CB7B90DE1FFBD3AFF9FBD2C99E3BB4918F03D195C01BCC94256BC96E414;
	15004 :	3D8396ABBD23D038BD5A15DDBCE8E422BC628C1D3C73BE67BBE9484D3CEFE272BD02C83DBD54E92C3BD48D233DA04D253D5B8E213C58D05A3CDFDC9BBD15442F;
	15003 :	BD8D776DBCCC74073CB082A83C5DBFCF3DC2B8943CB49CDE3D8DD2013D559EA5BCD3E19C3D04F88C3D42AC75BB919320BD9AB7543A9BA5FEBD30364D3D33B33C;
	15002 :	3DBFB740BD3A2B04BD0C6C5EBD0DC35FBD35629D3C10A1263CBEEC6B3D9487963C0C371EBD5444983CAA09823BE2C2913BBE3936BD27D656BD4FEC11BD861B77;
	15001 :	3D53578A3C66DAC8BD264A9D3D4024D53C07BE103D3045293D7249253D4B44B8BB9560543CD859B2BD47F0F8BD24A5F4BCEE9EA9BC0289CEBC8530963CCF8D91;
	15000 :	3D3BFF163D8F60533D2AE7E6BBD256523D205862BD5C71B43D93475D3C9DF3983D18D4CEBC5B26EFBCE226D03DB7912E3CAFB426BD8A8B8CBD10805DBBC4AF95;
	14999 :	3E0B47A03CA5EBDBBD0CA83D3BD937FCBBC2D371BD36EFE7BD36F628BC0144173C28D00DBDC8C75DBD2098B03D3B435C3D4CC1C6BCF8E5203C8BB63BBBB081DB;
	14998 :	3D1B7420BC9F4789BD274E45BD0E5CEB3D6A02B9BD3252E83C31EF1E3D4E47A53CAFFEBEBB4C5FEABBCD44E9BB88F24F3CBD4CD03DC7EDA7BD1B4EF1BDA5E525;
	14997 :	3CEC8B653D4FF6973CB0C2DDBB8C5998BD215B703DBC22FEBD0396993CB912013C338E733CA801043CAE1568BB3E804DBB240B63BA385250BBF99EC2BC3E7C18;
	14996 :	BD017DA7BBC30D16BD28DB3C3CABA9583BED7D51BCCDBF6BBC98F3043D0968E23CF441AD3D6E433DBB8F8D0FBCB37E633D19C1B7BBE341A43B70B1FD3CADBF76;
	14995 :	3D417531BD223DDB3D5AFC3ABD101052BC5FD37EBC890ED7BCE7AEC3BCFFE346BC0515983D05747EBB773ACE3D49B7F1BD665D453CD85571BD89E26BBD1551EE;
	14994 :	BB9F318B3A0A103B3D36C3E53DC0BF91BD93EB183CBDEB88BD1E4DFB3BC383BD3D5D724D3A7979DA3C9B028B3B259F75BAD30826BC01D4E03B9C48CEBC2CDD46;
	14993 :	BCB12D583C878562BCBF2CBB3BE4CBF03D300C8C3B8DA84D3CA82536BC98ED9C3CB67D30BD6E9D07BC8DADC1BC9B9BC53DA2CFDBBD1D252ABD5D3F99BC6AE89D;
	14992 :	BDBBC9D33C96DEE3BD16D449BD2DCDC13D09B1D4BC584D703D3ACA3ABD3475D5BC383A3D3BADB20E3D81E1BCBCA5B111BC5B4C9F3D3C7C983D05C92EBCC03FBD;
	14991 :	3CA528883DA122D33CE3C0D43C288627BC91CC403D1F441EBC1A7B433D4985ECBCD6037B3BF014DB3C934BA33D0094D8BC0E45243D27D0C43BB383F63CB8E3E4;
	14990 :	BCA58D9B3CD78796BCB84029BD19886DBA551B23BA0D5C1FBCCB46823DCB93FFBC366BFFBCB76B3B3C7961723D0E499BBB720E05BD4A66E7BD63A94CBC6F6409;
	14989 :	3C569D263D3BD307BDA82839BD94361B3D2E84BF3D38E10F3D6312ECBCFD18253D941D08BC39157E3D60E6E8BCBB63DCBCF8BD283C251CEE3CB177373CF8D9E9;
	14988 :	3BF1C908BD3F64C7BBAAD604BBE90154BD6EB210BB40381EBB12022FBD0403D93C17CB4A3CB15F73BCA441ED3D76F8C53D47E76ABC0C7FB7BB565C3EBDB76BAE;
	14987 :	3BE816853DAF16833D282DA53D5CD96B3D3727FDBCDA91CD3CC51C68BD41C11DBC4BC159BC70C45DBC9E1FFBBC4058213C3D4DE4BD3D2A6F3BE2A87ABC914CD9;
	14986 :	BD7052BCBB7E386ABCBBBB373AC83347BCC25A3B3D0CA80FBB9E0E723C3BF8773CA3E966BA0933F4BD6408C1BD725BF5BD828E46BC209689BCE49CDCBD16CBBF;
	14985 :	3C8F0C6BBD3BDB2EBD8F821A3C172A883C6EB9C13BC1042B3D19C1973D81E0B43D1D5459BBFE744CBD753DB63BF9D6D6BD0D9DABBBFC2E2EBC675D2ABB90E91C;
	14984 :	BCE17448BBB60A6FBC993B783C0F12E73DA36DAEBC2BFB7F3D41EB1DBD57E2F1BCA38AD63D1887E03C9A13C4BD518E7EBCA5459FBC7BDE75BB063BFEBDB24948;
	14983 :	BCB40A03BC9D7CD3BC958CE6BD6748BB3C709078BB2588D7BC5A22C13D5A82AABD1B038DBC1C86FB3C6E28453BA97A7E3CECE1DDBDD5A23DBDA77342BC161295;
	14982 :	3C1DAA883C0642473D8B4DE93D54EEFC3DADA8EBBDA55C873BED0669BD4D2B77BCA3797BBCFEAB86BD400371BD0445E0BBFF056E3D7843AC3D059EE2BD12D242;
	14981 :	BB79B139BC2D79D7BD1559A53D02B44EBCF01F8A3CEAD86BBBECF3E43D5A216BBD1483593C31055F3CE18AF53D11F4F0BBE864B9BC31D7273CC66B92BDAE5665;
	14980 :	BCAAF16CBD76323CBC7641633BD6C386BC863D203D67AE1DBCB208763D6718D93CDCCAB8BCDF6290BD1664C33DFCE9E93D252058BD4D41AF3912AA1F3D73BF69;
	14979 :	3C6BA8753D268F003B434A7CBD2664FCBDA292ACBB0A6D463D3157123D30EC563CC17457BC7C11C93C9C864EBCAB012CBCDC24093E1AECA8BB116980BCFFB634;
	14978 :	3D878D6E3BC05ADC3D0E54AC3DA60E0CBCED46A3BBE174E4BD3403AF3C1B61D1BB8A33BB3B72BD84BD31C106BC6ED4BDBCEE13053D76C3F2BCC2F3F9BD027BB6;
	14977 :	3D897EED3BB0CC71BCF8C7A53CEDD91ABD16F5F0BD70FB8BBAB463783C901C9DBD5C81C9BD299A463C2803AD3D5A21B8BC4C6BCFBD20BF39BBCF8F51BCF787D6;
	14976 :	BCBBFC53BBC1DEC2BC6871B9BD3F58E2BC777431BCB3E4143D37B5C33D4D454DBCA57B9A3DF12B953C239B8FBC193C953B6BEF6DBA55DD56BCAD80F0BBAF1626;
	14975 :	3CD965ADBC687B703D2FAF6DBC57C29A3BFD5050BD24F3EE3C6755A3BC7566233B9D1570BCDA1D3E3C8C69DE3CC068DF3BB339663CA41452BD063FD7BCBF2FE5;
	14974 :	BC8305703C440C4E3C2257B7BCE4EE713CBD5F333ACB3B70BB52589E3CC6753EBD1DD06F3D14D74C3CF5720D3C7A650A3CB6C9F0BCD2C07FBD600DDABD69A618;
	14973 :	BD4000A0BC3CCE81BCC54F1D3D1946383D0DF5AC3D0EC947BDBA0257BD3C33E43C319FEB3BA2A5FDBCB84738BD006C6BBBBE4966BDA4AD3DBD19E65D3D2C40F7;
	14972 :	BCED76EF3DA613D2BD06ED11BD0107E6BD225C15BC99D4013BF364593CA4D0183DB8EDC13D5E77A63D9DC698BC8C3A3E3A8DC5CE3B6CB3703C74D2E0BC0A78C4;
	14971 :	3D9EA68EBD86D57B3CE1335C3D6FF3083B7791F0BC68ABD33D1067D83D72F1FABD3823D3BD0A4E913BF7A8B0BD284D43BCDB5B383B0AFF4DBD6A29CA3CAD078D;
	14970 :	3BEA01B43BBFB2723CD76877BD3B12FABD74EC94BD0BB445BB454193BC1B7DD0BD0A59763B87C8163C91E82A3C7CF6C83C867ED3BCD2ADE6BC74B140BD3F3643;
	14969 :	BC30234A3D0D9FE23C345B763C9ACA3EBCD35283BD529733BCC74DA73E01D0EC3C867935BCC5ACDD3C5EC3FFBCF628C03DBFB9DDBC9C18C3BD0283A53D8990C3;
	14968 :	3C7B7DAD3D2C4F683C80A068BD37F94BBCE663833C7BEF383C0522B93D60F1F1BD200175BD9EE4F6BBA3B4E03D3374B53CD0F35FBB1314B63CC87637BB6FD4E7;
	14967 :	BCA0BD6BBCC81B3CBBD900FF3ACA78C3BCD9DAB1BD3C4F4CBCCA895DBD81BF62BD2EF0873D00F417BDADED253CB3F3B2BC6EDB603C848EFCBCC0BC5E3C99D9B1;
	14966 :	BCAD791BBD3C99EBBD0E5DB3BDA9E2683C087F58BB35678F3BB1556EBD08D1A2BCD658AF3D1B20463D56D3BF3B516E03BD6A7D4BBC8C2D22BD58D3EF3CFAB01C;
	14965 :	BCEF4684BCF349EEBD75CB923D06B85FBC7E62353CC137FEBD27809E3D947C25BD03DEEA3AFB22993CBA5B40BD97CB153D4807E9BC252357BCFAF5AEBD1558AC;
	14964 :	BD7102C93A6AB7383CAADDB7BCBEF8F1BC82423E3D37E8363D621557BD6674A3BC37705FBCC22656BB75B115BCF33A95BD88EF3ABCEFCA2FBC6DDB5BBD754651;
	14963 :	BC9B192C3D00A539BB92EA7239F44DB4BD09A6C63CA868183CD022633D794422BD2C19F83CC2FD43BC60A17A3C45901ABCF9C7473CD2EB85BB9F62C6BD236DFC;
	14962 :	BCC65EB53B9C55203C4F6BF13DD6DE14BC3977443CE8C7683D1015633D5670C03D8104C5BCCB211E3D1A2CA2BB7859EC3CE76056BCBF41D5BB9B85693C97C06C;
	14961 :	3C873A0CBC8F0474BBC10CC7BC8594EDBCB7DC87BCF45E383C82A8F5BBB294853DC06B73BC9619293C2286543D2064E93DBB05D2BCD7DEE2BCC9B881BC95EA61;
	14960 :	3CC297DD3CE1FBD7BD10390ABC8EA2803D93688B3C4E23BBBA805491BC45A1AEBC11C3BF3D193CAEBCDE24CBBD0493E1BD20C408BCE305713D8700C7BC94072B;
	14959 :	3D0D0DFB3D1C38A83D9EAB4F3C94B0F7BC350AD7BC4C5BBDBD0868F83DB64303BCE9C81CBCA0264C3C4198DB3D27820D3D8C67B83C34B63B3C870267BC990EB3;
	14958 :	3D5B19FDBDAE9626BC08BC1D3D3B501CBD4FA96BBD5BE92D3C9F5949BC13B5F1BCEBACE1BD63F651BD330533BCB7F38DBD350EAB3C94C8873C688037BCD12B08;
	14957 :	BD87860F3D6E08D83CA62BD83DDB425ABD1DBB36BCDF3B8BBD789DA6BD776F5ABD0C01EC3BB3D8FABC01FD353D0A0739BD30F1FC3BE1977A3CC986C83C8BC600;
	14956 :	BC6BB2A4BD900478BCC570FEBCF53468BC8D6BEFBC31F790BD0884693BF260C23D85895E3CC72C5ABAE2A3DCBC3B4AB03BE0D41E3D4F9327BD717A42BB6D5E4D;
	14955 :	BD0E73F4B9D317FFBD2D11B13C8A48C83BBB2128BC0C80E23D2391A4BC3B98FA3B4CED2A3D4D2BB3BDA54583BD57E433BD4E5259BCDC3E713B03C992BD1B5562;
	14954 :	3D8C4BC9BAA248763C6DCDB5BD6E33B7BD594B9E3C91FC01BCC39F9D3DDC4CFCBCAF09D13D956A1EBC8047813D551F30BCF24C713CB76963BC3586F63D014179;
	14953 :	3C8EC10E3DB8B0423C725334BD08C3DB3D57ADFF3D88B5FCBD9D4D493CB180BBBBF93B1D3D0EB37BBC9AA118BCB19BA0BD98A72639FD06ACBCBCF89EBB957F3D;
	14952 :	3CC789CA3CCC483CBCAA95E83B337F8E3D5C21C13D1F74C63D5A29523D2DD4113C43FE5E3CF9EE9B3C9EE02B3C32C9E33C19547B3D887A103D0B15ED3C460CB5;
	14951 :	BC0CA3C13DAAC9033A85F3EDBC33315D3CC851293D0E0DE5BC8E22933D97A5D5BC91B9A73C8C9D5BBAB0D6E5BD10A512BD2FD2153C3EFC4BBC695ED93D5ADA48;
	14950 :	BC61976FBD6F8BA63CDFC3F03BEA8423BC5EF4CBBCC6F72FBD0EDF60BCC815E3BC50AE0CBCE658753C6D7F92BC957AD5BC628D9D3B9BEF703C2F098DBD8D34E8;
	14949 :	BD13A97FBCAE2849BB137CDFBD85C11FBD9EE5F2BD321CC7BC12A5913C065B15BBFB662FBB918B9D3D907C01BCF8CFDC3B9910B5BCD42F413D175BB9BD2C5AC4;
	14948 :	3CD4EDF7BC1863BBBCA8E3FA3D256B0F3D74D3B53C09EC863D6DC48EBCA42945BBAD779E3DB2BE82BD17EFD23D53CCDA3C0E22123BE919203D251E2A3CF434F2;
	14947 :	3D079DA9BD4F63713D41F9993D27D9C6BDBD5FEC3D0ACFCE3DE83075BCA8CD833D2887453D26AA5FBC8BCB693B3E3477BD743989BC99680D3C66D02D3D379B70;
	14946 :	BD31F628BD9CDA16BC5642CB3C65B6A83C4452CB3B8F00493D3A3123BD35801C3D5C2EA23C4E931C3C70AFD4BD2A936F3DA7703A3878D1493D4F37CE3C9FF776;
	14945 :	BCFCB2293D8EE5EABD121B48BC8EAA67BC9A61043DE5504DBC8571093C93264DBC4524B33C73DEA2BCCD7EF23C335F9C3D2AE7733CE94D2E3DB244413CD819BC;
	14944 :	BD0765CFBC8DF0E9BD11DB1CBCE454FE3CA69E133C53138EBC4169E83D1C55CCBD4281C13DF14E953D475A4FBB171BFFBCB934113B87238BBCF27E3FBC900F97;
	14943 :	3D76D8F53BBAE9653DE98A6A3D95B79ABCE622AEBD723E85BC1B885ABABCD3EB3C70CCE9BC80A7D83D29E1EDBC98DF873BF7EADB3C8F620B3BB244463C9A9E8B;
	14942 :	BD50084B3DB3F21C3D5B57A23BA40A2C3CE75EDEBCD85CBA3C82109A3D8DAA073CA7E82D3D1846AEBCE83D78BE0E23D53CF131223C366027BD124D6C3D7E28F7;
	14941 :	BC58421CBD8961B7BD4FE1E73CEA8071BC18CB20BC236EB13D185ED53E051E533D89A3663B37540C3C2DB7893D6F8255BDC8C925BD0D9E033D29F8EC3D4262B1;
	14940 :	3B7C68CBBC95FCE83CDED2E9BDA17E1C3D0B05593D2FFA183CF397D3BD284E213D168A543DF3DE2B3D30EAFC3D6A66DCBC1B83DCBCF76F00BC755398BCE580DB;
	14939 :	3CF9A4563C893AA6BD7CCE6E3CBD1EF6BC3274D63C98E57D3BCA16703C57F6003BDE76343CA63C1BBCAEEEF63C7964FE3D7235DC3CB40725BCA955B9BB5ED244;
	14938 :	BD2D14FBB90A00A9BD0A7FDBB9CE92F43CB186DFBB8C7DADBD17CCD8BD965417BC45A75CBCADBC51BCFC3B973D1CA01EBC33D0323C52E5793CF36CFCBC9CA3BA;
	14937 :	BC5C8C57BCDDD27F3C259D653D0B204EBD4B5F5ABC9169D1BD1F2E21BD70584A3D2A1CE6BD0270F93B08E33CBC5F98B5BCBD40E5BC94BF983CC5944BBC447271;
	14936 :	3D630356BC53F3A0BDCD63BF3D3F1EACBC8D144D3B5819CCBD2F537E3D87C5BD3D30C133BBEA2C783BEDD4733DD9C9FFBCE4B3AE3BC6127CBCFC295D3DA0497B;
	14935 :	BC33C914BD238CAABC8973503C6599D5BD4F87DD3C9A1C9B3D7F9D7A3B468A62B87480CA3B1DC214BC837C0B3DCFF12F3C9427423CEC4040BC26C8A93C84EB5A;
	14934 :	3C5C10343D108242BC984C51BBF0AE883D800FA8BD098827BBE13C923D70D7693C791B773D237AF13D4B7917BCE71A22BD20485F3C5BACC83C7C5B7E3D350839;
	14933 :	BC1763B6BBF158C4BCA6C222BA9230F8BCCCDE273D0EEB69BA1DBC6B3C771D47BCD0B91FBD9890923D80675B3D5FD4923C22E0B43DC6272F3DBA1DB83D64F414;
	14932 :	BD44787B3CC01E5BBAF65B85BB4277B03D778E15BD3223E4BC944078BD26B14FBC530561BBC127E93DB360903C88F185BCEF3C8A3CE7EA953CF1DCB03D843A06;
	14931 :	BCC8644CBC8E60CCBCC3FE4ABCFB55393DC18472BCFDEA52BAAC406EBD1A87E63DD9DF143CE8E2623CDB43F5BD58B8BB3CA6741EB9A338EB3D2BB1343D2692E2;
	14930 :	3D33AC86BD00E152BDA3CC54BC87F32DBD6969E73CB4A093BDC900AF3CFC1CE9BDD451BD3DAC5B1A3D134525BD1F3E6B3D316A81BC04B4FABB9DD8ED3BD8DBFA;
	14929 :	3C895A603CFF1C22BD1AA284BC4C81F0BC9DA05F3D03C566BCFEF548BC83BA5E3C834842BD2CA561BDE90D85BB9157BABD46240EBC6AA06C3BB71AF2BBC23DF8;
	14928 :	BD30B5A23D76E6ECBD5120B73D965ED23BC64F73BC9849283CD57562BCB8363D3DA09643BD1781E8BC27EE83BD7AC44CBCF93BF0BCA10228BDE25B9ABC952570;
	14927 :	3D2850E03D92D585BBA43A173CC4AAFB3B060F663D9CA48F3CACD47CBCC56CC53D3BBC16BD3C251EBC9EB09FBD3DE57FBD23CA7E3D45E188BDFAB34BBD304AF6;
	14926 :	3C4C43073B8F9C42BB29D79EBD66B2EC3D7122F13D1B53DC3D8494EABD68D85E3C9247463D238B6E3B448B17BC1D2DE53E06EF353D17285B3CEDF786BB312BBB;
	14925 :	3BC1B9A33C03F8D0BDD972C1BC40DB95BD598EB1BD55E3D6BCBC8D273D8A7963BC946BBABCFFFEA23C2873C13D5227A5BC930E81BCAD213C3C3634E33DD9C454;
	14924 :	3D6E005CBCF04CC9BD97F81D3DAFCDBD3D2D14583D17C6D3BD0D03A3BC83637CBD0C0BF8BD9D3E903B8FA6353CAB78D9BBE324D43D0DA1BCBDAE70CBBDE252AC;
	14923 :	BD25C1183D22DF743D2E4E13BD39D5083C9366623D514887BCA6DD40BDC22D7E3D9CE68CBA0055F6BD2D15EBBC65143C3D8EB9A7BC8155833BA2F6B0BD06006B;
	14922 :	BD9E58933D120F523D2242613CB749C4BD8F4FFA3BC2D4C93CD3D4663B8E81DBBD7D97B4BD8A0127BD48C5DD3C8CE202BD2BD527BC777F833D877BDFBCA1DF59;
	14921 :	3D63F4FDBCE3DD2FBCFC3EEEBB061613BC9DEAA43D8CE6E8BD227583BD266B733CA49C23BD51F297BB44E6B53C5168CFBD2C40393D9E2F58BC5BEE5EBD03A082;
	14920 :	BC8FAF00BD3FC1DDBCABB8F3BD047CC4BCD8B2A8BD3D1614BCAC6E5C3D2D6A48BD6FE6E73C9999393BC9245BBC59AD623D94BE92BCB746D03C95CD34BC3964BD;
	14919 :	BCFA6041BC9315E13DB7DDD73D84D9DABD194E00BD6121543D9FF450BC2EEE2FBDA7FF80BD9463A4BD16E76D3D92CA84BD955A15BCE10310BCEE0E9C3C94C5E0;
	14918 :	3CAA3D383BCF6835BD298D4A3BAF89753D3723DC3BF577F3BC8C1127BDB05B48BDACECAABCDCF61C3CE0E291BC9FC82F3CBEBF7FBC4B03FABD1FF1643C1B2DE0;
	14917 :	BD236E643D191C2E3C461C6DBD4C6D6ABD02F8A53D807546BC4B0ABD3D22C534BD9F80563D7C30B5BD3074EB3C1BCFA4BC16647F3D194AB33DD394873D74FD4F;
	14916 :	3C7C441DBD4FDEA9BCAC888A3C32A5BA3D76EB4C3C77AF313D364C5C3C74FD60BD1A34F43D5495B7BC68B816BDC5D9C53D739299BD51A9083C8C48183D2CFD36;
	14915 :	3D4769F63979EB143CF1D5263D9FF882BCEBC3E03D9641F33B502802BDB12A043C723408BD6A3F723D8F963DBDAAB4CABCEB0CCD3C2FDA9EBD5ECB16BCA42745;
	14914 :	BD192391BD1C36F5BD5EB1F6BBE5EB21BD8A0B71BCCE92C8BCE20321BD18CB023D884DB4BCDCCD67BDC674593D6803A0BD7271353CC147EC3B7E200EBD071769;
	14913 :	BC9E9700BD9DF13DBD60D1493C0CA5BDBD7B31573D7A23D7BD671838BCB8CAE13CC030A9BC1939263DD42737BD6D459D3D0333AC3D186DEE3D9284A7BD81B17F;
	14912 :	BC3BE4783CADD8F83C9412863C49B7DEBC826D3FBD0AEAB7BC68B883BBDF8A403C30504FBD9809E4BDBB8CBC3C16ED62BCA248553A2D395BBCD2BB8D3D5D4509;
	14911 :	BCDEC3A8BD2311183D6A56E4BD2D91B93D5736133BF5DF283D8465D7BCAFD29C3D479B3ABCFE61EF3D124E21BCD8C82EBD5D2C343DA8416FBC97B9B6BCDA2F72;
	14910 :	BC91D4853C261F963D12A8C3BD8FC0FFBC1ADFC3BAEA6B79BBE7F6BC3C6C72FF3D3D9FB6BDE7D12FBDFA9E81BD428CC23BD53C0ABDF394DC3D1393213D0F3F70;
	14909 :	BD923E17BDC053C9BD09F3AEBD755AF3BBD04A2B3D1FED3C3D030536BCCF83723D193776BD119AAE3D4DAEDC3D4A7C95BD76FB81BD7C1ED0BD60F746BBB9BDA8;
	14908 :	3BE97E493B9DCD1FBD2C9391BD21B13ABB9E79123C6D2D0FBD181A70BC7FDE9B3CEB4CBEBC53202F3D23333C3C9F255BBD4915833CEA22253CFB85613DA34A70;
	14907 :	BCAB94FDBD89FBC3BD04249DBD5B4027BD83CA18BD62B3223B82E573BC7AD86FBBBF0B45BBF4111B3C12021A3BD7625CBD77343F3CEA02633D614BC1BB09A77F;
	14906 :	3D00D5D5BD8D5150BC98C0FA3C644055BC1CA22FBD5FBA2D3CE87E263D9132893D8835123D1BCD03BD8F3F3B3D98D2F43C76D414BD6E89063D5B103EBCD25D31;
	14905 :	3DA0B6ACBC6FF6173ABA7881BD06EBDC3D0007EFBCA94F9B3C20F085BC1A12B2BBA40408BD203C74BCF2B9B43C07FC9CBBCFF2D43CF103843D378D713D7A9913;
	14904 :	3CAB8BB2BCECEDE1BCBC0B4ABD46AAFC3D1AA2133C869EE63CBB95C83CA744803C293AB13BFCC2C0BD98DEEEBD77C8A13B80D7DE3BF266C1BBD2C6B43DBB4C6A;
	14903 :	BD234501BDA6593DBC92B9343D80D43EBBFFAB92BCC1F7D93CD69D193BB485453CDEFB8FBD64718A3D054910BB8E1D50BCBB9D33BD92F65FBCAFBBE53D90F1CF;
	14902 :	3D9330AA3CBDBEC9BD03E166BCD39AB03B8449A3BC3C68B63C577EFA3D5B2696BDA13B963CDFDA5BBC219525BB83C8B13D5A8C6FBD1F7F80BD8A4345BD0930DA;
	14901 :	BD2B81623D22FCA0BC2A3797BD85A89F3B9A04BCBD885D6C3DD4259ABC9B0873BCCA593CBD3FA10E3D85BB43BC76A375BC652781BC7794103C9A66803D5F2068;
	14900 :	BD449D453CED59CA3C8495F1BAFB0B60BBBD23333D052EDFBCBC255FBD140A703D3044043DAF3554BB8F0075BCD22A9EBDAAF6413D13676C3D4AA38CBD6A7442;
	14899 :	BD0D48E6BC90D4D73DB60A3D3D07905DBD9193B23D39F5103C627BC73AF2B46C3D67FBA23CAB9D80BD271685BCF7D7ACBD86ACCF3D87760B3B5EB46E3C785372;
	14898 :	3DB34B1E3B961E333D456787BCC893683D2DD4B9BD9EAAEEBD0151623D9FBB2C3CC586303D6730023BCA34883DB30EBE3D2ADEE2BD3F13A83D04C5943D876853;
	14897 :	BC506C673D0F6C7F3CAC49873CC628CE3CB54FADBB1D098ABD151136BC2CE938BD45E193BC7108B6BD5D1D6BBD3E9FE63CED3322BD81F3E7BC8455E33C8D7EC6;
	14896 :	BC3D700DBD7C62DA3B783AE4BBC43F5C3DACBE13BD8111CDBD8B0A94BCD9F0B1BBEFEEF9BD7955DABD75583DBD06185C3D1B5A70BD5C253E3B14C36C3D251A10;
	14895 :	BCA9F8BB3CA691E73B8C5F6ABCDFC2083CD96B153BD3F92F3DB903BF3C9DB3863BD6A7D2BD4A8F423D8C671EBD12C3BABCE43C293D0D92EEBC1C79F1BCD87999;
	14894 :	3B8D8085BC155135BDAA175C3CB87F58BD14915DBCC5F89DBD209E3EBD2A7E233C4C62B1BCF723F5BD9B8BC03D8A2976BD84FFE03C2AD0A6BD8F9721BC9DFCDC;
	14893 :	BC7B3BA93D8AC7C53CC2EFD4BD7C70F3BD2366F5BD94D89B3D70BB22BBD5887B3DAD21C13C8FB87D3CBA559FBDCA5D9CBD34FAF23CE66BF1BD323B3DBCE8B44B;
	14892 :	3AE3DF21BCB86B963CCEB3C1BC51113F3D950F603AB25B3F3C5890C53D3065583D97BC62BDC09F64BD9CC17DBD0204A6BD017C4BBC791C41BD2D7C733DB7CA44;
	14891 :	3BAC13AD3D90312DBD31350FBD3EEEDE3D2F5ADDBCDC526B39C22BFB3D01231E3CFB2C6F3D084BCBBC723CE63B9BC4CB3A251AAA3C103A6C3D372108BBA08C79;
	14890 :	3B6E812D3D2BC12DBD050037BD63AB313C2CD0CC3D621E4EBDCF409CBC27C91BBC8116643D1FBCFDBC63E4D13A7F10233D3D44AA3D957D0A3C9ED532BDAFADCD;
	14889 :	BCB78D6D3CE79FA4BD73194EBDA4D072BD657C383CB86ECB3DBC605D3A23510DBB83BB03BBAF1ED93D0A1A99BD1B2EF4BD33E4B63D04795138C703C53D3F7880;
	14888 :	3C6A5CD6BCFCFF143B03DB42BD050A94BAD945E3BD1D47823D5FEDFA3D9C25AF3DA0F3E13D43EE33BD039D20BC70E673BD1C4537BCBB99A4BD0C353EBD2D4E43;
	14887 :	BD3C51C23DF929CEBD46F3BBBCAFECB6BD379678BD883AC5BBB06C133D4A543ABCAFADDBBCF846973D6B13D3BB1AC9313DA5A41B3CC84AB73C8FEE55BD32F700;
	14886 :	3D4DF4453CCEFBF13D6DFBBB3CA278963CCE2616BD2D81DDBD5D08D23C8C26043C8591DEBD4AFF363D357B63BCF7A90F3CD58163BB49C128BC83538F3D6ED69C;
	14885 :	3C7F41A73D1A7288BB9BDF583CCA7C9C3D410C483A8066F33C9A9EF63CD733A13B920FF23CDF471FBC269138BD8F72E53DCFD01EBD64CFF0BD3332943D955360;
	14884 :	398D9F6D3D83C06CBCD6FDE5BD9B01853CCB4E903D1380A9BB475D063D67492DBD1E3F56BD1B8CCCBD0B5366BC996CF7BD0A15893BEF62273D16BFBF3DC441E2;
	14883 :	BD0598473C8F83D63CB13F803D8C56F63BC9DBE43C4D02653D14B875BC5F78293BAF79CA3D9A47D33D1CB2E73C88EC24BD4C6A9F3CB6BC2EBCB77BE2BC81D067;
	14882 :	3BEF3D0EBD47D835BC3BF556BD52E6953CD982AB3D022D33BD064ACC3D532D8FBD0BF6E6BD09630F3C901A5F3BF3F5933C30B93BBD587BBC3D76A0F5BCF5DE12;
	14881 :	3D3E7A423CFE07183D6007363AD209373CC579BE3D9260393D8F90123DD91B0ABD09A7ACBC17BEF33CB173823D9686EB3D1C78A63CAE2646BD287F483D166F5C;
	14880 :	BD48EA163D75A98BBD7C7DE2BD26F8E5BC8839EE3D5D1D443C0EA48BBD008790BD325E323D5F2A133D41902A3C4C6E6CBD8AC6A63CB2B9C93D8743F73BF9B8C1;
	14879 :	3CFF2C7ABD54F3AE3AD47441BD60BBF83C9D320BBCAEEB3A3D604D29BD9D5005BD231860BB0D92683D4F1CD8BD90EC1C3D3236D33D36BA9E3D4A82F63DADD782;
	14878 :	3D772085BD979B1CBD936A3BBD35965F3CB95C483C609AB03D593D453CB42AC4BC652363BBFB1B47BC9DD5B7BAB451B43CD5B5BD3C9AD0CDBD1F4F07BD8AC8A5;
	14877 :	3B2E2FAD3C94E78B3C796B2E3B92C7D9BD13FB5DBC2150F2BCBA32473DC73B3A3D6BE5CE3D7CFFDB3D6329C4BD4E43A6BCBD428BBD03B5E43CA3C8E13D4575FC;
	14876 :	BB924F103D6CD93FBC217CCD3CE23A343D97385D3D8EC976BD032DEDBC6ABEE63C9E7975BC81DDA93D8DEA0DBC05825F3CBA022CBC8A22D5BC21B94BBD4A29FD;
	14875 :	BD560014BD4B875D3CEE6EC0BD44BB82BD588BF23CC220B13DB9DBDE3D2799E5BCC16DE43BBF0B91BC8BD06ABD827D4BBC3037DFBD510C3B3D9DF1B03DB4D101;
	14874 :	BBDFF982BCA2A588BDD1AB353D0FE079BD93D9A9BBBCF7F8BD3EA99DBCC47F94BD57CC0BBD2D3F3E3C255CDBBD298CF33CE62B5BBD0F924CBC9458773D2D06A0;
	14873 :	3CAE75E0BC40B798BB00F880BC572FD1BD840DECBD364B1EBCAC26C6BD6B2B88BC60F90F3D2E098C3C11FACF3D1FAEE6BD1936B2BC2028ECBD480DDCBBE2B2E9;
	14872 :	3CEBDDEABC83D30D3DE4CB843C1FF92F3CB332DCBCF786063D98D69D3ABD08093D59B6F63C1B9DA0BD49643C3DBE5D413C7D15783CB7C51FBCEA45FEBC704055;
	14871 :	BBA84212BC565ADBBC2B9FEABD7A2A95BC37C260BD0D60543CA1B18CBC892AE9BACB67F13D6D6A503CD29A79BC63BCDD3C86DACC3B62B3DDBCE36EC23D8CFF4C;
	14870 :	BC274E91BD4B1F3DBDA62B3D3DC64384BBC16FCF3D26E81B3D49ADC1BD7B7F2C3D859447BD83748FBD98E22FBC95AA0F3D177937BCB3E480BCB5CEC0BD86CA55;
	14869 :	BD495F20BD35D2F5BD0A8A993D22E7D83D20DFD83CB426F63D7ECE0B3B5140F53D26EB2ABB2E3E03BD125CAA3BBE22EDBDC0224F3D5DAE043B992ED73D719271;
	14868 :	3D8A0B81BD8960AFBD85B6B43D26D0253D4CA9593DBC5848BBBD2308BBF999C53CEEEADB3C808E17BD6AEF0EBD4628F33DEBBFCF3BC0B1BEBC5F806BBD7C526A;
	14867 :	3D5A10D63B4B3828BCA08C353D7D5EEABD04DAD5398C5489BD9F7967BD5FECE33C21AA003C6536C7BD36958FBD02B3D33CAA5C183DD55AE9BC84E00DBCFAF413;
	14866 :	3BE993F73D612A56BC7E14B13D7B53BB3D1486ED3DBCFFB0BCFC4686BCDF528CBCE472E73D756DD83AFDE95BBC6506E93D59CE733CD403D13C10AC163DBBF648;
	14865 :	BB8CA3ACBCBE41D4BD5AF4A73D4DAA06BCCA67D2BD36D9BCBBE48C80BD996A30BD07EA72BD2170BABBEB3BCFBD18E9273D60753D3CB660F43B48BF803D01D5D1;
	14864 :	3D43C2B83ABF056BBD4F09323D260D803C7CB25A3C86F492BD821AF4BDAF27533D3E961CBD29FF99BCF354623D1AF5ABBCD48C593C340AD5BCB2535F3BAA48B6;
	14863 :	3D1D3A56BD145CBF3B97F14DBD1A6EAB3B09B9693D2D674B3BB0E5153C8DFFBEBD11ED9BB9DE7C443D4A8ECB3B076B3DBB0568E8BD7939413B56F508BD48C625;
	14862 :	3DBBAC92BA77B7A33A274BC1BD5A1EC23A2CC467BD2AF35F3CB080593D7062B33D8050F8BCE082003C07CCC13CEEB8F5BD1499A13CEA126DBC99EA183D503B81;
	14861 :	BC2BD4E5BD8568C7BD241A3CBC884C6FBD0C7E16BCAC3027BC25A1503D145A9A3D3D2A13BD8949303D8BF105BCB59ABFBC1A887DBD29EFCB3C8F7F4C3A213CA7;
	14860 :	BD74C3423C8AA5BD3B5190CBBD9FE51F3C7600703CFA91733D47541ABD4651B1BB4EEF8FBC55922EBD835014BBD47900BB8A8999BC6E85713C7518BBBB122885;
	14859 :	3C06682EBD5A9B09BD933603BC343DAFBD391E85BC0E44BD3D29FF59BD8D1C483CD902543BDE9D873D8C9ECE3D6999DA3BBD0DE13BAE45FB3D41B3EDBD6D9884;
	14858 :	BDB1B4AA3D9011D7BCBA9792BB94538B3D6E6BB7BD8379CD3D541590BA9DAF033CF901A1BC090D1E3D14F8BCBB268D7EBC7AA646BC91C4643D6733ABBC5AD2A1;
	14857 :	3D1D9FFC3D14E07C3C19E568BD373334BD13FCBFBC205DEC3D1B15EA3D9B3389BD3A82AA3D23DEE6BD50F6A0BCFBBBF839B94622BD9C57C53CB809463D137C19;
	14856 :	3CBDACEBBA3C8702BC85FDD93BB4B9B03C57AD56BD1E4F0F3CB46A6FBD409F413DB350A1BABB75043AF7D4DABCA4336DBC8DDC0FBB4508EBBC987328BD6637BA;
	14855 :	BAAD489ABD2879AD3CAAFE3E3C0E8DA53D10CBA5BCC748BEBC8599D33D85B4BC3D3CD9C4BC861935B7A3E2CC3DABD06E3D94171E3C89898FBCEBD3B73C7F2469;
	14854 :	3D2FD37D3D3BCFE8BD480FA73B1FEB2E3B7CED573C20A0613D07FCDB3D837D86BC5CAD173D9B8A7EBCA7911B3D666FBEBDB93E39BC1F7264BDB35E583D295274;
	14853 :	3D40872A3D5E6A2D3C9CE4B1BD498F5FBB95ADC6BD12E0EEBD0D279E3BD9A01CBD75B2D53DA0B284BC6BFC9C3B133E2F3C8896CEBDA35964BC47B895BCABA79A;
	14852 :	3D4DF79FBC9A65DA3AB32E2BBC1E6D3A3D548F353C9A9AC23C491A6C3D8D47513B0D8B3DBC9198CA3CB36FADBBDF0E0EBD38C78FBCB10B78BCD730B8BC9B6D24;
	14851 :	BD47E8E23CDFD7103D44E98DBC9820523C5FDF403D0A951C3C1C96143CE4A82CBCDF3E9FBCDE31033D0660773DAA552BBB7C9B08BD900C383C9BF3BABD630936;
	14850 :	BD557754BD0779B8BB6BFC6ABC07EDCCBC6FB6B7BD061B38BD05D490BD4C098FBB3B13A4BD1B0C463CDB533FBAE69CB7BD0B18FE3B606782BD0590973C317381;
	14849 :	3CEA9196BD7138E33D15A7C7BCE0F96ABD33CEC3BBBB11C2BC4B67A3BD886CABBD09451CBC0275093D768D16BD6953D5BC111B2B3CBEA817BD12A9A53A8CD7C9;
	14848 :	BC788FD73D0F4228BD1B79253C0283DABCD22B00BAE2FB363CD4AA3BBC4A88403D0B6D023D13AC193D9D947E3D9A76B2BD3E4C86BDD1DC823D89945F3D277C61;
	14847 :	BD7083903CBB42453C7D2166BBB45009BD4E5536BB13190ABCD45E64BCC723F6BD36371ABB5B24513D29EDB5BC88E3733CCEBEFC3D73A0E93B0D970ABD4ACD7B;
	14846 :	BC234C7A3D11C2893D29C6E73B81181EBD859BD43D8425CF3CD1324E3C70C4183CFB41D93CB2F530BCD7C9BABBD8B94ABDA35D163ACF62B53C56C853BD59454C;
	14845 :	BCE967D4BBEB975ABDC28B4B3CBDBA26BD10B5DBBD5EE06C3B887296BD0BDF8DBD45471EBBE6D0A1BCD702493B910FA7BD8359FFBBD20F37BC1A7BF7BD0EB81B;
	14844 :	3C9323A63B21C3FA3D36AB793C8197F9BC5D423ABD9C41333C794B50BD30C71CBBF99D0EBD7068013D9BF50EBD20DD363CB062CD3D6A5A1BBCC6B57C3B2B0D2C;
	14843 :	3CA769993D3ACC18BB932B433BF1471C3D8B2819BD69F3623D437CDA3CDF24A73D1531DE3D84FB48BCDD3E983C440CEF3A535E33BD26DF1BBB689A593CBB5E57;
	14842 :	3C0A9206BCDCF7B5BD88AF7EBB0D15213B3196EF3CB4CB7FBD67A6743CCAD50ABD5F3074BCB56646BC9F760B3D8B4344BBB11E50BB711C593C3110B5BCBBD2D4;
	14841 :	BD5393243B9D26973D58A61D3D2BB98A3CF69703BC81DC5EBDB49E05BD29AF383D1C59B53D33944BBC9B16453D1EC0943C25D929BD6BA46FBCABA0633D29A21E;
	14840 :	3C38CB1CB9E36499BD7F14803AFEE90EBBA1A2513C997A323D2AC0623D1D5D5B3D35834E3D2D0A7CBBEB27F2BB95B4463D2B7419BCB32F8CBD888161BD820715;
