-- begin_signature 
-- ddr_init_ins_gen
-- end_signature   
WIDTH=512;         
DEPTH=15558;      
ADDRESS_RADIX=UNS; 
DATA_RADIX=HEX;    

CONTENT BEGIN       
	15557 :	3D215BEBBEC7BD563D38320D3C0B18553D515D56BE348D88BDA175BCBE31708ABD7AA49ABA9F629E3E1A67EF3E4D68ABBE193A903DD564DC3E12D7063DCECF91;
	15556 :	3E737EB83DF1B1313E42F80E3C9456873904C0023E0A17C43E0A9CD3BC1DA4243D421DDB3DA2BD77BDAA01D6BE17EC06BD646B4FBE5EC9C4BD89DDFA3D61DA83;
	15555 :	3D6B24AABCCDD72DBE45D0D03C2A5B9A3CAF6AB73D9253543CF1B7CCBE00C4023E1C5EAB3E0013B53D1ED09A3DF897ACBEAE0799BCE29DE0BE16ECDBBDE70985;
	15554 :	3CD842B63DA32C9D3E557C7B3EAB943EBE774FCEBDB69027BE4CC7363B969F413EC5D711BD9B990BBE3340543E0BD0E1BC62866B3D8CDA43BD90317A3E1AA105;
	15553 :	BBCB1FDFBE78791A3D006F81BCD504B9BC9F34AEBC0DE8A7BDD55F0BBE29A7EE3CCA65FEBA2A9715BD0FB6053DF06D12BD9CEC81BC6865FC3D82563ABD25A71C;
	15552 :	3E283D6D3E237B453DAF84843DB7E82ABE085C5D3D69A18A3E0233BEBD0714BDBD411AC93D9332CDBDA22D1ABD95DF52BE0B099DBD8E08B1BE8C7232BC1D1159;
	15551 :	BD1208F0BCCBBE3BBD4814793C670487BDE9BFD4BBB87CB0BE2C4535BD7D60B8BDD4D6AF3C85A1213DAAC637BD1F889C3D228E20BD3D68A2BD1E5A56BDFC0A33;
	15550 :	3DAB14C73C80AFAABC9DC8AE3DC41B0EBD8B242EBD8DA288BD61C0173D35A8C6BD2DD328BDB27A08BE16D8A93E40BADFBD86D5A23E0D9C453E409924BD789801;
	15549 :	3D52FA9A3E08EECE3CE6A43DBE424F9ABD83AC613DF1BCB23E0B6E67BCDA22613D87B6C53D49064FBDB343653CAC8F1DBDBBB88A3E6FDF9F3CFA13D53E14535E;
	15548 :	3E3A3A2ABE2525883D18C361BD130174BE1185ED3C0AC022BD0C01D4BE1DFAB03DA8F4583D88D3DABDAA42493D82624EBE4018F43BE184F9BE073B96BD62A0BC;
	15547 :	BE387F533E1B6D373E53AC7C3DD09DACBD086AFD3E10C6C5BD04610ABD6DA566BD876F5FBDA92C473E1ABB9D3D23FD5A3E74E8A53DDBCB513E17798FBD6F6AF0;
	15546 :	BDDDDB943D53D0313DD28D173BA8D2013E5E439B3C8B37B4BE16E4ABBA39A4683D99AE983CF6E9793D80D1723D2F07D03D7BC74ABE3057CDBDBE32E53E109E22;
	15545 :	3C3B89B4BDF141053CC1DB66BE0CEA933D68AE6ABD7C9E44BE1F6FB7BE38F3AC3CDE365F3BE1AF6EBD832319BE8DD59C3E0789D4BD96D23FBE023EE63E0D5C8D;
	15544 :	3D739FD5BD575A9FBD389E343DACBAE23E4275E8BDA539093DB7903C3DBACD323E424ADD3D452F39BDAEF63B3DB04CC2BC85E0AD3D824CDB3DA9F3573D561C85;
	15543 :	BC982AF7BD37A54BBD92A220BE2598233E1C21593BC4D5F0BE0B64B33D252804BC9B982F3EA78C6D3D895FF23D6264EFBE156AC9BDDAED37BD7DD5A43D9FCFBC;
	15542 :	BC35D137BD9ECD9E3E1DA0713DD8E3FCBDC31D753DD08D58BDF3F6713DEE2E37BDACC641BC954A9BBC5D7E43BE39E6CCBE0EC258BC5D908ABDE0BDD33E3AF51E;
	15541 :	BE15D9963D4EEE123D8DD773BD828BA43DF3A21CBCFE26CDBE8A8CDA3E821407BCBFBDFA3D796EE4BD1C2451BD0C7624BD3D68363C9FC8573DABCDFC3D9F20AB;
	15540 :	3D4C99DE3DED950C3D20EBD5BD87D8C13E10CE2E3D9C4CBC3E59E996BAB4E8033E112380BE5E7761BBFB5692BD4272B43B7FE3A13BC6BBEEBDF5BBBDBD427E4A;
	15539 :	3E2B8A55BD4D2239BDC6731B3DFCAACC3C4FB52DB9D33883BBC755A8BE04307C3E9F0A85BDCEED7B3DB8AEAA3D9E9440BA11190D3E590EE43D2FA013BD886511;
	15538 :	3D94FB553DB3D8E53E3A4766BD31052FBC987D64BD884BAF3DEC11633BF131F33C01DDF93E36AA68BE6C5036BE36C04CBD27F62F3D17FE183E6D17663C5A0487;
	15537 :	3D3472463D988E5F3E17DCF6BDBFD03BBDA0FE0DBD62D5F3BE0542013DD4C4AF3C98C73BBC19C4A7BE66C355BE61B6F9BDEAE7673D91FDEABD5421A6BBBE9FAB;
	15536 :	3D2AF0AB3E0644A53E098D78BBCD67BD3C8A14683DA7CA443D3326B23D49C192BDD23DE73DB2C24ABE6806393CFDAF363D531A0CBDC9BD143B6606853E681CC0;
	15535 :	3D9D246CBD61E9623D0F8871BD251393BC7243BD3E90987E3E069CC0BD4E1BB13D00FB80BD989A2E3E77050EBCE8FA7EBD83DC6ABE1193E93C892C30BC8EBE9A;
	15534 :	BE603FE43D2BAD81BE014068BDB0F935BC1B8E97BC464EF43DA70AD1BD05CDFE3E62AB7ABB0C2BD43CEE3A143DDA7F263D613038BE33A2B33D397484BE11F587;
	15533 :	BDE3700CBDC2062ABDE76C983D2F0AED3D028EDE3CB2496ABD584AB3BD88039EBD2A4BE43DBC380CBD92690ABE1E9C243C37CF7A3D93DCEBBDB48807BE3A23DE;
	15532 :	3DCE0AAD3E50AF303D89B0E43DBB85103E41397E3D9EE1443DDDCC83BDB1C7BF3E0D3A2BBE013AB1BD360987BD8AA61FBE132DAE3E105449BBE9E0343E132466;
	15531 :	BCDFF7C23D9FBBD43E98CE0B3D0ABD1DBD3F1681BDC9777FBDD388C0BE22B083BDFFBE9E3DFC8721BDDC6A9B3E35F046BCDBC0BE3A3189FE3E038851BD9D3566;
	15530 :	BD814700BAD797ED3BDB3DEABD5D6323BD244BB73E5ACDAF3E2457D63DE9DD7DBE22FF283E36D7D13E2B2A8C3E1CF646BD300A893D8A8D3BBD4FE8DA3C5DD84B;
	15529 :	BC3B528E3DD83462BE0C532B3D271492BDE7C7853E2B64253BAF25C8BD8EF6683E78E801BE259AC3BDD2BC103DE38AF53DEDF7573D79D6223D4E9FF53C9EDE0B;
	15528 :	BD9A1DE53C87D2183E616E64BE5FE5293D1769D03D4669BEBD47663ABDB7A826BD4A94AF3D60FEAE3D9AA16EBDF8306E3DC76FE23DF44DF9BDC720E6BDDF2FDB;
	15527 :	3E6B330F3E72A4E5BE035026BD2507C4BB7C35163D7C4D08BDB1A4F73D4D6E7DBE0C00653EBA988D3E880ED33CBECD91BC838673BE5672F0BD628E2BBE0DA495;
	15526 :	BD44C6FBBDDB2DEE3DB757AE3CD446D7BD7EF4E6BC718DB3BB57D321BE1EC814BE103F83BBB8D05F3DC25302BD0298D93DC569463DCD5E14BD88350ABDA4C455;
	15525 :	BE3F8CEB3D2F8A1E3C249853BE23AE86BCFA0E0EBD6571783E0DDBCE3DA28E9F3E13D587BDEE75BABE01AB563DD9DB0DBD1F0FB83DBE96403D26CD9CBD48EA3D;
	15524 :	BAFF4D0FBCE02AF8BD18B026BE19B8903811A03EBDA57CB2BE51B2A03E2BAC17BB32C842BD0679043D9A72293CD1004EBC96B1A0BCD25D813D8CAC243E242DB9;
	15523 :	3D88507A3CDB8909BDF930993D3CA2F03D87BD12BE4465CDBD926083BD5B96E0BE5F9E9B3D6901523E808984BCFCA978BD8032DC3C82D1EABDB5C6BB3BBC5D26;
	15522 :	3DB87D47BDDB1674BE65030DBDB3F5CABE13C2FBBE3B111B3DB9F79ABE0092443DB3D070BDAA5E62BDF89D3F3DA8EDA7BD81981B3D9CEF833E0BE9503DAE0130;
	15521 :	BE24FE8F3E7DCC193D546579BB005A083DF7CA00BE102DF23D728A50BD1D5EF33E2818B03DFA12763DDFF9A63E205A75BDA86E8FBE4D58F73E77C48F3E31B0F7;
	15520 :	BD1F90163CCE78233DAA900FBDF73ABEBD9AF52EBE2A94673D919E67BE32FCD2BD5F55453E95F820BD870040BD6C369B3DC31511BD7CD5503E15F2BB3DD366D9;
	15519 :	BB434955BD1D0A253DAF827B3DDA87E6BDB3F9B2BE4D9E54BDA9BC15BDD0D5883C0FFCC53D910017BC066D22BE7831E63DF631953E38B92EBD27B6C43D97772F;
	15518 :	BE676ABEBE0A4DD83E179A79BE0D54D03DAC5EF03E44BFEB3DA678D03D0576AABDADD7A73DB30D393E34DEE7BE04791ABDDD299F3D56B2E83CFD79D4BD821A34;
	15517 :	BD804F0E3D801FF63D93B50EBD998AF23E9B31423E786F75BE3741BA3DAF3A5DBE2E6E243CE20B263DA992F83D8CA7803D0B263A3DC8E75BBCDA4853BC8719E7;
	15516 :	BD9B5D733BAA47B03D006B5B3E2C914D3E1EFC57BE2505E43D3BB07B3DF3D528BDB935133D5F1B09B92765D8BE34312C3E167B083CBA6521BCE977F8BE034A31;
	15515 :	3C8594BF3DF586963E09DEA1BE5FA62E3A3E20EABE1D3914BC488EFBBDF8A6793E924FFFBDD0899FBDEE3C103E14B2A03B21888D3E06F9E4BD80BB07BE5D8022;
	15514 :	3DF57EDF3D44E4793E59EB1B3DD382B7BD42CFD1BE03A3B33B66D17D3D12E830BA1E19363E3BABBABDD606E33CA49D8C3E4A89EB3E18807E3DA439B63DC8BF5C;
	15513 :	BD4298853D4A9CA03CD2E03DBE57E60BBCF30F0E3E7E1942BE4034C93DE100403DD0FD403DDA0129BE22D2C0BDFC3E1BBD8197B3BE670B8FBE347B04BDD8A365;
	15512 :	3E5BE99B3DE827113DCCCE26BD75DE1D3D9C5A3C3D983CACBE464E973D2EF87EBCAA96ED3D8F98B73D7BA9EEBDB91C883AED7B3DBE1900933D5209C23E10D71B;
	15511 :	3E03CC513DAD4C11BC4D40C0BD3C0E573E8530DF3E1AC5A23EC0D691BC1A93423D8AE41A3DD4F44A3D9181BC3DEA40033E1C589B3D898864BE09A614BE9FA1F0;
	15510 :	B9D357663C273E1FBE5B74A5BE116642BD8B49213C86B108BCC5B6323C9203BABC9F35E53D28C1C3BEAF9FBD3DC78B22BD798A0DBD336B383E391E783D8538E8;
	15509 :	3C5D36B73D975681BE8729F13D7847443E1C8E1D3CBFDEB63D7516163D9B48A13D068C20BDDB0B593D9FDAEC3DF17F9F3D0248A03EE8A6EB3D944B3D3D3FBF0E;
	15508 :	BE163F3E3E8E64ACBD332292BD4DDEBA3C728DEB3CCB25ED3BEAD098BD3F6BDE3BE8E7443D21186E3D9FCB80BDCBC835BD38ECBDBB6BFC613DFF0DD03E644DB0;
	15507 :	BE4D417A3EF1E18A3D66799B3D6307883C6CAAA03ED5D199BD9DC5993E1C64EABEB1540D3C86C097BE666B633D7EA90BBD52286C3EE54D5ABD0EF627BBF2F813;
	15506 :	BDCAAABCBAE14F623E864A91BE0F4EE8BEA13BB93D2FB42ABE5D1E903E2FCA0FBD87C5673E4FFE773DAE5F093E95F6053E982D453E67D0433E66093A3E2C55DB;
	15505 :	BB2FCFDEBB2679203D8526F53BF5E51A3E608E4D3D25F9E6BD19844CBD96E579BD9729FCBE1503D4BE8B883FBD928418BDD3EB383D997B83BDC49BD3BC876EFB;
	15504 :	3E0178A3BE4EF3093E40D9E33D9EA312BC13CE323D919FA53C7020E63E8D4F813DF80A8A3DC932E13E3713EDBE8ABEEBBDE5FCEF3D8A16B03CC7561C3DE99103;
	15503 :	3C65EBE93E68371DBC16603EBE6B4892BDDC82373B732627BD90F07DBBBAFDF93E842CCF3E4D7EA63DDB758E3E16B78E3DC4A4703E3655B03E6108D03DC8EFAE;
	15502 :	BD25D00DBDB32317BDE77BE73D233010BC5CB1923DAB85913C076BCEBE2BBBB03E736A633E230A4B3E93765ABF197CCF3C8918523DF147A7BF14A06CBB3ED286;
	15501 :	3E0717B63CD4D789BE31AE403BBEA2F93DC59ED3BE677B043DE9A5383DDF280EBD7875C63E291E253DA759323D221069BE6CFA0BBE1E5932BDBD051ABE29B145;
	15500 :	3E5219DFBCF37B6B3D8ADAAF3E4721C0BE4D3D8B3D8B1263BDBA11893E98A5DFBDC6D4EA3EBA88423D973374BE8AC2E93E077700BD518FE8BD871AB6BDF917AB;
	15499 :	BDAA993E3C957AC23D08A4273DBBC08B3DCBB40F3C8A10CEBD8C6B013E6192FABE96D03C3EAA4C2F3DD527673D1B2D62BDFA80A53D5AFCBF3E890E8F3E7C8B9D;
	15498 :	3C7404163DF1592BBE0ADB84BEBF94B6BD82D9FC3DDA4A68BDFF851E3DEC8E4D3E86EB9E3D519096BD64DB463E39E347BDF3F360BE02979EBD8B2B9DBD90F292;
	15497 :	3DB3DA77BDF729FD3C5C1C533CEB69433E0DC7F63DE12D243DAC2CA7BE4862D0BCBEE5E5BE2B117A3EC5D54D3E00CF093EB8E7D33D933862BB8EE607BD576DFA;
	15496 :	3E775C353E2D87763CDA43023DD44FE3BDBF177FBD6094A53EA3E9673D7A10C9B98FC73BBDC7B4B23D1C3E7C3E45E8A2BE35B6A23DD759D8BDF0A330BE02ABF4;
	15495 :	3DCC16433DF270C03E2FF87F3CA307E7BC629FDC3EB14516BD0E148BBE04E4DC3D1B6D4A3E56451C3CD06F433E821B1BBDFD121FBD0576FABD0C65C03A36E7CD;
	15494 :	3BCC06273E8B7E033D42F36B3E21F5FABDC81AF9BE0EA35DBD363E2F3D0B9CABBC8B05EABDF7EDAA3C02E726BE289A6B3EA22470BE2B0B923BE4B2903D19C689;
	15493 :	BCB413A53DDD03FD3D9737CA3BAA84D5BDD526B6BD8D01583E591D3F3E1EE9973E0B9AFBBD1195CA3DB01FEABE212BE8BE12A7223BBD323C3CFAF638BD369617;
	15492 :	BCF1C33B3DAF9EF6BE5F20CA3EE2A1E03C2BD8813DFF820B3B4DD6823CF99201BE26949DBE4C68C03DE0AE35BEA656F23E407AD5BD8372053D0942333E12A829;
	15491 :	3E11ABED3E3762BB3BEC8ABCBC744DCBBC27B696BE4AF7DD3E7FBEBA3DCCC755BE7074933DBA95543CDA01063E21C32C3E40648B3D528D083E184024BD93E72E;
	15490 :	3DC677763DC483F83E3C63203D183BB2BE451CDABCD071DB3C54875C3DDDEA233CFD0DE1BBE23496BDE942833DF0F9A53D0BF1923CD278243EA960963E2EB9E3;
	15489 :	3D32C519BE0B8F3A3E07B5DDBE619128BD964A36BE04CED1BA8BE7963DF4325E3DB986833DEA94A63EE6DB6EBC82EB8FBEB7DBDD3E3E4A8F3E18CBE7BD1C9B88;
	15488 :	BDDA95E53DE678B3BEAF60B5BDE210B7BE4A01C83D9D2C403C4D322C3D024C973E301D4A3ADBCB65BE5ABADB3D81B78BBCDFF4BABE896114BCBD7FCE3DE9302F;
	15487 :	3E17DBDE3E170CA9BD42E3A93EA3EB713E4924E1BE9F8932BE874DE73E1142983E04D12FBE2AEF25BE333BC83ECFCD1FBEB191313E9989EBBD99E27E3DACD1AE;
	15486 :	BE290F5E3E8489B83E219D463DF2C32A3EC995E5BD8A6F89BDEF6ADF3D6D35453E97F0F53E3CBD5DBE2CF2033CAFC2293D4A2A0F3E24FEF2BD4377D93E2B35C1;
	15485 :	3EB8DDD03E902255BDFB988FBC0F4A1DBD626D69BD735D50BDBC4A14BCCB22103C84FE8FBC0BCA883D925AC93D11B2F33E77F8C3BE125423BDE8714CBBCFF32C;
	15484 :	BDCA76A03E7EDC6DBD0CEAF13D8A14503E29B8CCBE07541F3D65E284BD6912543D438E4F3DAF44F0BE49B2E43E4EDB7E3E4F547CBCF2401F3E40E8023DEB1F64;
	15483 :	3E3860883DF3F8973E9EA6023DAD76E7BDC39259BE3CF561BCAA44F13E0642BE3E11FFD33DF4FBDBBE0FFCE2BE2ACB363E2BA7E5BDBF76933E2C3D5CBDAEDBBE;
	15482 :	3CC0F0703E0666403BDC583DBD1DB8EABCBD5455BD0C4F3E3E820B303F063C66BD39D8D83CEAE9E83DA3EF623DCDDB473E25934CBDBA062FBD552124BD17926A;
	15481 :	BE6C9890BD2CC15DBE2D2DAF3D2F4B433DA9E3663CCA7DABBDB1B3EFBD21C692BEB8BA013DB4160B3E483DB03E2A6FB43D78C328BDD7A7973D9104D13EB326F5;
	15480 :	BEC1AEFF3D991B38BD619A12BE307C35BCFAAE91BD58E71ABDB48DA8BDB08873BDF47CEABC1B7D9FBE78AFA5BCCEBB04BD861C8E3D036F9C3D3FF205BE43BE94;
	15479 :	3D5891E0BECC1824BE2F659F3DF064D43D967D9F3E39DD10BD04AE2E3DBFA07B3DDEAB953E3DE6023EC4C7BB3EBEEA673E1F9634BD81E9B1BC662B63BD78132A;
	15478 :	3D613240BCF836EFBE0E5E07BDFC873ABDA932FE3CA0544C3A8BCF30BDFB0AE1BDDCBBBCBE481DDD3B8617EE3E00DE43BE49F7BDBD4030EB3D5CE7E43E087EC3;
	15477 :	BD1583703D430066BE344D46BD00227DBD4AB45D3D90D2213CDC9F31BE938C07BE0F666F3CA385A1BDB864673B73C0CBBD0476B63ECA7396BD7E2C263E022451;
	15476 :	3CD32CA0BBC4EF32BE09D26ABCB28E243D85FEBE3C9A42E73E2B93133E001CC6BE858C93BE187332BDD4BC32BC9C20D23E94090DBE0A207ABDCA62E6BE3F975F;
	15475 :	3EB2D6ABBDF18C313CC7016BBB037DC23D6FEE79BC7BCE123DDA696DBDE40CC8BD9928EB3DAD4B0E3EC8D7AABD82788C3E2A65E33E863C0ABD789CA1BDEB45F5;
	15474 :	BBE970923D8194653E5417F8BE56717E3DD5BFE9BD9849153DAFB4C4BEA69B203D865C29BE5DC29E3E3BD7E2BD6391053E2892A23E38C7913CD85F6BBE218126;
	15473 :	BDBF319A3D4785113E617B2B3E53012C3E4579133DAEAAA6BE26B0EF3E7E4B55BD3E71C43D528D8A3E4CF08F3E8B8D2E3D3A2A3FBB3A1CA33DE910DF3E08B6E0;
	15472 :	BE1E68CEBDD5AB54BE2A72453DC81BAEBD21378E3C8CAD93BD23BAB9BDCE89AE3E8737803D325BFCBD51ED5A3E3F6D0D3DA56C22BE34FE78BEAF2DE13E365A7A;
	15471 :	BE20B44C3E1EF6543D7BA44FBE546894BD5DEDAA3E58C6763DC3F4E63D91B5263C9A2D03BE565ED9BE5A47353C867142BD8825433E3CD2E93D3E6613BE0AF6BA;
	15470 :	BD54ADD8BE38609B3D2AAF423E79B1EF3D575C4CBDA2147C3C1C1EC2BE099861BE40D9073DC84F743DAEB705BE58F8B9BCB2D9763D72B7103E7A02963E94C2F0;
	15469 :	3D0979A83CEC234E3CF55A673E05C0E6BD40F74B3BD4DBA2BE03E764BE4DC435BDBBE8DF3C7924943D0521373E07BA87BD651312BD31D7F2BDF206D23D1C8F7C;
	15468 :	BE0D89153DC2DC173E065C203E9B0287BC1EB7FFBE928EB4BD1FCBD03E498ED5BDAD86CE3E4B5AE43DB46A4F3E07F1473E803D343D0389003DBBA9B0BDA58FF1;
	15467 :	3E0C078C3E86EB4EBE5909763E20ED6BBC2DC708BD83A9743E723AB13A7C3DDC3E1AA73DBD19921A3D007FAA3D5CE383BE0F23B13D1D944F3E93FF95BE62173B;
	15466 :	3CBAFCFABE06474C3D4339143DEE473D3DAFD9D1BE30E7FF3D8F36D8BDCE47543E97BF5F3B4FAD6E3DB7E96FBE3EA4063E17EE3EBE519EB6BCC99FA43E59CE4B;
	15465 :	3E086E36BE4DD5203E61B227BE2C7AA83E45A748BC322CF93DC155FF3E00FD253E368F4FBE7E4D733C3E0F3DBD9341033B6F087A3E24EFF03D269C3C3D2CCF89;
	15464 :	3E0F0F02BDD5ACA23E8F7A893C6C6103BBB5A15FBC8D670E3E5AA6D4BDBD3EF1BE22F590BDE8F3E43EEAF3943D8509B43DDEE75C3E336CA03DF0D65F39AD5CDB;
	15463 :	3CBA94AF3DCE87A0BD95BBA73DCA0E683ED2B2863E4A52213D65EDE63E8DC6ED3E8CA7EB3E54DBBDBD2C3D4FBEB556E63E836C43BDBE394E3D9E2BBABE302EE1;
	15462 :	BCE13BD73E6DB151BE68E80F3C0FD708BE13F07E3E84B640BD822A98BE34BFE83E683DAEBE77BD953D5A0B173D49D1DD3DD1DCAEBD6125DFBE5D94483DDB14FF;
	15461 :	3CEC7500BD4B196BBDD26264BCAC020A3D836477BD2054323E3098E63E8BC5E53E8AF88BBB7580043D1029C93E02FB9CBCBCFE29BD546D023E98F9923D2CB861;
	15460 :	BEA778C63E03EB743D964DE8BC94CF113D80989D3DBF0073BD8A4508BCFBCC6C3E3297B9BE59B1CC3D2F2611BBD76B5B3CFF8B71BD265D573E90F0D9BE301A68;
	15459 :	BEED89733E815CA13DBA0133BD221F343E554C823DF5AA05BCCC03D3BDD27A113BB816193DD214DABE4BF94539C4E9ADBC6400883DBC5F92BDB27EB13D96071B;
	15458 :	3E4F0B05BE106BEF3E357ECA3D5F181D3E0EA7E03EA92EE2BE092860BEB492153EF49CCC3E7D9C3A3D0B12B9BE7623103E36EF45BD8C30ECBDB061653CC920E0;
	15457 :	BE25E5323D0CB1943DA369593D61FEC7BE937020BDFFC542BB169CFBBD45A7243E2A7234BCFB3D703E6D96F53EA24CA43E5658CFBDB473373E124813BEBFDAD4;
	15456 :	3CB7B18A3E27283ABE4AC6523E0B9A733E9F7F2F3E16954F3D8B6DE63ECBF1E93E8887ABBBF446523E5CB26137E9A4FCBDEE74493E01B4F73D4564C33DBA6290;
	15455 :	BE3073E53D49F1C83CB864C83E6639DC3CF62D20BD93EB403DB420983E0C5F403CBC8FA2BEAE06723D1246243E9851113D90A8D33DCE7D30BD19AE3D3C4111E5;
	15454 :	3D8308ABBC73826CBE462457BD15DF163D114A23BE0C7E303EAB4BF9BE4E35F3BE6D89ECBD9D5451BD511DD9BD065C19BDABC7783E58FC22BE02518ABC71942B;
	15453 :	3E3D802ABEBE846F3E11E1A53D146F933D85814EBDD55F0C3D957B623DE112633BCB1D023E1CC39A3E607451BC8038CFBCC5C29E3D0798D73E5335D6BDE1DDEC;
	15452 :	3ED20B533DB644E3BD465ED73DBE1B313CD1C700BDC63DCC3ED98567BE01BEC5BE2C26553E1D8B133D92A93F3DABF5E53DD5A679BE1A04F0BD61DB30BE331C6D;
	15451 :	BD8A5821BEA8FF5DBD55B59CBD8ECD0BBC34FF273E1DCAD93D30BA58BD7D99AA3C020181BD8C9DAF3DC6BB613E7959B83E22E0E23DF4191F3D77D2B13DB27BFE;
	15450 :	BE078405BE1E8FDF3E2652C23E91CA1F3DFF3A2F3C07E419BDBA87E7BD9A34393DA968A1BCFF2BC7BEBD78E43E2618EEBD7A1A30B94A1659BEF621CF3DBD7608;
	15449 :	BD1D4C4EBD12C59EBE414B383D9261A03E5039AC3E272BD43DE0D996BE964A393E1D105B3C49115C3D2D7876BE1C6F26BD9200063CF1076BBE51C7D93E324B39;
	15448 :	BDAAA740BD0698F6BC25E978BD81CFA33DA5560ABDD92A093D7925913D3FA156BEFA9AA3BDAC74FF3D800BC73B6AB41D3D6E7C0BBC2C8AECBC068E393BE81314;
	15447 :	3E304EB03C8BB375390123FFBE9F2A04BCEF8854BDFFD27CBE1BA3433D54D1F23B3EB7AB3E4484B43E914DCE3E396934BD8525143D17FDCE3E2D4357BE4AA155;
	15446 :	3DEC14CE3DD0F992BDEEE966BC9EA651BE64EFC23DDCB18CBD4CC2463E18A127BE81599A3DF35E04BE80B8BCBDD8C32FBF01B52F3CB92C343DC450243E025957;
	15445 :	BC4A8FE23E5198A23DBBED5A3DA2DD27BD9FAFC8BD9C6E5B3E337662BD19B1733D2F5A99BCA67C10BE34672B3D91DC0B3B83CBFDBD353CC83EA23E39BE5EBD2B;
	15444 :	3ED110F33C9BB008BDF48618BE2CC215BD6331493D02FDCC3DAE593A3C8118913D3274513E8E81B33CEA2038BE00909CBD1F9A523D12B8C9BD341474BD8EFC16;
	15443 :	BDC62AFA3E02E2E6BD2954003E114ACC3E03B3273CE60B35BE031FD7BEA769573DEA137EBE15A6FDBDC284CBBD90AD00BDE4FCF33DD706A7BAB1B73E3C329521;
	15442 :	3CB34AC33E36E00BBDBFC7CABD5A28FBBDC7711DBDF2D8173DD23B44BCA76FB03CBBB1F63B3C75043E8492C8BC69FB8ABD987E7CBE62761CBE4D2AD13D83CA4A;
	15441 :	BD9A00D13C6D4F933E2DF08BBE60AFDDBDC9690CBDFB1B2EBDC4511DBE234F4FBC97FB5D3D8980773DA51BC9BE79759EBD66D915BDAF4B6C3DEF966A3E7AD8D4;
	15440 :	BDDA7C93BE1789503E53600F3E4C53FFBCA0E2FFBE0773983EB9C343BC921C4BBE33C19D3E9DDB823DD45110BA1A52523DD23B63BD5FF4AA3D877BD43D4A7475;
	15439 :	3DA576ABBD37E7153E00C8253EE8A2D63E40E0CBBE04450D3E3D3BBA3C38AE203DD701EBBD40CC48BB447FCBBD207DAF3E46AA44BD4245B63D9216F93D980E1A;
	15438 :	3E1DED47BE38CF693E621A0A3EA31F47BE56A740BD38B9773D8414553E5F40143E2D4DB1BDF119733E8B32373DE694543E9952F43DC68074BDA1F73F3BA197D8;
	15437 :	3E2A7528BE809DE5BD8CBE4DBE131F603E09B5BA3CDD8DCE3C25A93CBD4E8401BE10F22F3C53B7983E1D31D33C95A208BDA368273C812787BD0E842E3E587C36;
	15436 :	3DBFE1373E8443B6BDC4A5503CAAF9CB3E9269C7BD04F5C53DEEF76DBEA1C4AEBDF9ECC23E891E55BD83704ABE2087A9BE7F8D273E775F503DB48D5CBD5BEA0E;
	15435 :	3E06E3EF3C91772DBE4C19303E8C6C5D3E236363BD579771BC30842DBE1E41233DC6DF843DDBC2573DD13D023E03100E3E5E3432BE28E1DC3EB169573E59E2C3;
	15434 :	3E91321F3E3210B63E0A1FA1BE8E871F3B2E2CCE3CB322F9BD9B30E5BD7E6494BD8D63FFBD8F12A9BE4A6943BCB034BC3E11FD1D3E21F4623DB95C6DBDB8A8A2;
	15433 :	BDA83FB2BE702701BD01A2B23E5359383E391B3C3EB4C04CBC17DEA6BE087579BE184F3A3DA485E5BEABB8DCBDA7A5713E40609DBE33798D3E297E063D290156;
	15432 :	3D0008943C009D04BE33A94EBEB1568E3D9F7340BE14FBE93DDD871A3DE24B2BBB94B7E83D46FEEABD856C1A3D3542F4BD4B8F55BDA31ABF3E89B107BBC38D2C;
	15431 :	BE1C88CD3D9991C7BE917597BD0C5287BD2831093EBBF8E83D775B3BBD80D0A3BDA59958BCB636713D1CD68A3D60A44F3D81A64B3DE1C0AF3E35A2193D9BB71F;
	15430 :	BE29C929BE0603503DB45639BC33BA52BE906B913C141F3CBCC74CEDBE2EDF98BD16AE5D3D0934EB3E11059A3E4425A3BBEB4063BC80D06A3C9EAF443B2D8F82;
	15429 :	BD2E45DCBE794D533C25E8A13E42C3933E2C76DEBD9A2701BB2A3E04BDC8A7053CE203D7BE2DE9A13E973C34BE5E35C63C9928E33E146331BDAB999D3D8C3851;
	15428 :	BC7456343D9E93D2BCBF693FBD9B512A3CFE7B803D67482C3D9E0D243E4260BD3E5A27593E4B2142BC8F1089BE377B42BCFB1FFBBDAA3D7FBE37EA4EBC6B2DE6;
	15427 :	3DC9B9683D59BF023D244FD03D9C939FBCF5B316BD91D566BE5B70FC3E49E9C83E0FDCABBDCE7A6BBD323754BD2BA0AB3D52A6FC3D147A06BE23EE673D748AA4;
	15426 :	BEB9BB813D5690D93EA84FA03CEA61E83E265096BE4F9054BE31B45FBD6820463E1CB4D33C18DFADBE6FD6A2BD101E413E6AB3853DC15CF5BD233F7DBE053717;
	15425 :	BD498188BCD0E95DBD014DC03C85525FBE4655EFBD87B19CBC33E367BE16C18DBE0317E6BD0AB3FC3D3806FC3DAAD1523E17F789BDA445643E8E16B23DE50D40;
	15424 :	3E5B6914B95C01243DF6FE8DBD2E659B3DD4F56EBE328D7E3E31F3D53D9352513E4E1639BDAA25963E4B8F9CBCBA8D39BD83CD923F0B8051BE2CB1DC3E13A571;
	15423 :	BE4A1C22BE3650953E60C395BCF64CC4BD8023763DF0B878BE00A47DBD386EA03D9C35F83CD0BD6FBE8D9C74BDB1C35EBE51F2433DDEB99ABE0BEF75BCCE3D85;
	15422 :	3EBDDE0A3E5C93D8BE9006F4BD7C26EDBE16D494BD6E85AE3CA5F6233DADF8D7BEB583B7BDB3C148BCF27D313D1D19423BC70DB73DA869C2BD4F9248BDC9413B;
	15421 :	3D80FB03BD390CCDBC4C5ECCBE117010BE89679D3E0C7BCBBD349DB53D9231F43DE206BA3DEBAED03E1769A33D87951FBD658157BE32FAEA3E3E3108BDE47210;
	15420 :	BE51CC0ABCA6DD713CEAB171BE11F8E23E83C50ABE4ABC9DBD4E17813D453053BD9FCDB33DEC2442BC67E5F5BDB1BBA0BCC28D9FBC20AE9B3DC4C72C3E016CD4;
	15419 :	3ED50450BE47F529BD9FA770BDA039E2BCE2CE243D9CEB1B3E732FB9BE53536C3CA53543BDDAF486BDFE31D7BE2EBD47BDFDE04FBE10E5AC3DED48C53E433533;
	15418 :	3DA556E03D1327863CCD2898BD6224EB3BFEE7643DD7C30C3CFFAB473E38986D3D5C5E123D42D0E4BD345E703DF15A3C3DF8035C3E3164243DC62ECD3B074310;
	15417 :	BD52EEBB3EA0F832BE83DC393D322A373DC92D233B96A209BD53A26CBBE891903D60222DBB8974E4BE807CED3C8B20DC3E2CBFC63E39D28E3D0F8E77BD6B723C;
	15416 :	BC3CB452BBBD8E4DBE4BCDB93DD148AF3D5B450BBE49FF2D3D9A607ABD514C28BE3A69573DFCE7193EA39CB93DA05964BD6FCCB83E3B9B64BC4E52BEBDDA0236;
	15415 :	BE15B788BCBC8718BBBA311FBE55CB98B9855C59BDA01B523CE89C30BDD4B8733DF578923DB011103D358DB6BD591DFB3C4A4037BD8C1500BE485B1B3DCB6452;
	15414 :	BCC4C887BD6FB95D3D877706BDFF6DD83B0BEA5B3E3670F2BD8E1A85BC21E2C33E03C7F1BD77CA223DA45D09BC05D06D3C356732BE6A96633E2F7A49BD4C670F;
	15413 :	BDDF97B53D408F993D3B6B77BD6C9FF93CABBFAE3E07FD5C3D546BBF3DF0C1B9BC47757EBD7375F7BE63CED03DB385943E0919BE3D646CC53D9C89D7BE05422D;
	15412 :	3C21D5D6BE3716B8BDC33E9ABD9CB351BE20838D3E2BBA243CC1736F3D32027FBEA6CF8ABE18917F3DC03DE7BD16A53BBDCD1FA93BFB5A84BB113B3D3C30D41F;
	15411 :	BE0B483D3DD2051EBDD71AD5BDEC21BBBD4D9757BC68DCEFBE1086D23E9A9F25BD4A0397BE1FC1993D0B35EA3E45BB383C8BBFF3BDD1B47F3DDDBF3B3E06CB35;
	15410 :	BCEB4CB63E5FD60CBCE6BED33D799655BE18945B3D555EF83E07A94FBC2469FABE0087B8BE1415A23D5E4DC53C95EA20BBEAD5C03E65CB75BDC9FB1BBB992A5C;
	15409 :	BD5275BFBDDCEC583D371CC83EDA61A2BDCAB40E3CCD2CD9BCEBE14F3DDCFFC7BDF2E8223C0322D1BE0CE647BD61F391BD4511E5BCD5067D3E514D023E04424D;
	15408 :	BD9123E33C206DE8BD8558EEBD071AEC3D85F033BE589E5B3E06CC19BE1523A73E12305D3DC20BFE3DBBE0DFBC618871BE146A9DBDEE8ED6BDC2EC343D075A11;
	15407 :	3E0BE178BCBC235F3E935C663B7AC08D3E040E62BCE4C666BDEA44C8BE128C0A3D5CDAC63DF53D62BE640331BDD17CBC3CFC51E83E91E0E3BD55A2053DA98420;
	15406 :	BE0CE31DBDE613793CBCF7483E00719A3D9D2D293E82BB333D3387BBBE4867F13E527F68BE378A4B3E81F8EE3D8ED7FABE50DB88BD4020843D5AA5A5BDB10E2F;
	15405 :	3D88563FBE19FE963D6C031DBD5F98BF3DDB00A53E4F08353EC832163C83FDCE3DBCA86F3D243F563DB0A6D2BE10CC9B3E411CA43E33544A3D3559243E108658;
	15404 :	BDE30E4BBAC18C0DBCFC06F9BD01EABFBDC26C24BE2D50283CCDAC823E25F2393E7B04AABD5DD8313E0E475DBC4DD3D93E210B85BDC0E46BBE2E1574BCA4FA92;
	15403 :	BE0FAE12BE1C7CF3BAA7AFD23DC1CFE23DE8C42BBDD675053DF92395BDFAFFED3DA8B2F1BDC0DC29BD12CE25BDC3D3F73CC801BBBE39DD283D1D2EB8BA713CDE;
	15402 :	BE685972BE2E30CD3BD1CF0CBD9FC00B3EB0F7EC3D67B5FF3D109AEEBE7C6EAFBE0E605ABC8B67D83D2CFFC0BDADF3AFBE5A0D7B3DBCBD0BBE8B8F053D0E7D2D;
	15401 :	BC07A613BC50E255BE031EEC3DC11D70BC4CA8E13E34036CBDB5D2123D9BAE013E37570ABE259EE63DD107803B9A3E0EBEA3A7053E8994C0BD552E063CF8046E;
	15400 :	BE2A7E80BE704A74BD6311CC3CB07F48BD2288E6BDA4E2A8BD2D3B423D44215FBD01075B3DA1B4AEBD1C38313E063EF0BD56A464BD1234C3BDA1E9E3BD3A2584;
	15399 :	3DC3CD943E4D9E3BBE10F8673DC1CBFEBDCB8810BE4816F33E024FBB3A2140A3BE8081053B3BE0A43A7E350ABCE5E5273E222EF5BD731C9DBDAF3651BD1CFA18;
	15398 :	BDDD6B43BC524434BE875AEF3E8C513E3DB1ACA53D19D98BBE5300B4BE3893C73D234A66BD7988973CFBF0573D67B3F4BE22D5373E4112B03D24C37E3E1A639B;
	15397 :	BE3ABCCDBDDD89D03E1A51133D6BCABCBEC070C1BE34C6113D86D43FBDB1559A3E0C23C23E60A5793DC90B51BCCCA8213B608DD93E19BAF53D1DAC11BC807083;
	15396 :	3E270738BCB5B1A23D3E5C94BDB35925BCBFE490BD8DADB23DA71AC8BD360AC23D900C2B3D271BE2BCA793633D0598E73E2AF30ABE0550493C39437FBE85AF34;
	15395 :	3E354F8EBE7AFCE7BE97583ABE6AD5673D63F48A3CC0A762BE17B2A0BD704F273EA29C943E2C8F663DDECD6C3E2DD6E93E0D88703E01F8F83CF6CC523E2670D8;
	15394 :	BE0AF039BBFF6ADD3D83E7603D79A676BC84C7A9BE24D5F03E1B16EE3E9DAD433A934F373E274A6BBDC9FBDD3D2A4A063E099A17BDE78BF53B922E773D865AB9;
	15393 :	3E95C2C9BDED7ED13DFCC303BC2287153E4FD2683DC7C1A63A2FD6A03E8C29B83E939CE33E056BD13E0407DE3E0D16663C47467FBE0809B33D660ABCBCD5CCA6;
	15392 :	3DE9C50B3EAB831ABE13255ABD6BC2AE3D6CF477BE0F34DD3E1FF1F3BCFF26B0BE8E2A09BE43E20F3DDBFF9B3B93DC743C4CE77C3D23FA31BDE0B1B83E257E7E;
	15391 :	3C148CCDBE02C8333DE7FD0F3D8F5AA53DD95EC3BE06D4433D3D5991BE273CEB3D6D73BA3D81C264BDB800D7BD29FF22BDB03D743EC0FDC93DE77BB2BDC5053E;
	15390 :	BDD6FE06BD6C0D6E3DF584F6BC83FB0C3CDF7680BE75F891BDB66217BCB79CA3BD15F35B3E54D88F3E5EF5F7BD7713F2BD376666BCDFDA6CBE6367FB3E9303F2;
	15389 :	BDD619D73C808FA93BF3B54ABE6C500DBE2ECDEEBDCA75673DA5ECF5BDE5695BBDE9566A3D156763BE264C11BC9914793C9291263D298EFABD12D7D83E5C1F8E;
	15388 :	3DCDF383BCF63D95BE1B2AD0BD5FE221BD953253BD4E086FBE38528B3DBF99953D9EE75B3D0EBF35BE1753413DC5799FBE03B1B03C9D03503C838140BDFB6471;
	15387 :	3D19FFCEBD8D4780BDFA4E373DDBE8D63C9836DFBDAF2B583E314226BE40B303BC95936FBE127E53BE93D85A3DACB753BE79FBD6BE2F60A13DEBE9B63C96D69F;
	15386 :	3D2A3714BE978712BCE0690A3DAC6518BD3FB8DBBAFB00A3BE26CD90BD2DD99BBDB5E536BE676BA8BD9B93423E1B80DA3CD344C6BE2EA9E43E27AC22BD717556;
	15385 :	BDDBA2B0BDFAEBCC3CAE0621BC23351CBDF077E03D0A10A03DF9A071BD1654973E200CA03E141CE0BC8F863B3DAC7C0EBD96828F3DB114B3BE8965F73DFA5B7E;
	15384 :	BE53F40ABD986C1CBDAFD616BB6C56933E6A3F1EBDD589BA3DF3BDD23DBBA2273DCB7982BB58322ABE0364163E7B451FBE7926873D9139993D4DCF943C331204;
	15383 :	3BFBC7E03DB263A9BBDCC438BDCB6B023E0785FE3B9AECF5BBE2042B3DFDBFF93E21A591BD1D1FA0BCE710453DA468ACBC20054B3CF05702BE354982BDB808E7;
	15382 :	3E0FA5DEBD7E520EBD118499BE114A09BCC1C2783CB43D35BDD27D653D59909F3DFE98273D0A18143E1C1C473D4CABFC3E54A0BA3D9A68BB3AA9664CBC563AC4;
	15381 :	BCDC731E3D9F0B67BDE64393BD961ED43D7AFB13BE46959ABD0F5DDF3D9EF4003E305B8E3D05F687BD05531CBCC632DC3CEB7B16BD1DD476BE8BD0153E2580CD;
	15380 :	3D8A6FDB3DE503533E0D71153D9009023D8AD4363E15A4A23D755E8DBCDD90A6BC8074563E06C4433D817DA4BE0CD2DBBD01F20BBCA9ABABBE0F9C27BC990351;
	15379 :	3E86077BBE880AFC3C5CEBF0BDBE01C6BC656A71BEB64B5C3E274E2ABE04D6913DB12886BD3907983E3294C1BB9B0572BE3FBCBB3CEEB8BC3C7491CEBE524E44;
	15378 :	BB7B22FCBCD91F8BBEA78556BE279F9DBDB7FCB8BE0B964C3E73CF8EBDC8A1663DEDF422BB4B9931BD47CEAFBD386F3FBE51ED7CBD047EFE3D9F2B9A3D356F7A;
	15377 :	BB1D10EFBE24FA263C18A15E3BFE13CA3E244E9DBE49249CBC9E667B3E02242A3CC149A6BE40C3EABE3B30693E20ACC33E81E075BD8A3D3BBCFB1C293E04FE55;
	15376 :	3DAB7115BCBD44333CC918E03D2984AA3E12B0FABD1D47C03E124DD13D6BF689BE039F55BACA88963BBAE79E3DDC90A73E59E110BE0B1FB8BD14DD7B3DD05291;
	15375 :	BE68B0A63D3B9213BE5AF5D2BE91E37CBD3DCE0DBD8C8E4ABD8DF4283E65D2033D569B6EBDC0E8F8BE1DDA5F3EC8E4983CCFB553BDF4DF8BBE077889BE853888;
	15374 :	3E9938EA3C895543BD1939EA3EF02EAE3BCBD6E63D87C5D03D1D176DBD01CD8FBDDF441F3CD24B883D86D595BD816808BD4E06143D96DAE9BD170B69BE635B6C;
	15373 :	3E1AB6D13D9E90853DF1FF27BD5230803BD06BD43E88F2963E4D3916BD3E8AF4BE2728DC3CCE70DE3E821CD6BE4ACA833E5EB74F3DA53FA83C271C673D448892;
	15372 :	3DB2EBB23C138A633DFE7260BD5BD1AE3DFAF620BCC53FBABBFFD8C4BE73F0FE3DEABBDE3DDAB2C8BE07F9B5BE63877C3DEFB30DBD47C85DBC4AA477BEDA470A;
	15371 :	BC83396B3D0BAB64BC62CE763BB37A91BD8F35B23D7602D73C93903CBDCAF686BE9B9A2C3E4B8F843CF38D10BE2550AC3DAD06EDBD77162FBEBA42813D272004;
	15370 :	BDBF5F34BE53E6903E6335673CF4A9CA3E22A695BD9B04BCBD17814A3D6FB6D1BC281E383E67C5D1BD767C20BE1D2DA83D9DB3BEBB25A1843C2A439EBD406DC4;
	15369 :	BDE7624FBE23E6F3BD024D5CBD66DECFBE8C6039BE71395A3E23CA503DCC677DBDA125AB3CE7670FBD1FF0363E9905193E3C829FBD0E8AD73DCF7103BCDBDB68;
	15368 :	3E5885F1BE640491BD869930BCB4A12CBE24A541BE38144E3D64CA6EBE1955E33C121708BD48AA543D13BFDA3E1FAA54BCFD69AFBD979F863E36A996BC812E1B;
	15367 :	BE2683FABDE2AF69BD22F226BC2C44713DAC17303DCAB6533D7F8FB3BEA910DABE0C2DD1BDC3DE94BCA70B29BE85B97E3C8609063E46CD3FBE058022BE3B705C;
	15366 :	BDDB0EA13DEB7B153E249263BE1331803E815386BE5061A5BE78F88E3DAF6CCABE4671123D1EF586BD19E9B6BE254905BDE6B7E43E23F7CF3D15A8273E324A15;
	15365 :	3C3572AFBC13FDAB3B7D929FBDF5C7AEBD92D88ABE2C3F9CBE08FB543C96D5E73DBB301D3DCF0D083D4114B4BD211103BE04DA4B3E3A21A03D514EE93D900926;
	15364 :	3E3A03C3B9B3D2923D9B63813DC961D33DA31FC23D0066383DD240C93D6A2653BD96597A3D69B963BE3C4FD2BDCABB3C3DA50668BE870378BC2F95D0BE4C4C8A;
	15363 :	3D2290EBBD93E36ABA766F743DA086AEBDA6FD75BE0000B9BC2A3436BE058CD1BD7D3E7DBD7D24213D721AA33C38D1E4BD20CBF13D9965B4BD09A14EBDDA22B5;
	15362 :	BE01EEA8BD76D125BE13C1E23E26F5483CD5D2EC3DC0E7DA3E2FFDA2BD118A003D14AC7A3B5AD9FA3DF33E55BE25EB753D221B46BDCD00A7BDCC8F27BD33952E;
	15361 :	BCD9BD493E25DDFF3D722932BBB1188EBE23B72FBE199D753DC45C0CBD3C2569BD12F05BBDE5B82EBE6F0BBD3E02B8253D332CE9BCC89F3BBE244DCE3D7D5BB1;
	15360 :	BEC3C5AB3DABA2C5BDA2A57B3E4DF2783E5C59B3BD64FFC13E5D1B073D8057243E4781B83E02E8423E6A718C3E2D53713B7165203D799B40BE09E2F73DD43307;
	15359 :	3CC03D513D758320BA7186353E5CE84EBE5E83A63D3F2F853EE2E66EBE1094C4BCE153413CA3300DBCAD0E633DACDE903E02CCDB3D51C6FFBD580935BCAB3A2D;
	15358 :	BE486D3CBD12DE663EA340FFBDF2F0733E13CF133E3AF63C3E3B9DCCBDCC7DA7BD8D9EC1BE2E36CA3E1197B93D9971403E810A6C3DA84D433D0255C73C879567;
	15357 :	3DBF1BB4BDE4DC44BD123F87BACAE946BE630357BD68D5BC3DCF36E0BD1F66513D3DD184BD139D933BB91F56BD01C6D13C943607BBA8A7E93E751C12BD4C0090;
	15356 :	3D3084F3BE0CBA2D3DA4ED213B4941DD3DE2775C3CFD381FBDA8433C3E35CABE3E66A124BD3ADC0ABE8BD508BE5FAD4FBE01F060BC265240BD9958093C226194;
	15355 :	3E43B667BD843AEBBE55432FBE0422A8BBC50B3DB9C511D7BDFA114CBD111BF3BC3B48213DFCB0A0BE085E2E3DCBA34FBE1B2D883E34A5783DC041913C8C5F14;
	15354 :	3D4583693CEC353BBD6B1332BE2369ACBD3EFD15BD9322EA3D9CEF45BDE03951BE5160F7BDA15D833E0C5C5E3D336495BD90521D3D11F4113D30C2883E287821;
	15353 :	3E2C10783EC82B6EBD2698123DB2A53DBD5628F83E2E913D3D1E60D13D9A6B02BBCD6E183DDB581CBDF23309BDC3AD8FBE233DEFBD23C01E3DE5F7CCBE339394;
	15352 :	BD52C53BBE3AE742BD8B6128BDE7038BBDFED24B3E560148BD4D85EDBE80230D3CC88417BE0B5648BE0F82333E92B1813B947B3ABE8A14103E2555773D202740;
	15351 :	3E054C15BD67334D3BD135B73E29F12A3E20755ABE5B4236BBEA0F6EBE00BBB8BC9A5BFB3E17C9B6BE970DC43D96868EBD3A9CCFBE7342B23B0C4311BC85AC0B;
	15350 :	BDCACFDB3C93F52A3B4D9CEABE0F7B313C9B8327BD9DB97E3CB747793E233D4DBB3DD9BA3DB90C1ABE158A603E30BFD1BD274C213B3CA114BE5D834ABCEF463E;
	15349 :	BE416ABEBD800F1ABE791A74BDDB1D9E3A23B25EBD27E057BE0A5683BD1B3949BE35306FBCBF20CB3DA125E3BD4154743E670B643E15A54C3D282C4CBE4DEB85;
	15348 :	BD962AEBBE7A7FDC3E51AABFBE7F74203E0887A3BCAB983FBE02987A3E02430C3DF5775BBD8413EBBDE373713C2C7FC5BE2B0C353D496C1B3CBCA5ADBE29285F;
	15347 :	BBE26B863E0AB5C8BDB34FA13C53AF833E6BE01CBE310A253D6D57183E4B9A1D3B90B64F3E1205BABC8FC41C3E12C98EBD5807F0BE247B5BBC2942033D50385A;
	15346 :	3936B5D0BE13F5163E1FB312BD9015303DB754DCBDC0D9F83CB7DFB33D852539BEAD1C653C10CD08BE8F842E3DC80413BDC78A1EBD81E6863E59380CBD129A2D;
	15345 :	3E7DC83ABE3A8D263C9AFCF83E1770113D5EC9AEBCD630083D71588EBB239299BE4116993CD2F7CB3DD49F96BBDA56923D60A2E7BDF202A5BE2DB4E9BDA997CB;
	15344 :	BE7B796EBD18F1CF3DB4B1FABE00150A3D0982E83DC4644B3DEFD9E93E1720C0BD723DEF3D9CCDC23DF483343B1BBC40BE188314BDE5C8753CA9D159BEB48E77;
	15343 :	3CFD25593CD971B03DB14FB6BE3010F13E0CAF1B3CC55456BE8E3439BDF0E0ED3D1C8A89BD092743BD12F9DEBE2CD1B5BDDB0C543CB6854FBE8A4CC8BE1E0671;
	15342 :	3E804B173CDEFF373DC0F1633B56C5BBBC808465BDE71D7ABD74E950BD3910263CFC0D74BD7075D13C84DB83BDB736743D89B3EB3D400C393E21E9983E2C4239;
	15341 :	3C36B6FC3DE2BAD33EC699FEBE0C2A47BDCEAA6ABE20848BBE0BDB6FBE5CA3C6BD9FE8563DD8C8F4BD7981CA3DE365B63C51D79BBDF607793E0FAFBE3C34E7E8;
	15340 :	3D9F939ABD076106BD28FFF53E2EC1263C081972BB9A68853DDE9F14BC2ADE6F3E0AAB84BE6339473E9A15D13D1022313CE640213E0DF5233CDBE1F9BDE98CDB;
	15339 :	3E7A439BBDAC28543E603EE03C297CDFBE0DCD44BDCF3633BE54B3363E27A1FFBD056225BE7612C7BE4FA2653E0FF1F5BD214C653E1D431CBE91ECDFBDB492E2;
	15338 :	BDE848D9BE74A22C3D13F9FC3D2B20E8BDBFB8F6BDACCC43BE09A838BE4B6650BDC1C9BFBC442A063D07F5EDBDBC8D2A3D9DB87FBE26931BBD26C03BBE3034A7;
	15337 :	3E619219BE4A1E08BCE0F9FDBCED03C4BE4DF44CBDFFCCA63DF240233E73A7EA3E46A7ABBE0869833DDED6F8BE3C936CBE414F7DBDE012D03DEAEE7C3D893E31;
	15336 :	BEAB1CC8BC7869F5BB9D1F81BE2D11983CA2ACEABD244569BD519F533C53D08DBC159D0BBE252136BCBEB099BEA47E6B3B00AB3ABDC2AB5FBD010B55BD0E1770;
	15335 :	3B35DA25BC44F163BCEC48FA3E425B5CBD96D5213E4F63FB3E1600943D8079F8BCB21431BD0933DFBE7D89DB3EA82DE83E0C52C1BE07AC563E1AC0D7BDE5A50F;
	15334 :	3D95500E3E0FF52DBE00F4E3BD8D12F6BDF71847BC7A78AEBDC33A253DDE1A27BCFE613C3D2403F3BD313B3E3D9154EB3E1B677C3D225D8DBE752F09BD760388;
	15333 :	BD87B751BC80CB24BD5B2D6F3C75615E3E56D0F53DA66C863E07990BBD8EF2763C222C9D3DC1B04F3E6F82B63CA2D1673CB53BBA3DFD00F83ED1C6AEBE0C1894;
	15332 :	3D52DD89BD908D4EBCD09785BECD659FBD4C902B3D4CF44CBD5AD840BC9635463E3D3D723C974D4ABDAE9B0EBDF46C77BE04BDE93E1428AEBE63DB723D7B8A5C;
	15331 :	3DD91F92BE0CE4D9BB539CF23D328525BE05F2AB3D4FFC363E47984EBDE167AD3D795ED4BD824FC4BDC0DD68BE28ECBFBD1625EC3D4D9CB6BD223264BE1C2600;
	15330 :	3E14B624BDA443113E6F4F91BEBA2A0A3EAAC19A3DBF0C903D7573F1BE4F3A8E3B330C8D3CB64F2DBC974C5B3D48980CBD39E78CBD8BDCEE3DFD46C1BC80DD7F;
	15329 :	BDB39F7E3DE836593D2259A13E252595BEF73A5B3E233D673D6AD736BCB459DFBD1010E53DAEBD93BDA750A8BDCA421BBDE43E6FBDD3C983BE6C02B8BDABE1AD;
	15328 :	BB50FB86BD29CBDCB9BDB93EBD1073893A239E7EBD184677BDDA94CFBDEFD8A4BEF6568EBE055FD3BCF87D623E1ACE84BE296A6E3DC89A603D8EA1E6BEAF3F47;
	15327 :	BDD0E1BD3E27CF763D925861BE0347D23CE978B13E33CDF73BDDA534BC99712FBD52DAA7BD07F9D2BDFE8B27BED8992B3E1E6A0C3E25BB5CBE39B529BDC8DC9E;
	15326 :	BD6D4A82BE1E3AB23DEB70B33D6A3421BD196BF9BD772F0FBDC02BC4BE2A22653C63DE033D879EDB3D88642BBD808DBEBE73E4AD3E34BB40BD2238073DB56294;
	15325 :	BD588E333E7015D43D98AE94BDD124583E89BF813E8233DEBD842D15BD175463BDCB6430BCDC5AB93D2D2DDF3E56885FBD64D399BE7B1CCE3E5846EA3DA35432;
	15324 :	3BF46916BD8864C03CE971F0BCD5D047BC315B72BE3EC7AF3DA7925BBD7BCFFF3DE5754BBE51263FBD5A2734BE02339F3BCEAC85BDCDC7B7BE4B57C6BD1A0394;
	15323 :	BC5388D23E2894CA3D8ECE543DEB885A3DB63B1B3D50EBA6BD3EBCD83D3F1712BDEEC454BE3BF8C03DA3964A3D73B934BE352C6C3C80D5A0BEA12C75BD3FA906;
	15322 :	BD8FFE8EBD9F022FBD8C7332BE0340F4BD5704B63DA28C34BD827CB3BE442B523E1F5D46BDF30046BEA633BDBE0500893DD3313EBDE6C7AD3E2854C03D300BFE;
	15321 :	BE3B77023CFC95753CC3198BBE35A205BCC81AC4BE5A18253DB43993BAC007E0BD76C5DD3D85E02DBDAE15413D561BE33E01DE0DBEA2951EBE461CACBE52F450;
	15320 :	BDE24270BD6B9CBB3E9F4CA1BC172A213D89E0513DDE51DE3E28EF54BE0C4E923E18229D3DE8BAA43DCD922DBE485E21BE4633A0BDC8F32ABB43D840BDD7E1B2;
	15319 :	BC17CC463CAB7BCABE3179283E47BE5D3E880E8D3E1CE276BE545865BE4E81D53E0EBE02BE0E2C253E14EA2DBDCD1907BE019C123D31494ABE7107DE3E15972C;
	15318 :	3E018B7A3E3EC4043E644371BDB375C5BE8C18513DC1074E3E6B4A243DEF7F81BCA0164ABD98C9C4BCA7D3AF3D21AB7ABCDC62BCBAAB4438BD8D07243D84D76F;
	15317 :	BD53728C3D41E7DD3D8C4B33BE316743BDDA96CCBB3E19A3BD38E9863DB9359ABACD17BBBE07390B3DB3DD8A3E747123BD89158D3E5BFEF0BB3F6B92BD8FAD4F;
	15316 :	BDB1CA30BC8496D03DADD3B9BCED362F3D1B5ABABC725FD13E549275BE5E2FAE3E51EBB5BB411A173C8E03DABD04368B3D83E0E9BE52D7283DBA1941BE241E9A;
	15315 :	3E4A10E03C0F65C9BD158C34BDDAACF13E02DA2BBC9B66CA3D5E19AC3DB81120BDE448673E36AA5A3C80F15C3E5A3558BD95E2D3BE8FC5A7BD0C220DBD1DC508;
	15314 :	BE179ABC3D1BBA433E838368BDB11D01BDF295E4BE2D625C3CD06F8A3D5972623E1ECD8ABD529E03BDEE7C743DFCFDF53E1FD669BE457F3B3E2EE2163D95BFF5;
	15313 :	3CDB551ABD9462E73CD391A23DC263603DF9CFF7BE09DA98BD288BAE3D8AF5B3BDD32558BD8C4FF83C7EA43D3D02DAA83D234831BD9E1FC2BD6B6C693BFFB32F;
	15312 :	BD9E384D3D47E0D03E57E2AEBE17BE56BDD85AE93E03F4D53D83EA8ABB882239BC29C0FF3E0BB5AABD84E80DBE535B7E3E92AA883D7B3259BC529A4B3D9A8AFA;
	15311 :	BD8D5B623D8FBC7DBDEB8ABFBDAA4D3E3E7238DDBE43D29C3DCCCB093D39BA8A3E3091D73ABA9BAB3CD1B5DDBE03EF673DB2F3F1BC78E35CBE8A0C293DB28828;
	15310 :	3E16CCBE3D880ACABD99EB493E5F41FB3D1C019FBE544C913C848F85BDD34A983D111DEA3DCB763DBD0203803E21331F3D7DEF473B6F41DBBDE2B219BE8BE64F;
	15309 :	3D92FEB0BDB24F36BDF763633E1864D3BDBCAE4BBE41A3A43D9EAD94BC8F77E8BE5475D8BC7FED083E205E21BD16156A3BFE7D173CB1D5D4BE98D30BBDF9EA94;
	15308 :	BD99474EBB1B87C1BDA7BDA83DC5AB55BE3F52AB3D4DE0F03E15337E3E2CED443C1C6D0EBD05A2DDBE59D99EBE47DC813CC1CB10BD9F1B9F3DBF61BBBDC29A95;
	15307 :	BD462D143E40E5653DB4D6CB3DA313483E4101753E1253A0BE22AB1EBEE67E45BE5FE64F3A30275DBDCDF8F03D90B34A3DF49BCDBE109C953E7128513DB31E1F;
	15306 :	3E55C6E83DFA38413C26355FBD52CA353E3964783DC4F8443E5B6EF9BD55B1E0BD5B2CA83EB929AFBE8D881E3C98193ABCD91E68BE678EF63D501043BDAC6284;
	15305 :	BDF36474BD8187D13D85885A3D813BF4BE2B4EDCBC403C0BBE4F777C3E37E4043E8628013E0725E5BC91699EBDB6FD0FBE240241BD8566DABE08BD923D9F915C;
	15304 :	BD240F183DAF24CFBC2AC022BD2090693E0AEBE53E4B216FBDBD06813DCAD66ABD86E012BE844E59BCEA8247BDC3CE763DB39C03BC4881433E08DC8BBD290967;
	15303 :	3D4A02ECBBE202FBBEA984DFBE84442CBE30545CBE3C043E3D478BE03E69C6713E30A2D6BD9D55693BA66D39BDB707BF3CE19453BD8813C13DC4B6923E3793C0;
	15302 :	BE1E9DF3BD43FD923E9FAEB3BD173D43BC147577BE1C6A97BE1FE3D8BE21CC6DBDE500A13C39EE3BBCA3BF42BC692A8C3D3F7AAEBCB435583D7B03BABDC6409E;
	15301 :	3D5BF8B7BDD112603DE69120BE068FDFBCF93D933E3DE360BE00D3423DF3761F3E2AAE873B7AA87CBDD95EAFBDDF31CF3D1831213CC47EE2BE640B2A3E48156C;
	15300 :	BB278B66BE4461C63D82AEE03C26AE81BDA947063D95A42BBE19CCFFBDC40DEB3DFEF608BD9F968E3D2F7AEE3DD8FDBDBE2213813D6C92FF3D59444ABC638B0C;
	15299 :	3DF96A45BDD152AE3DBFD6B13D50E667BE71654DBE44DA7BBDA4C7933E035C48BEAD3529BE3B2FAE3BBD64CF3D911DED3D6F64E8BE50ABE5BD066F90BD8F89CD;
	15298 :	BD388E21BE0475BABD125E103D034269BDBAAF46BE368AE0BD828369BC1BDD51BDCF0635BD4777543D9D94F73C9E23663D99AE88BE804F88BD6EBF07BC85F4FB;
	15297 :	3DDFCB53BDAE3271BE5D6F623DB617113E799300BE4006DABD96B35BBCAB0BC23D01C31CBE20245F3C858D773DFF9D283D603A2B3D03E6763DD71CCABE0B720B;
	15296 :	3DA7ABD3BDC6FD7FBCBA43A33D0F44703DB1ACAC3D7703C83E0F84A1BDAFAB76BD49FCD93D2897E33E0423EC3D7FE6D03CCBF27F3DCECC29BDA7C365BCAAC476;
	15295 :	3E7F3F633CFD808DBD3C7675BE5AEEC63C3936803E394E083E1D1297BD4335AF3E15624EBE86939D3DE521A3BE0BC9BDBDCED0BBBD65162E3C2A5EFC3E2740EB;
	15294 :	3DF65601BDA4B4A03E5E7A6ABD5D5EEEBE18471C3D94608EBD8D28C53DAF9EDBBE4ADD183E01F2883D7982533E07C5B3BDB385C3BE2534A9BE0732F8BDA6D492;
	15293 :	BDD680CE3DF4704CBE6BF5C8BDE19D573D1AB0F73E15E7543CB06CE9BCF6349A3CDDD73E3D0FEECF3B474C9B3E02F81F3E14832F3E6E8433BAB174183E03D218;
	15292 :	3E1C78BF3E0E4967BCA9429CBE4EF9F63D2674203D9866693C8903EBBDCA43C0BE1192A73DFF683F3E1E69233E3E5D0CBE5A9284BDAE54053D99D93D3D4025A6;
	15291 :	BEAC2C5ABE2CB429BC22064D3EABA73E3E304BE83BC77185BDE794F33CA4BC90BD8354AEBDD4572FBE90DB10BD4108FA3E1C4B6C3E697E6CBCAE1021BC42A74E;
	15290 :	3C81E60F3E4A2BC8BE1200943E0B4AE43E9A8A4BBAC895DB3DB6A7FF3E6BFBBF3E19DDA83E567C633D8EC85ABE073A853E376DA23E5FD67B3E3039F2BE3F979E;
	15289 :	3E0246633E40BA763DE46A693D1990523E78E30B3E831B87BDD62021BC8BB818BD06FBA93E64E6863DE51BC83DB12D4E3CAD7CC33D034539BDE9CED8BDC536EE;
	15288 :	3D81641EBDC721A9BD167927BC9634E8BDEEA14FBE088076BC99480C3D4209AC3E4C45833E033B753C626F6ABE2E79FF3E2EB6A73EC10334BCDFDC4DBC748E95;
	15287 :	BDFC0119BE5F63C03DD7DF6BBCA98A9BBE2CCEABBE2D59313E2EDA3CBC7131D33DBD803F3DC2CD2D3CD19DC0BD4E87E03E4E633D3D99E8C9BD0EDCD83DEB99DE;
	15286 :	3E0866193E6D50F2BDB787FABCA6C456BCB225C9BC3B1B353D125DBABCA6ED66BE5B5DAA3E7164573E0CA5253E5F5E193B678D923D1F3384BC69E3C83E5B00A1;
	15285 :	3E5C1366BDE91F5E3D93586A3C79EDD73A17F27B3D95DD4E3D8E0AF1BDD471E3BDE60E8CBDE725C83D87DEA23D4D6DBC3BE5A323BD336377BD97FB0EBC44DABC;
	15284 :	3D98A09C3E1A570FBE05D9863D27716E3DB8920BBD4BE93A3CE30176BD59CF95BDE1B25C3ED43579BCC663CD3E5A8A613D1E9174BE322530BD88542B3D45367E;
	15283 :	BD1C01C7BE20E2BABE02A53E3DFC90BBBD0C40A6BD1B6DA2BDDC2310BD40D4663E42EDD5BE1C147D3D8880EA3E48867F3E11E2763D5E7061BB7124FB3D9E3291;
	15282 :	3E00ECEC3E0F222FBD40461ABE5C69AFBCEA8B653E12401E3C4F28BD3E12DDD43D1FBA21BC650301BD990E1FBE051F7BBD9BD748BD3AFD263CEBAFFDBD9F3675;
	15281 :	BE467C54BDA5CA4C3C3B5E3F3D786E84BC9BA3963DBA7D8BBDC918C63D1B582BBB0B0211BDF9C438BC12F95F3E122134BC8A811EBE35EADB3CEE654FBDBCCD51;
	15280 :	3C86E2E1BE5740E0BC80A9F9BE99623BBD4FAECD3DA2ADC23D5698773E32B1A1BE6B7E2C3E47D2F33DA0F269BDFDE0BD3E22CECE3CC52B19BE60C7E73EC8768D;
	15279 :	3D2E20B33DA34F4A3E8E4A5FBD48753C3DAA56C43D88D161BCE15630BE2175BFBD71ACC1BE742572BCAD18F13E092BF3BD8156E7BDCB5F75BDA9E42E3D3917ED;
	15278 :	BD827DA43D9B3ABD3E8063923D522C27BE7CFB003B95E28E3D4868793E00800E3C9B510EBC8F5144BCABE49ABCF8D6753E1AF1B43EA0854E3C5824F23D44DDB4;
	15277 :	3E417F8BBE058AB4BE35AB62BB5C21F23E1123E03BC01EE53D4896BF391012E0BE3DF37A3DAD81B5BD081769BE01B3BCBDE19369BCDFD473BB26FAA9BC01F7C2;
	15276 :	3D937D9CBC0DB1E9BCE736FB3D709D57BE57673CBCA9782BBCE1C4BD3CEE8096BEC9FFE9BDE94F403BEB6082BE5143A23C94538F3D332630BDCC6145BD224417;
	15275 :	BE5215993D54640F3CAB7D4ABE60D018BE4BD2B33E523BD0BE9234FABD5C5F61BAF50700BE2120623DDD10F2BCAA2B413CBDAE08BD4E9E783D5C82D9BC5442D4;
	15274 :	BDFCD2BABCA95DB43C8A1ED23E1DD8FF3E02B9BC3E6AB0933DBF8FB0BD1E087B3EB1F9703D9C0EF4BD218EB4BE0AA85D3DB6E33E3D96B5ADBB406DAE3DC183A6;
	15273 :	3E07E588BE5758B73CC090C1BD1F2EB33E056F183E0E645BBE1520393E534353BE20B4B83D48F065BD5142B53B4BBC803C0DD8B0BD726685BDAE48703D5A36BA;
	15272 :	3E9ED462BE1C5A30BD149F4D3DEBB17CBDCD3D6ABE72FFA33C56C51EBE3B8EC8BD5C71253CD5380DBE3468F53E3FCF673D682982BE247B343D80BDAFBD00FF93;
	15271 :	BD831E6CBD62B824BB5AD9573E25A37FBE38573EBCF88B80BD93768A3DAB92E83E1A173FBD79BCF8BE191479BE3C63413D7BF0613E293CA63E507672BE30F32B;
	15270 :	BE3059373DC321593D2519D93E400E21BDE22082BC6DB72BBC65B70FBDF81ED3BE16D5B73E2DA11E3E85038F3E03D0033CE387A03D990F9B3DEF29C7BC0051E6;
	15269 :	3E53B542BD9A0F3CBDD1839A3E7D5B80BCE1789DBD861D9D3D537E843BF0C7413DB12999BDBE4A513E18261C3D9F753E3D565EDC3E6645143D37DB15BCDBF28C;
	15268 :	BE47D96F3E138B433D510E513E379283BD6BA5543D39BA7ABE03D2D9BDF5F03BBB7F98DC3E074B6FBC50179BBE1F3210BDDF40D93E363C94BE0BD3F03B012FD5;
	15267 :	BA6FBAA13C8B3A71BD375872BDEE21393D159F433E2E6BD23D7A3D153D08AF57BDA613413DE0E028BE3738083CDDCC5ABDCB26BEBD6A0BD93CFA9556392C2B73;
	15266 :	BCC2B17C3DDFCCB13DE521103C6B99A6BE43597BBC535091BCA53FC93D2C0784BE81E5BCBC86F41ABCFDAC813DDFB4143D117D10BD394A8EBE3F1FA7BC36ED50;
	15265 :	3D0C75F73DD6034ABDB15C9C3D4F38EC3E46DF283E839D813DD3AE7EBD1A5284BD2A5CCB3E241948BCD94041BD1C361F3D1CAC203E5C73163D839EB43E2619E0;
	15264 :	BD955E123E5BD60ABD8509C2BE27EA713BA1E969BD854F9EBCA25D04BD72FDB73E5A1796BD6CB61D3DA014CCBE0518743C66A22C3D8EA641BD9DBD8ABE09CCC5;
	15263 :	BD9D25C4BDA601BFBE0CB49FBDF53DDD3E19257D3E6EE1B2BDE3AA4C3D86902B3C975FEF3E1477EC3E32D69A3E2615B6BE4B5F1CBDA7ADC0BE0EAB6FBE21063B;
	15262 :	BD00826FBCA455EA3C5F4559BE6C6081BDD24D16BE4669FBBDF0E897BD18A5EABCF0D13CBE1DEBB13D8F195DBDFD9B6C3D92EA2F3DBA3EA43E01A299BD88B3EA;
	15261 :	3E7477AEBE6AF3AF3D5639B03C1A0FA93CE311F6BCF2138C3E84EA91BDE12C533E6065D1BD0008B73E4EEB0ABD9192DCBB5C5ED8BC2B33533DD92A3A3E30DF69;
	15260 :	BDCE872D3D806501BE1959C3BD876811BCC626423D56DB88BE32DF42BE117B9CBE78389CBE6A7AFFBE92A2A7BCAA01233DCBF92E3D3D8C8CBD5DF69B3E74DD72;
	15259 :	BE5D586A3E3245D4BE8F06C23D9ADABA3D74B789BD0797BCBC0B0065BD271C0E3CA0A95BBD0D0101BDB03C3CBE4E4FE83E3294B4BE062ACD3D029D1F3D87ED97;
	15258 :	3E5B10B8BD8A9B76BEA4C0AB3B288560BD0674323E0C18F03DC33EE23E0F7444BD34DF08BE16E9A53D925C873D390E8FBC8342713D4BF7493E17B621BD717833;
	15257 :	BC90AA82BE9F9BEC3C75BEEB3D98CE76BC43DF57BEAABBBA3CCA22B13E43E5CF3E1D24EABD16195ABE0B849ABE54E6C4BBBF5663BD3ED901BDD99A7E3D1D5E35;
	15256 :	BD9879B4BB6892633E12A86E3BF939793C29DA203D5BA2D93DE21D66BD129734BDF8CD21BA03BD1B3D8F22D43D8D10CEBDCEF53F3DDCA8D7BE84CF313D2FF54F;
	15255 :	BE2D745D3D8A2F25BE3AC0BD3E2F1C5EBE2D8A32BE0CA003BD0CD4F9BE2BF8CEBE2C97A6BE5CFB293B019D413EAE18BE3D889A44BDBF6BE0BE574D483D215407;
	15254 :	BD6993B53CDA24673DF341573E0010903E740FB33D1A2ADBBD85A4CBBD873B60BE218C11BE05B72ABD81B5263E0689103DEDD15E3D0D2DCF3CC757A43E041934;
	15253 :	3D9491063E74088A3C820E763D8A6F5F3D9FFE123C9EBE4D3C763B873D7DDA973DA670D13C4FDC813B9654773D6DEEB7BC15D46D3CBE44083E0082EEBD121B93;
	15252 :	3E24F0BFBD05CF79BE16A43A3D9B4CD3BDF737673D90E8D13E14AD553C401C5ABD5F764ABDCC13A9BD675C60BDF2BCFBBDB0CE6EBE27D0763E24277F3D055845;
	15251 :	BE4113823E81DEFF3D01ED6FBE1436E23D5A885CBDCED6493DE325253C509009BCCAA1283DD66A163D45A8553DC8AF2B3D0C7D4BBD088175BD5FCB8FBDE83602;
	15250 :	BAEAFE523E023C2F3E4215553C86CA67BDCD6DCB3C3C221EBBF45306BE4FD7B13D124274BE153C85BDA086D5BE49AB163E79E99FBCF39DA7BDE208B03AF3BA46;
	15249 :	3DB7D3A5BBC0A8C6BCFD1A313D8578753E070FD13E1B8F713BF78CF53E8086C4BDADA587BE65B2ACBE77A74FBDC748C83D2C19F2BE2794C7BE9A1948BB8FE303;
	15248 :	3E1241DABD313313BE236AA03D8DA8C83DEB75083C8E2C303C9C863D3E4C7902BBACEC94BD068CD7BD3EE793BD8E24683E052C9C3DAE7B443BE98F42BD258F27;
	15247 :	BD87E1DC3C7B04E53D7C6CB1BE3D0C823DE40ECCBE660A2B3E13973E3E26DD653CF3D86EBE3B90D13E465DFC3E9D5902BE024859BE4C9A2BBE192476BCB652A5;
	15246 :	3E35A1B73E5E585FBD6C74553E83479B3D2AB50C3E22EB7FBD79010DBE286F7DBE4EE8033E34C169BD80589B3E5DF5153E2B7526BE0635083D9781993D62522C;
	15245 :	3DBE54D73C5176673AB83107BDC4B133BD1300FB3DFF151C3E029B3EBE2AB2F3BE97AA2EBCA28726BD456E82BC4B7CBC3DC536193DDA981B3E6799453DCD14BE;
	15244 :	BD6F72B13D839B3C3DBC7CD6BE1B13DDBE7741AE3E0B0023BD853686BDAA758F3DDAD3E73CBA26013DCB8F60BD9D242B3E23B4EC3E910EE23E2F3F8B3DECC0BD;
	15243 :	BDA7FE833E55E8E0BDA52E0EBD55DB333EA3AE193E189AF7BCF8E45F3E2BCEBF3E23BB0B3D80021D3E66A118BCF31AAB3DAF1544BE0A1C723DFBA48C3DAADAFA;
	15242 :	3E56BF75BC997F483EAFD57FBE3A3F9EBE06386ABD8A9953BE661F753E3DDF0A3D00CD99BE2509913D7CF2233DAC6BC6BD596DED3DB7E8143D0E5864BD4078AB;
	15241 :	BA7744B13DCA73D8BD97C8903CF40C353DC0EE9B3DE85578BDB376BE3D5050243DBA369E3D595FAEBDD624AF3D8F19F43C1598C7BE1909373D9537F43E754A02;
	15240 :	3B9DFD2A3CD693A43CF3910F3BF63A36BDBAB91B3CC0D90EBDB54348BD0AC1FF3E149B6F3E6567BF3E5E9EF23D8FF61CBE187D31BD98F286BDC82E043C424126;
	15239 :	BD8477C0BDEA6E2CBD1A3C8F3E13A74CBE0071EF3CC074043E2C3E1ABD931A99BDB4B0D23DCD6A7E3C848AD6BE829282BCCDD3A63E035C293DB643E23E4ADA61;
	15238 :	3E1AF6DE3C0497FF3D700CA43E83257F3C9434A2BD02EC0EBE7A6E713E35D66FBD08328F3CC1B402BD24F670BD911242BE855CE1BD14A234BCC7A1353DB4E369;
	15237 :	BDE38552BD5008483E8C05633DC4B3ED3DFA8ADDBDBA7C6FBDDA73273D561CA13D9153FCBD77F99E3C815B8F3E6703403DA66577BD749FE4BDAC2F1A3D151FC8;
	15236 :	3D347C7BBE2B9D17BD7A751BBDD74C7A3D94DB883D8FA5FD3C62622E3C45A3D8BD3A99D7BE352FD2BDB4A62A3D9C99943D9C426EBE1E5DF2BDDF61D63E3F22D2;
	15235 :	BE1A62D63C8DBA8E3E11F07ABE57D2C4BDFDE0F93DC041253B71CB823DB939CD3E0A8BD0BDA092B5BD74AFF2BE6809D33DC540D0BD6CEE3D3E6995D63CF9C964;
	15234 :	BD8560C63D7649E3BE6EA6B6BD981664BE40FF03BCE36F5A3C3C091CBDE9B7D8BC9F40813E692B583E1B3650BCEC4A853DAF8B40BD80D39FBBA528A1BDB9B648;
	15233 :	BC6C44FB3E2F9C2DBD9983A73D4D28E8BE084124BE2AE3F13C8E7B423CC37610BD70D585BD559ED2BCE06E383D40C18E3DAA73CC3C9F0CB2BDE05479BE0102F9;
	15232 :	3DC282C5BE9A04283CD71D253DD87168BC7AF0AE3DAEF14ABD9432B9BBABDDB53CCBC047BCC5F5EC3DCEC6DBBDF1654FBE1507D4BC7697843D8519E93D436F0A;
	15231 :	3D2288A63DB37E3CBD484327BE22396C3C0DBBA9BDA1B1C13D43F73B3DB7E19ABD7F58EABE01A301BDAE82FC3DB6EA153E23F768BDCB6A65BD9F4A7C3D8D726A;
	15230 :	3DA6FB553C2D24ABBD2D95283E2A57033E72DF20BD7C63563D7DEEF53E32122B3DC2952D3E14533C3D9B62BFBD8DC8C33DC461FB3DE3FD04BCAC99E63D8C14E6;
	15229 :	3DE855BD3BDCF0A93E3716BBBDFBD6433ACFD5EDBCF32A8DBD1A8545BDDCCC5A3DDFD735BE138CAA3B614735BC391C943D2D9141BD4F8D163DD34C7BBE4D1CAD;
	15228 :	BD9C4055BCFA5C8DBC3F7EF63DB2609D3DBF52DC3D000615BE0F6BD5BDB15DE33D911BACBE5346A53D94767E3D666A8D3C3148F5BE8C579DBE05BFA6BC84DE5B;
	15227 :	BE6DBF763CB34BCD3D914008BD27D2373DE2FD3CBDB63BBEBDF8B5D7BE358F42BC95CDFEBE47EEFA3E677C7A3DEE45653CC5966E3BBB79633D93C52CBBF14270;
	15226 :	3E7146F4BD98F3D5BE34A8E4BB7A72D5BD002E82BD3B63DF3DB9169B3E00361ABD08F1F5BE683B2ABDDA46343DC09DBA3D576FEEBD46208C3E5C0E4ABE495B63;
	15225 :	BA726D353DE7C3D83DBF3BBA3DD7F126BCA76B8BBD11BFB0BCBC6B8ABD760656BD08362BBCECD10A3CE832A7BDC935643C66CBF33D813DE13D78D827BD93DFA1;
	15224 :	3E1E09DD3D61CF46BDC680C53D461CECBEA4864E3E2B634CBCA2B485BE048CB13C1B89073DFAB38F3E40FA7B3D618D973E2FEEA83DDDB3133C1A14B1BE08A4FD;
	15223 :	BE259E3DBD3283DCBDC078EBBE26D0A93D9428013E71E61E3ED506633DCA671A3E2286383D335D31BE1C7F52BD873991BE2F86C83E0791763C21CCFA3DBBB355;
	15222 :	3DC9BF743C9E7BCDBD16CECDBD052E7E3D9D4EC6BE558925BCF8E52DBDC3379C3DA4B666BC3FE66DBD155E183E4A673C3CB13DCC3D50D29C3D8469CDBD3E5400;
	15221 :	3CD9DC343E076F6BBD62E3A03DB20FE7BD1F8C7EBE122C523E3AA9DFBDB33711BD4AC9973E4B35C2BE10925A3E1739ABBD4059993DC2F5D5BDDB44353DC67D04;
	15220 :	BE6882FB3E8085DF3B829F163BD5D6D13DBBB08F3DAF3A2D3DF880BBBD090F6CBDC5BF8DBDBDAA7D3E75B545BD3BBD54BCAB96D5BD832B6DBE3DA2F63D9882CC;
	15219 :	3AC67F8BBDD3BE1ABE58BF4A3E37B267BCFE06AE3D2E5D1F3D980AF7BDB828643E67E8983B55EAD5BD8CBA2E3CF571473E368B733E3196023CDFBFF93D5E47DB;
	15218 :	BDD6D2FA3D55D72FBD246563BC2CCA5E3C5596793DC8F636BD8BB438BDD34B0BBE527B62BD135ACDBCB298BF3E413A8FBDC1521BBE2FFFFC3CD29257BDD17A3A;
	15217 :	BD9E06523D9C02C73DA2CF15BD5800FBBE5A44C33E2C743B3DE6525CBC1956AD3E1C3483BE2F26F0BC8A9B473EB05D18BD75C1903DE4616B3E9F4E8BBBC2BFA2;
	15216 :	3DF8D8FB3EBEAA073E4F2A42BEC657D23D26CEFFBDB256583DD608363E55942ABE88D784BCD415583D9EB5F9BD21874E3D4C0EA73DA5C6A93DBA89BFBD88824F;
	15215 :	BDC70DE33E414A38BDD017D13E53C286BE1262313C9E5814BCAEC2F3BE03FB8E3E115D923E22CF1D3AC6FD423E6535BB3C946F45BDF647863DE1D4883CD4F8E3;
	15214 :	BE8867A6BB3F58D8BD858932BDE5F0AC3DA15F50BD54529CBD6CF097BD06B544BDC8E6D93DD3A1B9BC098CD53E3A29243DF6E899BDBF1A80BD0CD907BB473FD9;
	15213 :	BE4B33323DD8EF9C3E2FE4003DF7DFCABCEDDD51BE38BB773DABFE26BD27CBDBBE8235BF3DAD9AA4BE2596FBBDB45E043D89A69EBDFCE7DC3E162D19BD2C8053;
	15212 :	3D42A53A3E80A4713D8FF9D93D9A09D8B8BFD3AEBE2B8B0E3C89A178BE15FB21BE0ACF1A3D59E5513E59A5D53F03E1233E6207AF3D3A06513DA7D5E33D9FEBFC;
	15211 :	3CD0C9F23E2A1C393DD1BAB73E574A8D3E0B004C3D98E3593D4EEBFA3CAD8D04BE88628C3E2040773CC399F53DBE7EA7BD36E4403D65D9DCBD14B9C8BE05DEFC;
	15210 :	3DA5C4273E6F014A3E2B2B43BE8928713DC54726BDF081CBBDBF4BCE3D051A373E5320DFBB3EB6FBBE0449D7BC163F72BCBDC0363DC6C8C93AE8953FBD2F0A84;
	15209 :	BB448294BD92CB38BDB17515BE07E6393DC8A0B23D9462F3BE1E41AB3D9591E23DEC553BBE8078A43E039743BDD69E2E3D3F77D6BC612161BD27DC6C3D7FB524;
	15208 :	3E3F47203D11A78C3E957419BE05721CBE8F6110BD5206993AE643BEBCB3E2B8BDC9A4DA3DA54979BE024768BE200608BCF0CD81BCBBE6D63DD10D4E3D41ADDF;
	15207 :	BE09E1BC3D0F32A93E8C03AD3E21CD1F3EA3201E3E0020D6BE849681BE12C55BBE13B2DB3DEBC4C73D82B3743D2C31A2BDECACEDBD5F59A0BC4FA4A43C297761;
	15206 :	BBE225803E3652C2BDB490E1BE426FC4BD7943693CF5E6093E0EE253BCEDEFED3DF8A0BFBE1FBB09BD372B203DCD03603D2CB8E33E264FA23D4FCA313CD5AB6A;
	15205 :	BD8856853E701F60BE2D40B1BE1FA8143B154CC33D00ACC5BE04653ABAD66FB8BDCC202CBCC7B2C8BE078BC13E11FAFA3DE6BAB1390FE4203E002C313B80AD61;
	15204 :	3CBBBC743E92A8D0BCEE0DFFBDE4DEB83E3BD5263DC996F33D7BF42B3D13AC27BD9A0554BD827AC2BD8CB642BDE673B13D765F8A3D26FAF73E3C03F3BD944E33;
	15203 :	3D0F79333E0980BB3C91C52D3E2693A6BE1F8BA23DF14DFB3E238EC03DE11CE63CC648B7BC7291653D119394BE42198A3E167544BDC8F0CA3C5A53B13E3A6A1E;
	15202 :	3DB1B5C93E1C9B43BDF79B323DD2260D3D74F737BDFA7BDCBE21BB3F3BD5E6BBBDC22C7A3D57A2233D80925ABE3B288E3CAF4028BE236A713E4ED5F8BCDB7F93;
	15201 :	BCEB509A3D8840F43CBA2ABCBDFEFA243CD1D5CF3CA399CDBDDE2BF6BC7784A9BDDA4FC0BD64150DBD5D8B213D9C4628BE61DD5C3C95D6453D8ECC4DBE178C86;
	15200 :	BDB1B73ABD073A39BD4059FBBDD275D4BD8B92693E0031CABCDF54CA3E2755AB3D359A9F3E028B30BC66CD483E05D6383E2D16433E04F377BDD26A90BE964A7A;
	15199 :	BE1A130BBE524AA8BD4921A83E3AE01B3E7CC0363DBB8E963E6CA987BE3A8C4D3DED63263E433EE7BD7D23AA3CC4C9993E8F6E233C19E870BDA364F8BBDEE535;
	15198 :	3D64E4343D4D27553D3AC3CE3DBAC8853DF75DB7BB5A1C98BBCCD64D3E6C6259BDE610C03C7ADC34BCBD934E3AFC4445BD262F96BCAEAB6ABD5795D93D369276;
	15197 :	3CA21FEA3DE7BE7ABD61C53ABDDB88D63C81156CBE593D3FBDAB60BC3E98EFB33D6DED9FBD9EF9D43D1B795C3D1629F33D86E9D3BDFE2DBDBD095854BE447017;
	15196 :	BD5E6E00BD94A90FBDCDE7E1BD9DFDBC3E1BC19F3E4686BDBC351EBC3E3FBE303C56BF713C9A2F2D3E8630503D745A16BCA39D29BDC6337FBEADE4F43E1E3A00;
	15195 :	BE329728BD989B26BDC90F0C3D17C7D2BE1215853DF8D3E73D9B38CFBDD7949D3D102C37BD786133BC62C8C53DB597C9BD7195C5BE2394A3BDA7A1E9BDEE1F96;
	15194 :	3D90D40E3E8817D8BE4557953DDDB538BEB6ABF83E697F7E3D64E73FBE83FDBBBE9791DF3DFCA6F8BD5C16FCBDE3B444BC6D5E8C3C99E83C3D9209CABD56E3CF;
	15193 :	3DB46BA03D97D303BDE64E95BD7AB64FBCA27CE6BE8E3CA83E577D203D5CC0483E3649D53DE54A83BDA239653E9DA7EFBDAB7FA03CE02B023E15CDA6BE80B1DB;
	15192 :	BD5FA084BE2082163E3EF84A3C277ABEBDB0D3ECBE79BF753DF7F00E3D567375BD014F3B3DFE1538BC6916433C3C86FBBC2135FD3E9987933D670FDF3E2C7464;
	15191 :	3DCAA8813CC9745FBD8BAFF7BD982EBC3D172303BD96FE99BE839D733DE7718B3DDDA3DD3DB24BF83D0D7462BE412C55BE3E163ABC76A9BD3E84D9E3BCB4D155;
	15190 :	BDA88040BE2D36D93EB3C3ED3DF424B33E38BF83BBCE3D6A3D5193A93CB183A0BCFCA3EA3DD17C5BBD74F833BD597D873D2C30173DF64CE5BE8F8316BD304F76;
	15189 :	3D7E81BDBDB0CBEBBE302C07BB538FE43E892B913E287AAFBD9A61C13D9CDED23EB969F63D8322E53E4A0278BE75FF43BE0002E4BD42A6183E321711BD8D570D;
	15188 :	BD13580C3DEB376D3D0710C2BDD60C003D7F632BBD18BDB8BE2758083A83FB4A3DEC7DE23C2E00FCBDDAD625BD176C163DCF25A1BB7D6854BE21E2A9BD9D5465;
	15187 :	B9EF2FD7BD3445C73D5D5EDCBD9BA198BDC72C843DD9F7823E368D7BBD1ABDD9BDD192703E0A32E23D9298EB3D7DAF7FBDCE1A033BCFDED93C6815D93DB5EB4C;
	15186 :	3E363D8CBAF57411BDAA5E7C3DCD0510BE209F9F3BB8910E3CF2D8883EA4BED8BDC32D22BE231946BCF40FA2BE3694993CFCE605BD093E103DEE3E583D8D891C;
	15185 :	BE016AEA3B17B408BD203A5DBE0A1C1DBBCFE1C43E29E5F03C7CD9463D8A5CA5BCB1410F3CD8EC5E3CE7140F3E49A0FB3C882AA33E59D0873DE90B2DBCA6FFCF;
	15184 :	BDC8BB303D5FB1B33DE5FA35BD1BBF9FBE7163AC3DF4B7383E2198BB3CFE6C70BD2BBAA4BD8B7FDF3DDE8CD33C04B5223E4D81B73CF803A63C78D695BE774915;
	15183 :	BD8E4228BD4826733D05F8BBBDD02DD7BE16AF6CBD36B6C4BD328F673DB47EFABD97C9F4BD96AA0CBD1328E83DF3D5E93CDDC8F53DCABF25BE5A9B0A3D2C4BC9;
	15182 :	BDC3C1C4BDB0AE51BE1C144B3D607227BDBFF5DF3DCEBDFB3D985110BD07DBB6BE709E5B3CFF2075BDDC04C83D9088CBBE44B286BE5767FBBDCF71EF3E361AAA;
	15181 :	BD8F3E6B3DA3DA383E38EB2F3D00A21BB94FF455BD18FC203DB25D52BD8A3ED63C898EFFBD85398FBCB002C63DA835173DA14C323D9162183D0AC6C2BDA1A722;
	15180 :	BD7A26423D8D895B3DC248CF3DFCACA93D181AA6BDBE25063C818E61BCF2F44F3E268941BDDDBC093DE4B8A3BDD12F8C3CBD1EA4BCDF2F3B3DFB7A5F3DD68DD3;
	15179 :	BD4703DEBDCCE6E13C6D1AF6BDF4D155BDA48BE63D68E02B3DF2D80B3CB2EA17BE83C4BFBE660910BDDFDBABBE13387BBE0D4578BDD8F61B3D6FC8503E84379D;
	15178 :	3C968D3C3CB119973C9405FFBE912EBA3D9BA1D83E5008DCBE56320C3E17A0F63E0F841E3CECA098BD0A1448BE5E8BB83E45A2593E3C081EBDFD236DBDE28AEC;
	15177 :	3DC13207BD472C7BBC7E48683E2989CDBEC682B73CF9DF04BB2C1C933D4C82013D1A3500BC801825BE608D1FBDAC04C23E4DF8C4BE23BFB6BD80F0013DB2D2E4;
	15176 :	BD855424BE817840BD88840E3E45E6863E13FEA83CB9FAA93E0CF3D7BE68A3233D307E4ABAF953273DB732573D9F5039BE0ABB59BDE3FBFC3D81E5703D9CFBB7;
	15175 :	BD8B9B41BE487E18BB4FAEB2BD9E30DABC3274D73E0FD772BD127B12BDB42A183E8710903D46B5CABAE86C103DC6C04D3D836D55BE18363E3E4505FABD941994;
	15174 :	BE35D1B73D98968BBDA6F3F5BE8DF8243BA1E3A63D326A453E57B68B3C9CF2ECBE0A205ABEAD85D43D8F2ED33D4784E8BD255D983E3176D6BE3220CF3DAC7531;
	15173 :	3E46609EBD4C92A03DB34FA0BE0DD3CABDE52B323E00155D3CB1D4F6BE50C9213D8B47B33E690BB43DC4A1C53E06F7C1BDE7C0C8BD8560853AEEC111BE07B967;
	15172 :	39E987D3BD87A07DBD7EB3A3BC5288E23E078CFABE59199B3DA26C9BBE08E75D3E26A14C3BC96A773CB8C28D3DBAC6CCBDCA8576BD470DAEBE3CE14C3CAA555A;
	15171 :	BDA55C10BC4A18ACBD5698B03D0514333E1E988BBE1DD4EA3DA5A1763DF713FABD6195023E70F61EBD03283CBD80CDEEBDF30119BCF7BA183E27962B3DD0B79D;
	15170 :	BD468E22BD0454D63D78BEED3CD784683DB80B503DD004E83D7A1B1B3BFF9F1ABD00544D3EB588BA3D52489CBE962B033D958CEEBE1EA051BCF8F3593DFBE4F3;
	15169 :	3DE4C0883DC1F6B43E3D19C63DC29DCD3CA0774B3D447CFF3D8E4A473E4D36E13E9CDD7C3E39A0383C200991BE2DD1033E55423C3D791C803CF20CB0BBCC7A34;
	15168 :	3D3170E4BE046CAABE0C41BC3D29806BBD27CA573E2D997C3E01588B3D42D6DA3D5064D03D8E83F4BD7D290F3E31C2623D972147BDFC6CC2BD5D49E5BCF13D4D;
	15167 :	3E68A8A3BD13749F3DD9B6C63D85DD963CB49927BD3EB34A3C03B7DA3D6B7F5EBC9E665FBE042872BE2B3B113D88A5BD3D4FD651BD60CF47BE14B5963D86812C;
	15166 :	3D9B148DBD41DEB43E3901DCBC7A37E43CE9CA7FBBC11352BD90919ABE9743293E41574A3E344231BD049CD7BDAE0B74BE0351EABE806BDABB0994A1BE09DA49;
	15165 :	3D5D65F33E010FAB3DA52A40BE3623413DEE35F1BE1735DD3C409477BDDFBFE43C7D6D7A3D07EA0EBD9D66433D8663ECBDD11BB43E4DF66EBCF52D26BBD73B46;
	15164 :	BC9C4DFFBD6BAAA23E8843603D689451BE17F8BE3DBDACBEB9AB4F3DBCF336B0BD88141BBC3BDDDF3D257CA73DA7984DBE45446FBE078835BDF6A48FBBF9C5C8;
	15163 :	3D9CFFE6BE3856513DABC66ABDBF13D5BDE67BC93D9FFBA13E2F2333BC480B4FBEC59932BDA1A61BBDE2147BBC587ED13D3C2057BD7F53D9BCDDE5E0BE8A6630;
	15162 :	3DF53B4C3DE5389EBE8F65573D9768B43BAB496ABD453B0FBE22FE063CD3369B3D2979B03E07E8D7BDA4A231BE26C275BDC35813BCFF557C3D9F3750BDC364E1;
	15161 :	BD709C28BD326B22BE24768B3D509D38BE073997BE043D673D06B0B33E74D6543E1C7929BE28F798BE2A6B9F3CD7D6A0BE147ED93CF2CFBB3E038F963D4940F8;
	15160 :	BC9D41F73D57DB56BDAD4BC0BD585DD63CAB5BEDBD247293BE290B62BD1BABB6BD28C8B3BCFD00403E4A2C613E426964BDA165FE3DB9D9AA3E23648DBE251204;
	15159 :	3DAC1E193DBB746FBE36B380BD9A0173BD48359DBD88F3CF3D4D7CC63DCA44903DEB4E5D3DBB10F0BDE690183DACF43C3E842706BCFCDBFDBDE837D83E269F8C;
	15158 :	BE8C64BA3DA74990BCD7FA033D4DBA1B3E274E0F3E8F5D8EBE161CE1BC1535833D1AA0053DB1A13A3D5D0468BCFBB0953D9B3A36BD82E62CBD166268BD7235C0;
	15157 :	3E1E514BBE225D98BD7A5BA93CBD256E3E26F61F3E24526BBE338B733D3109713E1944BA3BD303583D15681BBD7F5204BE3404EC3E29D0103E4E014F3ED3B82C;
	15156 :	BE43E2B2BE2A07C2BD9A1CD93DA4E504BB9906673C1B5707BCF6EE4D3B22441DBD2778243E2BBDB83CD00E37BD5924123E193779BE06B989BE8136E9BE1F47F6;
	15155 :	3E2AE11A3E1E84753D74AA553E194DEABC867E2A3CA36194BCA0BA52BDC7F62F3DFBF67E3D3F558C3D90F85F3E2D8FDFBC9232483E3CE26E3CCC53063E06D12E;
	15154 :	3DD09B603DE9DF16BD097CBEBE2B7A6E3DF082ED3E00BD803D47E198BE17C88F3D42BE0ABD4F6F09BD5BA1473C05217DBE27508D3E2073B33D8A26C13D001797;
	15153 :	3E9873EE3E691E43BDAC8D6ABB57E4D33E81B29B3D4FF9F5BE1AF9893DB4447F3D8A22ED3DFA1A9CBDDDAA903C59A2C53DAA8976BCB3FCB1BDE1A61CBE0230B0;
	15152 :	BD129BA33E83C73F3B7B28E5BE04F167BCC24CF0BD6004033D8BDE213E6832023DA3B4CE3E7155A2BBDC0A363C98EA7C3D07AF9D3DB02519BD463130BDE37218;
	15151 :	BD60855CBD3AE8183DF0F7493E64233EBC4B1EFE3DE9F9F5BDD813433E034A82BDE2F82DBD94EBB63DBFD8193DFBC34ABD8DA9B1BD960BC3BD9F43653DC24745;
	15150 :	3DEEF28B3D3A58A8BECC834B3E0F48503D204F983E2B27503D1F53E23D8A63CA3D83C29DBE0A5B913E4516693D5F301C3E0CD9E83D7C6B243D46CE413E10FBAA;
	15149 :	3E444961BE1FC6B6BD025F6E3DAFC223BE1E0FC73DA4FF93BD87A8393D0517923D9BA26F3C622EFEBEA1A7903CA4BEFE3DC381AEBB94615D3BF6C85C3DCB1F15;
	15148 :	3E8C24063E9287AE3E637A26BD7BE3BC3DCADF1C3D60C183BD8AE42ABDC0E00DBC2645883DAC4D6CBD8C94A13CD8B07EBD90048EBDA1B38D3D201E48BD931D84;
	15147 :	3E895619BE83EA62BCF6242ABE4F9CBEBE5C45B5BE32FEB93D3E6DC0BD5978813D2619753D813C8B3DAF65A13D4E52D63E936218BD832ED83DFF72703D0B8134;
	15146 :	BE983FF23D9479F9BDA48A853D324CDC3EB7B01BBC8B59DD3E61C909BEB24A4F3E439BC7BE96E3ABBD8D18503DBD3C553E81B8D43DEEB7E23D02C7AF3E87736A;
	15145 :	BDEFC2823E51C310BE9FDDC73D2F100A3E2AD3D7BEB1C7D5BDBA57643D1D99A33D1767F03CB6A24E3D8CFE46BD24C2B63EA407A23DB8AB1A3B373E5E3E028038;
	15144 :	BDF2773F3E29E0863CBCBA1C3D7F95783EA63CBD3E0CF8F4BDD36DBCBD2D34873C684E913CD1A257BDDDF4FFBCD4BAC1BDAB8104BE3CF2C3BE4D79CFBE11581E;
	15143 :	BE0638533BF77EFB3DB98EA63DF278A93D6BAE6F3EB099783C07E2FDBE3A9E883DCDDDEF3E2EFAD43DE2E8CDBE024D5DBDD06F15BDB708523F3018D8BDE9863E;
	15142 :	3E9771CDBE2E486DBE0C159DBBD54EB7BE8949253D96B7FEBD86EB21BE2F6550BE411611BDAC6B8F3E3D7E583E9310B93E0BC21A3E8156F1BE1813A03D871267;
	15141 :	BCBB2D4F3E0CBBA2BD3241C0BD899DA2BE127AF7BDE8BABBBE13F3AE3E468AF2BDD5220A3E73752EBE7451AFBE05654A3CD358553E617DE5BE1C7E023E365552;
	15140 :	3E1C9DD03D4843B0BE8E14463E5871FDBD3F66F3BD2E2CE2BE8666DB3E8F5434BD99FA223DD71D6A3D16DD1ABC890816BD86EE75BE53CCAF3C9A88363A85FB47;
	15139 :	3E466A023DBA23D9BD856C5E3D74AB9FBDB518013DD0B28DBB4AA2FD3D40E2B23D9D9A6A3E6B8F383E3805FFBD9032E1BE851342BE4E387C3D08D394BEFB0620;
	15138 :	3DB1D0063EC8FF31BD85B1D13E5871DC3C7EC4513DF38EED3E847F363CE45612BE7D0D483CEFF8C13C1D7842BE9165AC3E24165C3E112A0B3EA92D303CC689E9;
	15137 :	BB5933F63C75810FBCDE993A3D2FE0A2BCD1C8BE3DCA1E933D300030BD53DD84BC3D1C763E2AE81B3CD181CDBE4F9195BD6FAF6E3D2C6F393DD213CB3DACC0A2;
	15136 :	BD11DD6BBE47CE9D3E296398BD525C87BE99729EBBA296C63E02C4E6BD6B0661BD085CB6BD68174F3C9C2C26BE569BAA3DCB41003C78A5EB3E20D8253C38037C;
	15135 :	3E2EB62B3CFCA2E3BEB580E8BE81749E3D8BC05DBE337E0A3CEBC6543D5D3076BE44A58F3E173C61BE04DC373CF593ACBE7C02CC3E109866BE4AA8A63D7C36EF;
	15134 :	3CC3843D3E5E736D3CFFA8503E7D78BDBE3DEE5BBD27D0AC3B5662AD3E0FA0353E5B35D13DDD51B43DD8DC323E6597303E1A664DBCC992733D8F8CE13E35E270;
	15133 :	BD795306BE445347BDCC7FB9BE00EFFA3DC55CCEBE2EF0B33CC92DC53D4E083E3E069EC3BDC2EAD53ECB65073D609090BE0913A9BD8FAC48BE1F83C0BD9F491D;
	15132 :	3E4CF5683E8B11033E1480733EAC1BE73BBDA898BE1DA5EB3E126C2D3E055B0BBE0E3AF23DB42BC63E168DC63C8AF17C3DA5FAFFBBAB5E14BE3B48233E80CEC9;
	15131 :	3E52ABB63BEE71A93E0CE3CA3DB2C0CB3E1144EC3B3F8973BE588F8E3D1F75F63EA47A16BABC89CF3E5678963E090B743E50DBDEBBFB162FBCCE370CBD6AE01A;
	15130 :	BBBA313F3D317384BE28580C3E8F11C6BBDD2A1B3D6D8CB33DF7C6193DAF9F9BBDABDAEEBE6F06DC3DC049BCBE3D6C6A3E769F03BD0542383D933B9E3D96FADD;
	15129 :	3CD3A8713E692A543C8D6FEFBE205BF13E6A937DBE41B1343DF5D10BBDE52EA3BE5FCC5FBC858DFE3E1243F23D49E8503E78379FBE0F2561BCB55067BE63A37A;
	15128 :	3D849A5BBE1D6407BC91202DBDFDD3A1BDDFF71FBE2EF8743DB53F76BD020B693DAF1D3D3D181EA03E8BE504BE0D366F3E0B2E813DACD88ABE57E88EBBE2EE0E;
	15127 :	BE435F423C99DBCABDA3A6A63D8086EBBCCE6B93BDE94FD2BD4F36BA3E51500F3E423790BE1878D13C3867C73E8EF4723EC715273E8001843E4BF0CFBB8C2464;
	15126 :	BE7286BF3E9C16AABEA9FB5A3E9B53B7BAB09DCC3D1B01063E30CA4F3DB79C393E8D8D973DD5D422BB40A4903C5853623D87BA8C3E241C14BD03791C3DF63E3D;
	15125 :	BC0DCEAA3E05B091BCB6B7623C716985BDFDC1053DA7F6DB3E9BD7DEBEC496393E4C181DBDA70B983C705E5C3C14556B3EC640E13D699DEEBD32D9D03D0DD840;
	15124 :	3E555F4A3DB4BD4D3D84069EBD6D29493D2119253D68521FBD42DEB93EA75AFD3E1043C7BDCADD26BCC3EC5EBE07165FBD64E3FEBE973DA6BE0A63A8BD257CA6;
	15123 :	BE25E09B3E345860BEBA2BE03CE892953CF6F6C4BDC39DF1BC76D4E63E1C9A013D9E89333E0A27173E318154BD9C1E70BCA590E13D8E25273E00E928BC6650E3;
	15122 :	3E241477BD92A0EE3E1388E2BCC4E176BD88599CBEA7BBF13BF3F0D33E74E0EB3EB4EAE33E0416A73D596FB43DA9D8A2B9060108BDCB3F3E3E6B1A4BBD904C70;
	15121 :	3E62F7FBBE3E674ABDC521483EA0F6A03E4610DFBDCE1D3BBAC5B55FBC443C0B3D79B109BE95CCB83EAA2BAF3E12C46FBDD3289D3CB582923C928BF0BE030AAC;
	15120 :	BC10F3DFBE66CED2BD0BD24C3B5B66D33DA8FCA0BE24719BBD4D079B3DB3B36D3EA61FCEBE3D3A07BEC2B70CBD1BCAD5BD5273F9BDA6F723BEC34D9B3C8B7E37;
	15119 :	3C720F0F3D9B20C63D37CF583DCD2C2A3CFFA0533E388E643CEDAA65BE735A673E63ABA9BD98F904BDEB2403BE3AB7DD3DE27BDE3D8C985FBE6FA691BE2B2DDF;
	15118 :	3D64DC6F3DC7006A3D971FFA3DBE296B3E10959CBDC54F7ABD23E0B73BDACCD63E3A0B883E0FD33A3E124B91BD208B8EBDF1AB793CD5794DBE4851F7BE1EEEF5;
	15117 :	3CEB70E83D6FBCC43D6694D03C0926D0BD138E39BD649BA73DA48E923E017E193DD3DDC83D1B297A3E68F755BDA9C61CBD803AB73DEE1A803D134FFEBD27F87C;
	15116 :	3D9D5D9D3D5FE7943E09B84A3D1FF2DBBC0293983E48AA38BE93275CBDB390163D6874B1BE8476E73E0A7DAB3EBE37C1BDAC3B343E074F14BDAE1644BEE4DDAC;
	15115 :	3D8088C7BDB84066BDBD6712BE28E5643DDCAAF3BE8E58B83D159D333D07D3913E04E3323D46A4973E8CD2AD3E87EED33E368CCCBCC4A9C0BD8B854C3E578C2D;
	15114 :	BC935EC63E06312BBE7BE0A83D5F068C3C831785BE8CC34CBD6D63C7BEC0B044BC23C2CD3E7EA47E3DD0DCD73D22D9A43D1955E9BD32BB353D80B735BE9A935E;
	15113 :	3E169F4FBDFF921DBDC12306BDF8BE5E39B94E5A3D3C5230BE16EAC53EAF14493D21D9CCBEA0DBCEBC18A7003C4A63FE3E7125AB3DB7FBC03E053763BE393E5B;
	15112 :	B9C493A9BEA3370EBD09CEB43CB6D2B63DC94B5E3D5ED9C83D7A27523E0B075E3D5ECC053EA9C545BE21DAC43C7921CC3E7839933DFEB09C3E995FC1BD0B24E7;
	15111 :	3E6ABFAE3DA1C63BBD7EDBEC3D182E57BDD00D503B6B0AB53D9A63FFBCCCCA9BBC71B268BDA022653D6C71CFBE30A9133E9170033C71851ABEA3D8293DEEB913;
	15110 :	3BAC2B743E1F7D363DA08D9ABBCB731E3D249F1ABE42DFB33E1CAF3A3C0B847D3E76B16F3E35D2D13DB2F7063D9DC4F2BBCF8D263D2734D5BE772CE9BD7AFC17;
	15109 :	3DFA3A89BBF278C6BD6D7D3CBC1E68953DE99BA9BE283D7F3D85CEB53E230FFB3D80AF3CBE1E689BBDDB49B83D67035FBE5FA9C63E57B8B9BE2BF6373E258131;
	15108 :	BC993E24BD60E4D93E106E6DBD3D00B1BDEAEA5D3CAD0189BE20B2FFBE3664733D7F7A4F3EA57FBEBC49987BBDC387C8BDB12A1A3EABD0AEBDAEA3F93CA23531;
	15107 :	3E1DE29F3E6CE95C3EF46131BDFACB3E3E35AA5C3EB66FB03D5EA379BDAEF50C3DBA4C8EBDA7E9AEBA9F1BF83D3AA3DE3E6AF60DBD7EDB7FBD9616C0BDC2C363;
	15106 :	BDEEBAB8BD387D433BD892F43E3E24A43DB8573ABD8A3C2BBCA905613E081300BE628CDD3E1F4443BDD72066BE3E7DD13CD7A41F3D127438BD2139E03E54B23D;
	15105 :	BCCE812F3C637C1F3E2AEEA0BE64540E3CE2AD7D3DB61D91BE48BDB4BC86C7FABE2E10583DB4A3D73D4FD1343E048068BE6638793D3298E13D1EA4D63E744789;
	15104 :	BDD9F92CBE3EB9BC3DE2DD31BCAC583CBE0886E83ED52245BDC7E0963E8BC7B6BD469BA63E0280E83DDF0978BD93BFA13E109D32BDAFFB553DE7D0F1BE27F388;
	15103 :	3D79EA983D6596F4BDECB116BDBA61AD3D1E7B82BEBD467E3CDACD08BE6CACB3BDF3554E3D4C4E24BDFBEFAEBEC73EF13EA938683CD0DDD43DD67F62BDFAA374;
	15102 :	BD64A0343CB5A2EDBDD8E4B3BE231E8C3D084568BE243E813D160CE6BE6423953DC41DCBBE6042113C3B341D3B2C56F03D90CA403D3DDE51BDAA0318BD36D3F4;
	15101 :	3E29ED40BE2B6D193E2D8D5ABDB003BE3D8EB0DABE21A8FBBDBBA298BE4DADA2BE1819173B6893B13D222DD13D20CEBA3E99DEB33DAF5F9BBE2279E03D4576BF;
	15100 :	3CF95FCB3DB97154BE1ADA4EBD2C6859BD332C1C3DE79A5ABC8971CFBEA10F953D91F7F13D90DE01BE332494BE2AAE8F3E329FB03E7A00503E67D9053DCCCAED;
	15099 :	BD00832F3E82757C3D1C6FB7BE030CF5BC83E8CA3D355223BE47EF7BBE1197BABDCE35EC3E487DD83C216E733E962494BD8A0F3C3D510B5A3D24A7AFBE4491D2;
	15098 :	BE1BF3B73E4DFAE73E85DFDF3E353B403DA77C4DBDE3BC47BD9911EF3DAB4C3FBD8603D43DCD73383CECC5083E02CCE6BE6410423CDEDAB4BB8CD296BE3E616A;
	15097 :	BE27102EBE195B6D3E0C62FE3C8D74FC3D72EF2CBD1413E2BC853E063DAD6A7BBC2022563E3385503DFF97A23DA4692FBE8F0BEFBC15AED43B71F2AF3D54E324;
	15096 :	3E8937CDBDEAFC53BD877512BE4E4806BD1FCE4DBDC6992D3DFAB025BE1255A7BF07B9823D39352DBD724181BDDF5660BD06FE0BBD675826BB963C16BE02DF88;
	15095 :	BD8F9F653E1EBDEB3E905CB1BD9AA37A3E1E458FBE09B2F5BDCD24663E16E6A7BE4530B9BE04C2A1BE55851F3E181037BDC732243E91109ABD5741E43D275483;
	15094 :	BE82FC27BDB39FC4BE2E76EA3D99C31D3DA530CEBBBF43553D2472B33DCC92B0BE02F19A3E959AFBBD4897263A123F653C876FB33E1138053DBD88813D50E85F;
	15093 :	BD1759963E2DF893BE00B0BD3CE12576BE826EAEBCE095133C77B4A43D2CAF13BE260C743E147442BE813EF0BD0A5BF13B5EBE463D2C21C13ED1C007BE0ECD51;
	15092 :	3CBD6853BDD8C0363DF59A733E7C80F53D62BB023D6A2F3BBD8DD4FB3E82D7723E3AFC26BD88766F3CA598C5BEA35B8F3E12EF09BDC36CCA3CDF5BFB3DEE8F59;
	15091 :	3BD7A9EFBD34DE413D54EE4EBD70850BBF249C693DC838653E8B1C0D3E008CB53CEB34BABE2D1DC23D6FE5AEBBC3E4163E3222D13D2EA4313CB832D3BEB7BA17;
	15090 :	BE3FE4FB3C040C5DBE0613E7BABFD1B73B3546FB3E55C6EC3E6FE692BE83BC973E47F1AE3CE28F743B74ACA0BDE0AB3EBE51B6C4BE1AB4973E7B74E4BD408AC6;
	15089 :	BE25866B3D8582F4BDCC0D303E00102E3DAE0C7B3DC724B4BE268C143C83056CBDC8DE5B3E6E521E3D063F7D3E84A4413E081CCE3E8BFF533D323C67BD509632;
	15088 :	BDC70DBE3D2BA1F3BE8AA8613E4BB51FBE012613BC79C26C3E313A553C7AFBD6BDA0DE7FBD387D5A3E90E245BE0EC0B43DB8FC9DBD9FA86F3DB4739A3D5E1B9D;
	15087 :	3E1A41783E47EAB2BCACA17BBD41F321BCBA12533E7A1182BEA248483DF1F8FFBE8DAABBBD9564073E07DA433D89B6623E01B9D7BE03B2FF3DD216D3BDBD4DBD;
	15086 :	3E45F595BDE36F793E06E68E3E8E20B0BD4EA2303D9C7410BD2B8F5E3E953754BE2D3EE23E05817C3E1FE474BE34A640BD1FF935BC242976BD0633BC3E064735;
	15085 :	3E1A28D9BE224D2FBE4374ECBDE4346ABE15F02C3E6D0D75BE3B9436BD11BE003D90811FBD79E8863D7EA624BC1660B13DD1564D3E0CF373BCBF4D5DBE3A76E2;
	15084 :	BD1DC6773D89385E3E162927BD6E5008BB450974BCB58CCDBCADA8233D5EAE6FBE44E3A43E6412F6BD81957EBDB12EB13BCEF8D03D987927BDAEEF1DBE26FB3E;
	15083 :	BE310001BE3953EF3DA276EEBDBCB81EBE0571AD3D28F75F3E31A5FF3E7FD829BE861295BE1037ED3DE4AF8FBE680F173CC06668BCDC34103E96A640BD1FD563;
	15082 :	3E06B5553E2ADF473DFDBA723CB50345BDC8A9A6BD80A9183D595EA43E1DD0683E3832763D940D39BE944C80BD129FF43D46E3833E3C48CABD3CE0E03C8584C2;
	15081 :	3E04CD70BE4C6BD73DAC317E3DF9CE653D0DA9923E9CAB2BBDC2F923BE42CB5EBE33E55E3E5056983E9CB7053CF606223D9D0FE23DEEF93D3E03643A3E5AA249;
	15080 :	BE021AD2BD7E99363E175475BDC2FB443D4123E1BCA751C0BE37552F3E8A29D5BD973B0B3D9C4B83BC2336A1BEA097483DD6DE19BC8E9BFC3E601A883C98F8D4;
	15079 :	BE08D6FCBE657DAEBE1CFD573DDCDC403DA304933DDC30FFBE328F07BE2E78643D868023BE25802C3CC7F3D23DB129813E63A6B43EC7C5803E93BE723E42FA8D;
	15078 :	BD2E3DDD3BCAD51DBD7A8BA5BE888E22BCA8AD4A3D95B5DC3E3252103DCC00CD3E69EBC23DF1E7433D146A32BE0D90883DB4E66EBDA5DDB3BDB661E6BCEF61CE;
	15077 :	BE3AC82DBD40DF0C3E01916F3D9C45353C86DBDB3C9DF0D3BD223ACBBD39F1B4BDC8D6643CFFA423BEE230663D2C4A77BD9111633D67BD163D6745D83E2F7FA9;
	15076 :	BE25B2833E5763583D2ABC60BE29E0EF3DDC2960BDD5563E3D86AA263E371D85BE4E95B83EC90A6EBD1EDCDE3E2BBDA6BC46B3D53E856CFCBD90BA513E53BB80;
	15075 :	BD23BBAA3D89728DBDD6F2E8BE1066C5BC85E477BD3454EABE36DC59BD368992BE1F3E4CBC590AC5BE0389573E7033A7BB35F68B3DE4030A3E4CDBA83DEC50DC;
	15074 :	BC82C4FF3E785977BDF1169D3D87719F3DB99780BE6B7E61BCC9BD46BE7A2FD9BE0DA054BE25FBE0BC042D41BCFFD4AB3EB3EF29BE02FFEEBDD8A8DDBE05873F;
	15073 :	BE1C3A83BEA06BF5BE895873BE0BECA9BE7352143D9CF474BE86C5DE3E7D8E01BDCE25C13D980D06BDD01C823D27BBEF3D05E8E33E1799E73E67D24F3E3A1F9A;
	15072 :	BD279513BE6CF8ECBD20FE903DC19DFD3E12BB283DB465023D8A9A31BDE722373CAB6C90BB85773DBC85E1863E74F7E8BD07B84BBABDB05DBD00FF773E1259DD;
	15071 :	3E961DC2BEA068FE3DAB2E353CA68ED1BE846486BCA6F8CE3D40A675BD979F14BE9BDB57BE11B74D3DC4B9EEBDCF163D3E8ED1823CE984B93EB308653E40007A;
	15070 :	3E2D363DBE7EB1AA3E489F633E618AA03E7F4D213E2F4DE3BC8EF0A33CD7216C3E280B84BD2E220FBDF497D73E74CF2C3EE041B5BE1A56C3BDA92CE93E2118BC;
	15069 :	BE2B340ABD36152CBC91C5653E8BDA403EC6BE553E211AEFBDE065C0BECC40FA3D4769523DAEBF9BBE233805BE44E2F6BE362EFDBDE86181BDDF24A8BD686285;
	15068 :	BCD8BEBE3DAFD4AE3DC4501D3BCDC6D6BD2054423E4C1BB03E2BB18FBEC865F9BDD02C333E370D1BBDFF1A71BDECE6D2BD4EF19C3E4D625F3EA1FF32BDE31836;
	15067 :	BB6ADB34BEA68FAE3B34832A3D9986C3BE5A83C03DC478473D7D6DAF3EAD1728BE9553C23D79A3A3BD90C56FBD8084133C6C5238BE1F73C23D471971BE4BF5C9;
	15066 :	3D264BAF3CC8BB08BE2DACA0BF02983A3DBAE6053CC86AC73B3B8A58BD69005A3E7F70F0BDBD56123D68F81A3DE2CAD6BE878B913C72DB8FBCAE9432BD60FEA9;
	15065 :	BE6771E2BE5F1657BE09DAB73C9DADA4BDBF23D0BDBDE2993DBFC13A3CFB2AC13D6ECF903E69BFB4BC7F62303DAF2AF3BE8DB9D6BD3CEB173D3B728EBD99F6F2;
	15064 :	BE3604323D7B97BDBD7F43613D0213393D77DFBA3E34D41E3E0A8AD13BFAF095BB06F84D3E6AF4F83E58C5043E261CEA3E4938FD3E4CA7FF3DF32A1EBD84574E;
	15063 :	3E4777E7BE825862BE1715943EA06472BE9EC8653E4265453D967305BE92251F3E0A2B0DBE9CB2DE3C8211FA3D0F0102BDF5394E3E56FFA0BB4D4868BD8174F6;
	15062 :	3C863FF03D5543DEBEC3D1FFBDCDEF683D95AA413EA10E7C3C2B41CFBEC0E6DF3E8ED070BD6EC499BC4B8A45BEA382333D9AC9C6BE0A24D43E839E3D3C05F8EB;
	15061 :	BE0CA0F03E6009383D827CECBD8BC0E23BC6D24DBDCBA8B2BB08B8DDBE8253BFBE2F7E22BD3991283EE0FE4ABE9291943E73FA5ABB104577BC12E81C3E635399;
	15060 :	BDB190F6BD9F727ABDB997C1BE1CDCFBBD2BF3203D3C7B363E1B79CBBDB7B2D23E1D28993E04D3AFBE9C2EC4BD61A4B63DBA26713E5FCD643E309CF3BD6671A5;
	15059 :	3D3AAE57BD57DB513E0F01153E8C4E4D3E0404F63E60C627BE4C64963E34B4A23DC34C043B6F0E3A3D4227393D9981B1BDA53892BE35C2D0BC6DFDE73D9F3438;
	15058 :	BD9B742FBCB9DE4A3E8617A3BE545091BDDEDB013CDB63903CB6F38EBD9865133D1D90553E8333CD3E4B33F2BE0AC71BBDA5EE1D3CD67ED7BCB2017DBDCAA06C;
	15057 :	BE88C4B93D971023BD48492ABDE3B3D2BD1094DFBE300ACD3E28D77CBE28B6EC3D8D31F4BE9D712A3ED7432A3DF1DCD83C6B8728BDD097D6BDCBED06BDA02BB8;
	15056 :	BE33CE603E01ABDBBD71ED1F3DA3782A3DED50BC3DA0A2843DF32FCC3D0150CB3E39DCE9BC44B9ECBE4C0A343D231D6F3EB82B363DD3E31A3D0236283DEE4102;
	15055 :	3DBA2B073E10670FBDF2F945BE0228193D79F33BBEAB5DEFBE421C89BE9C8ABF3E2E7633BDC714173E6F41523E2A1CC63D5DFCC3BE774FB9BE18CBA7BE22B518;
	15054 :	3E7EACD7BE3D34C2BE02DF9A3DB9AC03BDE755323EC5D091BB7E7798BE4ECFE3BC7F2057BE4A9B6F3B877DC93E14F246BBDA77A73DA8EF3DBDEFD127BDF9DB76;
	15053 :	3D9274103E86AC8E3E2448DB3E0D946C3DBDC17EBE02B29FBE0FFE7EBE105936BD6169483DD997BD3E1DA4163D1C28C9BE5D1548BD73F0FEBE1C527B3E4E06E5;
	15052 :	BDEF82673E34CFB1BD0F3173BE4C7938BED475B73E4FC3983DB34B8CBDA2FF8F3D3F0C8DBE63E96A3E8338C9BD7474933CDE2725BDBBB0063D802B543E024830;
	15051 :	BE94D6A03D3C0879BE297A60BE39EB2EBCE499183E1742E83E6F7DAE3C27EDF33DC826593E353E363E2DB641BC4698D93E2C4E7A3DFB1DA23EA63FB13CE3A82B;
	15050 :	3DDFA4C0BDE98BE03E4E92773E0B3C00BE3984C5BE38DAE33D8B6341BDB758CDBE5AD99FBEC78BED3E375F6ABDDCD5563DA845E5BCCC505C3DA39ED2BADD0FB3;
	15049 :	BD0E1FCDBE3CB9A63D9DF9BB3DAF0D5C3ECF2D743D5C77CFBC86E895BDB7529F3DC8DE473DE5494E3D44A4E6BDD46BBA3E7DBBB0BD9DECA8BEEBFA2A3CDB56BD;
	15048 :	BCA97E86BF053136BC25AAA83DB831603E93450EBBA42F25BD7054DDBEC8951DBDABE9303E1E37243C07ECCABD55EB963D2F3164BE0F16893D70222B3E0540C5;
	15047 :	BD280AA2BC5C2DCE3E3326E33D4B7823BE4AD9A9BDF8ADAD3E701B4FBC1F5D6CBE5BB7A5BD4E22E5BD7F3B3ABE1B92A23DCF5D753C8DB9EEBBB938F43DDA73E6;
	15046 :	3DA3BF8CBE02C38E3DCB3D223DCFD1743DA1E5403D4C1E8ABE67FB6B3CD913A8BDCEC0DA3E143146BE4FC1563E78D99F3E5365F3BDC4F60D3C9A5C05BCB09903;
	15045 :	BE0C0E27BD5E78BDBD23CB293D2EC6A63DBB6970BDF689A7BE1812F93D387EE9BE308164BD50DDEBBD45CA33BDF0E142BD652E153D2135FB3D93C9B7BD88E915;
	15044 :	BCD7FFA13E58B930BDF5923ABC2ED08E3E05397ABE0D56163D4CB23BBCB39AA13C975C2D3DE5E3C53EA12A23BE8418063E1DBD0F3E51178ABD6D60013CD16A82;
	15043 :	BD9618D73CAD78BC3E0BB69CBD2BD51C3E271FBA3E6F8709BE025C2F3E83C1653C58BCCFBD20F7E23DD91E68BD48FFB5BDFB6E5A3D9605D7BEAEB5203DB1D958;
	15042 :	3E2EF4AABE0A2D6FBD9D9F6B3F05CD19BD6507E33E8F8B51BDDCA2A23E532A11BDDFC1873E351D4ABE0DFE903EA31A963E2C6A81BE55DF6FBDAA94773D7BFD8C;
	15041 :	3E5E29153E4242983C95247EBDA6CE1F3E5B4A8E3E46CEBE3E21E2083DC13760BE596C563E6B66A4BD8BEB50BC3FB015BCF4EF2FBD46B6CABD42C8493DE925AA;
	15040 :	BE949073BE79CB933DF650AD3BD129783E7E5BBEBE185D353E2891BB3D44A69CBE1E9348BC20810BBDBA3FC1BD7001CCBDFA69B5BD70DF1F3E12A750BE34DC54;
	15039 :	BE1F176BBDA017A83BDA97373DCC06193D4E4BDF3D23D68A3D355B583C1F72D7BCB76CA7BDD017563D2A039EBC61AD6EBC8D91BF3DC0F2F1BD6E5D20BCFEB8DA;
	15038 :	3E64C7E2BCCDF9F7BAC5EC0BBE0535EEBEB121A7BDD9D41EBD036BF5BDFCAE6D3EA5A58BBE26EE0A3E4B742BBD0D2175BE6CBFE9BD96B704BE1EB0CE3E3D55D8;
	15037 :	BD25CE75BD5B789E3D0C83293D8F87D0BE236C89BDEEE9A7BE0BC9BFBD1C65983D05449FBEDA7EA4BE2548F7BD2101DDBC33A86ABB93FEBCBDF9AEFB3EBD30EE;
	15036 :	BD051CB1BC899E713D9D81B3BC97D884BD46F46ABE6505173E1C05473D0BBB06BE5905FFBDFAFC2B3E4029B53DA45C5C3E0B8B6ABDE04181BD530F363C74C217;
	15035 :	3E4BE7DCBD41FF2E3D88D491BEAC5992BB0A69AD3C99408A3DE5769ABE8DF61D3E08FECC3E143846BE0C9E0B3C5775E93E8D853C3E32EF993DE26179BE20841D;
	15034 :	BE3D1115BEA16C9A3E34BA843E152671BE66F1783E61100C3C16EEE1BD6BC2B2BCBA0BDD3D8CD34CBD43374C3DF9C9FFBD143D0BBE2E01C03D69D4F73E03851E;
	15033 :	3F080DE53E41909EBD887D8EBE80C38ABDC9E6B63E022E173AF8B9D43E8D205E3E011D9FBB641D833E060315BE137E9CBD5DB4513DACB95F3D56AA953E382B62;
	15032 :	BD06CE72BDD7B2183D15B2233D454670BCAF10F53E769FBC3C3D39F13EDACF97BE0B55FE3EFF02873DE0BA4CBD7CA7C6BE215FC03CF6F1073E6D441ABDC50BFA;
	15031 :	BE0463763D5569C3BD93AF0E3E435A2A3DCD6ACE3E1BDFA2BDB1FB1A3CB789993E67E1423E08708E3DF2B398BDDC01D03E066C92BD1A471EBEB897C6BD0947B3;
	15030 :	BB82990BBD41255F3E003249BCDEFCFABE6577C53E87800B3E1295ABBD6D072DBE3201F1BEB127F5BE211D97BD7358F33E38AADC3E53ED2ABE678D5EBE0677E1;
	15029 :	3D9710313A9B5545BEE981CA3E019653BE9A30583E182E72BDB32AC8BC9E9D813E0BB6BEBD009C163DB52FC23C4E8F23BDA8ED143EBC7627BE4B5B793CDA5DA8;
	15028 :	BE1A56E13E63DD9D3E01A2BE3ED9EE1C3E87201D3D9752573E2D3C173DBA436EBE96DB193E139217BD82BC5D3DCD5DD5BC5BA4983E0ADF1CBCB72910BCEB6A13;
	15027 :	BCC9D6A2BDD662E83DADC24DBE1493453D4E4B85BCF6219BBE18D7DFBE3352323E4767F43D90E096BDDEDFD4BE2A675ABDDDF0CBBE890E4C3E476D4EBE6832EB;
	15026 :	3DDA41E73E813EC73E1A458B3F123C853EAAC000BED9BC75BD22B84ABE445340BE3293ED3DE964A83C4452A13DF897EEB9C3EE52BE12455D3EA2CFB8BE3220E5;
	15025 :	3D81BD97BE8CBB4ABE60C050BE24F259BE3B7568BE0641A2BBCB3A9FBE216DCD3D80BC9BBDBFC23A3B546D72BDC865BBBE44C6F23D8C26693E568B4B3E0D251C;
	15024 :	3E9425AE3E4C253F3BA6B1C3BB0698683DF5DDF03DFC949CBE618BA33E2EA362BE103B8BBDDEE836BDEF7DCEBE1F515F3DF67D1DBD0AD5AE3E233F393E1464AD;
	15023 :	BE51D3F93DCAE4A03D9EE66EBCE3DC493E19BFE6BD4AF3C83C0E2EFBBEED8AFD3C4A41F53D14D9FDBD61D90A3D938A9B3E201EEFBD86C133BE4463953DF1A6FB;
	15022 :	BD4F87DC3DAF7B973DB13C3C3B608E863E963DFF3E64C3B0BCD03404BE634C8FBE4AEDC03DDCAB483CF28A57BDFA5645BDA683503E423B31BF350C1ABE39B577;
	15021 :	3E20628CBE42EA59BD71315C3D82F9A73E974044BED01253BCA778F13E1D2A97BE8CCAB63D5ADDE1BD979D64BE923BE5BD175FB1BE4005E4BBF9E1CBBE31EFAC;
	15020 :	3B782A373CAB9680BC8A4B7FBDAB6E43BD956B97BCD36DFBBE99C4483E314BC0BD205D353E19D8CC3DEEB7BABE4D42083CA5A7A23DE178DFBCC597F13EA4361C;
	15019 :	BD3EBF753E4F82AA3E135E26BE0067BC3E734F5ABE8F82E13E0FFCA7BDC479153D05D3B03E455A14BD33E5693E0418F73E245EF0BE3E3DE6BDED33D93E057A57;
	15018 :	BDA542083E1D7D43BE9E4BF63E3973E53D9A1423BE12A6343DE69077BD8295003DBFAFEA3ED4C26E3E2E24863D85257EBC895185BE6BF38DBD556404BE001EEE;
	15017 :	BD636609BE5D6F2A3E28C7133C45D7963D62AE30BE370BC23CDDDAC93D60E1923CDD1D8E3DEC346D3E8B1945BE2267C5BE3503E8BDFFDABF3E12392A3E0A3024;
	15016 :	3DA5A4023CA5C0B93D2D48CBBD8AA89DBDE598CB3D0339F9BF0B7E62BCA8AA49BE1B325C3DA3DF39BD0EE84A3E422AE93E86DF433D6000DBBD6B0D34BD95E44F;
	15015 :	3E2F2DE4BE4D86663DB2124ABCC116C7BD948ADBBD96A8643B0EEAC2BEAE82663C8839B43D2208CB3EAF43F23D87E7B63CD3F5983DAB83BE3C67BC3B3D8F9C54;
	15014 :	BD5E70FDBE0C632CBCBE1678BCB41C00BDBA649E3BCBC267BECACFDBBE2B4565BE5B30A4BDAA1BA23E2CDA0ABE39538F3CC09707BD89391FBD5F2B5EBE360DE7;
	15013 :	3D535412BE3D56913EBE0C513DC3AE67BD3B74513B9601553DE131313D1D48B73E002993BCFC3D8B3DE75CE9BE366C523CA755483C64B5043E06DB563CD2A41A;
	15012 :	BCF155B7BE4A751EBD367C343CCE91A7BD8B65CE3C587E5F3D94BA403CC80604BE0EE3DABC2C80B73BDF5C52BCC67FC93DF46AC03C7EB18EBDDC7F53BE422B56;
	15011 :	3E7A82333D0DE61EBE6810CDBDFD81173D3D565DBDB81396BDEAA4B9BCF5D8DEBE3B24D03DC42815BE3DBF1C3D5824BC3E0A24863E0395D63DA287533E1DFEC4;
	15010 :	3D45EFF73E01D767BE0A9E90BCA52BBDBD885173BC3EC1223C87AF853E82D4D3BA9AEFF9BDE9BEA53E3EA50FBC073C5FBE119926BDB7AE743D0094F5BC91BAC6;
	15009 :	3E704148BE5B4072BD80F2003E7554E53E8B4661BEAD9C223E1A1CAA3D904F783D84961EBE14A674BE8D8C0D3D3DCB73BC789130BDAAA66FBE7A186D3CBB99DE;
	15008 :	BE88BACB3D73F07ABDAABB9CBB6289B83E2B9DA6BDDFCAC6BD3F9F20BDCDBAC3BD94BD0C3D3B60C6BAA40DE1BDC633CCBE10F618BE2418EABD60FC70BB9A61C9;
	15007 :	3E1DD806BE216B233A1D3F1DBDB9673C3EA331663DCBC1143DA1FA263EB6E56DBCCF1E1D3ED57F233D81BAA43D82B7DC3E542D01BD8EE36ABD1931F03E040B2B;
	15006 :	BD6DD21CBC523790BE3697FDBB1A01663E11C4523E2F0DCE3D79A1F13DCF916DBE4AF2C5BE1CB8523DDC7FB03E293FB1BE358EA4BE00BB87BC10A38F3DB0D2D2;
	15005 :	BDF8D286BDD67F763D2B14AEBD9CDFB93D590D4A3DD13E9D3D50610F3E9E4CD4BD29C19C3DA44F45BDA28D523D9F7E00BD5CB9DC3E072D4BBF20EC5C3D360317;
	15004 :	3D76E9C4BC409D16BDEE3086BD8683E63D183CB2BE3E28223D2CB2FD3E5466393E8916CF3E143AF5BDD9FAFA3DF6130A3DBCF8163DF7A047BDFF6C75BD02F09B;
	15003 :	3E06C4553CEE958D3DF39C9D3D3199A7BE454BAD3E214EB03CEBB7553E9CF36C3E9CAB3F3DB61D323C896B07BD96A2EE3E2484F93DC923F83DB0C0403D304C04;
	15002 :	BCAB82AFBDCE757E3F034A3A3D8F4BA6BD1435903E19DE64BE034EA0BE31D8D03DFCAB82BE8BA6A9BE18DE2CBEF684293CAC3D89BED50A5FBEE60F3E3E4D6FB4;
	15001 :	3DBE4A253E41C27D3D01F8D73E1D7065BDF836173C34BB9D3E48469FBE2D108CBE8269D7BD0140DFBE1A9CA8BDDD9B22BCEC149BBE15CF8ABE54F0493EB43E8B;
	15000 :	BF07C2173EB18D793D2A1D5A3D9461103E0AC90DBD76F788BDA3920FBE1774EFBD57AE36BE7B5807BDC60A273DD0B9E8BE0F49A83D714F3B3E47567B3D3BCD69;
	14999 :	BE88A62B3EC968A2BAE270C83EE05A72BE30692D3E58CDA73CED6895BE3845A43E8129763DEB87CABE71104BBE210C3FBDCE2BA43E14D75C3E0FCA8C3D84A046;
	14998 :	BDBB5D083DDACE143E50788CBE106BAF3D0AA1DBBAD8E99C3E9D9AEA3EA05DDEBDB5771C3D6DD8BDBDBA6588BE2B11FABC34DBFABDA476DA3D5597833E7D5F8E;
	14997 :	BD3591C4BD29D3EB3D77DA423DBCB8913E15A86A3E0293173D229F50BD59F362BE00FAE2BC0175E13E3F0BDA3DB3C68B3CAFA95B3E09544C3D19C05F3DFBEEDB;
	14996 :	BE35C806BD4C70D3BD5D4F6B3DF553E53D666CDC3DE041403EB3222E3DE7D7773DB993F93CCE4A403E9414183DE11A513DC14FC93D59B1243ECA5F6B3E698D94;
	14995 :	BCBEACB43D24A9F13EC57452BC826449BE148745BDFF13853E323BD4BCAAA6F83D4969C43E0974E8BE17C443BCEAF65BBC929E8F3C668D46BD673DFB3EB18CCC;
	14994 :	BDEE9AEF3BE12F443C27CFA53D96ED253E4487BB3DCAC1473C815E85BD19FA15BE81F8513E3DA8223E9413F0BDFA963D3DBF19E2BE3332873EA1D0AE3EA6C756;
	14993 :	3D8041CD3D564287BCF5E4D63E2D6D103DBA5DBF3D7698C2BC3F2F12BDCB6597BE15FAA53E710AB63E459890BA65EE473D5DF383BE0764253E7495B43E08BCC5;
	14992 :	3DDE99873D9C1C773DD31E20BD99C1E1BD0456D6BB902CF7BD8F0B70BD20AFB7BE9F29DE3ECFF2CCBD0C2AD5BE18BD943EBB82F73E1E8CAEBC5F3DBDBE1FD7C5;
	14991 :	3E396AA23E6C674C3C951231BD5969D33E4E1DF73D656E223E51186A3BB3A0423D3528083DD56D673DF19CB9BE68AF5FBE3C13F23D367372BC61EF1B3DB72B92;
	14990 :	BD7FAF7DBE1BF5E63D4E8C8B3E840A773D832F723E360FDC3D2B8EBFBDBFE0833DB4FC973E28CCFB3E72E3CE3D944D6DBBAB71E63E2B0ABCBE83FB12BE8CB9A6;
	14989 :	BC8138B13DB79BB83ED7F4743D46814F3D2B8AE83BB818083D1934063E35E4F13EBE36863E3162E2BE26B09A3E65FDAC3CB3464F3D9E4EEEBDCCA62FBDA3A790;
	14988 :	BD9DD2A6BE1B101D3E8241EABE83907D3DD0DF9CBEB5E652BE6586443DD9DBA33B3B03503DDC0CB9BDA450EBBE87C969BC06D0A53CCE84393E4ED7DA3E1BD158;
	14987 :	3CFA30C63EA80D97BE1C8EA23D455E7BBDA92E41BDDA761DBED887BCBDF56F0DBE898FFE3E2EC8A63CA8B29D3D9FFB34BE3207363DA3AE84BDD23F033E1E4F64;
	14986 :	3EED813C3E5AAEBABD00ACB53E82EDEDBE49F8833E8DC8FF3C093B1BBE1E71E0BE8AF1EA3E062CFC3E3421693E5E14C5BDDFDB85BD0306F53D168556BDADB910;
	14985 :	BBD23EFC3E94118D3E8447583C9DB4CB3CF07961BD681981BEBEF27E3CFAB34F3E708F4ABB8F43C63DD0D2873EA68D253DFEE37D3DCCE6A43DF355A73CECF3D7;
	14984 :	BDD31B79BD5547C43DC2AD443D88F13ABCA0D4D4BEC124ACBE7C05CDBC3375C53D091EB93E1AA94BBCFE6813BED85E23BCD15781BD5753233E4AB05DBE1DE06D;
	14983 :	BE190CBE3E12C4973D5641B33E484ECA3DDAE35BBE0DBEB0BE1D16FD3D9518F3BD0F9ED53E4D6383BC99B33B3E95D2A6BE0500F8BDF148D2BD54DDF4BE78E3F3;
	14982 :	3C91A3A3BCBF41333E011ACC3DF34650BE1537293E6D86DA3D1A2A51BEAEF1D2BDC677DEBE3B5180BD0056E63E0488253E98A25C3D0948163E9E98BC3D849C86;
	14981 :	3DDDBC3F3D4EE2473B0B73BB3E1056533EA2517F3E522A54BC935BD2BE5D7F76BD65364BBDA64DF9BD83845C3E87BDD13DFE0395BE03727F3E0AC56FBD05FE21;
	14980 :	3CF34FD23E91E080BDA61B043BB97EA93E8BF986BA0AAFD5BE333BDB3D5AC738BE2F3C5C3DA3CA25BCBE574A3E1E1BB3BDAB0DA43D39AA78BE8F83D43C85D9F0;
	14979 :	3E9BACAF3DFE107ABBB3E9233CAF6B753D3BCBA53E08205EBDA91EBCBC8921E2BE59DFA03D85D3293D8E3C373D0EC3D23E061A763E42C526BD8AE13EBE24959D;
	14978 :	3E63E26F3E07D041BE398C253E1FA0D53DB39ED53E270BAABD73AAB43CD67B1EBE2464FFBE8E09BC3E95DB313BFD2E633DD60801BE7CCBCC3B18EC0A3DB3BFA5;
	14977 :	BC0F73BD3E0BA0EBBC2A8979BC06B8C1BEC3A6F83BE55F9ABE2A5DABBE04A3FEBD9372DB3E8A329B3D08ED20BD95D3193E861E8B3DEF26753DBF693BBDA2A71A;
	14976 :	3DCFBD183C38B13A3BB0A73C3DC92934BDDF2BA3BE0447463E9D9ACFBD8B5F39BF3E65CCBE0C26F93D4032A2BCF0A6603EB722D2BE3817963E86713ABDE80377;
	14975 :	3E3A6A813E003DA03DFEE0343DE0A0B73E8B23A83E18BBA03C6FD31C3CC3A0433E01132EBE0204C83DD6E64BBE2F644F3D9E0241BDD05AE33CFC4272BEC48BDB;
	14974 :	BE07F107BDEF4D5ABD30D304BCE8CDCE3E2A6B313E363935BDC819203DA1981CBE7B89A13DB25D1FBE0B049B3D0CBE28BDF65FB6BCBEC4623D76EF763E034F93;
	14973 :	3D2DC75A3D9C4BEF3E1541E7BBB2815D3D8BDE373DD8B0AF3E26B6E7BBA3BD1FBE37D696BCA56AA43E03F05F3C10021B3DD49C763D26B61CBED041523D5AFDE2;
	14972 :	3E280B083E4E3AB8BD4A81433E347A3ABE85938F3E746C1F3DDC201CBD915798BDEC60D3BE378CF03EA800C9BCB450983BAF7288BE0BA601BD7A14E6BD59A201;
	14971 :	3E062F443DFD2B2B3E3CE3DEBE4D862D3EABFB86BCFF1B83BD9FD653BD13070ABDBB81A73D7D1D943D5D632A3D9C09AE3E205DCB3E4056243D2A95B0BE735271;
	14970 :	3D0470DBBE83025F3E23DA0F3E1E11D7BE6ADC94BC0DB8FFBD5E6B2BBDDB21803D73CC9ABE068B413E321351BDE8AC553E268DFABE0F2C1FBCFC7B61BD75A8DA;
	14969 :	BE072E233DED08A5BD870159BE3A6C06BE465F3E3CFEB3A2BE48DD903CAB9C85BE6332503C96A2193D93FB473C6E89163D8980353D517332BD276D8CBDA3714C;
	14968 :	BDFA5EC93E31D83C3E4E1C6CBE711B6FBD60EFC83DF40D9E3E166941BDD7349A3E96BFF63E6E4D2D3D1A364C3D10A1D3BE389A6B3DB0585B3E3B42113DDA072C;
	14967 :	3CE662A93E224BB73E6B4B993E894A60BE23F81EBE2920C1BE15FF5ABDA84C0E3E8EF5163DB88EDC3C58A4C5BCC736F2BB75ACEE3D45346F3C0A0E1BBDD3CB5E;
	14966 :	3E6500953D523F7DBE0EA4183D94AAB7BE2A2CED3D88B7E5BD68B46CBEA4CF16BC39B5533D2DCFDB3D235DB9BDDFC314BE29DF8F3CADDC0DBEABF3823DBBFB51;
	14965 :	3D18E66ABDFEC4993DC0A771BCBE96B63E675A6FBC8D94AEBE51F7E2BD2FAFEF3E330DE0BE7FCC68BE32AC0BBE9AEF6C3D36D437BDE965CC3D2090963D3DEB6F;
	14964 :	3929C7673BFE24D8BC91557B3CF521A93E9B66B83D095FE1BDB9F5863C81E0273CC69A463D67C06A3DAD1C073E89A383BE7653DE3D78C659BE5008A83D05E16D;
	14963 :	BE3C07B2BE302FE8BE9E2D913DEF27CFBCC654733CA2C55BBDC0605D3D9C9C80BEB929F239492FBB3E3B1F2C3E8AECCF3D51F439BC4EE6053E85C0A83BBB87A0;
	14962 :	BE09A3FDBC3B1D11BD7990D53DFD16E9BD9650C3BD975B7DBE06F9C0BE163D5F3D0079DB3B8BC113BCF186813D2D0C0EBD5F50A8BE3B57A53EDF6EA43C9A1D23;
	14961 :	3BA542D0BC655D643BC200483E00D4CE3DC42EF4BE4998D4BE6DD309BE22092EBEC231DA3D7D759B3E8D69ABBE271BA4BE127C723DECB1BBBE8264983DBDBAA3;
	14960 :	BDE99E2B3D86B897BCF3E231BE4CA1C2BE2916713E5B2DB0BE1F50DF3EA87AEDBDC2CA073DA4C0DC3D6B5FB4BDDC16BCBD0EBB423E89697FBE3E92ED3E5A3FAF;
	14959 :	BD84CAAB3E50531EBC384F24BDDF6B373DC2E8AA3E84B2733C0198C33DB2933FBC4382F5BE0B5000BE398901BDBC31B9BE36B292BDB62083BD7089F83C92CB46;
	14958 :	3E316001BD5D4447BDD85F8D3E0E4D04BE1AA67BBD93782CBD8F3F85BD44C8F63E441A99BCBA27B9BE0EC3BD3E886100BE695C30BDCE824E3E25ADAD3DAAC4E0;
	14957 :	3D412A4B3D0209AA3D876A1F3D8D59203D39F671BE89FDE93BD92DD03D9F1D01BE2160413DC7B7213E4E874A3D0F52FF3DB46E04BE1EDBA4BDE650873DC69AF8;
	14956 :	BE941E963E82E28CBDCC39FCBDAB1B003E38E0463DA31A453E93D8303C81B3453DF39212BE84C5A23E02B20BBDA50CBBBE0A81C33D4A481E3E68A223BC369427;
	14955 :	3DBF4A17BCA8D3A7BE18381C3CF92FB23CB2BBFE3D5BCED9BE88B45EBE2785ABBD132CC03E4FB3E8BD0A47883DA896793E0EA1343D252081BD552B17BD6B4358;
	14954 :	3E87F72CBAA4BBFB3D68315B3B3ADA8DBD920D253CEF141A3C151FCA3A182EC2BC87A1A33AF45668BAF616FD3E7BD5763E3A5BD8BCF172FBBCCC59AD3E311982;
	14953 :	BC16586DBDA280653CE9788FBE149BDCBE7859483EAE62BCBE745552BD4C2C293D2F5B223D1BDED4BB37DDB9BECF55B43E601EB03C74E0C9BDE6CFC0BDE727F2;
	14952 :	3E4CE1923D330A463E1C3236BE3913E3BCA760A2BD945E223CDF61D6BE654CF1BDF26300BD971655BC9AAD693D4324A8BD7D75ED3DE39F70BE51D31FBE2E2167;
	14951 :	BE1D1D98BE44E602BE023A213D9809863DC5B01FBDA40B1B3E18957ABDA3A821BE6778BCBDB61900BE49A3E2BE051E8ABE84D62ABDB9D111BCED650FBDB90069;
	14950 :	BE2279AABE3372093D909518BDD1BE8B3E2C1B363C954ADEBD82FEC03D7997623E025C883E3E532BBDC2C86DBE854E133D8965803CC936CB3DF3EC803D43BC15;
	14949 :	BD42AB7F392778A83E4F6D283D60B557BE624D39BDE31E76BDDE13C2BE86D742BD8699C63E314DFFBE1D30813E4E6FFEBE2BE76B3CDD82683E94C8013D002596;
	14948 :	B86152463D78B7173C39EFA03E332B42BCDA797D3EAF2A383E2333493E93323BBE0E8540BD5926B93D5123803E7687523CEC525B3D08F724BE188270BD7FBB49;
	14947 :	BE0AF20C3E20957CBC3A3A823DCEA20CBDFCDAF6BD1A66F1BE25EC1D3D80F4F53CF90BC83C87AC673B816D0D3E0FB2863CADCEE83E61D976BBAFCA9C3D5C7EED;
	14946 :	3E59C1293DB922433DB8C75BBDB07790BDB26E7DBD40CAD93E27EC0D3D9D39DCBE851B53BE7650E03D372D9ABD6338B6BDD8D241BC9B80F8BE2AEC9C3D329428;
	14945 :	BE0AF846BE2E81493D30B64D3E4611AD3E5386493E3682423CE2DC713ADEF728BCBECB49BE30270FBCC16D35BE0BF0FF3E4A72EA3BB081E9BE6AB922BD116A50;
	14944 :	BE1AE0FA3D17D3FC3D6FD2BCBD11532E3D499E97BE93937C3BA30AF23E7133393E561AA2BDB2B195BE18A6693D81D1293E27EA8A3DEE12C73E1E5867BE0ECF0A;
	14943 :	3E308068BD61B78C3EBE086C3E537E22BDBCFC9C3DD448F4BE2D94E6BE835A6ABD30CC1DBDD2BA103E03DAB9BE065CAF3E53DBD1BDA2EAC83D5B93A13D1B8F43;
	14942 :	BCC45BF43B0491FCBE1BCEA4BDC507613D2AE0AE3DC21C7ABE2547423E58BA29BB302A5EBEB8DD213DB2DBA23E05A0143EA8D8703DDF68DCBE137752BDB3E8BB;
	14941 :	3DBB76A1BD81613F3DF00996BE85C67A3D800CE7BE4054F63E2630CCBC79D0E53E9FCE78BDB41685BD8C62513E2FE3143D0A85DC3D0E0FD33E5A0F7F3CA774FF;
	14940 :	BE2EB9D1BDC79962BE0D7CCD3DB5E7A8BE51A5E5BD04336EBC271415BD26E7C2BE35B1673D0F561ABE87A0A9BE3070D7BC477C08BBEFE8BB3ED959D93E002834;
	14939 :	BE6E5B76BE31C906BE0ABFE33E327B683E87E2FFB887FBFFBD5FE96EBEBB8DF33D11B20E3C1460C7BE271F70BEA829B63DE8866CBDB555AB3E252A7EBEC9CF9B;
	14938 :	3D3F713E3DF9F09F3DA72EABBEA65C803CCBB7BC3E50D8643E017B043CFE4CDF3E641DBFBCA7A80DBC80E409BBA6EE07BB6681E2BD9096C4BCB155CE3E2F78B4;
	14937 :	BC5F08033E0F2A7F3D862664BC8D41C1BE0281F83D85FB313E56B6833D9738FDBC786130BE00FAA23D9A5EBBBE49185D3D5BCB6CBE6FCFA03D0CBF103DAB9FD0;
	14936 :	3E33F5463E80185CBD7EE20BBDC3D32CBDDB75093E10C8F7BD0045443DEB991C3E740DC43C7651B23E18021DBD18B45CBD31C5273D30735EBCCDC3EA3DA7BF32;
	14935 :	3E6239F03D75D41E3E2F340C3C6E1E97BC426B563EAAFD993CD9C5DFBE15E2273E1ECF87BD6AA293BE557E1D3DAD82483E0E397F3D9EE6CEBE1762933BC6103E;
	14934 :	3DA9E4DFBE0584CEBDDBD1FEBEA82DC13C5804BF3E265DCABDD01752BD30044E3DC617EC3E28027DBE47CC503E922A7A3D7EA4A63C1C612FBD8403C4BE3A6B2D;
	14933 :	BA990DE8BE29C5D1BDE51D673C90EC2D3D9E09613B06F2E53E0A928F3E1E00CF3DD5C6253E84BD3DBD03D218BDFD5BA23DB3692EBDB75E5ABD30E3BBBDB6D6D4;
	14932 :	BE8138B63DC6B465BE6D79BE3D9CF11F3D6E1A473E2868C9BC6C9CA6BE0941433DBE86D03E2AF370BE47D0153E01BC70BE9C262D3E60000B3E0B85BD3D69B0A1;
	14931 :	3E86DE64BAF9B8FABE506A5F3D159D9D3D8890C8BCDD01E83E664DDEBE96A2BC3B59E3ECBDAF2317BD9B72B83E8B0ECFBD3FD03CBD63CD52BE73E1C13E17A0C5;
	14930 :	BD64FFE7BC38AE23BDAAF6903D2ADD0F3E2828F03D992417BD17C923BE49685E3DA8C4CC3E3F1713BDE886953B8893D13D7D9BF83E8FCA23BDDBB2E6BEFB75DA;
	14929 :	3D3B0E8D3DCD7FE13CB0C7A3BDFF3DF03C2F4A7ABDECD55ABDA22D073D76D0AD3DA921AE3D2EE7B23D567E05BDD7CBFABCAD1255BE028D4F3DEA97E1BC8256EC;
	14928 :	3D8D6E2C3DD09F443D90B25D3E264842BEA252E13E7158F3BBC88BC43C2ECEDA3D794D78BE9856D53B9D2C263E7F6E1FBCFDEA9DBD03C4483E1ABAB1BE9CBD4E;
	14927 :	3DE04176BDED74123D2934093C99A3823D461C283D56C2733E9A7818BD1CF1803E9985D2BAEACBB33E3D5D48BE5028AABE2748203E826ED1BD016B7CBDC522F1;
	14926 :	BE9C7FC3BB1ECCDBBDB6A9303DAC85FABC1EB14ABE0B570DBD071E6C3E943FB63E14F7233D24ED93BB31C573BE6AAC93BD8531D93D3BEFABBC87C88E3D524729;
	14925 :	BC4FEC63BCE8D452BE4A25DFBDAF0FAD3D1078E93DC78F48BC691AF0BDE37F573D8E09D63E272EA03E4A5BEDBE2749EE3D216930BE05D6A73D50E9A63E05D158;
	14924 :	BDF585C9BD52BE363C5DD134BD1E3EA5BDEB215F3E80EDDFBE1CEF3DBE35FB59BB06C9A0BE0FAB303B7D8EA03E99FE073D62646E3DAEEE673C0833343DA5CE75;
	14923 :	BE13D5533E07E1D03D5D5E213DC5C959BD915BC83ED273B13EB00EF3BD0A7EA43E158FEE3D9B868EBE30814B3EE726F5BC7A81983E292CC9BAF98EC8BCDE6B8B;
	14922 :	3C8C1E34BD84C4A3BD592CF63DEEF3223CFD1335BD188D22BE34B6523C0F3DB53D5194403C3428CF3DF475FDBCD994283E3AA9643E02D65B3E0DD740BE1A2376;
	14921 :	3CEF347D3E0CDA3ABE513D22BBD30CB33EAF3AFB3DAA3C8D3E2E35783E26FBE33DEA9290BEA47312BE08C22ABCA61F7ABDEE466FBE4633183E332FD4BDBC3F50;
	14920 :	BD94B84CBD22C4FC3D2C25A13E3562813DDD6A7CBD335E5A39A8EA05BEA8B9BABE016744BE656363BE17CB1A3EA2F6CABE998C14BC975D00BE774CD8BE098474;
	14919 :	3E142E4B3D8C5BBEBDBE2BBD3E4F5C183EB27FE03E498D363C0D0012BD8673973E109C81BE9AAB3ABD08F2EF3D358D803DDAF7AF3E2CEA58BDC33D593C952E50;
	14918 :	3DF95B4EBE8922AE3CF7A2183E509182BE85424EBCE9BE473E8040C03E1EB6A33DF312EDBD9D51793E07D81F3BEAD8B0BD4742613E705FEE3E6E9203BE97A469;
	14917 :	BD8596C13E3CB82CBBEDDF28BE36CA18BC2F5C21BDA427033DB56428BD491FEE3CE448F73E7DC2153D15D478BDB164EE3D5081A53D8098563D4DDA0ABE0D0D99;
	14916 :	BC3FA4233DC1C1CA3E20D2303E97E9D5BDAAF5E43DF23065BDDF5DC63C6F95413E8FD932BC3F6496BD7F1D5EBE618046BE02ABF43E31CA913D93BC0CBE8E2235;
	14915 :	3E3A80233E6655F8BE88DA5B3DEFD4793D3381EDBDD7E20A3C79E1F2BD962CC3BDD57946BEBA11B33E0248CFBDC549C2BE0CC71F3C70D4EB3E3738F53E2FFEB7;
	14914 :	3B704120BE2998EEBCB0FEA73E00799E3D34D5AF3D84A6F33D7B53763DB4DCE4BD0C8F81BDBB7ABD3DE33984BD7F68B13CA1CA3C3D7E6AE93EE8F169BD42A01D;
	14913 :	BE0396403E9F3AE33D5FCF533EC4DADA3E5BBF25BDA31358BD07CFFABD3D469ABCA6636FBD12328E3C7511013E349760BE5E57F13E8D9B2F3DA73FA43B4F34A4;
	14912 :	3DD47E4A3D9B9419BD49FBFA3C9798B83DB621C03DF18353BDBD1DEBBDD540633E39E674BD405B88BE0183DFBE03C2AD3EB7B52C3C96E9283E13B7223E5C071F;
	14911 :	3DA22EB53D949ED03DB32B77BBF7AE983E1D37EEBDEE4E9DBC93D49D3D4BFBEA3CABDEF53E1F4CE3BD4BDCCF3C2CD37F3CCA128DBE941F6B3D71A77D3E8850EB;
	14910 :	3B95F7F2BE1F06EC3E8B8BC93E0751FBBDB387903DABD0F03DFD8DB83D5A67A8BDB0119BBE4ECA353E97FF1EBD0CB8CDBE1CB8783E32FF00BE5FFC2CBE1ACE4E;
	14909 :	BE300086BDC996EF3D79682DBE4CC351BE83BCE63D05E1833D09A06ABCDEC545BE18ECA23D8189283DA8B2753CB8E134BDE3C608BE3E8619BD85A8F6BD8369BA;
	14908 :	3E260E59BDAB45153E3BA2AEBDDB03EBBC1DDC483DB42695BDCE3935BDDB64BFBDCE09053D98E4C73E90927C3D2DEC93BB4F7AC63D79F2B5BCBC6F7BBE00270E;
	14907 :	BE0FDE6D3D912C3CBE26F12B3E1D6C723DCF54E03E9E53973E437D24BE2DF862BBFA26123DADF8F6BDC30373BDEC89D7BD34AC51BD38D61D3EB00E57BE11DB9D;
	14906 :	3DC3BF9CBE96C6023D9D7646BE4EE29C3DC83761BDC5E411BE8F6429BE5C6C593DAD7FC6BC5A233EBE6285323DB37771BD8B535CBD2B2EAEBD8B622EBE43F3C5;
	14905 :	BDBA8C80BB96DE72BE0BA6A03DEB9D4DBDF4F6A1BEA9B251BDEFE7073DBB969CBD150934BD19C0FA3D80DCF1BE82261F3D7FAD06BD27342ABA2E1FCBBE198367;
	14904 :	3E9411CE3D1DCCB0BE539911BD493519BE6C09E3BEE45DBF3E72223D3D0D86603E66BB35BE60027CBD82D798BC55B29DBDE3774FBD1CCC643CD27AEC3C49701A;
	14903 :	3E0DF92CBDF5492FBE618D1D3CBCF9883DF1B0BF3E8B5AB2BCC2E245BEA07B7CBD449BCF3E47B056BE14DED9BE002D6CBDCC25F93BDAA8AA3CA6CE693E907E46;
	14902 :	BE17FDDFBE4F9C573EB4B4663E8430B5BD37D5813D1A635CBD7104A73D8D9849BD84F5D93E250A8FBD9006143E1952BFBDBF46ADBDDAAA3F3E00654E3D14248D;
	14901 :	3E3974413D3932A4BDB56FB13E4A129ABE3614C73E09DEA6BDBF01913D282843BD5ABDA0BE3C65C73DA5A401BDD8CD043D823225BDC8EC6DBD39CD6D3CAB5F77;
	14900 :	3E247A963DE43C303EBDF2AABE0DC5733DA2E68CBD035532BEB88DE73D117DC7BCF6C451BC94914E3E4C021A3E1B89823EBE3D693E20351FBBCB0B1B3D9F1A28;
	14899 :	3D10EAC33E969F5FBDF5BAE33EA9F6D8BE5D22653CF537AC3CFDB0DBBD0445C7BE591773BDB232AEBD8C6BAB3D4EF2FFBDE3FEB2BDC500C73D602260BC9C8A9A;
	14898 :	BE0F71163D921B213E920A4A3D4C6540BD5F462CBA8616A23DAE72E8BDC29AB9BD7511813E211D38BE2510B13E43A7BABCFAD7413D1D1D983E22A3D0BE11F83A;
	14897 :	3D1F8AAA3E36BEA23D48FB613DE36B313DC9F18EBDD352CFBE59B623BA84438C3D587EC63DD7F982BDF13C35BE63A41DBE785BDD3C9A0C76BE41DC863E434DB2;
	14896 :	3C95F7C7BDC9E18CBE8356583E769544BE48680CBD839E12BDE69E503C15BF503D6D6903BE7C92CBBE27BB503E64DB393BA18D05BC9803A13E16FC2F3C8C2EA2;
	14895 :	3E8F01CEBD4BCED1BB8796F0BC81A8F23BAC15EB3D43EF64BE1168E63CD2871B3E22BC2BBE01125FBE27A053BDD7D68DBD7DA69C3E297597BE4338C8BE22E248;
	14894 :	3C012B19BE5B44393D9972833C9C7ADABEA5722F3DBB746BBDB9D1C7BED5C2113E5696413D372214BD5D4BE4BDCB62EBBE22D40FBDA8E02B3E9C41313E300BB8;
	14893 :	BC78C451BDE726333E133C9CBE3BD6033D258B623DC0AEEDBD5B56FE3E1F3E143D43D80ABE3C887A3DC2D41ABE810B40BE51AD3EBD91A2F93E56D38B3D92BA96;
	14892 :	3E710263BD7DCB2A3EA28F19BE5A0431BDCC9DB3BE8FA187BDBF32A03CB3A0A6BDBA2BA13E1936DE3DBDA92EBE91B3E13E87D499BE000344BC48A36E3D0C184B;
	14891 :	BCFADC3CBC34375EBDEFFC3BBB88F46C3D9FAD80BE518F8BBE5E4D6D3D64A1E53DCA69963D885B183E41C57C3E0BD1CEBE789B7EBDB5E0DABDEB549F3E0BD3D2;
	14890 :	3E21468F3D32C57E3E0431C1BD35798D3EEB3B0FBDF4F463BDDAF6263CFDDB033D3360B4BE4339513E3EE3F4BDDA22B3BE1F52DEBE92092BBC9996213E3EE854;
	14889 :	3DF7176C3DDFCB043EE8B479BA7C26343E0295F23E0AEFE2BE019CF2BD570F6DBB319CE1BE899DF8BE51F1233DCB5D853E399C19BD9E9685BE16CF5B3CDB02C5;
	14888 :	BE6592933E2FE0A9BDEBC0C93DB311DC3E1B1946BCE49ED43C293A1DBDA4C4663D2258A63E08C923BD8BD71EBDB211A13E8BFA31BE25F4A03E57A6BF3D8FFBC3;
	14887 :	BD3A11583DF0B367BDA8987E3E252D4ABE53E9A13E3D6FD8BDC60EBA3C8B7E3E3E9109C2BDB627583DF38CDA3DF0A6BEBDAD1811BD170690BE8267F13DD27824;
	14886 :	BE15E24FBC2E7514BCE0F3023E737F35BE3BB46F3E185FE53EA01638BDFA2D953CEEC8953E8B0A74BC6CB70C3E585B15BC618AF53E1BD4AD3E3A97013DE69CF5;
	14885 :	3E3D28723E5BD6953AEB2A003E958293BD8EB7153E4F99733C17E22D3E14EDE53CEA67F7399A5201BEF2CDCDBE824A973CA7ACEABC4112C93E6AF8513D9BE44B;
	14884 :	3D3F72A7BE270E81BDA41165BD5F0CC6BC8FB83BBE85FDD8BCB69ACBBE39B2B5BEA400D63EAD6EA7BAB4F631BCDDB4E33D873BC63CC88942BCA3B347BD84BDA8;
	14883 :	BE19D1ECBD4E48633D316B443DCD2A5ABE0F1A433E32A5D7BC6AAC463D786E963C8A0ED2BE90A1B0BD8ECC39BD78B213BEA5A64ABE65E30E3D96AC46BD14B153;
	14882 :	BDF324EBBED0466BBE9A30A43D1789E9BE36B0A43E4B69B3BE8C311A3E3729EEBDF9EC09BC9312AEBD1697D43DBCEF293D167F5D3DC9861ABEC285113E42744E;
	14881 :	3E75005ABDA349403DA866C7BBF9CABB3D7E48083DFF6D813DA530773E1BFA0A3DD40DB6BCAD32423CD19D6ABE3F2A013E2110D83D41ADE0BE2668423DEC3B1B;
	14880 :	BDAD16723D90D1F6BDD2162FBDBCDF1C3E8E8314BCCE51773DC363253DBEE1453DF1C052BE812635BDCF72CABDE4DF7C3AF3C3D3BDB78F713DB178E7BE01271A;
	14879 :	BD21752EBE3E10143E42422EBE1201EABE489B84BD0655E03E3264773D1F6D6DBE04EFFCBDCC8EB6BE33291F3C8878B43C5C4F34BE13B4423DEC6BF2BECFA139;
	14878 :	BE37CD20BDB9B442BDC9D73FBE94A65C3D730B0B3DF7CEDBBD069B713DC12527BE2A0E44BCDBD84EBE92B47D3E791EED3DDB6564BE4EF93EBDCF510DBD3C124A;
	14877 :	B88914BC3EAA1CAC3E4D1A5FBE2DE86E3D900879BC3D9E2DBDB8643A3DD99E703E66805E3CBCFEB53EA390703D9DCE213C7344DF3DC227CFBEAF855A3DC5B567;
	14876 :	BE98B3C33D96A5F5BE7C6E83BDCDE79ABDB620203E21AD8D3D72FD533D9E5174BECDFB33BEE22944BE69988BBEA617C2BD23F14B3E2648D3BE86D1763E0CBB47;
	14875 :	BE93FEF03D5BD81A3D551213BE6F61C0BDF1670C3E521C0B3D66B7633D719F163E014C403DEFF4FCBE41EF55BE57DD453E0783C9BEACA99CBDEE5E0ABE269CB5;
	14874 :	BDB06766BD1AFCEC3E580B3FBCBA6A7A3EA3277C3D4AF6813DF2D152BD03635EBE42A6D2BDF94720BE0468963CE9C2F7BDCCF341BE5F48283E526B6ABE881FF4;
	14873 :	3E1AE73DBD8E04DA3DA908F93DDE2B34BDEBB47F3D24C5D9BD53C3F73D5EF5A3BE56110A3E95B45C3D95DA453DB50B443D96F2C13E61F6253E07C754BE1D2500;
	14872 :	BB99E3683E3E28C3BE0D6265BB907567BE1C77393E5C103B39C51ED2BE499A3C3DB8D40B3DD56C86BE3CFFCF3E0A4526BE5AA25F3EAFF293BCAF34113DFB4D0D;
	14871 :	3C81ECADBD9E19CCBE1EA9403D56816D3D4394D83E2D323F3D807B92BE4AC9593DDC9EF2BDF78152BDC1CB043EDDF0B9BEB1656DBDA216D2BDD89870BC909691;
	14870 :	3D512124BE03C3683CE3885BBEA317323E497CF93DF0B509BC41E0203E9ACDB5BB95F07C3D316AC83DCA8256BED51C263B7263593D0DFFB2BCA08C5CBD83C397;
	14869 :	3D8541F03E80FBA5BDFBB800BDE4C8B3BE00754D3C55B7873CDD23BC3D16F575BE1DAAC63E90399D3DC072AE3DB6723B3E7F215DBE0EEF22BD23E1B3BE34815C;
	14868 :	3B48304ABE2EF6A0BE729B663E4105EA3D98980E3E12BC4CBD9F7B8A3DA7E191BCFA0642BDFAF2563DF26A3FBCCDDBEFBD9E2BEFBE8F2DD7BCD45C6A3C4D0213;
	14867 :	BDD562F03DE25D3E3E033A323E08FC7B3E57AAFABD08D0E5BC2342543D04CEAE3C8D050D3C06E21ABD54ABB83DD24B9F3D8CDCA83E5C959FBD9F62493DF6101E;
	14866 :	3E1F0DAD3D9EBA8E3E927BD73D6B01943DE52846BE253ED43E0602F03E193623BBDAFCD23D1A5DBE3E3B6DA03E025E0ABB3EFA4A3D3437BA3CCF3FFA3DB3035F;
	14865 :	3E69D02BBDEA2E973E6D91FCBE16AB103E03AC28BE0C7D623B13EADE3DD6AAFC3CB6A62C3C97429D3DE774CA3DB464F33D66C371BDCC3487BE365B5D3E07CBD8;
	14864 :	3DB2F622BE26EA1E3E614AC0BC0680FEBC84059E3C475EC3BC13B83A3DEADD393DB96A9A3E1B473F3C26ED143E2DB392BE83C1F43D824B98BD1849FF3E8859CC;
	14863 :	BE57CD213D2AB7213DA3C762BE56CDA63E285F083DD6656C3D76F62EBE18D4ADBE559D31BC5604723CE24D28BE38AF72BDED9C14BE9273843D204F8E3E1FF093;
	14862 :	3E6C54B03DD41FD63C5ADD9D3E8381863E216C0EBD27F4CE3DCFA2F63DF9A8C4BE10CEB93E99F8D33E01DB3BBE4EB5ABBEC0C83E3D5DB205BCC70092BC38067A;
	14861 :	BD118DB43DB19FC0BA984799BE438D79BEF67700BC2355A73E3D8955BE9BFBA23DAF8813BE69F5F4BE00BA49BD9BE4B0BD0E21DD3E7DA5263DB04AECBD4A9D83;
	14860 :	BE4C40CE3CF16C18BDC3FA1BBD5735E7BEC26E15BD85E4783E0455533E1216B83E14522BBE5EC6E5BE4D9641BDE2F0D7BE4F0EE0BD0A79A43E12DF7EBE42FFA5;
	14859 :	3E814D083D3B9BDE3D5D8EBF3D98E8E5BEA7CD6FBE7BB2C3BDA00E9CBD1728B1BE47A3E2BD5343653E00742D3C8F1E8BBCA28DE7BE230194BE31B7C23D54D88C;
	14858 :	BE031B3DBD1DCECC3EB286FB3E2B84D83E0BE13FBD855576BE832FFE3E658B4DBD58A7763E08605F3D41870E3B4B1995BC59EF6D3D32F8E3BE21A2753DAF87A5;
	14857 :	3E437E583DBAA1F1BD09A8D3BE8D950FBCD0595FBCDE81B3BBD67BD63E1DDDCEBE06625BBEE34F013DBB97F13E162408BD9EEF3BBE3BE8F93E18A1003E035851;
	14856 :	3CA80A09BD9A4B9ABE47B921BDFB014A3E43E66ABCAF0F7EBD945FD43E8576123DCEE9013CF0C566BD17BA933E00B811BD2BE72FBE28559D3D588E7F3D9EEA50;
	14855 :	BB4447BCBE7C8A3BBB87202D3E4C7E0BBE0056023D17526B3C43D3BD3E37B8F9BEB92340BDFD1A493E8781123D300A67BC90AA7FBE6DB52BBC4BC981BD535493;
	14854 :	BE1CC9D83DB80BC23E1722E13DDA2356BE3A37B3BC521A263E02AFC8BCBAF05A3D9677773D5800A03C92FFCFBDE96B41BDCF200FBE48E678BDE075E7BB03CE46;
	14853 :	3E8375D1BEB4D27C3E47D0D8BE7664B8BDE82AC23D2951EA3E11AF303DF593BDBCBED914BD7DA51F3CD27F83BDA695753E89C9C1BD3A18663DC60CA33D0F7977;
	14852 :	BB4AAC42BE48658C3E1DA13ABD8A0D0FBD5600A43DEB6986BE7DE271BD9F72BF3EDC18D93DD938F43E50A51C3C5DF34C3E461709BE0C79C13E84F3793E98EDE7;
	14851 :	BE889CDB3DD0E04CBE37036A3E58AE1E3DD1319ABDF40F91BDE1CB493E18E6E93E0A161B3E1699DDBC5CFF33BD58CC8CBDA0403DBDE3ED153AEBCEADBE502D27;
	14850 :	BE1B3589BE906EB5BCFDE9D9BD32E6253D9CAB463DF08760BD392C963BB64C33BBB0D0F3BE58B0D43C2088CEBCAB60F7BDFE5CC33D7889B33C6D632F3EAA8371;
	14849 :	BE696EF33DA1D92D3EAA16133D2046F03D80571CBD157150BE0437DF3E132C9BBE098F2A3BCEC4C1BE430D033E2062683DCEE83E3E5B7A4C3DBCDEC3BD96BF74;
	14848 :	BE4DF818BB22412A3DD48A4B3E669E293E43F0863D4891F83DBE7B0EBBC90785BC8B59CE3D80478FBE2F76703E155B92BC026E30BE269D0FBDF3ED50BE05677A;
	14847 :	3CDE5E1E3D72152ABB3371553DE0994E3D9B5DBD3DD754073CACBECDBE0229143DC02BD43DC64A573E2ADA12BD882E9A3D9A776B3D3B8DA5BDECC0ECBD98D8DE;
	14846 :	BD1E7E07BE50C3EF3DFD55283D8E85873E1C2CA9BE42024CBDF3CC0ABE11B623BD91E7DEBE295A433E7EAD4F3CF9FEC83D9D3C33BD94CA45BE530E983E677573;
	14845 :	3DA25C953DC943B8BE49C9323C83C23F3E11C8D53D534639BE19717EBDD2487EBC8790093D3AD915BDAFD7203ABA49253AEBB05CBE658D95BCAEB8DCBC03F140;
	14844 :	3E931F253E08036EBD53F7AFBCE8FDAF3E894AF8BDDF11C7BD86A07EBDD78C08BE11651BBC5762293E1D6165BE0AC1AA3DD7E082BBEED4D3BD3448823EACE05F;
	14843 :	BCBD70433E31C5C93E99F93A3D78C8403D28B7BF3E26A43E3D1688313B83D0E9BD04F797BE9D63A73E0DB04CBE98FECDBE0C3E11BD88308A3DEE1B863E20C240;
	14842 :	BDAC07FEBDA3C7C6BDED277E3EABF7583D3B2E053DB58E873E26C04B3D49C503BD09523BBD9A173E3E56027EBE780D50BDECCBC2BD92C2A4BEC1CEF8BDDF667F;
	14841 :	3DD834E6BE24CFE83DB1503EBC2DF159BD28DA7EBAC1D2903DDBBD73BE28C2FDBC620A8BBD6FE9BB3E325E8EBE028752BCE3D0D6BD31634D3DD0D328BCB84D1A;
	14840 :	BD4FEC0F3DA30F7C3DFC9B52BDBDC6C4BAACD9B63CA08CB33DEC736A3E1407FFBCD2B90BBC26B9D43E348FBA3E3D7F3BBDB158D73E28522ABE83DE83BDD2F9FE;
