-- begin_signature 
-- ddr_init_ins_gen
-- end_signature   
WIDTH=512;         
DEPTH=15558;      
ADDRESS_RADIX=UNS; 
DATA_RADIX=HEX;    

CONTENT BEGIN       
	15557 :	BCE6BE75BD331A77BD85C3CCBCDFC804BD27201ABCB8D093B9B5ABE5BD298DF53DA11A48BC864780BB92C74B3D7C8DD03CD39E82BA875B00BCAEA8B8BD2AA24D;
	15556 :	3D229DA63C1A9B8ABD75A9843DB7DFB03CE14157BCBDB97ABA6948543C953C663CD0EF8E3D484195BD20ADACBD4D4A053D5442D13BCEEAB4BC456E323D745CD3;
	15555 :	3C870E3FBC8448383D998FE9BCBC2C12BD28760E3D806040BBBDE53D3CD8A5E8BD2B8CD0BC624299BDB1DECABD63AE74BCCDDC70BD700A7B3D253FF63C4A4649;
	15554 :	3D106EEFBC8FF6E2BD52357CBD73FD9EBC76AD38BD026BB1BCFFC825BBFE8B4F3D2FA5453D8AA3043C19A910BBD2B7823D5C6DD1BC27CFCBBA2DB5F23D608572;
	15553 :	3D5D17E5BD1BB1513CE8DB0DBCD8C6AB3C87D455BCB57ED03C8210DF3D66A7613BB709BE3D0159D13D189A27BD8FAFEEBD8618763CB893C1BC92356C3D4616A0;
	15552 :	BD9E9B493C7AA3BEBCCA35ED3D1A529B3CA932123D6E3727BD8F41B3BD7F53DBBD92DA913D5DF701BD0F137A3B0A241D3D95A3B53D0DE9503D1A00A83DA555A2;
	15551 :	3A1941D63BA39D11BDB08CED3D4CAA14BD5D98403D7570EBBC85ECBB3CDFD0B8BDA8F7D0BD431DDC3D83ECFDBD85023D3D3B886EBC440646BC82AFFB3E0A7F2E;
	15550 :	BC181F193B9341D6BD9F8F26BD5137FEBC005B6BBDC2D6713B260749BD9B7EEE3D410C5F3D070030BC9737E63C1B41EABCB4D2AC3C7EFB92BD57B5DEBB31DAA7;
	15549 :	BD4772A33D01B0893D23A2283CC216DABD6AB9433B5FC0A7BD4D2FBDBD130A423BC6AA6FBD256E563D2A11BBBCE9F3393BADCB9E3DAC8F32BD07BFCDBBF6E446;
	15548 :	BC33152DBD03ECDEBD10B0D93CA09B19BC995267BCF768DBBCDF84EBBCD963623D2136B5BD14A2343CFC14F8BC1A503FBD154BAF3DA21D1C3D8CCBA9BD9B1EEC;
	15547 :	3D24F97B3D8410463D3831823CC8E1AFBB8CA91E3CE5F6D93BFC53A4BBEA235F3CCF08843CE69825BD4E03723D0076FBBD1434A93CEC6416BBB726103D70A959;
	15546 :	B9A5F496BD00294FBD6D7992BB7B509BBBC0B2DD3CD2AE47BD69DA02BD18BA9DBD4C63913D651B1CBD5E592EBD7CCE83B94BF9C23C4A8051BD65398D3BE5CCB9;
	15545 :	BD84D76FBD8A1FB23C8B40323BECB24A3C5891613C8A97863CFC18523D458325BD44B18ABD547F3ABD1376C4BCAD4A04BC2B82E13D3290B5BC55FF0EBC33B57B;
	15544 :	BB8733953D543C373D1D5ADE3CEC8002BD698DBA3B3E5FE9BCFD7BCB3C61FAC9BC2714B2BD14DD723D50D91EBB8EE07C3C4704263C91629A3C48180D3BE60ED3;
	15543 :	BD141693BBD03952BCE5BC9ABCF297B9BC0DD014BC09C6A53CF3362BBDCF9FF83C5128ABBD83637EBD61DB12BD1709353BC3AE523D0B3534BCCE1D9ABCDDBD62;
	15542 :	BD0949B83C967FB6BC0FDFD53C22C0013D0789083E0142773D5A7650BCE1F5FABD65D8373C4A7F763D94009E3D24F9DB3D13D563BD3A4CCE3D24F16C3CBDA604;
	15541 :	BCAC3D4A3D1408473D2B3ACFBCD58EDDBC3F8E513D27DD06BD254E123D8E53C1BD64576A3C6315D8BD1D9DC63CFFD3293D840DB4BC441A82BD0D79D53CB60BD0;
	15540 :	3D2A162E3D0753FBBBDE066DBCAB1A2DBD6CA0283CB69BA9BBD36F5CBE0B8A793D89D0883C2F75CF3C867DC03B9797D0B9880E8CBD50F613BD40AB3EBD14AB02;
	15539 :	3D766217BD131D5EBD3A01BA3D2EC555BB7105F8BDACD720BC57899ABC8147893C995FE63BA476BFBC4BCE84BCB1D04E3BE3FA173AADD573BCB7E9D6BCE89299;
	15538 :	3D92B0C93D89A6B03B3A7AA33D7C4F81BC305C88BD1B8A45BC42A128BD0A98E33D40704B3C8FAC2BBD15594ABCEBB440BC9113B73CF1E64FBC49D9B23D27ECF7;
	15537 :	BDC6ACECBCCCDEEE3C686C15BD8F585A3C98B33D3D2318CFBD9D6AEBBCEE847A3BF1B9DD39837CBB3CAB63273D0C95233DB4FD80BD4763553CD7357DBC52A0E8;
	15536 :	BBAC8185BD79E5C1BD64FB4EBD43663E3C208A72BB988B33BC70E3F2BD41E3FE3B2A3B873CF38920BC6840FA3D533AB4B961EC36BCEDFE2DBD1B94C83C8EB78C;
	15535 :	BD07B38EBD08DA7ABD204DD3BD03A26F3C8202123D3DCE96BCECA20B3D381DBDBD0ECFC33C9421223C8DA2A83CC5314B3DAB60303C9F20CABD1D8A0B3C8EF616;
	15534 :	BD805B043D98C7F63D797CDE3A86FADB3D060E0DBD097B8A3CA33F1B3C5381D0BC8B6DA4BC78C7F93CBD354CBD72EF9FBD06C062BC9073543A315A40BC7CFFEB;
	15533 :	BD1990F2BCB6CF22BC02F50E3AB0F44D3CB1340ABC6A56D6BD41049A3CA9D4B33D46F47C3C0B7BCABBE4B1C8BBA6FFBB3B75E3EEBB75CD843CA0E08A3DA4789E;
	15532 :	3CCD445C3D4BA8C7BBF348B2BCEA0B65BD2F6BBBBCD99888BBED30C03C9F7260BA60E60EBC5F68333C0531FCBD7DB56DBC3E0BACBC424EABBB7C489B3C4E4709;
	15531 :	BCCD6299BC81D5483D06A4073D270B53BCC3DAEE3D11B9E2BC4D6A8F3C85267F3C59D1BD3B81676FBA513CB5BC6D2D31BD2BD4CA3B665E91BD6B80B1BD86AFFE;
	15530 :	3D2DEE02BC185BB13D277645BC77D98ABCE8171DBCC828C33C8EB2CB3D3F1FB13D0DBB4E3B9B3C86BC22759DBD4B3B41BD4C3D063C7B7621BD6DB1CB3A7351CA;
	15529 :	3CABBE0FBCE04605BC759AF03D24CC96BCCF5740BC3E8B35BD449328BD02E95A3C7749C73D89BB2D3D58C1423CB77AB8BD07EDBFBC8C71F7BD033BF63ACC1E8E;
	15528 :	3C479918BCCEB3C93D427B503C8B820C3CD2A8E8BCE1BC10BA120B15BCB353D4BD7413FFBD37B4DF3C8D3650BC02D0893DA087A93C747B273C70A9EB3D99215D;
	15527 :	3C8440A3BC9CE980BD2E11E23D0A99653D620DDFBC8F19BCBD8B91543C975A873CE7D4D43D0085853BEB2DEABD8C0115BBD453FDBCF13FBCBD2B45903CFC3899;
	15526 :	3CE51E6B3C8A859D3AF5C7BEBD3A3F753D1929943BB9E7CE3C9A197BBCE1DCE8BD24B9B73D0BFBD13D38292B3DAC130BBC9AD5573DB20D443D01C8D93CAF3840;
	15525 :	BD18053C3D340605B8AC77C43D10F7EF3CB9E9693CDEE94B3CE2C2DDBCEEF350BCF842783D025D04BBB8ADCABD81E606BCB97D73BC4A2B823B9DA8C5BB34F764;
	15524 :	BC40E34DBCBB39C6BBBA1E5D3C9A3BA43C9133E4BD0D6A423D230C513D05D084BD4060DF3C3AE8AA3CB1E4983D645B84BCC4FF4A3BA582ABBCC37B5EBCECEA0D;
	15523 :	BC5AD0973D438856BD5C44EDBB6A6C353CFE4D46BBF8AC4ABCCE9F13BBF19E983D0746603D10B14A3D47AB03BC9E5178BD0E101F3CF39ACA3C802446BCF8734A;
	15522 :	BD973A4EBD7563DCBDA90414BCC78220BC816D32B9DA7E813B3C03803D3B8E44BBB3B94A3D9721CC3C32BD84BD02872DBC90916C3B084BDEBD7D5903BD70B156;
	15521 :	BCE1BFE8BC6B73A0BD1A6029BD689BDBBC814914BC9084E4BBEF2469BC36C5C9BD840AF9BCB1FAA53CA84ABF3D02F07A3CC85DCD3D59939F3C976358BD141ABD;
	15520 :	BCBEC8283B7F7BCF3C7A840EBC265242BD201F693C61BF613D4677D43D1D5C8BBDA0BDF9BDAA76AABD0004DA3CCC53313D03099EBC2AF9C13D2D6DE23DA6AD44;
	15519 :	BB9FB4483D11C0F7BD64A17B3DAD06A13E09A3E7BD137E4DBCE064D93CD28DCABC3213F73D16C0F0BB9A8394BCA920F6BD0025133D26D0F73A9608EF3C3AF55F;
	15518 :	BCEB2B3EBD05CFA9BD484130BC4BDA7ABCB2931B36F0934C3D6E5BBABD0E993DBD1E3A6C3C671F203D080A89BC225D703D081CD5BC3EAFA1BCB2C6733B2EC8A2;
	15517 :	BD2841B5BD976359BD0BDDA0BCD590B2BD2AC5ECBD75AA93BD6FDD37BCF7C2ABBC22F0D9BBE9494F3D2F44F33BDE0120BD4A4C53BCD9A0E3BD1104343CA56098;
	15516 :	3D76263D3D04991F3C853468BCEA6496BB5C1A623BAC871FBC9FB050BCB83EBABCD409933DE062EEBCE01E45BC6CD4AEBB90FC88BC3749073DE320D3BD21E6EB;
	15515 :	BABBC7D93D0334D539D5F927BD28579EBD89AA80BD85E1E23AE44BB3BB0899283D835377BCCD61A63D6AA0B0BCC04BA23BFAAD423D53AD51BCC46A97BCB3189A;
	15514 :	3C9C9093BAD3C445BB6F0809BC471C32BCF38F323D9DC5E13DCE032D3CB40AAF3C43558EBC8B738A3C5B3F4E3D3CA84DBAC1BF553D0089BF3BC762F33CDD16E2;
	15513 :	BC906D343D005ACEBD86C2B63D7B7C633DC9A7B8BD485B063A029DDC3D382A5C3D283FB83D1B74FB3D22BE4B3C636C3EBB3F3FD53D036DF7BC5A0F8DBCBE317F;
	15512 :	3D1E5089BD48D2FBBC3EF2E9BBA74CBA3C5915983DB5DF7C3C28B863BAD1E1913C0D0CCEBD85D8A3BC53A81B3D928729BCE36569BD210EE8BBD57827BD8D9E48;
	15511 :	BCD1C912BC2344EE3C8AF0DB3CE99D573D2B2D37BCC299C8BD72D34EBCFB63903AAE479E3D4FD3D83D2F6427BD53419BB897588D3BA8942CBD4A06603D6A0D19;
	15510 :	BCF0E2393C535BD73C301DD1BC09B8B0BD129F273C0BB38EBD1679073D688791BD813B663D858644BBFCAE19BC0B9418BCF875EEBC846B1A3D47CE2DBD511703;
	15509 :	3D69023ABC5B018FBB3CAA833C51BDCDBD611A7CBCE6F32DBC1B3D4CBD40CD53BD117ACEBAE8A9D63C91AB9B3C3766263B9D51CFBB833798BB3D62BBBCDC1864;
	15508 :	3C45C23ABD939003BCEF9FFFBBBCE0923C4B5A9B3D4B2F6ABDE2156FBC4035E13D1E7526BD0934E7BD557827BB4959D03D2252D2BBDFBBEEBD08AFD8BCE135A4;
	15507 :	BDA505643C8EDB93BCED2884BD1A9FBD3D16A84F3D10ACF23D32A7BB3CBFD526BC80085C3BD6AB8CBC1B47BE3CEF76963B188A8BBB7366C5BC997828BC2F6C6F;
	15506 :	3C8569F53C60D39EBCA5D3BA3ADA9E27BBDE23A7BC8F18083D660E2FBCC1417DBCAD9D8A3D2B039CBBC5530CBD05F592BD7B83523C76B8693C7D31E7BD92E647;
	15505 :	BB7C6906BC966282BC0EE9DB3C2B927B3D3A952BBD91E3C13DA05E76BD1AB38B3D46A7703D86D44DBB8D05A93D33EDC53D1245BD3B3710033C6B5D00BCF07E84;
	15504 :	BC20B96A3D2B1278BCCD9932BBADA15ABD4CB92B3C633D82BCB05ADB3C154A0C3B8C1CACBD24F164BBB862D83D6AD456BD50C8B03CCFBEFA3CA7E808BCA28235;
	15503 :	3C7C529A3B1C3DED3D3F0EC6BC1C94D8BBD71161BC98C8213D6AB8A23D030356BD21D8F63D94DE00BC39CD103CD3F2C8BC1156823C45C5DCBC8BAFFFBBAF4C92;
	15502 :	3D9888873BEBB6B63D9BD6A33D0B5F743C8D2F043C9373773CF139F53CFCF0783BE217ECBC3D2486BCB58758BDA7F2803C044F43BD424785BD67632FB9F4E157;
	15501 :	BAAFBEDB3D6C7B25BCD37738BD366DB43CEFE4CEBC6549CB3D8E99DE3A8C57483C07B7203D76853ABB62F36C3A4E1F6C3D09B8F2BBBAB2C93D0715313D4ED474;
	15500 :	BD2D058CBCA9A8D73D12D53B3D88C29DBC3BD2FDBCF111523D88394DBDC8CE133D69FAF9BD076413BCE74785BD95FF3D3CBB3C563D1610C73D357DD8BCE75FAF;
	15499 :	BD4FAFF1BD24A76CBBAA9B773C7F14EEBCCF53B9BCB26B3ABCC253EE3C65B9613D488594BCFC818ABB22A4023D95BAB6BCC8FB07BD6D9ECB3DABC8FEBD24A021;
	15498 :	BC9DA50FBC16441F3BA278A23C978AC4BC4B6ADEBD4DF2973C8F557ABCE2071D3C8948E2BD8A9C8D3D12EA2D3D1819FDBC3263973D8E0392BC2684A0BC73240F;
	15497 :	BC8815C5B9249F8E3DB5B0883CFC36033CD1E3CD3D2212573C0DC9EFBCC43C863CDD1A803CC077D8BDA41167BD371066BC2934AC3D018846BC1B5B27BBDDFED7;
	15496 :	3D3A60AFBD80784FBC3852FBBD15D7483D5528663D142A0CBA98074B3D396F8FBBB3F8C1BCCECB16BC15AD56BCFE9B1E3C50AF9BBC99443D3D0CC2C53D74D80B;
	15495 :	BC10E3503D2208C1BB333CC2BD4F99AF3C405F29BD5846AD3CE59FF23D13E8B73D13496FBD90B354BCDFD1523D47A5F4BD7083A73C5D4B343C42FC6F3D98EFE6;
	15494 :	BC0ABF2FBD9E6D21BCB5431C3C8F832C3C828C44BC0E9F0BBD266319BD2DA7183D6DE0BEBD249A9A3B03F9BFBC2C82F4BC76DACFBCFB64E43D99C6803D89F1F9;
	15493 :	BCE7B4233D67200ABC6F0A683CC6B7FE3D0E4E1ABBBB146EBD85D1EFBD3EE642BD3181843C882C183CB9597CBC7EEA7BBD5C431C3C223291BC0E42EB3D9A4C20;
	15492 :	BD47177ABCA523A53CBD9E7EBD4F6F5D3D6156C63D8EC0E13D5511EDBD7C20F8BCC153C63CE7EF503CFCBBAEBD046D403C03D7FCBD233508BCCF2BC83D80D56E;
	15491 :	3D9E89033C16D3AE3E02F4A139CDA862BCB207173D01FF0ABC953EB0BD03103A3D04255B3C3F9DB5BD173B1DBC8CE24E3CCCBE22BA606178BB71BED0BCF44003;
	15490 :	BC42F1493C130A113CFE526ABD4997F1BCA8E0A0BC8E489E3D5E6D76BCB6DADEBC38899ABD278099BC698729BCD3B0483D129019BC4334EF3D04B6493AD9B33B;
	15489 :	3C06FB763D173388BC2F1E24BD3149BD3C642D1D3B332EEF3A16F86ABD33143DBC19A8043C7FE3B0BC3554FFBB1C3C34BB0739183D0B8414BCCE3FFABD5E129F;
	15488 :	BB9CA5DD3D595F5C3D2144B9BB327E4C3B902539BD21FBE53AD8CDFB3D0DEAB43CD719DA3D6A39273CBCDB95BC762D823C7AE3543B60C6493D2047E33B3B35F4;
	15487 :	3D71FD73BD39A3DA3CD1A0C83C0C10273C382BD53D81648B3B954247BD6B01803D68D5CFBD648A903C9CE0D53C32C4C9BCBABE6CBD35AEADBCFF626C3CB0D650;
	15486 :	BD084EE03C84423DBD17F8BB3D2FE551BD15E3DD3D5FCC73BC87A5323D1DC6773D440A233BF1BF8B3CBB741C3D11BE03BD3B9E39BBDB71EB3CB238543C9EC114;
	15485 :	BD02DA9FBD54A7A13D1A9C553C6EE30D3CEEBAEABC1C4061BD671D033D3CB93CBD2F3CF83C7750493CFEB9123C2362F53CE67ED7BAB7AE04BD12729FBD741C6F;
	15484 :	3D3B1760BD2FA0093CB703893D3BF62ABC86A109BC37EED63CD8C307BBAF805ABD81CE233D74660CBD26B6553C1C40F53C58BED2BD52F1593B33B416BDD7AC65;
	15483 :	3D2C51923D8922653D5ABD97BC1F80583D3C19C7BD032516BC380D9E3C41B94C3CDDC405BC8108E13CAAD7783C111DE33D06B6643D8396B33C674FF3BD49B3DC;
	15482 :	BCA912713BE756B7BD1A69B43D3AC55FBD9BE96ABC087BEDBD019D333D0CACA6BD743D453BC65F6D3D0C245C3D0FC3E5BD7EDB823CB1E9C03D01C21FBBDC3F15;
	15481 :	BC5E3A84BC39BEADBCACF7CF3BEA7EBF3B650D5B3CA171C03D05905FBCFF03E0BC17D6BB3D080F573B5C8B27BCC2E4BCBD700DAEBD477DB2BD1B14B03C8450FB;
	15480 :	3D67B0693D725BF23D8038DCBC054295BD54B511BD4CEB88BCDC81BFBCDCB52CBD2662FB3AB99C913B94ED3A3CF855633C9BBFD03CFF1F8CBB39C3203C7B7469;
	15479 :	3A86FC4D3C825D12BD05658DBCD250173D83BB533C72D285BB05F3FEBD42F5A83D3087603C5AAB983D3C3FABBC8DB1183C873126BD17CC463CDD9561BD283A43;
	15478 :	3CB1DA70BB84FE03BC92C5173D314B49BBF1CDC6BAFD9233BD1BBAD73C3225493D0A58B53D37584E3DC068733CF097543C4629A73CFD84D0BD46E1E73CB928DB;
	15477 :	BB6F94443D271FD0BC77C311BD8338373995D0FBBCB129A4BCE0C884BB32EB79BA24DF3CBD35FDC0BC8E2252BD37C48DBB5779CBBD2B41813D45EA6CBC890A5A;
	15476 :	3C354892BC9119E53D06A62EBC0AAA2A3D8097AD3D2D57AF3CC7BAE0BCC89A07BCB5E4B83D453342BD1E097B3D040778BC32C36EBD4C37ACBD0C4CF43BDEF8B8;
	15475 :	BD15107EBD4B41103B636ACCBD1F2F243D082004BD8A97393CFF7C12BC5F71173D40AEC5BD28897A3D16CA7C3CCF0D8C3C27D6BBBBC56C513D2E0EC93D9CFECB;
	15474 :	3C057C983B05B884BD7B8EB0BCA82042BD57FD993C761C55BCD14F243C01FB32BBD72A6FBB093AE53C611D38BC87B88C3CC46E2C3C06992C3C222D573CB91581;
	15473 :	3BC436BD3D0D802ABC5A9184BBCCF07CBDBB12773D17A165BBA9F6ADBD052B3BBD5AECE6B8091322BAF31FABBCDD9FFD3D69E8DF3CD99DF63C9E2C413CA51468;
	15472 :	BCEB208A3D0B05DC3C0061EF3B31D0093CDE4D5F3CB073183D6A936CBCBF39ACBCB785B93DA2AD71BC832D2BBD3E6C913D0A38A83CBF0EF2BD6CE90CBB56E153;
	15471 :	BD0D20DDBC65265EBCC190F13C3B204E3D3EEF36BD70BB1C3D0048DCBC840C5F3C6747DC3D1AF19B3D4AADE8BD6FD5C8BCCC2A66BDA2362EBC4456C3BD8EFB31;
	15470 :	BD2C70A33D09C833BC8D595D3CEB3911BC57286BBCE27459BDA7BAC8BD3521C53D0F72093C22EBCBBD7BC102BD39A974BC0CB5F53D33BC1B3BBA5FCCBD51F86C;
	15469 :	3CCD8445BCACF4CABC822921BB82CB5BBB8720BF3DB4CA49BC69909EBC927F65BBDA3875BBB19DAEBCC62D30BC7033943D8BC94F3D8C40EDBCDAF35CBD759C46;
	15468 :	BCFD390CBD5B9527BB2619573BFE6EB33D93EAED3D6B24983C00CF7ABCEDB659BD392B7EBB2B38A63C45F5993C8EE8403B97C3413D501AE8BC3FF1D9BD2F2E99;
	15467 :	BBFA18B03BB69C0B3BE99D0EBD795B263D12DD02BCAF4E263CC770E23CC07C9BBC409C193CB2EAAFBC3CFC2B3CA65591BD0DE07C3CB59857BD9EE0A73D31351B;
	15466 :	3BD7A3BA3D110F67BC1BDBB8BE07A0323C53E9073C2CEF2FBCC8D63DBD017228BD0DFA843B86FF313CB986F73D8900603967794DBC5A13F7BC3E8A1F3CC8E8C1;
	15465 :	3CA5C3393D3C4B17BD6EB9903D29F5BCBCFA9A2CBC6EF6C93CB02601BC2F0E14BC642D66BCF5D0DD3D0E9A6ABD29C885BC2C2E973D7F5C21BD6B57F8BA976BCD;
	15464 :	3BF62501BB9F897BBCB819DCB9D6D55CBB32D1423D4844CC3BA4BD85BCFF2375BD8E4CF23CF8EFF9BD6914F4BDB1DE97BD102B253C019C173AEAC1BF3D84A33C;
	15463 :	3DAE48D73CF74D663DA27663BC1B88D5BD277B583D9155743D0E2A16BC1F14E43AE1DD68BCE5FFFABB9961953CABD0FD3D32F7963DF05C8A3B9FA03D3C9CD747;
	15462 :	BD83620DBC9E6C763C2783B4BC8D8AEC3C2AA296BC8D02EABD4C177F3CC0B6C83C1DEBDF3D09D83ABD6D41B0BCD60312BD3F0896BCED6ECF3D00AA9C3C16B7E5;
	15461 :	BD06D8BD3CEA5C82BBBE45BE3C7CCFA63D882CEC3C79AC203CD053F8BC848E143CB4AC47BD4B3F18BD0A1137BD61B790BD08554C3D0D5A14BD415168BCE69A8A;
	15460 :	3CB4DFA1BC076AF83D4E25593D4B94603C0F6AE8BD7B88853D90E9F93D2F2FC73C5AB323BDC62A8A3C732EA93D8DD365BB309F54BCBFDCD43C210528BD33EC51;
	15459 :	BCC2A87BBD321992BAACA23A3DA3AF083D04EAB8BCF009093BD57F86BCE1D231BC4998263DCF4D8ABC1AE46FBC910B4A3DA2BB63BCAA8FB9BD155920BD948B93;
	15458 :	BDA6E87E3D3C94763D2779183B242835BCD7734F3C984A3FBC8D80CA3D0EC89E3CB27FA43D5CFF493D0C85D93D83F0D63D3E6B54BD1087D5BB0005A43D53659F;
	15457 :	3BCA49D0BB3164313D3645383DA2F56BBAB07E7A3D5D3BF63C1328CE3C109FB9BC141C0ABD351C21BCB2655FBD5984C4BD6939D7BCB7C2F0BD6E9C36BB9BCEC4;
	15456 :	B975601A3BA41693BD0BECDDBD56C8D53D83B7D3BC9A7431BDB8CBC1BCC52E213CEBEA29BD90D55CBCDF5D5EBD33F6DB3CA742533A716FFABD91978BBD1996DD;
	15455 :	BD60EBB9BCD370193CA8ED7EBC3FB35BBC5461E93CFC0B613C98B070BA1063C8BC367FBCBC243CC83D0A8B2DBC6D862BBDDF52D03C554C59BD37F1D83D90CD72;
	15454 :	BD92930EBC92B8813C4E63D9BB139605BDAE4C8F3DB412D6BBCBFC553C9FDD31BC20E17DBD2B38F43CD187C13B287FF9BD0C8057BD3286A4BCBAA3A73D1CF823;
	15453 :	3D7864B0BCF4F9963D1A1ECC3C80D035BBA3A4C83D086150BCBAB7B4BD81319E3AB4D507BC4B99B33CF702FA3C47F09A3CFB96EDBD82A6FC3CC840CB3B855A13;
	15452 :	3E0260333DBEACC03BA3C6EDBC0A22AFBD83A6B63D2C36953D060619BBB15F0A3DAC5ACB3D0919B53D4EE7793CC752F43BA870F0BCE7965CBD07D15E3CC73FB2;
	15451 :	BD8C7CB93CABCE06BD16CFF93D99E5C63BBD19B73D7BAF363D62AEB5BD18F6C0BD2CB03E3CAB744CBCE9FBB63D35D15CBC14F23CBCE0B47A3D96D1A93CC5E029;
	15450 :	BC9A8E7CBCE437503D8D66CBBC8AB2023D3AEDEBBCCECEF33B2356C4BCF02ED73CF84E81BB6363B8BD35B1D5BB0B73C23D616650BC4F7AB3BC4F1F863D42A4A7;
	15449 :	BC895A473D31C403BC9CB4073D3715A0BA0783E23CCE71D73D62CB08BCD7B7F0BCF2C4FABC549572BD0C1AE93D2A0475BC4F7B653BD0D7433D17353D3B72A139;
	15448 :	3DC8BA493CCDB8ED3D913EC93D4CF7683D462CD23D939CEA3C81B2C43D3C5ABA3D78FCD53CDB0F983D33FD593C88418B3CD9CCC6BD2C88AABD698E78BCD192BE;
	15447 :	3BE1A630BD4EA2AE3CAE93FD3D064B623DB371103C60082BBC116E273D2BE8033C0A6D45BD2BE4BCBD0250FBBC9B03FDBC33651CBD4C7A7F3C9AAB67BCB74DF9;
	15446 :	BCBD094C3D3B71043D9DB6263A3F75C5BD6138D2BD9599913C0012C3BCC7B86DBC4133863DB701003DDCCF36BBFE43DFBC9EDD1ABD8CD6DEBD2CE399BCFD38D7;
	15445 :	BD30BDB4BB1DCC7EBCA53E65BD1E7916BC81ED81BCE9360DBD4DE51EBB9E81C3BDB7F2B83C0B7D7BBC45CA9DBC6F441E3CC26FFEBD68F85738C4347DBBA97539;
	15444 :	3D703C56BCA4EEE2BD26D552BD87232BBDA372D1BD75B5FCBD32FDBFBBCCAF263C43854A3C814BC2BD413BBDBD09FA483CB0B9BF3A84D03CBC32234338E5786E;
	15443 :	BCC3E4443B89135FBC42A83CBBEFF8863D7C6D35BD1C8E5C3D127E343C54D8263C6EF87F3CE94DE5BCF9D661BDA80FA1BD5E81033D7A99C73D3F3D82BB8E010F;
	15442 :	3C5BDE5DBD017D533B86A4EE3C7EDB323D41BBCFBCA2B0C23CA5182BBD0675A5BD192A123CB5803A3D44FA70BC01D667BD05745FBCE54A51BCFB0CBF3D0FEF43;
	15441 :	3C1344B73C4DB4F3BD5CD8F33BA335843DB88D003D8E08F6BD83E8BD3C810E01BD39ED873D88B442B7D1F55B3D515A473C4E79993BB6ABF2BD5114B9BB4950FD;
	15440 :	BD6A1236BD077622BD8E11FE3CD9477CBCDD5FCA3D33F1363CBB6D42BC9D3F3E3DB5AAB3BCC991FD3D72EB1D3D8505D2BBD942F43D1D6299BD3DC17BBC7FAFD2;
	15439 :	3C6002F4BC667918BC53F4F2BD142BE13C42C8423D0A46BABCFACA2FBC0B083EBC8571383D9E818ABC34185A3BCFC5663D9831183D500C073B57B0753D2A131A;
	15438 :	BD1651A6BD2FFED6BBFFEA62BC3F22A1BD86F14F3D9577A23BE18F8FB8DC3BFA3CE52FC2BBD463F6BD68CD2EBD38C524BD1AAA47BD1BEAC7BC8F6385BCF413C5;
	15437 :	3C67F16FBD13DA503BE8DDDC3CBF854EBD6044113DCB485D3C7A9FF43C99E9CFBCAB44DCBCDDF8C03C8F176E3D1A39A13CCF84D03C7CD981BD4884F83CEA9DBE;
	15436 :	BBAD860DBC132AF83CD7A798BD509351BCB86D16BD23D004BD44AC7CBCD6F47E3D07528F3D00F62F3C4FCB7F3C5FF950BD7A2725BD09BB07BDE6E3F83D9193BD;
	15435 :	BC978484BB2A492EBC6506EC3D2004063D324938BC1503A2BD01986B3C4A94C13CA254BFBD0892853C0F0DCABDA551E73D867E8A3CCECD26BCE769463D3D6F5C;
	15434 :	BD32C7F5BD750E733CF61DBFBD8C218A3D499E753BB07C32BD001F283D1171F03CE75F623C176989BD8D8978BCB3C2CABCA5AB5F3D58D23F3D05B58BBD3D9970;
	15433 :	3D2B96EB3D794FDB3D00747A3C6C378CBCBA1F483D3840423D701A3B3CF841A53CD7102BBC76EDB03D68F54C3C22E6243CEC20ABBD3B093ABD36C7A03A3235FD;
	15432 :	3D1518D33DC62A103BDDF80F3D9DF673BD26CD053A1AB2B5BAB1DBF83D113F1F3D4F2C45BCD6287A3C564920BCA855E73D82ED78BD481EA3BD777294BC799988;
	15431 :	3D37962CBC8EA070BCF732F5BCDB3D28BAB938D8BD7322773C2B56743D2246C83CFA198BBD8853F1BCB4F218BD5B18C5BD68B12D3B49F33E3D1C69B33C48CC73;
	15430 :	3CF5D78B3D29F8C13D1D83803B14D5D33C87ABED3D1F14783D8CED2E3B9B69C13B06891B3CAE8A39BB30C3983CC6EEE7BCF42C813D6A34EABD15FC993DA31FB4;
	15429 :	3D6E427F3CB0754C3D9B9CF53C8DC9EF3D9E8D0F3D56B59F3CDD57FFBDA225F9BA551399BC498237BD4874893C27C693BCC081CCBD6FFB3CBD24E70D3C39FBFA;
	15428 :	3D808B48BD8DADA33D549CDEBCE6B0A4BCC7D258BD293DB93D053BBC3CA717CC3DA5D3933D82CEB33CF9BB723CF23BBE3CE3B5883D3D4824BA29A0A0BCCCCCAB;
	15427 :	3D155ED13CD5B9BE3C99A5C5BC90B11BBD0FB32BBD104A123D69F4F63D5BB912BC376E7ABA045D0A3D9EAE13BD2DCA30BCF9795DBC730CB0BCB2BDE03D0F3582;
	15426 :	BC28BB9F3CD012A73DDFBB543D197C12BD074F7DBBA8E6553D69D4243DDD2E903D18EF5B3AD72D8D3C4A907F3CA13AF8BD0DCE96BCDB5C2C3C4D73C73D22FBB4;
	15425 :	BB9C1F023D00D7AC3C67678B3C1C66E1BD01B5C53CA6A005BCC08EE4BCA44B16BCB9A518B9A54E1C3D8CAC6C3CDFA4313D0591083DC14F413CB97891BC864BFA;
	15424 :	3C47BA153C47108FBDB84C3BBC1673F33C830583BD42A90CBCC8C519BD2E0D573B1C734ABD44286F3CF5442DBCBEAF15BCFEB3DABD8B2FEA38A3F64EBCB59ABA;
	15423 :	3C8E60F6BD5F4C923CFDFC14BBE389FFBC7EEBB43C522D5E3CD5DA76BDA8287D3BAD17373C822C5EBC703C583D86C77F3D90E8F53C089C083DE7CBB63B3BACB1;
	15422 :	BD04605EBCC654223BB69AB03D1F4712BC04F5B5BC47BB28BD1A73093D21D3D3BB871C5DBD0A49AC3D9CD0B4BBB6744D3C9D903C3D21785CBCE28C0FBD44DAF9;
	15421 :	BC060FF5BD4343A63D61B87F3CB3E499BCACA897BD70CD013CBBEAAABD52EB5B3C1CA2113D94F5833DC0F007BC5F63453D50ED7EBCE1179DBD5906383C996CE3;
	15420 :	3C8ECE1EBD446BDD3BC74B1F39CE0712BD8979F4BD1A79ACBC4E1BCA3D45B5763D44243A3C6F5C413D5AC76DBD67A8583C99CE2D3CCCF5E63D8E73213D32C5B3;
	15419 :	BD3045333C5955973D07585EBD090558BD633D42BBB4F5F7BD05B01CBD73F9403C2D696F3DA96ACDBCBC6EA1BD318985BD0A39513CFE151ABC1892273CB919DE;
	15418 :	BC3085BABC526635BD174FE73C8C2AEFB9B16C73BC9753A43D9792BBBCBF0CFB3D0BF44E3D9D997C3D777091BD58B8B3BDA614EEBC82502F3C38170B3C8F0BE7;
	15417 :	3D3B39ADBDC3DA23BB419B5EBD66BC2FBC240201BD0AAE19BD4272E5BD899DD2BB9739ABBD28E64EB95B7F983BED30803D517CD3BB02DEF4BCD2110CBD069BEA;
	15416 :	BD5E3219BC61E6F83D1F370FBD48B275BCB9C2243C9E5DF3BCE748083B3C8B423D19E3113C8A534EBD8EABFA3D48CB703C8DF977BCBC80C73D21A62EBC4EEB50;
	15415 :	3CCA05E6BD251075BCCAEBB43D9E7EEA3D2B8DC33B85FFFD3D5B05F4BD0554B53CD0974ABC3BD1D6BC9DF3FF3D0FC247BD0E97523D5203A83D3BFB343C5CA257;
	15414 :	BC23E2083CB1E419BD0BCE2C39E057D63D1D2E43BD16A4C03C46FC6F3C9AE3EFBC67047DBC65EEB73D1EF61E3D3BA548BCD2D19BBD9F897E3D62D9923CD34424;
	15413 :	3CA6AF18BD4C30203C522C48BD806C623A501F853D3D126D3CDB6B2CBCB04580BD096EA23A7FB629BD226FF2BB6C46EABD294DD7BD1678353D5431883C5C3C05;
	15412 :	3DD555803DDF39D7BDB5A4CE3C422C3BBD553373BD885C813C044141BD72AFF2BDA7E8FD3D228F84BD8A15C23D06CBF2BD472FA63C9253B0BC3EDE773D2FDF85;
	15411 :	3D728D0C3D3E8B16BD07CD79BD07508DBC12ECBCBCCD8B773CFD03A93C3E31743C9768323C3CB494BD61CB13BC76ACAB3CF006073D9F56BC3CA74CF3BBD057DB;
	15410 :	BBA647DFBD43B4A1BC3EDE32BCC2F5EFBCCC4170BC70B9A83DBC15393D412B8E3CA588293D4279AB3D09B0423D8956AEBD4E5EB93C2C7F69BD082F403D0FC35E;
	15409 :	BD641CDDBCF56E5B3B510EAEBA9851C43D9A72343DB30848BD1B51D6BCB042CFBBD9EE343C69E3F93BCF8E91BD382FAFBCF2198E3D15CECCBCB5C820BC8D4F2E;
	15408 :	BDC1E9A4BD037DDF3AB7EA1FBD257EC73D10528ABCB4EA083C6AA71BBC3C6CBB3CB481D0BD7F5DB73D1349DCBAC869F5BC90C42F3CEBCFC13C847E64BD4ECF79;
	15407 :	BC29130DBD6E5CE2BD7CEC9E3CA2F9E63B89E837BB24ED6CBCDD3679BBCE88C13BF87AB1BBA6B559BC30770EB944D4EC3D9C7D613D33E93A3C213ECC3DA802CC;
	15406 :	BD580984BC757EFE3C82AFB6BC77923CBD712FD6BCD800693D33FD0BBC2157E1BCEA710FBDE9D001BD2182B83C9C573E3A0CE27DBCDFBAADBD83AFEA3C91A543;
	15405 :	3CB9C8F9BD7F9DF3BCB644F8BD8C2CFEBCCE53D53D80F9D43C74D053BC8DD7BDBD6489DCBC1AB86A3D909FC9BBBA461ABD30F465BC85C1003D3BF3B9BD51E479;
	15404 :	3D2B36BABD4FB9D33D7D73D4BBF820D73D96F0B4BD119068BD5C12A6BCA298123C83BC343D862E9C3A64C451BCBB010C3D5E2AA43CF25319BD71ADC7BD594944;
	15403 :	3B23FD04BC094E153C2A0E1CBC8CD0CE3C9C43A43D5142093B4D0E533D2DE206BCF0D938BD2219C33BCD19C3BC626678BD71A8EEBCBBEB583BB59057BC99F94B;
	15402 :	BD9C98EB3DD6C1A1BD6EEDCFBCFBC507BCB05E993CAC25C43D039ED4BD6344CE3DAC2202BD890989BC933F5EBCE1C544BC2EDAE4BC66C99D3C4B0A013D31B354;
	15401 :	3C6080C7BD8D9B843DCD415B3CC4F3E4BCC68E9EBD5FF433BD5BE248BD27DFDABBDFC72C3D08DA92BDA2DFB63CA4D02BBA4EEB933CA149F3BD04CBB23E0C5D41;
	15400 :	BCBDB310BCDA1C863D051F653D3C75313D021E373D3095213D2AFEDEBD821DA8BCFC77FCBD9A6BD33DA7BDDB3D3A937FBCA40A513BDA5D12BD669A21BD8BA5CB;
	15399 :	3C962D48BD166614BDB71B6C3D83A50D3C8E48C53CD601223CF298883D2C0F343CB0C394BB73FD3E3D4011B83C9991683CE042173D8A87E4BC9B0274BD1EA2FF;
	15398 :	BC1564BE3C2C45CEBD4CF3C8BD0CFC583CCB376DBCB2D294BC93C5C23C12475BBDC696F8BD4E1684BC7084A43BB0FB02BD9E3EB83A92AA733DE90DF2BD2D3757;
	15397 :	BCB712E63CE59E40BC39D938BD1108D13CBF3B89BCC439FDBD66ABD9BBAD8D3EBD64307C3D4EA7F63D8CEF9FBCC41AE0BD884C083D869085BCCA585ABD45A143;
	15396 :	BB844B4C3C8DE4753DA6D4ACBD9DB4D3BD8748D5BC3D51803D2BE6483C9ABE273D860A093D1367E6BD0B614CBDA738963D00F8DDBD8EEFAEBC7446253C3308B7;
	15395 :	3C1262623D957C0EBD29FE293CBDFD383DB0FE263CC94C783C6D7155BD19D76ABD215FA33D376177BD4B8CA93C4252B6BCBCB77CBCD4BBE53CD66710BB459CF7;
	15394 :	3C956F22BD8BD9DD3D50FB4ABA0CF6D7BD8A6643BD7521EB3D94BE0DBD824ABA3D469991BD0CDEC5BC69588CBD15EADBBD0295FE3D4AF9CABCF750943CD28A90;
	15393 :	3D3205873D86E0933B943525BD33E44EBCA5CA733D38E1DEBD5508A33C8A7FD43D645F0E3D885FAEBD1BBA9ABACA52273D31E7DA3D17C75B3D67B614BC9CC55A;
	15392 :	3C89D58ABC0DD2D1BBE89ADB3D5C39993D968AED3C8866533CB496C7BC9620B3BC0B89C03CA15C303BBA7DA73D34E3A03CE9944E3D9E8B29BDA37A633D23A62F;
	15391 :	3CF878D43D48F7F63D0648823D4F98B13C4DBA213C4D06F13D7D73E6BCAFF1A0BC7197733C8C66AD3D99C8A43D6276A63C852C623D43A4E53DB08C0ABCB0CE69;
	15390 :	BD50D3F9BCD322ABBC256F4EBB45BEA3BCD94000BD8F4AC63C0E23C3BC0AAD4EBD2CBE7C3D8FF4CA3B0E553DBB6769443C2C6DE5BB7032B2BCE32C7DBD342F50;
	15389 :	BD1B0675BD01DB0EBCAF53A1BD540C2F3C9E62A1BD847B44BCCDE0A6BCF3F247BCB5CFEEBD28BFB03C233945BB7E26F5BD86CFB93CC3D128BC97F5ACBC29B928;
	15388 :	BD3425C43C76FF7B3D75641E3DDFF579BCE0E156BD6C2651BCC95230BD3C4916BCCE5FF0BDCDBFB1BC8A30D53A8B737B3D444CF33DC029973D49CDF53D6E7EBA;
	15387 :	BDBD66FBB8FAEF64BDB056543DDD4A7A3C18220ABCEFF4203CD2D3E1BC8E0F5DBCC0C3F9BD135EC83CE615A1BC98572F3D0E70CFBC09BD64BCE556F33C9FD8A7;
	15386 :	3CCC2197BD12AEFB3D005B673D640B62BCD1B59ABC9C3F0ABC561050BBD9259C3D1535BE3D0415C9BD14D3E9BC1F5F54BD9CA8B9BD3C78A83C931D123D028914;
	15385 :	BD288CCD3B6404FEBCEC8D50BCAA467B3CA7188BBD17C081BCE523153CF1DA9DBC607CA13CB55309BCC58D84BC9B65A6BC9BB7453D29A2723DD0D8A43CC818F8;
	15384 :	3D5D1984BC4F5DA2BD2A0A6CBCECE13A3D3D2E13BCF088BE3D3AF6FD3A1B14B1BD396D923C396F8D39DA9A743AD7BC933D44DEB63C69A730BDBCF362BC9D7833;
	15383 :	BA9ACE0DBC67A581BD628388BD883BD1BC0F6A74BD045C03BD5E73BABCEE519D3CF4B5473D8A54B83C6B4F2FBC990EA3BC07E3913BFE259BB995ACA7BD5C6E79;
	15382 :	BDB15A0F3D9E9A0FBCD1B3763B96D2973CEFB0C8BCF839E73D9900BB3CA09DD5BCCB10EB3BB7F9223D1CF4BF3D0D64E23C0224B83D0172AA389182E13DC2F2E8;
	15381 :	BC253DF4BD8BA61D3D254E50BD8514DF3D2C54F5BC08C2AE3D864D79BD2F976CBCCE16353C4F71F23A9AFC173C59CAD4BD5F3D043C08F1923B155548BCCCE706;
	15380 :	3AA2EC26BBE099E5BE05AAD3BD8251463BC89E65BD4A9A90BC723202BB807FF5BCBF40FDBD3E7822BC8F9D2ABCBD9810BC678EDF3BA8E3643DD0B01ABC205FAF;
	15379 :	BD3E1DCF3C6F24113D12CE893A135BA43C5839D3BC8DD515BD2F6A433C92DAC03D6A177BBB5A210BBD73148EBD18861B3D15D4F5BB0A3080BC53A22F3D9F84CE;
	15378 :	3D28BEADBB9403283C68520D3C3B40CEBBE62D88BD5A33D2BD2F95F73B4A66B0BD506FE3BCDA5960BD77B054BC7266B1BD1F26843D324DC63CCC1D653C67B29C;
	15377 :	BBA3D6143D8A54DD3D0AF0E8BDA21581BD10EBC83BF4EF30BC2E4DD63CB3AC913CEBAD3D3D821F113D8FD531BD3237DB3C5391BABDBB5CE53CCE59873DD96C3D;
	15376 :	BCED10B93CBDF7F33C2C4EEF3DCB2DD9BD37C384BD8322ECBC9BE278BB0643A93D24109DBC7B9F373BCAEAFF3CCA8B19BDA69900BC33173A3CE42F633C07E7EB;
	15375 :	3D73DFB23D531A383D042DFD3D424B3D3D1C2970BD4704CC3C1E2C59BC8C83D33CFA99DA3D1735B5BD027192BD964E1EBB0E91133C83B474BC8D9E27BD221746;
	15374 :	3D9BA6563DA81A583CCDC85ABD6BA72DBD82C7F63AFAB609BD891077BB77160DBDA60DBCBD6C5D4ABCBA7C1A3CC0CC5F3D256A7FBC42C4EF3C1D77473A8B1665;
	15373 :	BC91C76F3D51EBDFBC9FBB7ABBF46C193D9B1B013B8673DD3CC46102BD180F6CBD9542993D3E013F3DA8CE40BDA0DC193D59F0A0BC2BDCBF3D5CEEDD3D1A67DF;
	15372 :	3D91B9C13C87D48C3D19F0383D3DEE5BBCCBE016BC346BFCBDA0E44EBCE573193DA0FFCC3DD5A414BC7E7EA33DB26420BC06FFA73D120796BD1A68B7BB36A206;
	15371 :	3CF73DA6BD6EF07C3D5B6E26BCF933B8BD9E59DF3D1734573DC9D9DC3D7515F2BCC82E2B3D9FE6F83DBD08AD3DBCEDF0BCD5EF503DC527C2BC20AB3BBD28FF6D;
	15370 :	BDA22E143D7503EABD41133EBC0C57B73D0D34833D7A723C3C27BE54BD8DAB8B3C992DC2BD1553363D85A6B7BDA71E853D2528333A2B7FBF3C9F407CBD869FBB;
	15369 :	BD15104DBCF82C08BC979E65BD52A82C3AF71686BD390316BD5BCCA23D2C697CBD1B4C2ABD52B48C3D9883B1BC61BC483B2BB20E3DBC10D7BC8AC01FBD2F65FA;
	15368 :	3D14E9DF3C1B2CC83D845344BBF515813D01A3DA3CF52D193D91A72EBDA55BFEBBB3E8B43C16F3DE3D64842EBD39A08EBD2AB5BF3D9FAA413D4793A1BCA0C266;
	15367 :	BDBE19443BAD1AAA3CAA81B73CDABF4B3D108965BCDCAEA6BD4836943D8112CABBD9A6FBBD71DF1DBC8791E9BB33D711BD818ABBBCEE51FDBD821BD03D200B18;
	15366 :	3CB4EA09BCD4850BBB6A8CC43B15A3BABD163DDA3D91EB633D0507943C0150CDBCADCFA7BC3A68CFBC69496DBB6255F83D29069CBC2EAD953D22202DBD353745;
	15365 :	BD8B0B59BB1F0027BD4D4373BC5411223B2CDCDCBB147E3EBCDB15EBBD611B3C3BBEBBFFBCC9B2E23D8D3975BC4834353D9E93A4BA4DCAF7BD9CEA6ABD2B9AF1;
	15364 :	BCEA7818BDACB5DFBD2C32583DC4DA31BDD19FA13D8EF132BB1BB861BD81D451BD40DFC4B9CD94643D31BF86BCBDAD503CB2D321BC6B3C17BC39D4A7BDA826EB;
	15363 :	BD51FC843987F558BC9321CD3D8EF793BD4B45D7BC1FB1A9BCDEF5413D08518A3D0FDA91BD70164ABCB756033C8FC185BAD8FF8ABC6AFA1CBD6107943D2F4FB3;
	15362 :	3D96CF623DB43ADE3D755E423C8781B8BD400B493D6966B13BDD8E6ABCCAA802BB53AD35BDAA06043C6491F6BC15DCDDBD51C58BBD36FADFBCA2A363BCAA3833;
	15361 :	BD9AF066BC3AE111BE08C239BC688C83BC05F73EBD202DEBBC2B82E5BDA9A5563C1DEB60BDA4525F3D11C49438A2951BBD2981FC3D9C8E853BB502B0B949C891;
	15360 :	BCF9F4FFBCA8D757BD95A7E9BD1FE23B3D9C11DC3DA50D47B94EC125BDACE020BCBC52943D3A08D5BD0E8774BC9EBBAEBD1D8F6E3D7B842DBC40E4D3BBE55FBF;
	15359 :	BC55E6F1BC011863BD04EEF2BC3A1DF73D4A97EF3DA60ABD3D40A52A3CE449D83D040E7FBBDED019BCF1E2EB3D66751EBC86FA3ABD8546FFBDB1562EBDA572C7;
	15358 :	BC15ED7E3D2E960E3D68576F3D8B018B3B1A29EABD1D95EBBBBBAA7E3DB4FD97BC03E4E93D710820BC8478963A061D253D3EEEE6BCBCA3523B0C0255BC110E79;
	15357 :	BCBD3CCCBD0E01E53C5530A1BDC1505EBC9A34DF3CCADE283CBE48673D3063843C033EB13D412DA83CF9267ABCBED053BCBFD4B53D3E51453C2D603BBCCBEFEF;
	15356 :	3C5DFAC23D706E81BD0D63BABD2B9ADB3CC4B58C3D58233ABCA4DF5DBC10AEB83C53FA31BD8E320CBCE24C7A3DBF2373BCCED1743DB1B18C3DB3E6633DB9A3F3;
	15355 :	BD7E90E7BC3864BBBAE167443C38FF163C58EA18BD3AA9C1BD34B4B2BCBA849EBD3F406BBCE564503DBC8CC5BC102BE63C3435E13CB3A1003CAF6B33BD046628;
	15354 :	3CD6436EBCF41D903CD8E6FF3B154F3839AB868A3A3E9E4D3D0B42FC3D1CFDBC3C85E779BC4ECEA0BD3D35FEBD67207D3BB2218B3CFE89A73D29704E3CBF3A19;
	15353 :	3D7955783DB7D837BC9DB0F03D176FE7BBF1D2FA3D3D6BD93C8AF0FD3CA4F3713CA147EDBD674091BD89F0F23B3A62713CB6888E3B370F803B393FD4BD42CAD6;
	15352 :	3E0E869BBCED35BD3BEC4D6CBD0E2909BD8503733D0F4EDE3D9A03C4BD249E46BDCB8C25BD1529513C24352BBD84CF29BCAA90513D87BCBDBAFB71693D263F8E;
	15351 :	BC0632DABC9A39EB3C48C76D3CDFB91B3D312ACB3D15FD1A3CD587813D00AA9C3D9D2B8D3BA60065BCDC3B113DB9EAF7BD4B6A383C970CB6BC3724323C4BC9C1;
	15350 :	3C9597A3BCEE3BCD3CB076023D08C4D8BD3A27D83D2C5EDE3D2D9CFCBCEE7DDBBB61BF57BCCDBF15BCB464ECBD509C2BBD9A2E2B3D237CC4BD0918363D4A02E8;
	15349 :	3C8DE89CBD38640DBD6602023C922AAB3C8B55D8BD36C9433C87C0C23B40E0A2BD842A9DBD6428A23D6554FC3C69BCEA3D8FB766BD7948A13CF2E81FBD1F966A;
	15348 :	BC8750463A34EFC93DCFD9A23CD9CF7FBD5BB6AA3C45DAAD3D9140D4BD19AD45BD985617BC8311DDBBC0CBC9BCCB1B913C25DD43BD08CAF6BB082D13BD58D384;
	15347 :	BCFE449EBD346134BD49E7F23CD695D2BBFF74C43D15F4F1BAD966973D15E436BD6951B7BCBC6C803D566C15BC1D8D1CBCA19FAEBD815C5CBD393E83BBE5EF2E;
	15346 :	3D2DD2F4BCB706613D965C56BC3D6E7FBC4104EABC94D563BD37EC5DBD9CB20D3B22B6963D86B202BCFC0654BD4FF7343DB7791E3CDBE5FF3C1547F53C665E23;
	15345 :	BC255217BB8298DDBCD99C87BD34BDD9BCD8D50B3D5CC8CE3CF0DA05BCBBE418BA8E57A9BD5AC1B8BBD0EFB8BD668AEEBC68BBE4BB9D2F80BDB82F95BC21CFE2;
	15344 :	3C6663653D9B21DC3D33F22EBB4B0A6A3DC8590A3D056B39BD1779553C9568FE3CB1920BBB6646F93C25696A3D5AA89D3CFA74713C4AB1803CC8F381BDABA1B9;
	15343 :	BCFD0FEB3CA1FA73BD323188BB5941383D6BE0F1BC0BBFD9BD0913143D763E4B3C7975EF3C62A92E3D7855ADBCFB7CE5BD88FCB13D90532EBCE04484BD78F2A4;
	15342 :	BD8196C13DE32ACCBD31B204BCCBF67D3D95DC08BC687F873D000BAA3C84D5373B99BE3C3C9593AFBCE157D7BDBE6D503D828A8D3E0F8B9B3D3F03273D28CD4C;
	15341 :	3D4A57323BC134173D0345A93CD743BABD4E9F6A3C1C3687BD1ECE84BB8DB7E63C226B3D3C9958C3BCD9C9E53CDC42133D46016E3D0BE79D3C16EBCB3BAFFE8E;
	15340 :	3D2505F3BC5EDFE53D848FC43C4B892ABC41168CBCDEF8B73CDE2712BC9C324C3D33F1143CF8C2E0BD658F4B3C8E855BBCA4541C3C7D9F6E3D87EA4EBB003952;
	15339 :	3D98A8A73CF9E0AA3CBE39F2BBA9DF97BCD882DCBCDF018CBDC5D79FBD8088F43D6886923CFD7665BCF35D373D0BB3F8BC006C513D7E22C83D97EEF3BD369896;
	15338 :	BDB456FFBBB06B4BBD44E387BD54AF383D7115443BE3446E3DA4E69DBB9B7B21BD5BF60EBD11537FBD85E5903C798C543C69364CBD184EABBDD68364BC806EDD;
	15337 :	BD1A4C943D20498B3D52ECA33C67315E3CE5B3EFBB9432993C351A363DC9479F3D8006DCBCBF5DA23CDA15BB3D43DF983D06716F3C9FEA7A3D283CC9BD5E303B;
	15336 :	3CDBC6C93C82EE473CDBC0FC3D91B022BCBDCEBABC120343BD056DC4BCD25CC23BBA6D523D5CA18EBC20EBE13D026B2ABD869AFDBC5146DBBD85984C3D9322F9;
	15335 :	BD94BE3F3C5EADAABD660A6BBDC7C13FBC13E73EBD445AD63D71DB0ABD3485C93D8CD5093CE2B025BD05290C3D35D5DC3CFE66B4BDD0ECED3CBEE8CCBDAFFD27;
	15334 :	3C1B4991BD32420EBCAA16AB3CFAF7DCBC21F3703A9426363C450DBCBBFA242C3CF1B0EA3D7302DDBD3135F0BD092D843C8206D93C4FEE263DBB985ABC1889A5;
	15333 :	3C20F2AA3D58B67EBD4647DA3CBE5FD53C931E02BBEBA1D13C9F0EE53CF6C0FD3D99B862BD2FC6F3BD3344303CF6C79DBD00C4A1BD975292BC34931BBD179B70;
	15332 :	3C2F8090BCD436F7BCC40387BC6E4B703C317D5E3D2152F9BD3B4D5ABBEF9EF7BD8D968DBC3B98B7BD3A384D3D04B775BC9737D5BD84D1203D13D78D3D1D788C;
	15331 :	3C3BA912BDB491FD3C151A2DBBF8AAB5BD1C50E43D59B76C3C1E21113C62DEDCBD6D9431BCA883C5BC8261633D875C8E3D1FF7B7BCA780223AA9DA4D3C7FE53E;
	15330 :	BC58CCDCBBC8FEE13C8CD32E3C726AC7BBEF80903DAA4777B9CC3CC5BC0CC578BD737958BCBE07FA3D2999833D2ED594BD650244BC85A121BD6E932D3D024A22;
	15329 :	3C50E2B6BC8E2C873CBBDC523CBCC3DD3D96E45DBCC9BDF73DB5AD69BD454ECABD31BAE8BD4DD9D73C8AC840BADB70363A2F0F30BD31B8B5BCCA54A1BC210B05;
	15328 :	BC6995B73B5C13CCBDA4AE00BD84A7C53D8F92ABBCB101AB3C8D4E003831FB5F3D709BCEBD9BF15E3DA3A8523E0585F73D431FE1BD6694BFBD80B1F23D887EE0;
	15327 :	3C2BD4003D76A3353C54A4A23C9FF712BD7954423C9B0621BD6987DDBDB090DC3DE9434B3C8B59A23D6847B4BC58875D3D5700F13D22AE843DA12F403CE75A52;
	15326 :	BB93F045BC249AADBD348ECCBC18A76AB9182967BB9FF505BD0573243D5E5B90BD45082ABBEBA2A9BDB65A8C3C906A2FBAC36B46BD6213FABBD03B61BD527D68;
	15325 :	BCD7AFE8BD2AACE83D461CE8BC5330EA3CBD3EB43C10537A3D679AE6BC95F5E6BC43E1D63D35845ABC1806273C9B0F443C6995C13CA06239BC9A7741BD708471;
	15324 :	3D06ABE8BCCCD6EA3BD8D4533CCFED4BBCE1F1B8BCBF905A3C8C7FA9BCD3983A3D49BF723B394166BCA4448EBCA969CD3D9088D4BDB84A2A3B0156ED3D0B893A;
	15323 :	3D734D69BCC8080E3D0857D63C268BF53D988539BC0FC3513D1A6146BAE7995A3CF9C031BBDE1BC73D4C2190BD59505CBD8827833D3C3FA0BC83A4A6BCC62AA2;
	15322 :	3C395D46BC450CE73D55EE4DBD043E7EBD4E977CBD3E0E15BD8041D1BC09B3603C0B659DBD915546BCA30841BD5BD354BA93BD4CBD36D758BD869CE6BD4F0D15;
	15321 :	3D1CBE963CC7CA863CB38F583CCE2BD43C177AAF3CE5F5D3BCC19AE2BD0B73B53C8C842E3CF45812BCFADBE7BD8E5E8B3D6DB2E53D9DED33BB95AFB53D498160;
	15320 :	3D0E1459BBA9F5973B2689ACBD0F77963CF7E6BE3D1A0C5DBD2F9BAE3B5691D8BD1E31943AD6D8AEBDA46C43BD804CFABD9AFD65BB3B66F5BCA75976BD0A0F29;
	15319 :	BCE375503C6F002E3C833C0A3C638C32BC8951103DB3CBDF3CDB03FD3D4C727CBD859F0A3DA4EF68BD07CF9BBD5D74C1BD0232CABD1C81D2BD02D0753D0783EF;
	15318 :	BD92091FBD8F99B1BC1414903D46C6DFBCDB8F6DBC49513ABC8DF259BD231094BCFAFAD43D9D23D13C03E6CDBD0FF91BBD7A9E15BD958B913D4E2E593D8C40D1;
	15317 :	3D2425A2BD9D1CF2BC19DB473DA6C1BE3D4A754ABC82846C3C9EE1CCBD02C6143B0F69353D4CE2293B6849DDBD7F85D5BC31F872BD562C69BD03FBA13B6DA100;
	15316 :	3D88E6D4BCEC3BCD3C27B11EBD33C62BBAC2A3153DBAABAEBCEC9E78BD065C36BD800BA43D27DB5A3D030F0C3C9972BBBD9C949B3D39939B3D1C18EBBC8623C5;
	15315 :	BD83B8D5BD2EEE703BDAAFF03D5EEFDE3C39B4273D834415BD34028EBD88E989BCB668E8BC19C65A3CEAB7FB39953DBFBC5526123C51FF873C2E50423DC07F71;
	15314 :	3C57DC5C3D106B20BD449BB9BD28224A3CA59247BCB41CC73BD3D784BD650495BDA26D54BD2A2E8A3CBAF5413BA0932DBBEE80F2BA755FD8BB413492BC8FD348;
	15313 :	BC82A86DBC199EC7BD89159B3CB2F0AFBD7E8D9E3D28162ABD2F12D23D9E4453BD0129CCBD2B4ECBBCD2522A3B612D5CBDA319F53CB913A1BD4628493CF9FD54;
	15312 :	3C16500EBC0BAF403CDB5689BC8B31D63C9C19703B180250BD7104B03C6628CDBD5A2A1D3D5DA46D3D5696783C97CC9B3CA5369C3CA4E103BCE78C2CBB86EEB6;
	15311 :	3D9D8AD03C2181293BD22F5DBD3A0F2B3D8C44133C9EF4FCBD2EA8273D0E1E5ABC72DC65BD896D733B4A8E71BB38B2C9BD873D12BD2201A0B9B2C47A3D5C265B;
	15310 :	3D13B0FCBC43547CBA7A6639BBEDDBC9BD737DD53DCF1CC33D5D95B9BC839911BD6852243C414D8EBD6E59C03DAE254DBD1B1EF3BD2BF585BD70143BBC963432;
	15309 :	BC9D77E5BC59D11C3DB0FA90BD86F2AC3B583876BCF25F033D2349D03C45440D3D46F5F5BD5B73203D0CF372BD07EE23BC21B6FB3C38016DBC8314733D3FF4DC;
	15308 :	BC1A9E65BCDC1DB13D80B03C3BBB3DDBBD28EBB63BDDDA23BD0240043CBB5E73BCFD0DBC3C06859C3B1DC4D53CA2DA703C22FB893CA635CF3D9E01F03CAE9FF6;
	15307 :	3DA78605BCAA3D303D80FEFABD1E8E91BD7C5DB93D103026BD1506EBBB9DD2ACBD52A65ABD90467CBD067A6CBBFC1537BD3241B53D2229B43D45F40EBC4FDB6F;
	15306 :	BCB83EFB3C3F0F5B3D802DC03BCBB0883CAB791ABB44C825BCB328383B978A983D76ABD8BBA0F9853CDF36CFBD3B28CF3CC971133C299AC6BCCBF8C9BBA3BF28;
	15305 :	BCBE537ABC2FFDF5BCF25D073CA918343D897F4EBC769301BC934D18BBD357AE3D5E9E41BD5A942A3C47C1A13C362C783C1122493D6A6105BD756B5ABC2292AB;
	15304 :	BCE1FFFC3CAF707B3C03E555BCF1EABEBD9ADFEFBC5068523D500643BC64C39BBC059A52BB0FF962BCC4B2DA3A52E00ABD3668573D452363BCAEAF8C3C8EDE7D;
	15303 :	3C5F5F49BC00F0B23CF38AE53D2434A5BCA8C333BCB26B653D085A0ABA19A8AA3D591F313D7568283D89F0383C8739F03C8485FFBD41EC5FBDA8ED9BBC68CF88;
	15302 :	3C82784EBD16D9B6BD49B4373D98402C3D1936A93CA724FD3CDC9C7C3D76BF1CBD94F82E3C2D8BCCBC2038F23D82B068BB855EF93D345FB0BCB9C280BCA9BA52;
	15301 :	BD0D860DBCA709293CEA8A89BCF7B620BCC79F0D3C7CED38BD278FDEBA921326BD7DE9D7BD3998A03DAC0CDD3D7B3C3EBC492B393CC791B6BC5D412D3C12FB5E;
	15300 :	3C80F203BC74EE30BC422565BC19DEA83D7286533CA475563D6D9AB13D087A1EBD95A65A3D99424B3C68526BBC38A41F3D392999BC8726A6BCB510C4BD8E9EB5;
	15299 :	3C2809C7BC1D0F923D2796623D69FB75BCC8072CBC17408A3D4C8510BCCAAF4BBD57D8F63CDF1A72BCC7E8383CC7E3EA3D51D2E4BC03151ABCEE92C5BBCAF26F;
	15298 :	3D424939BC5B8BC93D5460273B725263BCC1A92D3D54F4893D6B126EBD566F553D0F9A043C839802BC67E16ABB9CDF103D6083CE3D269B96BB9E9E2B3C2FBE15;
	15297 :	BDB80C3CBAC2B1993B241F8B3C58C5D13D8BA2043B1FA1A9BCE4919A3C1421E63BFE9D6FBC3D49D9BC253CF2BC109CBBBD11EA7BBD827B003CA70662BBC350F5;
	15296 :	BD4D7AB83DB765E4BD8F90A0BD328EB63CC67B85BD492554BDA9638E38474D1E3C6036533C5780C0BC1BA048BD8A34BB3BE90FC1BD142A54BD20317BB8A89B55;
	15295 :	BD1CA11F3D1FA0E03CDB9CAA3D0116F63C896D8B3BB266A43D4B35C6BBC5012DBD94D0233CA0D176BD1D4C273D3DF09ABCFBECC73CEC3A3CBD21AD84BCD39B23;
	15294 :	3D0E379CBD3A481C3C18509D3D083CE53D5A38D23CEEBAF9BD81C3DB3CF0280B3D650F64BC78AE92BAB9895A3C289A7E3C159304BD0D0AEDBD366C6ABCF160F2;
	15293 :	3D21354B3D776B57BB29DA0C3BCD24053D3BE603BD33B3BDBD3C840ABCD36A8A3D53D1F63C59A85BBCE894613D62E14C3DA8582D3CEF42D93CBC4F2B3C2D89EF;
	15292 :	3CCBB196BB632B0C3C2924823C1B31023C8E6836BD70E9333C3EDD5DBD5C2571BB3A65243CE7DCD4BC011DADBCB479D5BD18B0683C9B01973893FACEBD503486;
	15291 :	3C701775BD03BD84BCB7DB8CBCEF55A53CDFB0633BE657F53D8844ADBC3484A1BD727468BD2C9B01BC3F071EBD3391FDBD6C326ABD05B368BCAA4C1A3CC278FF;
	15290 :	BD57CE933C858521BD46B9CCBBBC5F16BA247171BC8D15083CA0055E3DB6AEC5BB6425BFBCF600C53CF03ED13D8B2CF9BC65D096BD0D246E3CB3196BBCA1CFA9;
	15289 :	BCAE14103D99FE613C6704ABBC6BE1F43BA1D94EBD35EB0B3B045774BD41B718BBCBAC513D2E89B33D3E49EE3CC593BFBB46FD55BCC9CE5E3CB9DE133D1AFE13;
	15288 :	BDB4DC71BCE003A13CAD8B25BC6C24B2B9B3939D3967CB88BC8AEB15BCE43849BC09055DBD85B01BBC8BD408BD629D4D3C76ACDF3AD57E303CDDCFAEBD61943C;
	15287 :	BCBC1C7FBC44E39CBCB54D9EBCE12B6ABD69115EBCB3F66F3CB65DE43D16EB493C7DEFF63D0D98CE3B0A2ECA3D2422EFBC82C9D33D060E153D32FF89BBE9EDB4;
	15286 :	BC50388A3CFCF93EBD2C3C50BC236A883D21A2E43BE385CEBCCFDEE33C51D8673B8773E53BC14B503CCFB105BC91FF403D916D9D3CC8B2C1BC48B7CD3C8145F9;
	15285 :	BCA8420B3D2A8432BC97B39F3AEEC84CBD8EADFDBC634AC0BCB384903D2AE769BD17D0A6BCC2A76ABD947B5DBBDEF9CBBBB36433BC1EA59C3ABF9EA43B267342;
	15284 :	BC0ACCC63CE2022B3C9028B1BD03B257BD8D3629BC514DDC3D866F53BD1B36503C95C29E3D5B74793D2399C9BC4BF2873DB8095FBB8AF1803C2A485ABD061653;
	15283 :	BCCB12133DB417693D40BA763C9514DBBD9391263D86B8E43D3603803D3460373C2ECD17BC9166D0BC2A610A3BACA9E3BCE963C4BD552E78BC5842A13D1956C4;
	15282 :	BC328DCF3D16440C3D8CE2623DCA7BE93BFFDD303DB47DCDBBBABB2EBB98F831BD3DD7503C81EBE43D491F213D136CDD3C0718723C8854FFBCB61956BBDDD84A;
	15281 :	3D41AA313C405611BCD00B873B9B90343C1A1BCEBC8334F5BC2C1BE93BFE15F6BD3470963D8F5EDC3C91FD51BBFA69B83C91ED7DBC81E074BD2226713D8B5EF1;
	15280 :	3CEE299A3D6236FBBD0B54313D2637E6BB6C00B33D381D96BC043696BD180489BD418C00BC0C9B45BD581FE03BCCD63E3C23F85B3C386FDD3C57DE323D94FDAB;
	15279 :	3C881E2ABAD805793A7D2FA93D5AC0D63B983C8EBC8874AA3D151E81BBA8EFB5BD7D72FABD535D74BC7265743D1EBFB83BA0ED143D187CEEBDA838C6BC82B5A5;
	15278 :	3DBDA9D0BCCBAA3ABC90B266382AB1BEBC5E1B303D95BD7BBD3423EABD85BCD63D58C1A93CBC44D83D85635EBD0D92923D235156BCDDEEE43D0B1F88BC9DCC4A;
	15277 :	3D6E976F3CCEA1A93CF173B53D1ED674BC63E54B3D95C02DBCE2A4E33DA037B43CA821D8BC018604BD4554C73D9C56863CD323663C3172B1BCE196943CAD2CE4;
	15276 :	BD2828303DA126A8BCAF2ED9BD26F82BBBDD9DDF3C4864EDB9B0BCABBD082282BCC56C5E3D5007B2BC8E9712BC92732A3C8B5EE43DA2AEB9BC7F7312BABA2865;
	15275 :	BB692527BD5C23673BD90C29BD09EB7C3B5CD69EBCAB2FECBCFAB469BD36C051BD4268CBBD61AE7E3D72EDE23CEDFA9EBB941EF03A96B116BC6EBF9FBD4CD27E;
	15274 :	BC5D5413BC5BA934BD4B66B7BD55BF64BD54CBDD3D2161E5BAEED322BD1530DA3BA334AA3C91F2CA3D15DFBD3C2BFC3D3C251CBFBB71E066BCF71ACEBCB74A3A;
	15273 :	3DA7A96C3BCEF4DE3CE1C99B3DAA35A4BD043E553CE2B6F1BD1207EFBC191C903B295BB5BACAC352BD049EEABD7B2C06BCE3BA4C3C978D58BCD46BF43AEF9245;
	15272 :	BB436A15BCCCCADF3D44D16CBD28F0AFBB826AFF3CE7EF173C2BF53ABC9DF44B3CEE55483AA5143339B666B93DB283413C897CF8BD7ECA62BC9417AD3B60C79D;
	15271 :	3C4E5A303AC799A2BD52F9BF3B8927B13BC3CB18BCE3626CBCAFC2CE3CB409CA3CE40C1FBDACB1E63C261C4F3D5BB4473C814C543C5129EF3D69ED25BD729471;
	15270 :	3ADD87753C5025E7BD971CFDBD142E053DE8E0A73CBF85433D48DEF0BCDFC408BD0F53813C8371993CAD5CC43C135BAEBD24A12A3DA752653A87B63CBD741169;
	15269 :	BD0A71123B9B2C62BCD228D73CE5EDB2BD88D5BD3CF65E1E3C3F45C53D1EAE3BBC82F36B3D4268B43D2185AE3AF7D984BD0D594CBC2B3FA13C945F8FBD0F402B;
	15268 :	3B7547CD3D10425E3D466C7FBD1FE3D4BC99F7C43A083A8FBD87207C3BF0B2A93BD5E5603CE4F16FBD162532BBCDE7F93D9CAA0A3D267A64BBFE03E73CB2FB0F;
	15267 :	3CD8CE11BD3C0EECBC85958FBC3FF6693CEB65F33B9C589A3D0EB2CB39E4FBAFBA27DAFEBCAB4FB4BCBDA39D3D7FC1E9BC2B3894BB2A8E903BD4AED1BD11D594;
	15266 :	BD14E169BD0BCD063D65F8DA3B1DF5433DD48444BC94093C3D3F107ABC80FA7E3D35B6073C6E0084BD2992483C8A5AA43BEFAC6FBCB4B0893D4AB17FBCB6DE43;
	15265 :	BBCA61BEBCA28A08BCC59C2BBC9726D2BC4FC9D93D4C33B6BD1AF8F1BC9532743C9EDCDF3C2C6E033CF935A93C964C80BD240F463DA00948BD23B9EABC979BEB;
	15264 :	BC8CD7F33CFCBF0AB8D110123BABBB543D90EE9BBC2D75843A07B4353D1408D03D3C72DFBD22ACF9BC2807B6BD2E009B3D0EF4B5BB5547763CC905B03C56CF58;
	15263 :	3BFAAAEC3C80B9B9BC2736473C1D8A9C3DB4A83C3D069435BB92A8C4BC64D1E0BD2D17B7BC0FB5C7BCA8FCF83D4328F83CEF59BA3C19D210BCFE5CFDBD8028DD;
	15262 :	3D25F66C3ACCA3913C611C8FBC8661DCBCEDB4EA3D901C0DBC74026DBDA979D9BACBE526BD4839223B8A567A3C8FBD2ABA26032B3D9AB8803C15A4963D9C7DB3;
	15261 :	3B76D1FEBB87DFE9BC9D104B3D0750E33CF87CD83C8A9866BB24C78EBD29AD39BCDFC98B3CC43E5ABA9D7F2B3D2307B9BD7B0C273C75E927BBD379963D438347;
	15260 :	3CF94CDCBC6B4313BCF4FE61BBE736873B4E9DE3BD1AEB253DCC268F3D52069539F703F73D142A4BBCD75724BD883DF7BD0427AA3BD56E963D63B6023CBCB915;
	15259 :	3CD926373C89044D3C434D113C86124B3D1950C53C38577D3D286477BDA3304E3D083C9D3D9E7B8D3C9B7485BCFAEE823BEEA4CA3C56D765BD135671BD162C29;
	15258 :	BD774130BD217D2D3DA4D1593DF37A8D3B9BD24E3D2CF07E3CECF1D93C20E537BC09CE1FBD59DEF13CFE4189BD149BFB3D323026BD4E179EBC790BD23D1D1B2F;
	15257 :	3C162EDCBC4B259D3D1925E0BD6715863BA090B43D7170E2BD7540E0BC3C145DBD901863BB9BCED33D138FF5BD086548BCC4A6CB3CDEF4DD3BC1DC13BD08FA96;
	15256 :	BD3AEA1CBD1619EBBD36E8E1BCF74C053D4F6E183BFC2BA1BBE0A5A33C17236E3D1D95FBBD2A57773D8450D1BC9EFE663904CBBABCF65ADBBD9D22573D2B57D7;
	15255 :	3C1BE8E8BD092C2CBD5E2FA1BD822900BC9C68043D339E57BD840D4EBCBF49FA3C1CFECCBD860EADBD1D695EBC401D62BCEFD360BD52BF4ABD54EA5D3D60FBEC;
	15254 :	BA2E6BA13DA4F6433CEB190A3D388E153CEC6EBE3B6AF461BD0C9E303C27E8013D048EE7BC79504D3D45AE2C3D13C3CEBC4FFCC3BB2343583D1DB0A93D6BC020;
	15253 :	3D554378BBEEA39FBCE6D036BCDB130BBC25CC90BD5D814DBA331F863D8DFAEEBC6362403CE6C0723D2612493CF0A650BC649D82BCB933D4BCD40D99BC7936F6;
	15252 :	BD10598ABC68A259BD6BA61CBC0402173BFF5F73BD88ACC9BC8346013D9824BA3D43E0C23C9409A13B56A1E1BD607139BD4E11F4BB08B21EBD8D72A0BB5514BD;
	15251 :	BC6E8923BD1FF488BCFCBC313D4D2DECBC94878A3D18E6603BCEFB20BC0AAC4ABD12E59B3C2264F63AD009453DC2EECD3CA777F2BCC46D2EBC95AC673D623ADB;
	15250 :	3DA80E6B3CC40EBF3C537221BC84733E3DD0229B3C6AA2433CA9CEB13C32024DBD5224F0BBEBF7093C7B181F3CC3D9B73D3DF678BD3AD4F83D41A5073D939139;
	15249 :	3D0FF1C53C8640E7BCFCDF5C3DB9287FBD119DA33BC589E6BB8A377EBCC216D8BD9120403CB2419DBCE1B8B0B946BAB83C1002F73D4E538DBC8BD076BBF8BB0E;
	15248 :	BC414889BC7DDAE5BD9111BBBC31BD153D9D36053D1C39FABCAB8B313BAB31EDBCB708913C41CAA43C752B193B6F215BBC55DA273CABABAB3D0B6D873CF6BFD9;
	15247 :	3D0A96493D10C57CBCBB8D7F3B946440BBBEF7C5BD72201FBD50FA193CEAD31BBD34134BBBCB082FBC423EC9BCEF2BA63C2B11063B8F43D1BC84F549BB560E2E;
	15246 :	BCFB3C953BCC339DBCBBDFB1BC9E8B3B3CD340B8BD1D6582BCF4B0503C8B98813CB6CB35BCDFB3EF3D431BA03CF764F937A987BF3D4AE56CBD150DDFBD386853;
	15245 :	BCAA90D6BCEA557FBCCF8114B98D6E093D61A2293CE6D47B3D7786F2B8E9F0AE3D33AE9ABCC11CAC3D1E39103DA2329F3BD4DFD83D1578E7BD88C0263CBE3912;
	15244 :	3DC3892DBCDA6A6ABC58EDEF3D9805D13D7E1074BD5980A93D1B172BBB80561BBCD34971BC8953F63C128A03BD6849163D8AD9BDBD2607AB3C5B2852BD495A25;
	15243 :	3A818F83BCF599E33D3808353D0E08E93B172B59BC8746F73D00B1263D42E9CCBD9A693DBB4FB2A4BC9463DE3D8760ACBD8ED4E6BD10E4B73C1CCD9C3C9EFD45;
	15242 :	BBEF3A3EBD9F64873CB9165B3DD5E2873B4A690FBD41E228BC139C683C2FF0A13C9232A13D2F07803DAA3154BD2B23563C8E6DDB3CE1D09CBC2FBF6F3CEE2196;
	15241 :	BD1391483C55B285BD6875AD3D8B0C68BCAF9348BCFEF4BF3C2E69533CC94DD5BC8E369A3CACE5023B141852BD154E4DBC9E0CC3BD371326BD2AE04C3D718DB0;
	15240 :	3D6791AC3C2A4F373BA10F51BD42B9233CE9FFB0B999E515BD1569F03CA46FD63D8B3F5CBC85B6A9BB7612C43CCEBBB5BC848F8FBCC7764F3BF94831BD355251;
	15239 :	BD58EB133D255ECC3C8ABB16BB0A46C13D811D05BD4BC874BD124802BD0B6BBFBCC9EE19BCEB86F93C459CD8BCCE34A9BCC5D20A3C3BA74FBC8891F6BD05DB33;
	15238 :	3D45E10ABC9DD460BD3A8C48BB178F043D6BF2713CEAA7333C9A7D0ABD08F4133C219A703CD2FDCB3D09FE16BC0687733D694C803BF4C6943D39CA42BC9D463F;
	15237 :	BD154A6DBD192D263D63E771BC059D99BAABD407BD06E1243C1299273C619793BBC13CCEBD93EBB8BCF7D45A3CB8D40D3BF425ADBC55B7583BAA4F3B3D60376F;
	15236 :	BCA054A53CDD7F8EBCFE8D8C3D14EBEEBC852725BC9987603D36EC4BBCB4456DBD1FBA9CBC46BA4E3C28322E3CDE6E89BB919F983D9D1CD9BC2AEDC7BCF3A20F;
	15235 :	BC0D23373D0C78CFBC673ED5BC0CAFC8BD2F7F98BC03E7863DC127613C6595363D2D5393BC363266BD7BFDEBBC87E8B33D605E7ABDB107FBBD13B07BBD00278A;
	15234 :	3C09EAB9BD1555C03D41B3373D135CA5BD99C4D83CF40E443BA20E7DBD890BFFBC19F5073BADCD343BA224573CED1149BCD17E623D1FE8C1BD6020B2BD482744;
	15233 :	BD23D8C5BD82DB2D3D9D52FDBC8275403D6FB2C6BB8D3B7CBC048EF6B9AE5CCABD8807C0BB4947DABD9248133CE61D66BD72ECB7BBF54DC73D102D6CBC0AA278;
	15232 :	BCA378043D0407BD3DA1FD5B3CB16357BBA005C1BD0A5F5F3AED1767BC7AFDF23DA9E77EBCF423CCBD98D7783D35C226BD3EF3283CAA6D3DBCB32C24BC1AAA58;
	15231 :	BC97CCF2BB2C4037BC9CC7EA3C0B9C10BD04E601BD71D2E0BD3ECB26BD423A813D5D38A93D466375BD383ECF3DB5C13A3A9B467DBC6F0DE5BDCF90143D6BE552;
	15230 :	BD0A29C9BD87B87BBD2B2A053C5EEF1BBA241B25BD2417CEBBA43198BD338239BD225C71BD63C4933A355E45BD86C5453C289427BD5F7EE7BD62A74BBD263759;
	15229 :	BBF935A0BD65C072BD060995BD4864A13CA6CE08BCDC74A7BD76BC423C3464A0BCE41086BCA361583CF913DD3CA4229A3C3A185ABBB95A1BBC527D94BC8B9D52;
	15228 :	3DAF91C63BED3CB03D8862F33CD0D9B6B973E4BEBD21E652BCB8E38E3D9EC7AB3D4E5406BCC7A4F0BD5439E73D675CD03D861C2B3D4145273D1188E8BD579D30;
	15227 :	3B0395DABD321B8EBC5102933DDB637B3CCC265FBCFE92773D3CA1EE3DD1423F3CA91A6CBBB17E30BD129B3F3B94C25E3C8CED94BD961FD43D08961DBD50D65C;
	15226 :	BB6D7C48BD0F8B21BCBD10C33D13171EBD295C71BD4FC941BD575ADB3DD97F283D0726393D10E1593CF4358ABC3DD4DEBD3AC5803CB9F540BCE2BFF8BCA32048;
	15225 :	3D97590EBC92897BBCCA85193C6969F7BD8443ABBD946A4CBD2EA3FC3CD7DA1ABC8CFCCFBCDD9A2EBCDEA348BD870B68BC58AC253D033D313D36C37C3AFF0BC6;
	15224 :	3D131F223C64F738BCF9A4A03CD9C1463C23DA093CBC57F33D9ED1E53D91836C3D4E59E43D0BE4563C92359D3CB88CECBC183A183CEB7058BDE3E0A8BD864EF8;
	15223 :	BD549817BD283163BCC6E3C93C028EF9BC95FE343DB8185F3CE59388BCE263D7BD04532F3CFC8305BC8240C43C49A0FCBC483D9D3D92ADDF3DD0F114BD04F677;
	15222 :	BCB19474BB5BF5FFBCAB647D3D92441E3CBDFDEFBCF68D673C77BD6BBC48F8013C35678E3D3C033FBC5D00D4BCA99901BD1B6D9DBD034971BDC363C93D101958;
	15221 :	BCF3040C3D4CAB843B214F73BD0AC4B4BD3A9D2A3DCAFAEDBC4A3B04BD05AB6A3C6813A63D4FDD2DBCDF68C9BD27CDB9BCA64C103DF337C23D7141DD3D2B144E;
	15220 :	3C8C643D3E02CB7BBD38CA96BCE13123BDC11D893C9C4A073C728E603D31DCB93D55074A3CE7B5D93D996BE23D43C23CBB2AFB49BCFA8F433D1380C3BD8669AA;
	15219 :	BB840B5DBDB1C5E33D480106BC95A6603D05BCA43D2E64A23D9898C13D5A2D8F3CA5AF40BCFE7C803CB72086BC8565693D4D89343D4F0DF9BD36FBAA3C96B364;
	15218 :	3D0125C5BD10B384BBCAF188BC09AA0F3C34D5373C2A23B1BD54164ABC93CA56BD39D670BAE146CEBD13EC48BCBC7CA33DC81705BCE2BD0EBC18551BBC74FDDA;
	15217 :	BB6B62D63C53B0C43D5558E93DBAB764BD770ED4BD207CA23D923A253D4DC1BA3C3BE9C1BD148662BCD357123D5CEC64BAFA8A94BD44FD2BBCA14271BD52DCC3;
	15216 :	3C8121F73BFC0015BCCA52143D88A1F73CF7E787BB15C6E3BC84A2F1BDCDD31C3DB5B9F23D241B263D1AAFD33C8894103C600E553D3734D5BCAD79123C144930;
	15215 :	3D8ECDA33DACBE343AC7C521BCAFEC2D3D9FABF13D88A8483C5F2789BBB388CB3D096ABC3D0B5CC63C9DBD74BCD87E353C16EDA13DF7B668BC985B563CC00C96;
	15214 :	3CE7F2863C227E0C39BE78E13E00EF03BC1EE7B13D21B0E83CADCF343B34254FBD060E80BD4899A3BD68B1A43D8AEA87BD3504443D8180B63CDFA536BBEBFB29;
	15213 :	BD05163DBB4DC1C1BCCAAD663D5D13A23BA4334BBCFF5E4EBD1E3377BD226A163B8986F9BCDD85E0BCD233BA3C5CE7E23D5A87773B004E96BD8291FBBBB50BBA;
	15212 :	3CB30151BBE2123ABD48D9683BAF6975BD9C1B9D3CE3AB18BD1FFE3F3D12C051BD166F61BC8FB7C9BBF753353BBEAF0CBC46346BBB3473663D3681CF3DEA76BF;
	15211 :	3BFD9AC2BD836C273D150AD63CF36C5CBC9EDDA13C65C14E3D1CAF023CA51563BDAB98CA3D4A32893CAA5C933D1ED4F93D232ABE3D7D7C4E3D2EC735BBF1AAE8;
	15210 :	BD138A413D7553F9BCD043163C73C0BFBB799794BDAE0D073D967FAC3D881D723CB432F73D17A487BCA56A693CC37F5EBB8E35C5BDC46D263CE8341B3C3E03A8;
	15209 :	3DB9F7913B51A56ABCD4DE673D47BE8D3CBB5F17BD32B4E23D869924BD70D1013DC8E854BCBBB8B03C58CEF33C392AAEBCA4954B3C4E62B23D81927DBC072EEF;
	15208 :	BDAD1AC4BCECB1A53D7B52833D75A4253D372998BD56FA233D5D3A54BCF8C0FABC890CCA3C8F53BABD9DFA6E3C89B0D1BC40BE74BD722AA6BD3A91CFBD9934E2;
	15207 :	3D9A0171BD0DD847BCC766F03DB2832D3B8C0E7F3CBFBD1D3BE2A5CCBC808BF53BE66E5BBCB3097F3A0EE8D6BD39D76C3CFD5BA3BC9FD7DCBCA87A5C3D28A00D;
	15206 :	BD29E83DBD85D443BBBF5034BC46D60EBCA29B21BD5B82F3BD4CE79F3CF4AD793D7EA0393D9EFD013B0B8C8FBD201D55BD22512B3DD4D2B8BD781D30BBBDCCEA;
	15205 :	BD6FD740BD0F673BBD80A5E5BCB595D03CC3992EBD13EE553CB0C8A53CA749053DA325DA3C7E16023D1DBDC3BB362D15BCB6B4B8BDA9A332BD250E8ABDB3C07E;
	15204 :	3CAAE853BD5E0BD9BCC4E7C0BD01DD9A3D6FF63E3CA095D9BDCA091FBD81745BBCD6645CBD8B68B43C553F483D4363D6BCDBE6EFBD74CAE73C08E043BD2B0038;
	15203 :	BD85F0C3BCAD1C6FBC6FEB7CBAE69350BC6BED543C3BE37FBBE97915BC7368E53A8A6CB3BC84B2793C9507CDBC3152C3BA36EA5CBC0B8C043C9D00ABBCF1ACD1;
	15202 :	BBE662D3BD3D388D3B97FB44BCE49CF7BCC625C43CC57770BC941A10BCF512803B93498BBD464219BC0AEC1ABD235DCEBD17945C3C9592F23C2F4484BD3182C9;
	15201 :	BD7B2C9B3C178B6F3CB774743D917FFD3B9A80EB3D3ACC203D8EC7EABC305919BDA28E723BE01374BC6397D43CCA1570BD97B5133C3D61843CB0ECD63DE2B40D;
	15200 :	3DEE350F3CA92813BDB850863CFA8DC7BD3E8B5E3DAAB716BCA2F44A3D04AEE9BD104882BDE3F6F2BCEE9EB83D84E1FBBA5B0055BD2004C83D586A0FBCA89782;
	15199 :	3CFB8DFDBDA0D1F13DA3D8AFBD33E26BBD934E47BD8B6CBDBD6D5FB1BD7B8169BC2A99E3BD13D552BBD1A9C93C86C8F6BD879AE93D257C943D2124003D02DA85;
	15198 :	3D44F9F23CA6F596BBBA9324BD0B45F23D8E47BBBD8320213C0988013C53E917BD9894EBBD0BD6C03D17469CBC677AADBBD45A8C3C1D50673CBADA49BD233EAE;
	15197 :	3D52BFE4BCB36EEF3D829CEBBD848AE1BD1F44313CCA69A73CFAA4143AD240CD3D61A5483D64F9CFBDAF9B4D3D24DA7B3D09D925BD0EF29FBD1CDB01BD1CD68F;
	15196 :	BD4C786DBD4C314BBC793F1E3C1DFE593CD7D60C3CA8C8E2BD44F4513C6575B53C7A61E3BCBF3705BB249190BD90131B3D59828E3D34DA5CBCB5549CBC185ECB;
	15195 :	3A8DF8E4BCE3C3643DC2C7033C2583E4BD21C1623C58881FBD730D3F3BEEC3BFBD5EF0CC3DCCE304BCBF82CB3D40AAA2BD934963B98E2EA53C1B60073CA7321F;
	15194 :	BC6662E53D2586E1BD7E43EEBC2923CBBDCEBAEF3BDCEDB13CB99D743D5891D1BD3578DDBC5C8195BC1F221A3D18ABFBBC97DDFEBD2A0192BD1FDC9BBC723EC0;
	15193 :	3D9797223CE6CFE73CDE475F3D63F0EEBC963BB43C335A83BD5A9BFDBD28DC98BCA0E67DBCBB4FEFBCCF017E3D40838BBD9A5B88BC9463BC3C8E0F493C7CD3A9;
	15192 :	3AA8A2173D5D7B8BBCEE11B43D1B35B73CD54D68B9CE27C1BCE61B913C02F0CDBD763B9FBC1E296ABD860D39BD901E2DBD2DCAF03CDE8180BD4284563DC42B4B;
	15191 :	BCBA4E993DE89830BD75BC0EBD411EF13D16377B3D5A12E33C03D7C03C5D7064BD091E443D12DDA1BD532F6E3DCFAEDBBC9A9A53BC576EB3BD93C8643D0D3F9E;
	15190 :	3C6DEF97BD247D92BCE3C2B3BD9BD50DBC19B755BC9D669B3D02B382BD9514353BF0FB113AF552D9BD0AEC3CBCCE0E2ABC048A7E3DB20CE5BC141EE5BC26DADC;
	15189 :	3D07C790BC5C8699BC9C2C313CBAFADDBDA4B9DDBCB7FE4CBD25556CBBAE7DDD3CB241EA3B792F24BD5F0FF6BD40EDE43D4868E03CC7A6DBBCD44EB6BCCD43C2;
	15188 :	BC84EA94BC6832B9BA816E25BD4FC3FA3C40ABCFBCEEB5C7BCA6A2993CB0DEB7BB0882A73DB4E73A3C9408C83D8E3E20BD3BDB40BC875D593DB74AA83D2E02BA;
	15187 :	3D77169D3B26588F3CB7B0E53C42640FBBB5B6A33B9DBA343A22E7C4BCFD1F1A3C52C55E3B0CB62F3CB59EFFBC681070B910FF4C3CB09E10BD16759A3BE2D12D;
	15186 :	BD5675CF3BC3DF00BDC72B603D359E3BBD192C963D0E416FBD44EE823D81D8553D2A6B2BBD352CA33B95526CBD529626BB3EFE9BBC8DDCDD3DA0298ABCA15922;
	15185 :	BDA1BA99BDA0FDBDBD5C722A3C9B858D3D9000ECBC1ACBD4BD9AD8753C7BEF97BD6E44EF3DC2C3B2BC52F900BADB4A423D8731C53C63D58CBC0D8234BDB57006;
	15184 :	3A1E71D63CAC41B1BBC2A0DA3D75518E3CB037E43D06E8AA3BCD90693D464868BCA19D49BC9DBE5D3D2CF3603C8D6D683DA3423FBDB92BFEBD28237D3CBBBA60;
	15183 :	3D7C367CBA96C56ABC8CF301BC007027BC792AD63D9858BBBC16DA6B3DAEF368BCE6B6563B8A8B06BCC15F58BD91876BBC2D92C33D16F27F3D28F28D3CEB70D6;
	15182 :	BB9ADEE7BCCCF781BD705DAF3A9278EE3D036BE13D49CE5EBDBC99CD3B31F14BBCA172A3BD40DAC3BC9671253CD400D73D6777FEBCC328753D04EE8FBD8AA62B;
	15181 :	BCEE6C8C3DD589D33DB3F75ABCC7271EBD518C8EBDA8895BBD1730E43DD5D7F5BD753AB8BD24DA3B3B754546BD522586BC295CE53D9DC502BCA694FC3B777171;
	15180 :	3CB641483D6358E939D0EB6A3B75A3D93D63576FBC0D9226BC7D3CED3CA2FEB03D2C0799BD4E6F453C178263BCDA89DEBCBAB55D3C6699F53D35F9ADBD290F5D;
	15179 :	3CD21575BC96B6CEBCA8439B3DC32CB13D4AD3E7BD0DE6E83C686EADBC1A3A3FBC318D62BC09D31A3C72D18DBB517F8CBD8348EB3CA2C388BC08F2D23D6971BB;
	15178 :	3C92FB3DBC13D0133D9F53753D174D54BA43F21EBD223DE6BBB3BDC8BCB9A8E5BB0D1895BCAAE344BB0D4E19BB70755C3B201592BCA6D86ABB99207ABD5AC734;
	15177 :	BB24406F3C47CADABCD0C529BDAB30EBBD185E6CBCF872E3BD184FDB3D423C7ABD2826E4BD169A9ABBA7C89ABBF798133CBDBC843D8CEA0BBD6D90CFBCAC8D82;
	15176 :	BCA8BA92BDAAC62ABC6626ACBC76209ABD8161DCBCA4CD0E3BE389E33C24C2D1BD968863BD75D626BCB051C7BD7B9E69BBC62153BBDEA4D63CA5A57E3CAA93CB;
	15175 :	3C3AFF143AB68CBD3CC38BF83D36C506BD510FCEBCDEED95BD39BCCBBD9E0D7E3D59035CBC42F5C6BD8D3A12BC6464813D318D803D1315803CF8CEBE3DE20726;
	15174 :	BD403BC0BD79F10CBC81A027BDA29FDBBD186BCABC960CA93DB2B6413B5B99303CAE857BBD239787BCA07102BD9E21FEBD85F04FBB05F4DB3CA85F33BD8E89A4;
	15173 :	3D9913033DE85FC9BC826BFEBD57365FBC9454A0BDA0F719BC5894773CB542C6BDA48CC0BB96BD42BD2528243DCD85433D3981B63C883814BD4D0AE53D9F97AB;
	15172 :	3B8D4A793D600A22BCCE5065BD087D55BBDAFAF33D52A9C4BD9E96EBBD6F60AEBCC327CEBBE227753C472022BD05FF5A3D563E96BBD674A03C9A37783C4BE521;
	15171 :	3DA68E67BD04D1513D5760BABD56CF5A3D7DB7EFBCA6A8BEBC5001FB3B9CAF68BD12DB693CD707023B66CBCEBC84C4B5BA913E6B3CD37A9CBD7815253C56B74E;
	15170 :	3D0A518BBC6C8F41BB63C8113C90F0F93CC9C86B3D3FD4043CB6363B3C8D39833AF6D5BDBC97AB7E3D24FB81BC9C793CBCC4B62BBD17AD663D26C181BDCCDA61;
	15169 :	3C1C2CA3BD8337B73A1E7219BD2591083D3FFBF13BDE773F3CBE567B3DAC3050BCDAB03B3D86E8A63D838BC93C3A91AA3CF64E463BA7C72EBD56E7BC3C9CA927;
	15168 :	BD1FE4C23D051848BC3AF5133B79B67E3C66F1FDBD56E6973D6B2E1FBCC85F79BCCCFFDA3D1C15DD3D230FD73D6BDFE23C8853B2BDC1E58C3D11AA0BBAAB4263;
	15167 :	3D05F82F3D1B3BA83D2D45C6BC0D0A00BB655941BA4E063F3D889A64BB65797EBD05C56BBCEDCD23BC7E15C63CCD571BBD64420C3D6C96213C6C1BA83C1A8FF1;
	15166 :	BCF919E2BC8E8EBFBC9586AC3C3A19B23A885E103CAFDAE6BD39F99BBDB8E802BD3FF29BBD88275D3CD6FACC3D174F853CD12EE4BCAE0C9EBBA0B76E3D1A88C9;
	15165 :	BB7C77183D5441D53D54DC75BCA49DD63CDAD60ABD1445093C981B383D0E4ADBBD5EE75ABC2CEC85BDBB26113BB116BD3CCFA357BB1FE483376068973CCDB825;
	15164 :	BD62392ABD84415A3D3FBF61BD0A6B3B3C8F5B873BC429093C8A60113C125468BCF4F0C8BD324175BD8497313DDEAA903C94C0A4BB371D72BCBE9AA43D63499B;
	15163 :	BD43EDC93D0080793CE120FC3DE70670BCA925343BF75852BCDD7D873D863F61BCC48D5A3C8B95103C8628053D7E1664BD082EAF3CA0DA893D08E5673A867FB7;
	15162 :	3D2DF9583D809B92BD3FF13FBCE9C3663C5CBEFABCB55273BC9A335DBB953BC13C9A70333CA16A64BD166EFF3C82AB24BD5D35E1BC6A8CDCBC0093883B7717AF;
	15161 :	BD7140DB3CA1EECC3D6D7AC93D9D66FFBD84763FBCCE64203CE3C3CFBC5B73193DB0F85BBD05A0C2BD36E8AEBD6CAA813CB09B603C0258F83AA2FC293D97540F;
	15160 :	3CCCC0EF3CC2B853BC325E26BD41E6AEBAD7D2F2BC4A7FE8BCB92F94BD7CDA38BC48844BBD9272993CF0A6D5BD074C06BD4A3E36BD8538D7BD0B37A13C18934D;
	15159 :	3D0885653CB717CEBCFCB55B3E163FE1BAD2A8EEBC435C4A3C3CC60DBD1EF0993CBF61CBBD9FE8693B217FDA3C0A420DBD0A2B56BC8CE6183B06F9EA3AC7565A;
	15158 :	BB8862C6BC7CB8D8BD23ED26BC5BDDD6BD857A65BD1DBD7A3C81DAD63C2BCFE7BD487C5F3C8507CABC65BCF2BC1BBA193DA4C27EBD17574C3CD52D78BDD5F369;
	15157 :	3D4088493CE706193D56D4AE3D55DC323D0E912BBC842698BC96DCEF3D39DA703D089F483D16DD6B3CD728973D88172C3D311E603BEF1E5ABBBB1A393D27D4BA;
	15156 :	BD8C1CBD3CC85C5C3B8CE6413C0C5D69BD4BC992BD9BBF9ABD1363A93D2567ED3B3C9DAE3D53E0A33C8DB038BD0213DB3D196C99BCBB4A5EBD4CCC893D391849;
	15155 :	BCA45F603CCF9CC53D2F2099BBC2193FBC5F74283D8C7CE83C353D95BD492B8CBCDC670E3C108E11BD8FDDFFBD297DA0BC13716B3D484CB7BB6D2F0C3DBA5ECD;
	15154 :	BDDFBCDA3D3B1999BC8188BABC60170BBD05C8413D71936FBC13616FBC9ADDAABD57D6803C16706D3D0A93703D299E2B3B464434BD1A9D203D3CF005BD6F5C03;
	15153 :	BD0457CE399A72403CCD89FDBB972623BDA181DB3C241763BD4442AF3CC80A763C1840633AEC4C67BD91BD6138B4505ABCA125963CC48B58BC155812BD3202B3;
	15152 :	3CA068F13BA754523D7E977ABC06EA7CBC1DA641BC8E9DCCBCFFF477BCFBC3EA3C936C84BB5DA695BD60FFFABD91EA083D3D57ADBD4E7BB93D59D1C2BC445BFB;
	15151 :	3D0E4912BB0648043D107B863D1EC6593D9EBE06BC872F6D3D7BA6C93B6C09053CCB0D3F3CD58AC9BC32D235BC6A7DCC3BA19698BD31948D3C76F0183C95118E;
	15150 :	BBC629253DA5DF14BD09C9B93C0FEFA03C9F428F3D462AC93DE691CBBBDD05D1BD1C96563B46AE0ABCDC9DA5BD98A1B8B9AECCA1BD60A228BC71AE67BD40E8A7;
	15149 :	BAE49B8F3D08D5E8BBD1F3593BE5C24B3D9694283DC78871BD0BE589BC7032EB3D5CB4153CD09C07BD4004DFBCBFE97EBD3AFC883D04B720BC826AB43CE02006;
	15148 :	BC7163D93D8F8E093CD85627BC892E5B3D22CDA0BCB1FD1FBAA8371F3CD732343D0CC7C8BDA07E8B3CA5DADCBBF8D1493D11BE8F3B5F47623CB1F3373CCDA53A;
	15147 :	BBE8B6DCBCE4CB663CBD1EDA3BC22BED3C671646BC3582F53C7F561ABC95EEBCBC9F3F2DBD2964A6BCAF76FE3B826271BCA11F07BC0A2CFF3CEFFAB93D1A61FC;
	15146 :	BAF0117A3C7EAD6C3C8457C63CA7B3533CCB9F283D7ABED1BCA9E17ABB560CADBC2ED4ADBC0005F13CA459063D6045F9BD265BB43B5F2B33BC98574E3CFD03DE;
	15145 :	3D0E3EEBBD38829ABBECE25EBC7061CD3C8873113D4E8D9C3D8E38CDBCAC6AD23D14BA2FBC2A625ABC8453F43A3C10EA3D9CA8BA3C8354913D24A2E6BC6007CD;
	15144 :	BD4180A73D64B50EBB4495FF3CC2D116BCBEF4F63BAACE74BCC2E2853D3DCA233D294D38BD501E133D312F9BBB8D92403BDA8E04BC06A3A13B0080573C806360;
	15143 :	3D06D5A63D5BED33BBF5E5BB3C02949EBC8C7C73BCCA9B8BBC3B2AB0BD7AD0623C14B6363D2891903CD39E3E3C86C997BC816916BDB957B0BD4CE5263C2AD364;
	15142 :	3C88F689BC1AE2BBBD57E2143D1AB5F13D1180923D44B246BD0A9BAD3D541B89BC17218EBCE58EBBBD28DAEEBCFCF7FABCB213733D00517ABBF47EDE3D333956;
	15141 :	3DB402E0BCFBC42E3D393300BBE5FCA53CFFCB70BCDF1A0E3D8255473ABD97BC3DAEAF263C8176A3BD1812E43BA82C4ABD8503E83C6686A4BC9A99EF3C37CF86;
	15140 :	3C2664C73CF4A1F1BDA1D4F6BCE9BA943CB85191BCA744B0BCC980B83D8736993D1983903C75DAAFBCC12C09BC81EF82BCBB37D63C910936BB82F8B33CCB146A;
	15139 :	BD187308BC6366963D7DD4A4BC34DC323D306C2BBC4B12D2BD21546FBCD358B73B341A733C912427BD1CA54A3C5D82BEBC8D8890BC1F8E603BF635A3BA3BCCB0;
	15138 :	BCC76933BD3CFFCDBCE139DFBDAD9E60BD28F1ACBD5375E6BC803275BCB8A0013D54A950BD0BC4753C29526ABB051C113CDA10F43CAA9BDABD052EAEBD2B19F1;
	15137 :	3BF4C4C8BD4A4EC43B8999AD3C45EB303B8023E8BC81141E3C908D4F3D7C49933C15CCF03CF78A3ABD0440B23D1BA95C3D0D3CB4BC62C78EBC72BAE83B242247;
	15136 :	BCCD6D9F3B9ADB9EBD227B7E3BE4C2EF3C6DF114BC3614D7BD573EFBBCDF57D63CA178DBBD42BF70BD7B0873BCAAC6AE3C49B3E13C84302A3D9202BF3C577D1C;
	15135 :	BD18F3443D8E796C3CEE67FEBCA05CE7BC678F6CBC6635973C30C65EBDB13EA93AB3BDA1BCFC2561BD47C2C9BB92E580BD87052D3D40FF9B3D14E356BD545414;
	15134 :	BD15E7D53D28471BBD99FE903A496A21BCEFA14BBC1ADC9C3D8B165B3DA16BEABCC3A0A63C38D6B5BCE58FEABC89F423BB8D9F9A3C3880B5B9C9DFC13C4FEB55;
	15133 :	BC39DF023D516266BD7B1888BC0A9465BC382C05BC8B7673BB82EC1F3C65E459397BA6DD3D4C0D143D516B9D3CAE36B43D370852BC2B6E80BBC4E5BB3C26BE77;
	15132 :	3C078C633C6B8A82BD3260743B42DBEE3C2B5AF6BD92FB773D4F823D3C882B4DBCB0F7F93DA2805EBC646718BBA336B0BD2CA37F3CB16AB1BD8AFE55BD074D07;
	15131 :	3C081BA1BD242DACBD0D1DD03CFF8D71BCEE78663C9EA1FE3CD817CCBD85232B3C817F0FBBE1DA373BD1120C3AB820E3BCFAB2F0BC2CFA37BD1E74C03D482AF0;
	15130 :	3C0E90933C0D5DE53C974241BD2E10393CB931D63CF0399ABC4572843B6FAF953D3DCEB4BC9F4C7EBD0B6B9A3C1C4FD7BC8838003B5A89253DB823DFBD22D5F3;
	15129 :	BCC487243C2C7DFA3D881E19BBB732C43D30B069BC2A1B75BCD349B0BC8F5C75BCEBBD52BB7205CABC8F10863CC6BF94BD0BFA9A3C7A6A7C3C5D9FCB3B98F32F;
	15128 :	BD178DC8BCDE444FBC98E6C2BD07CFD03C262FABBCA5498FBC72296DBD3F9429BD501CB3BCE47C0BBD3E7C5D3D54C3D33D771843BD77D3AD3C72E263BAA34038;
	15127 :	3C6D717EBBE33CA63D439FC0BC3C4EA13BEF53B4BC323C07BCEF7FCE3C47431ABD09DA953CF193C2BC74DD8BBC5DFC743D7ACC3CBC8D65C2BD2561713ABF521A;
	15126 :	3B7C59FD3DFE5436BC99024138DD8FA4BBEBAB9DBCEAC1D0BBCAC788BCB83805BD08C0FBBD5331783D4D832F3D18D6D0BD2E1082BA5EF511BCDC08B9BC93665A;
	15125 :	BCD25D37BCD986553C7F7CE23D0BD161BCFE55ECBD662E0CBD9DCA7CBD132F0EBD0275603D4A3989BCB91EBD39A39A263D1B14A63ABB28BCBC28C12BBC912C76;
	15124 :	3BEDC90B3D1A787B3C196F82BD4B540D3CFC4CE73D637D49BD342B83BD2F0A90BB3A684D3D40301DBC2E7B5BBD13B347BD2A9CC0BCADE2AA3C925C39BBEE52C1;
	15123 :	BD6A1F153BD682F7BD67A5FE3CF5FCC73C8FFE0EBB61CE99BD9FCE403CD7B5C4BCE3EF30BC69910FBD34E27F3D86B623B8BA37F93C91DDB9BBDDC3A4BD6236CC;
	15122 :	3C8944FC3D8ACD3EBD1F82F8BD4270CF3D067A27BCDBA77FBCB1950ABCF30C68BBFB7E473C22761BBD8282DFBCA6C1623CD61B353C9C2DFB3CD32830BC5BBE36;
	15121 :	39735970BC6BFF683D510D1ABCC54BD93C9160F0BD3C1101BD840A50BCCFC5123D66A289BCE5E15D3D60CBD03BFCC3D93CA58591BC9F0C05BCBBC7D53D37FB69;
	15120 :	3CFEF090BC507A55BD3EFB553CD2D8893CF005513D27DB39BC8E1BB03B2522D8BD52C0D4BC00E8D7BC6F3F89BD1593B4BD8D199A3D1518F53C6275F6BD2659CF;
	15119 :	BD506B143CD57C5A3D57DA1D3D7091D1BD6666E2BC50FF2F3CC7C7AE3B12560EBCA7449ABD60D1ECBB028A6E3CD593083AA9216139EB82DC3D66BCB83DADCEEF;
	15118 :	3C3CBCE53DA8C88BBBA0503CBA1CF7BA3D47A70ABCEF9ECFBB945107BDA5D42CBADF705A3B3C06313D26E1B6BC819AE8BC8CD77BBDA3C7B83B2ECD283ACE771A;
	15117 :	BD46ADAABC3FAED8BD648C48BC9DA498BD128B15BCA79D3BBC4199823D0F93A33B823CB9BC66F429BCF4A5F3BA2F79B33C2C8E62BD0458D3BBAE0B8E3D041CB5;
	15116 :	BD1555EE3D1025F33C99BF86BCEE4519BC7A5F0DBC470FF83CF4F8FDBBC06FF9BC38446BBC8E31453C995CEE3D42C9593D05A04ABC7F4E7DBC0E9ACABD4F0B29;
	15115 :	3CEF490CBBF500383CAF3F123BFB1E68BBACB4393CEC7BD3BB12C0873C094F53BC5DC247BD261FB2BD19A721BD17A11FBD3511003D896AD43ABF1FB63D016912;
	15114 :	3BDE39EF3D0D6722BCA21E8E3D362A9CBC5E85D4BC553BFFBD0CC8623C70309EBBCFDE83BD9318BA3D11983B3D5010EF3D07BEE9BD35959C3C87AE523D09278B;
	15113 :	BBC52071BD13C55F3C7B6E723AD99124BD36A9E73C8AA94C3C86D3E43D01AA8BBAD78D243C89E47CBCA54EABBC9172D7BCFB85263B724F92BC15F8FE3C5C0AAD;
	15112 :	BD1DCF10BD02578ABD21CB7CBD76B5CC3C50E91A3D97C949BD24AEA13D019CF4BCF497AD3DA9617ABC35B7B0B9BEFD69BCC4740E3CB00B1F3D4DCB7ABC1AE87F;
	15111 :	3D70A82BBC90796B3D89781ABC15A8FEBC29722B3C848C65BD58BCF53D98E6B23D3584D93C136A483BA9539D3D197B4B3CA29BAA3D03F7BDBCD2CDE83A9C5FCC;
	15110 :	BC6649B13D31B8893BBB88FD3CB9DBF3BBE9E0013D1E7E6F3D07A2DBBB30524FBD059698BD2EA591BCB597DF3D3A3DAD3C33DBB73D8A7B15BBB5AD293C8C01BF;
	15109 :	3C8853183B55F0F23D46A4A63D3B8F71BD2A46B1BCE590C3BBCFE2FDBCB086853CABF843BC649F823CE1E38E3D3D3F693D105BCCBC4C67A4BD014329BC953E9E;
	15108 :	3C2A5566BD1E5507BD9ED7213D5F3501BC32B7453C990E74BCC945FEBA870B53BCC33C16BC10784EBBA8B40C3E04F4F2BD2612ADBC3FF6033DBE073E3CFCBAB3;
	15107 :	BD26907D3D34860ABD5403DA3C6148393D2D0F923CB2A9E63CF462903C8104FBBCF5C584BC9E6F643CD866993D3F104A3B66F3D03D3FEA873D19A85C3CD9A422;
	15106 :	3BEE3131BBB82A4CBCBDC7F83D09DABE3DA304213B08015FBCE604DA3CB54699BD034207BBF5ADE3BC695459BD851374BC57DF66BCE64437BD0699873D2D14EF;
	15105 :	3BB4EE5BBBF78717BCCD67553C51EB233CA560803CA4F6F83CE38CC8BC0AD087BD07B27B3CE3DC1ABBA47731BCF26279BC86C7A73B9AF97C3D7BE12FBD22F52B;
	15104 :	BD11D91DBB96C47DBBF19A20BBA59B2EBB844DB8BC9BAD973C1D25D1B8B6E6E2BCD963E4BD28FEB5BC2F3068BD2BEC4DBCDDFC8FBB97DBC0BC94F2863D0FCB43;
	15103 :	BAA124663D43C74BBB9B61CE3D69ACCB3D35A160BDAD25AE3BDD7D9FBC848153BAFDEE053AFB363A3D82B6F1BCF342D03D5D4A97BB9E5BF1BD5F0A60BBC46FE2;
	15102 :	BCAC39AA3D286678BCF6CC52BD330228BD136CA43B6291FA3ACD3CB8BCF0D86BBC97AD45BCB947BFBD1EB7803CC8F3FC3D6B5380BC3E35643D026E323D366100;
	15101 :	3BE65FF9BACA0721BC3810E6BD039C693C08AB5ABD389E2FBC1B157BBC9BC135BC9A617A3D8151F83D9FCE3F3CD3E0E4BCC36AB3BBCD6FD63D1B37393D377AA8;
	15100 :	3B5B6EEFBCDC8EA6BD1B8F26BC985914BC76F6003D116E603AF16FA73D01D1263C91779F3D888972BC9D0B723C902905BD452608BC3378C8BDBCF1ECB89C129E;
	15099 :	3CAE125F3D8980973B3AE494BCF83E3ABA176BC0BC17295DBCAC3BE9BB68F8443CCADCC9BCAE63123CABE4E33C102D3B3C1E670B3DA6023F3D40D0BF3CE2669A;
	15098 :	3D0B12C63D4AF9C93CF3B2E4BD4EDA993D5006E63DB70892BC466E263BF413333C90E7A83D47B742BD0E1459BCBE1127BB1A14F0BD8477D03D01D0A5BD43BA40;
	15097 :	BD6C20603D0098B73D263A84BCE1F198BC76BDE3BD08E8ADBC2BD044BD1B19913AF324F6BD92497CBBFB709FBD652592BBB741A8BC1384C0BD688F9F3D98B570;
	15096 :	BCD9ECADBD4F8A6E3D8B2D243D99546DBD389E013D8FA88BBC7CA4793D43319A3B0A3F9DBC8070A5BC446072BAA110CDBB4465DB3D58DBFC3CC29338BD0C3FDE;
	15095 :	BC84CA9CBC16F3C5BD12DE1F3D905773BC65152ABCB59D883C3942D33D42BFE3BD42A55CBD0C3BD93C97EEAEBD2D4B5FBC9CA3163DC17AEABC07044FBBF274F2;
	15094 :	3C3985183D829EB4BCD1E10DBB9583133D5D778B3B8B8FE3BD8EB05DBC6C941D3D0CE38DBCAF5B62BB973B6CBD4804CD3C8841D73B0596733D878DCDBD61E1D8;
	15093 :	BC960B2F3B862510BCE42ECEBD482E3BBC18E6E53A37F0C33BB42AFB3DA5E909BCF5683EBC8B105F3D32C5BFBC1C28E5BCE8E62F3B8DC72F3CDE797FBC62E255;
	15092 :	BCBA5CD4BCA0574B3BA0A8BE3DB13F2BBDBC60DF3C99FD3BBD04BEDE3D9055CC3CEE1672BD4A873BBCE26329BD4010A63D3125643D6DC932BC7C694FBD2CC4CF;
	15091 :	3B4532893D651866BC6424ED3D9F6F55BCD5AECD3DAA50FF3CE290563D28F844BC01A15BBC81020BBC3165CC3CE3CCC23AF0B9D13C7BC5F0BCB0A2F53D471C11;
	15090 :	BC574BC1BD31DB00BCC3EF173D2B11C23AA32E80BCA0C30C3C11E086BD0BF11B3B8082583A000DDD3C9C0A1F3C95EFE63D66F5BFBB0243D1BB7125723D2C47DD;
	15089 :	3D81DFACBCC4A5EE3D2DF954BD7E377D3CD4CF0BBD68AFBDBC4F20173D23831E3BC49774BC20A531BD4BC80F3DBDA9F2BC3ADEEC3CBBEC6B398339333D189D60;
	15088 :	B9AF6CC03B6CDB3C3C8D5F013D9D420B3D4C34183DB037C53CC2503ABCEFA01D3D1C5A8BBD1EB4513C65A6F03C8E79883C75A4233CD81017BD45A3AC3D3C231A;
	15087 :	BC6F2F97BD02A884BD3DFB27BD34E151BD1CC870BBEA8DB6B94C02713D0A16DEBC4F31793D16A481BA5068CE3C7094B53C91494A3C89F9013B360460BC8C9ED4;
	15086 :	3D5934ACBBAFD7C53BAED4173D3691B43C6F17693CCF9D983D24026DBD5EDC263BC1CBF03C583D053DA49F4D3C4473E2BD2F544E3DBC5A9E3C9A1BBCBCC19FBA;
	15085 :	BD025AC9BCE1ACF93CDD386CBD3E3A6A390EC3A53D348A5C3C712E133CEFA4DC3D2286A6BCBE36743DC0EBC6BD42E82E3D524F35BD0078C6BC8398473BD81B34;
	15084 :	BD92B34CBCCDCE82BD71F5DDBDF2D671BD09A374BC8F11EABD1C58713D170C813C691F403CC63427BC5508CFBCD64FD83BA66E2CBD56C9543D1B194EBC8F4E13;
	15083 :	BCA854FEBCCB48D63CA956353D057E33BC7782D33D7BB3F73AB24C763C642E01BD7FF8BDBCBB239C3C5D3AC93D09DDB63D548DFA3D087BF8BBF0059BBD82D3AF;
	15082 :	BB86EDEE3CABAC733C453C5D3CE36C153D05B007BB778EC43AD5E5933C8EAA94BC2E57E03C98C652BCC2E7BFBCCD85B0BC6648CCBC0F2A923D1D4AB93D358319;
	15081 :	3C48A400BD919FB7BCDAED6DBD5F5DED3C6E6F02BD00E421BCEC9913BD18800A3D1D13A53B81C27C3A26FF7EBCA7C0FE3CDD4C473D1180DDBD00D2C53D033D19;
	15080 :	3C231C56BD76475C3D44590E3C7A6AFFBCB399AFBD2425813C909B17BDAB7711BCA4A919BCC218CCBC5461553D0767FBBC866C64B9AD334ABCEF4E8ABC614FCE;
	15079 :	BD1CD2863D0734CD3C9DC39DBD66F374BD2CBE3D3D4457373CCBCD503CEEFAB0BD6518043C72D2653BC4A9933D0736923D89908EBC5FF55DBD8417263D01F087;
	15078 :	BC818A61BD940DABBD3821D0BD99CC0D3D1ED67C3D3D7B76BAB5427C3C888AF03D14703B3C33C905BBBEDBB63A9CD5F4BC4EDE74BA91986DBCC8DDE5BBA8B95F;
	15077 :	BCD4004ABCBAC7CABCEC9A1ABC58EBF33D46D9243C477F393B33CECE3B97E600BB35E0533D1B722C3D3146B93D3486E63BEFC76ABCAE63BABB52BD583D305781;
	15076 :	3CCB2A7D3CA4C5503D316BAC3C8AA6193D64AB02BC663E18BC4FE8C7BCD70C573D4D1D113CF5FF8DBD4CF6313C61D99F3C6A9C563D8FF1713CF4C1E63D02C874;
	15075 :	3D41DFF3BBEEDCF8BD297803BD76F11FBCAD43AD3D1E80473C01CC03BCA72CF2BC757242BD041A39BC5FCE6B3C3D96C8BC27EF50BD85579BBCBA27E63D116557;
	15074 :	BC07ABC0BCEFB06A3DCECCFF3CF5E6823C7E7046BC0167A73C69DD783CB28BC6BC14C01D3D095B69BC0036593C6584BF3BC05E63BD088E69BD24D3CF3BE7F227;
	15073 :	BD08CEDDBCE36937BBE412EEBCAAA9993CDA8D683D6365DABD6898B9BA801B8CBD735865BBE4559BBD12CB943BD9BC9FBD9FD7D5BB7847143BEE918E3CA6C236;
	15072 :	BCA681003D588E4239729B06BC3168B1BC62946DBCC72DF7BBFA715A3C2D64333B8B0CC23C74E13D3C824D553C4359AE3C398191BC4EF2AB3C781252BCA4DD97;
	15071 :	BD399931BC5AB0753DB426B5BCCF5FDA3CAECEDDBC6EC8BA3D89CC453D15939DBD01C86E3D76C1C1BC1DEDCCBD2D958F3D581E753D0C504B3D002FC93D9267E0;
	15070 :	3DAC6017BCFC7D183BD863C1BB7417B03C4ECE003D06F795BDBBBF83B925AC123D86B015BBA9C4573D13DC29BB98483FBD5AAD733D37CE14BB34974ABD13263A;
	15069 :	BBF186FCBD80E162BD2634293C012A353B037E6DBC0B9437BAB6BA9CBCBC7929BC8FE232BD98CD0ABCA9266EBB880D403D1711ABBC060CB33CCC483A3D7F9D8D;
	15068 :	3C502730BDAA1F7C3C5566E4BD06E330BD8A1389BCD4FAFE3D9A7829BD9E87A63D1816D9BD9743983BCBC854BCD9266DBC9007CABCA56A503C2BE18B3D0F748A;
	15067 :	BC5FAE84BD22685ABC7C6D7B3D14DFD33C61577E3BF4C9363A42FC57BC80CCB5BD323964BD1A92D43BC1DBCBBD5300E03C6117FCBD5ED706BD20AF27BCFC258B;
	15066 :	3D271A52BDAD94E23B68533E3B86ED6ABB871F58BCA2D9793B2BD1E73C2ED0A83CB9BDCC3D088710BC377B8C3C8FA505BB783CFFBC54A13A3BEC90E03C13C3C9;
	15065 :	3D3F84BDBCE95FAABC50B76BBB2C5884BD44892EBC5E58CBBCC075C3BBC580B9BC4954693C3E94393B060A963D85DC653D18BDCBBD594A5DBC6F43F43B187B2D;
	15064 :	3B53BDAE3DB870C73D681B19BBBDC3923CDEEB08BB7E1EE23D2448EABCECAC043D720054BC1138DA369149AB3D39650A3CCA8A08BDD1D14A3BD35F5B3D388795;
	15063 :	BD12419FBC31321D3C9CF6373DCBEAF2BD8A5D25BC4976A4BCDAFC3F3A35104DBCE96CB7BD77B9CF3C0FD39CBDB360FD3D09DDB63D9AE9A83CFCF28CBD33D025;
	15062 :	BC60C0783D87150FBD912DFE3DD4279FBD45E389BD0F6E70BBC8B3993D3F5D263D0945213D42AF85BC6E2F37BDC7C81FBD0A25B23CC84A8DBBCCB9B33D7D30DA;
	15061 :	BD6DF08EB9DA885ABC922A0C3D65DE05BD577BEFBCF19D443D0EBA1D3D0B06F13C9F6DE4BB91D0E7BD12EEB63B0DDEDD3D0772D73D39DE393D8AFFE5BD1FA6D4;
	15060 :	BD18091DBD178670BD03B28FBCC14A0DBD2C861E3C526B5DBC9AE9A8BD34FD453DB3DB96BD1034CEBC569421BCF93C48BD24D9E6BCDA5CA43C885B25BCF046D5;
	15059 :	BC3604A0BD4ABC733C4E56373DABE8593C8752413CF025D6BD053B593C86D07EBC17F199BBCF4689BBB20F0D3D4A03953D1FDD3E3D063DDEBCA220953B58CCE1;
	15058 :	3D6A449ABCD8DEBABD884B8FBC106584BD3D6D043BA1692B3CBBD7583CFAD92D3D3EF3A839CB82B23C8F447C3C6CA5DDBCE40B233CE12AEC3D613C71BD0BCA7C;
	15057 :	3AAE0CA13D9CB5E9BDC9255E3D98DC693BA30CF43BCF494F3C068E193BBBFE0DBCDC1667BC25844CBCE253183DA33C3F3D8D2DB13D9FEBC33C697431BCC41C1B;
	15056 :	3CBFB5EF3D212708BCE051B1BD10E448BCE5C9943D63DC983BFCFB6EBD47E7193CCEC28E3D0063713D98AC0BBB1D1CC43BF85B0CBCB71200BC51627A3CE6A34B;
	15055 :	3C63BB973D4086E03CCD2516BD2B23263D1EB1203D322F283BA9B7303D12DB1B3CC2DE393B473B6A3AFCBE2E3CE7B4D1BBAD1B453D023B493D8110EDBCA5FC6E;
	15054 :	3C63EED63D02CC2F3C09D4F53CF8F572BC9DA574BD5DB015BD38F95DBCD243043D8BCEE83DA518E0BC8EF74B3DEBC0BCBD677F0DBD795E663CDB4DBE3C7F91A5;
	15053 :	3D1533CEBBF9BBD1BD5A2E62BD382695BB1E14F8BCB13FDB3C0409EF3B1FE925BB903F393BCDB07FBCCC01F63D5B6DEC3C8E590BBD521BC33C8BCFE13CFD43DB;
	15052 :	3D7C87FBBC537A023D2AB65ABD2DB5633D853BA63D1B41513BB48513BD324CADBCE0CC793D85CFEA3C99566A3C814EDF3DAF00A33D20C1A4BC8C00103D7DC2C1;
	15051 :	BD102C723D6951C43CBC2FC1BD30DD32BCD825843943A9BBBD40CCC23CD430903D43DFB0B945C365BD28BF53BCD3D0453D87BC65BC63376A3C35AB59BC60F7B3;
	15050 :	BD9B79C9BD230D7C3D2CB6D6BD0D49D23C1ABD97BBD69B433B2624173B2AB5D0BD4189BEBB0F87F73CD7AD90BC5AAB5ABC9F31423AE3FDC4BC14D6FFBB825868;
	15049 :	BD0D3C35BC8D06D43CB126D83DCCC2B03C0B0BA03D6B0133BD87E1673D571E1DBD64DE1B3BC09F7C3E0023AF3CBCF8663A303D993BDBA086BCDD5BCFBC861552;
	15048 :	BC85B10E3C100834BD8B585C3CE7FFBEBC9798C73B3981F23C6F5414BC9758B5BD16033FBD7BD173BCCA445F3BC500D5BD3A0F253BA8B410BD1235EA3D7E6001;
	15047 :	3D40ECFC3B3909E83CD6BE2BBD712E7D3BB86B35BCD871473D8C43323D96DB5EBC735D1FBCF1D4843C0B45F53D0CA673BD00DE393D5FBD60BCD1DC2F3CB0EF00;
	15046 :	3D4E40BCBCAD68303D96ECEFBCC562AE3DB047A9BD73DA7DBD12FBBB3CC3F454BBE58829BD1502E03D28B292BCB5A9313CBA8A35BCD47C4FBD78C9CEBC9703A9;
	15045 :	BD834425BD17427BBC00A8EABC3847293CD76119BD0F56083CF6D76D3CB0459ABC360D0EBC97A031BC837DFC3D4AFA3EBB9E8DC1BCC282BC3D3774DBBD36B0D9;
	15044 :	BD3A23A3BCDFCE103C81A08B3D1ADCEB3C826365BD8DE6BB3D5484CBBC954C85BDC1922E3D1660BA3C68F58B3C17C59A3D1F323B3D0396DFBCD48CCDBD11D697;
	15043 :	3D89BAF73D78E51CBDAF7DA0BD297154BC77F3483D1BE69FBD904D79BD3A0723BD0F6AF03D28DCB23D70473A3C88C564BB4FB95FBD254CA8BCDDC092BC0E5D7A;
	15042 :	BC7EBC03BC749156BD00691A3D9D5AE4387F02CEBD29D12DBD001255BCD10F78BD6219A13D5E601B3CC78A583C33CDAA3D8BF4D83D27A7E73CAA729DBC802213;
	15041 :	3D814B623B82BD1D3CABA843BE09EC233D9FEED2BD8758B93CE1FE883D8BB71ABB62F2403CF5B5DBBD117D63BD8335413C4427843C8789093BF491C73BC62FDE;
	15040 :	3D00CF85BC03F45ABCF3A1F93DA04493BC138F18BC46BA7EBCD5843B3DBE72723D1795103CACC9293C51C603BD177D793CC52701BD3346FEBD15FCA23CD96C95;
	15039 :	3C71D5FFBBACFFB0BCEC97593DB149933CC862DCBBE5B905BCB165063CB5C0AFBCCDA9C5BD296E69BD242350BBE2D22ABBF9CB443D2498D4BDA59A353C4B3414;
	15038 :	BD8283343C9E394C3CDC17693C583EB8BD227C883CC16E2DBAC4D6963C010C07BCFB36A8BD5684DDBD53E26FBD0AB7DCBCDB093ABBACA5943D7B5E0ABD555D26;
	15037 :	3C21355F3D8C2380BCE3D57A3C27FD9A3D4A61423D13DF443D8373963C75D2093D7744D6BC8627213D5EE71ABD8482A0BC2F2F7EBCF8D0753D2638FDB9B99490;
	15036 :	BCE4E2BF3C4B0989BD88A240BC9731CDBCE83E9CBD27E8B33D89EF81BD7FF7EABD83D7AF3CCBD05BBCF941C5BC305FBEBD8DA20EBB0E829CBCBB92523C798BDC;
	15035 :	BCCEFE2F3D4EE8033D430F5FBD767EADBD92C62A3C3210DE3D5069733CA4C65FBCF02564BD696D87BD1D20583C8514503D2179293D311DB7BCCAC6483CD686D7;
	15034 :	3DE2E7003D6EA68EBCA35A653C3B45683D422909BD09FD1FBB09A7283D681439BCB6F1C6BD3C72353D51C5EEBD1424E83CBF7AF6BCC12480BD11CE3C3CF4A059;
	15033 :	BB46FF6EBC1D85C4BD846B66BBA2EDD6BC3BD306BC8656EF3BB494EC3C1333883D5BBB1C3D827EE23D16D46B3CD9C0E7BCABBF50BA8DCAB7BD0198A63CEF8685;
	15032 :	3CCF40D93D42D7C43D0D86703C195E63BCD512B8B9A37D86BD657BACBCB164453CA823C33CAF7D77BBEC7744BAC67D273D90C0A23D8150D7BC688B81BB5FB221;
	15031 :	3D80F8183CBE88C7BCCF8CB63CBC33CCBD8DDC16BC64F8383DE644B33D1DB96B3C87F54DBD518DCF3D495244BC31B2323CE3B0353D80B90B3DD6EED73D4DAD1C;
	15030 :	3D8F40FEBD128E6C3D27C8EB3CE9E23DBD04AC8CBC882657BD1184E03CEF3BA13DA0842ABD640B1ABD729562BB2678CDBCD0F8CB398C22FFBD1A4BA33CC80A7E;
	15029 :	3D05F7AD3DA61456BD204E033CE5BEC2BD26568E3D1F2FDBBCE1D3403D0151063BC8681BBD9C8A743D132AB4BD7B600C3D5F8B393CCCD2F9BC93A1BBBCE9AB8B;
	15028 :	BAE191D13C4850123D7F62FA3CA37BBABD30A57C3BD81D78BD05688EBCC9E532BBA22C1A3CD4FE003D41B56F3C8285E43CF6C5323D441CA8BCB2F1733D119C0F;
	15027 :	3D821512BC8483F53B7592633D04DADDBCAF65A43E1E7F103CFE644ABCA002D6BD056C683C4CC13E3D340EDEBC5DFF95BC7B16CF3CC5124CBD2DD021BCFFFCF2;
	15026 :	3C815D24BCC0DBF6BD191BA13B535CA5BD81857C3D464341BD3BBD96BC7FD696BD188F8DBDB3E6F03CEC0BC33CFDFA98BC3919043D7C728DBCC194D83D2C1B78;
	15025 :	3CDD85E63C3F4F45BCF7AA9DBD07CE7B3B6F7BD03C5C70F43D832290BBD115E8BC878B423D396C333D36FCABBC372C653B85CB2F3CB7D05A3D0717C8BCD7CA4D;
	15024 :	3C743CCF3DFA25AE3BCC4C7E3C7D90533D2A83A73D785E2CBC6C52FA3D2F89933D217C223C86E35ABD368EEBBD578ADEBDE7E39C3C33B4B23C63145DBD31B0EE;
	15023 :	3D4DA9623C90C339BD6E79BE3D9FC1503B3AC522BCA383323D8D832E3CB840E7BC7CF53FBD1343333BC1655A3D209E51BCC5C9083D36F1A5BC4CF3A2BD604448;
	15022 :	BD21146EBD3F7B6DBCECE0F73BF13BE73B718F693BFB69903D312C74B8D8913A3D9B57803B2D291B3D679CBBBD12184BBB43E981BC4A26E73D7578EDBCBBFAF3;
	15021 :	BCDDD6AE3C8571A5BCDE201F3D03081F3D1A4AA9BB6E10A8BD88BF13BC9563BFBD00FBCEBD9139FFBCCCEAD03C32E14C3B840843BD5CCF42BD503A613BB90BCB;
	15020 :	3B1A9217BD3E319BBDBE93C83CC45E193BB247423C8835AF3D508A63BD33D1123D83ADB23DBBD3D739130C833BECBF1FBC6F1B04BD27D509BD379F9ABC21CE82;
	15019 :	3CF8F92F3C079979BD8099363CAF31063D36E9E3BC9BEFA9BD2D6CE23B3B369DBB0189CC3CD9247DBCC630D03D9A93C2BD2F8F9FBD0AF960BD10FFC3BC6C6F01;
	15018 :	BBA3818EBD14C5E23D85A7C3BD1DB0C8BCF462C63D3DE9F53C8E9858BC40392ABD3037C83D31ADD4BDCAC8FCBD243C55BCF4DD5A3D113B84BC885B7FBCE5344C;
	15017 :	3D7A64B7BC9EAD313C32A7F83C30D4373BF17765BA936F353C42B5E0BCE20556BCDF7A9E3D9DE710BDA294C6BCD88F07B83B79563D7134A03D68446B3D5B2007;
	15016 :	3D143B433D8DC2D0BCB1AAE33C50CC473DA2A9603CC8ED77BD4D8D5EBC8759E43A97FA5E3D42D3EFBC3BB5C6B98B2FFF3C88ADE83B314B9E3D7799263C996037;
	15015 :	BD3C7142BD60B577BD5AEE21BC681A8A3C5866503CCD17433D2E7E02BCAEAA92BCC99B8D3D9752183D01999B3DC5452EBB2DC83B3C3F96BBBD856037BC9C136F;
	15014 :	BD4483FE3B7AD032BD932AA13D681CDEBBB93AC9BC34A062BD5431033D86578F3D35BEC7BC3F7D0CBD2B1D473D0ED69E3D6DD8E5BCC9B6F5BD9C679FBD511299;
	15013 :	3D9FDB213CADB8FC3BFA09063D1AC394BCF5432F3D8037C6BD7F92063CD40E023D0E0FB83CACCE13BDC1F0ED3CCCAE72BD28595B3D4A7272BCEA670FBD889434;
	15012 :	BD907439BD3FD8C83D1B11623D804E3C3A392771BD4D6E193C3A44D73D4CB3243D869CEF3CC281893D6F8B38BD958121BAEC94C0BD53CEB5BD476290BC29743E;
	15011 :	BCF890703D5C6800BCE87A873D893FD83D85A4CC3C78790ABD8F69D5BCF64F903C0A8CBC3C19D7AD3D5B9D07BD32BD3CBC182A6D3CE5EE623B9341B83C86E61D;
	15010 :	BC36C26DBD88E24C3D263F883C57C9D3BB64D3A7BD7D93493D4B8DC43DBA7410BD309139BD1E37363DB311133D292FACBD040AC13CC259243C16210B3D786CAF;
	15009 :	BD7361363D497C42BD1C5B0ABD9697B0BD2789343D38B8703D0EBA543D4426423CDCD3F03C27D80D3DB1C9543D044B9BBC1EFB26BCB9A2F8BCCB7BD23CF2F1D5;
	15008 :	BCCF15E13D9AE56FBCA9FCC13C90951CBD2D81D63D4D0D463C4BCABF3C5802D6BB1884B8BCFFC90BBC6004023B4CC114BCEF3CC8BCB55A6F3C19CDE93D4C8B34;
	15007 :	3BBF32DCBD0CB3703CCAFB83BC2EBC243B92472C3B8435553B1A01A8BCDB46E5BC04309DBD971738BC9B23503D8F8695BC7832653CC4E32BBCCF708E3C8BE193;
	15006 :	3DB6C9283C3AE2F9BCAF7244BD0AC7CABD8A721CBD0BF7FF3D903CE8BC48748E3CC8BD57BB8B49F6BC752FFABC6C747C3BE71AE53CE2B9033C22F390BCB84100;
	15005 :	BC89C6EEBD3901DDBCAE78903C5816C0BBC13C2CBCE84F0BBCE40A5BBDA792453C81831D3DB35C923DC3A0423BD414F7BCD68F1A3D6CF7493C4153923C294A7E;
	15004 :	BC29483C3CF76A663D4F8CD23D84D2C7BCD75B12BD443BC73BDA5E0DBD160EEB3C8724C2BC183BE63D0C46ED3CE893523D8546BB3CB29477BD2FC36B3CD8725D;
	15003 :	3DA5FF5ABD3161C53C72F4F5BC895738BB7C6A993D985DB7BB45B8D8BCFD7D5A3A9B20CDBCA0C628BB55F3F4BCF958033D7604633D301B563C502342BCA04AAD;
	15002 :	3D815FDF3BCFA7AABACB1CBE3C9192733D5B29603C849CFB3C4BE5613DD7E25DBCDBF80C3D270F313C3100393DB7C9A6BD31B6513BA6D8233C971B1DBD3E7C5E;
	15001 :	3BADAA62BD5EFE15BCC40F203B53B9993BE0EC4EBD0AC134BD0914DDBC7B8EC93D027EDFBBFEB415BC243DCDBD691C563D4A7B843D27672EBC86EF143C3D853E;
	15000 :	3BFD6A1ABD419047BD0C4CD13D0AC84D3CB9C2FC3D673A92BD96F724BBF84BA73A2A9656BD2C4A143D055DD73C01E628BD68E62DBAD6C8243D248F05BD3EC94B;
	14999 :	BD4673EF3C8332B6BC15B2313DDC5B94BD0972D03CC90AE7BB7CEC07BAAAC8163D744670BCDFF333BCD1B0C43C797FD53D0CD360BD69B7043D8BDF383AB0CFFA;
	14998 :	BD7D7C44BC8DF0333CF68011BD59AFB1BD447174BCBAF5E43D84B19CBD07257DBC2580843C4BB80DBCB5DD8EBD2FD6683CB6A1E2BC495866BCB92B90BBF9EE03;
	14997 :	3D3510303B85E183BD0983EA3D45E5C5BBED0054BC8428E43C8068A73D24AC763B0C2413BD77E9E3BC0AB68BBD31EDFB3CF38F4FBC8A631C3BC54912BD2E194D;
	14996 :	BD1CD8193D221625BCB9EB903B1C3030BDE598C3BD241637BD6E4C053BB279AABD00B611BC89328F3BD7F80A3D3BF4A03CDE5D09BCB2C9FE3D30612A3AA4A754;
	14995 :	3CE1C3A4BD239CAD3C4683CCBC522B49BD1E5DBCBD2282BBBD3C9CE43C86C41E3C0541CA3CD9B4BCBB1A97A6BCAB5945BDAEB5403BD5A038BC1182AF3CAA05D3;
	14994 :	BCF6FE053C1FA7F13D2A4D493B2A81CD3BC09DEEBD63DEA9BB77A107BBDAE99F3C8BA952BD2F840D3C1245243C21B5B93D13DB65BD3FBA5D3D42ADBCBD62E241;
	14993 :	3D46883E3D0D3204BD1AE5A6BC9B906CBC7823BA3D359B1BBD408650BC8A26E1BC9FD00CBD035F0D3B87BD98BB83C57C3C8050E43D6060613B23277EBD1DB5D4;
	14992 :	BC2CB950BDC6414E3D2FFBD23CC3195CBCD46F3ABC95ED7DBBAEED82B889E08C3CDFA4CFBD668EE63D849E26BBB1D1943BB47842BCB042863CAB9ADBBDB73435;
	14991 :	BBBAE44DBD263FECBD85301DBD2BE19DBD699659BB08EDCEBCFB0A813CC6CA39BD28B7E53CF3792B3D3560C6BCE14B98B96A9DE8BCA9AAD3BCC6AA68BC8BD3EB;
	14990 :	3C657763BD2CD794BD52F714BD26B0B13CB7C24E3C217EF5BB8F28203C238D233BE5412FBB905A91BCBD8139BA7357E83BC37CB43D1C5B6ABBCF563FBCDF1D90;
	14989 :	3CAD70BE3C37C272BCE90E3DBBBBFD4C3D320601BC92D6C33CC0030BBD88677DBD17C125BC82159C3CA56C5C3BC31E5B3B5CC0DD3DA493F6BD41611F3C370436;
	14988 :	3B8B43CEBD677B3BBB8CE15D3C3D9532BC9431AEBD0B6D40BC9B9C4F3BFA7D1B3CCB36A9BCABF311BC4DED013DF6E04FBC66EFEDBD7807F43D57E3CF3CE3B3C3;
	14987 :	3D2CF9623B64F790BD10047E3D347236BD1E8FEFBCF730523D01D703BD7549033C319A6D3D53690BBD3976DFBD19012F3D42B6103CAB642BBC0182863D592949;
	14986 :	3C5FC884BD8CAE2A3CA35F7ABBF8AD13BCEB9C0EBBD55FB83A83C0C1BCC89D973B48EF1ABC820440BD0B922B3D553E303D1400A3BC8F97A03D0824F03CEDBFB1;
	14985 :	3D1D1E5DBCFF140B3D387D52BD1F54713C224B753D3702F4BC2D4BD03DA4D5053D4D8686BC012FAABD862807BD5FDFD93D1882D7BCEC712A3CA2C006BAC6CFDE;
	14984 :	BD6396F33C343398BC2B11E4BD0366403C270684BCE02437BC57D9623D511E81BC3CD4DABCF6F8533A571B4B3C097319BACA60E13D12A7C3BC0B67C9BC2014BA;
	14983 :	BD5264DFBD3E00A9BC20561BBD855E38BD11372FBCEC9E86BC24486B3C040BB9BCEA26643D833CCE3D97EC97BD983C7EBCE4F722BD84525A3C7B2624BCC7D87B;
	14982 :	BD22E4A7BD45F7D8BD368D993D269A5EBD60A18E3DC0D607BBF4ED6C3CA70EB03D527474BC243662BACB296B3CC84FFC3D7499983C852881BC87605BBD6448E1;
	14981 :	3AC599C0BD0D1E56BBA2B2A03D3F7E1EBD2CEC093CA7FE28BC964AAC3D43164B3CEE87D53B0D8F9C3D78BDD93CBC0B92BC2D15C03BAF92BA3D09CBAC3C869F42;
	14980 :	3D2FE6A4BC01E22CBC114CADBD6230DDBD8E90E53D7619433C26390FBD89A7C1BC293161BDCFAF3ABD8F733C3D2693D03D305B9A3ACB7C40BB84F9923A1C4306;
	14979 :	3D627BFC3DAA7DB2BC93CD11BD088EE5BD13DAF33D5D5382BD10F4EB3D1D026EBC65CDE33D8A447D3C9C68A63B3C5AE73D0356063C1CF908BCC863A33BD23562;
	14978 :	3CE353B23AA3E2ED3BE32FBCBD6966823C1534EE3C733618BCCAB2B8BCC52C0B3C9A58D4BB732D193CB329CBBC0C6DEB3CA06FB83D521875BBC1F4C03D43AA5D;
	14977 :	3D7E81E7BC8E9717BC8171F23D2932D2BC644DC43D2F949D3D2B79EABC441CD83D5F41D7BCDCF6C7BC2194F63D8CC37ABCC72B2D3D2D50413C4DDFDD3CECE7C6;
	14976 :	BD15EB22BCC4856A3C108839BCA8C688BCEA2876BCA94D38BD633C0F3D772E1C3AFB6510BD2AB223BBEFA279BCA3C763BD4E46223D0B45EE3D70B3EC3C7D72F0;
	14975 :	3C6622153CFA83DC3B9A2BB13CC153783D50FABEBCAF4286BD5523A2BD2D32A13C5D91A0BB5AF6533C4E32EB3D73CD71BC8D51FBBD04351B3C2EAECA3C6B6A22;
	14974 :	BCE77C5EBC65DB193BE263C1BB41979FBCFA77D53DA933AD3A24862CBD87BC043BA7E271BD1C375BBCFB3318BC035D1EBC117B3D3BA5622B3D240A10BD608E56;
	14973 :	BD1DE8CC3DE2BF42BCDAE1BE3B9F7FA1BD27A5C9BD183FD7BC943ED33CAC45E4BD68BA713D60E53D3D185064BCCCD161BB47CCBABD416B1E3D70C595BDDF9CB7;
	14972 :	3B4C64373E2C4A5CBC547C1E3D46ABF93C9DDDB83C54C2CB3D549DA9BC09593E3C543000BBD41CF9BD157EA0BCF04EE1BD2B4EDC3CF9FE7CBCD967BEBBA729E4;
	14971 :	3BBD288CBC9417083ADCF3A33D183A8BBBBE746C3A5A1DA9BD1609823D826776BC146488BD4E4C4F3C9BF17A3CFF1D70BB473CC4BD480DE63BD331CDBC8EEF7B;
	14970 :	BD7E217FBD985BC7BD5AD3FABCB152333CA137D0BDA2CF6C3C7929BCBCC7C4A7BD2FA144BCDA15EB3C9AA717BD382A97BD501D11BD324C1DBA87AC28BCEF3D74;
	14969 :	3D1ECC28BC89067D3DBDB85EBC317DB2BC9BE0D1BCE75AB83C44FAA93CC360223CB238DF3CD20AAF3CBCFAEFBCA371BCBCD7155F3CBF66BFBC984855BB80CD71;
	14968 :	3B880D9B3C59CFCB3D898D7FBD1493D33D270C49BC46AABB3DAB35BCBC42FD7E3B6AF1553CDDABAD3D17B44FBD6A26773C1DFB1B3D361C423CCB4BD83CE32013;
	14967 :	3C8BC670BD027208BC9F77D5BC42F674BD220B2DBCBA56ADBD89A81B3CD494F53C83B50C3CDE0BC43D1AD9ABBD00C1163BC95C3B3D977A443CE25E25BB6D271C;
	14966 :	3CCE98183D74E1F83D9CF5D33D653228BD5173D2BD558892BCC14A533D1B2F76BC9B7B2A3D4219DBBC6C013ABC1B0771BCE4FF5DBB990F073C5F25B4BBC12B7F;
	14965 :	3CDCBF223C4428B33D78C2BB3D85A8CCBD2EDD96BD0FC214BB46A2033D5487C53BF340AD3CED6E66BC8334CFBC44183ABB05E874BD6291F3BC9E22783D458ADE;
	14964 :	BC8FA6C7BD92A1E8BD1477EFBD01DAF9BC2DC5CE3AA2B9B03D736B90BC879FCDBD3FB1A4B885F81ABD8423523D9CE9F23C6A8860BDA34DB0BC8A81C83D38BD16;
	14963 :	BD46BB753D225AA13D84BB8F3C8D37003D41B442BD92318C3DC9EE0EBC56C911BCFC8F15BD017AFD3C801F0E3C963115BC8CF1493D569071BCCEEB563BFF0A95;
	14962 :	3D176CC0BD44C7DD3D8ECE7CBCAB3EBCBBAFFCC93DBC6C043DB3136D3D5AF9093D47CD683CF4B7193CD4CB623D1192173B1BAB6D3C22455C3CB132753C257636;
	14961 :	BD03D1D0BC4780E5BCEDECBEBD5223BFBC98F77B3CDD20E83C2856D4BD9F8C2EBD43EAC2BD87C0BA3CF5E788BCD6C0C23D0D6A163C79075EBC7D488E3D00C68E;
	14960 :	BD8E5BF53D72485BBBD58FA03DA9B4C73C9986613D5F5AB13D009329BB7B5F163D86D61CBD68699BBCABD622BC1C604ABCDC325D3D3309BB3D627D9C3D243557;
	14959 :	BCC0E707BCBAF5743D7208D0BD135DFCBB7F7DD9BC911DC5BC7BADAFBCCE6C663CDF780ABB8C3CB23D7336583BE15240BDDB7483BE0122AD3D7C5153BD95BF29;
	14958 :	BD563584BD168EEABCC9E5423D16EA913D577AD33CD39F9D3D1A0148BC66EA9DBD1A5072BDAB70C83B65A765BD2C6149BC8918A83C14A3113C7501013D0C2713;
	14957 :	BD5BD9A83CD55A46BD2093ACBC68580DBD5FB492BD16153E3C8D250F3D86AF7D3B50215C3D171993BD96882D3A68B4D3BD3B1A49BD45DEDD3DAE451EBC9F32EF;
	14956 :	3C253D183CAA28A2BC3511EFBD2A96C73D00C0D0BD55EA6ABCFF21D03BA8A882BCDF50BEBCFCCEE3BC423614BC86ED093BAEEE963D2A85493C1E49E7BDB5C956;
	14955 :	BD2D3B033D2F874A3AE08F133D4DEA09BBAB739ABC993D603CB107113C449457BC8A3AD33D8CC4173C4699D1BCFED139BDE761643D060050BD4229DE3BAECC10;
	14954 :	3B2CB8733D145B623C714993BDC94F683B9BD8543B92ABCE3C596CB33C0C7A11BD33B2C73CE6642ABA2C2B8F3D07364D3C622503BD81BE48BB6D8ACCBCA6B855;
	14953 :	BD8D9D98BB25AC2FBC8D88D3BC788F5E3DBC6CC3BC553B33BD0273453D0156753C711E523D7C5A43BDBC78EB3C8AA52B3D6D3E123D8708773C6E798BBD000EA0;
	14952 :	3C93733C3B97BBC5BBE79C38BBB149F0BC9377CC3CCA77D43BAC25893C94FBCABCBF15B4BCA3A5A1BCAD2A803CB802E0BCC3C52DBD528DFFBD4BD009BD1675F0;
	14951 :	3D6C95113CE53AA63CDC376ABCDD5F453C29BB3F3CD5E041BD4B601BBB0D4EFA3BAAE6783D9A5DFD3C77AADFBC90280F3D891760BC7F1DCCBD8237603D3C1081;
	14950 :	3C55F281BC95F88D3BEA15ACBD0360B53D6D04033D02CB153D085A9EBCCBC48BBD220A6A3C42EEF13CD2EE603D8E65F23AAC8A2A3C6AFBD4BCE40D96BC7BC99D;
	14949 :	BD32CF743C9183EABC56C484BC749C7C3D1ECA6DBD8CC8563C6166553CBDE34B3D0BD2413C818E4DBB8089813D7B63913D296A13BD1D6478BC2F09463C84E010;
	14948 :	3B5CA4393CC55C6D3CB81CF1BD18F8583CA3B6D93CFE92E33D0071213CB8096FBD38D297BCDD5B823D7A83723D05F9ACBC3FC6493CF060E83D1DAAA8BC9950AF;
	14947 :	BC0B3C6C3D44AD0CBD15176BBC23EA4DBCB3953D3D3BD6003D9471BC3D2D08A1BCA24CCABD518479BD0E65743D3F3C153A314560BD20EE18BCF981A7BAA1EEEC;
	14946 :	BD45D349BD06CADB3D07B1F73D36086B3CB75FA33C2682FCBB10569ABDA72C8ABC8C2C28BD59ED033B951DAF3D06DA033B3D4E0F3C057EE23CFC6604BC1F6B0D;
	14945 :	3D3FCB053C62EAAFBCDD7E7F3BF3A557BC48F9553C447B043D6FDC633CF1F1113CABF8933D7CE599BD192375BD8F41873BFC8F37BCA4E1AD3D14CC2BBC98F9DC;
	14944 :	BAC51606BC99046BBD3D53A6BCE69B2EBCC22873BD12515CBD01F1A03CC2977BBD59F65BBD072C8D3C2C4B2DBD1E94583D850F58BB0153FCBD77F10B3C1722D8;
	14943 :	BBBAA5943B48C196BC3D22F5BD07A90FBC81ECBC3BCD4CFD3D6EF5DDBBC530993D6574533C436EE3BC8346B13D6E62323B0F139EBD618E87BC259974BD6777B3;
	14942 :	3D7B3FB33D86B13CBD2BD36F3CAC1C38BD8DEFA4BC9EE11A3C967BE4BD75AF34BDB944423C880ADD3CFC30C8BBEEB7D3BBC8EC3DBC98F638BD04C1BA3D740DE4;
	14941 :	BD176F63BD70B723BC84246BBD4C305ABD76BF18BB0BD1DCBCAB70CABD0CF0CA3CEF4EE43B9649803DD59BEF3B9C0099BD23E9DD3D5E3AB7BC423DAD3D6AEC3B;
	14940 :	3CB40AB5BD35137E3CFB5EE8BB7325113D5E0CF2BCBF7B423D6E04CA3D9686583D421E5E3D8CFFD7BD80841C3CB4278CBC92B8ABBD43099B3CD000393ABFF5E0;
	14939 :	BCB692663D1018F03C5A16C13CF902B63C8E68EABD06FD37BC874B65BD4AA40F3D5785A3BCFBAC5BBD4BD4F13D1E35FA3D1B3A00BC5D03E53CF221403D082D5C;
	14938 :	BD676E2CBC6A88EE3CA2DA663C81577D3B9173E6BD23E5CEBCFF83833D148AD83C976D2FBC9B7430BC4136AE3D44FCD83CDC2C673C1A2723BBDFA468BD4A7223;
	14937 :	BCD9A668BDA46A2F3C3345CB3D1BBED63D9F4611BD3646933CEDF9103C8003383D341DC6BBFA3E013CE6B7F03D609535BD31494B3D908926BD13B894BC41F201;
	14936 :	3D8814CE3D361069BC1393D23D8CFC7CBD8608653D47D4BDBC10FEB8BD3144C7BC430896BD3741353C9A71813C34B3913B233D4CBC53761D3D88422DBCE5A53F;
	14935 :	BD66270ABBA8CF4D3C970087BCDE74473D5FC3EF3D2988733CD83DFCBD29046C3D1927833D5A0933BD008DCF3D3310463A7981B4BD63D09DBBE5B9213DA62A61;
	14934 :	BD80FB523C4DC5243CB8A911BD35864F3C8B8DF9BCA68F23BC8B2C533D6407263CFF7309BC39324A3CCC0495BC0B5C6CBAA33137BBD3D2E13BC25827BC99BB73;
	14933 :	3D77664ABD29D3603DA6B5A0BC556CF53B0513A3BD39E9E6BD688C48BB92CC58BD3AF85ABD23BCFF3DA3B04B3D16F6F33CDA48673DC56371BA90E27D3D322D9E;
	14932 :	BDAB835E3C48EEB53CDD83223BDE44C13CBC16F2BC0662F4BC11DC313C4F926FBB9431E0BC672035BCAE75E33D34367ABD0729F6BD0D51973C2EDBAC3CB6B0EB;
	14931 :	3D10E799BD7932A6BC08B8CFBC0D2BC43D07D651BD7F7F12BCEAF8E5BCC5A6023C55E0173C9C408D3AF8AAE43C395BDABD8F2DFE3DEDEA953CCD9770BB0EBC01;
	14930 :	3C052B4F3D0CF0DC3D4D6584BCE7F5C13BD5255D3C9C13BE3D0743593D0FE3BEBBF8D55CB7CFA990BC95043E3C48A7ABBD108D5B3D20E53ABD2D2AC63D0171B0;
	14929 :	BD6059B6BCF02BF63C2B270C3DD77720BB919218BD25FFC4BCE05877BBD1C736BC45C5273D0CA7BB3D2877FC3D1DE3383D79B8ADBC0D1223BD9CEED4BD050D1E;
	14928 :	BC8D422ABD8728073BBDC151BD72E2E83D9A0051BD3A5DD63C4077DDBD02EB8EBD63D1AABD8162CF3D18A8E7BCEB9DC7BD08D62EBC4F4B873C5A1105BD942B9B;
	14927 :	3CF54F47BC3E3C51BC5C089CBCEA7C723D5F3BBA3C5A932D3D4E645FBD303B7F3C621514BDA48A403B5F88723C193698BD6E6C2BBD4328F83D4A9C7BBC879DD5;
	14926 :	BD06D6EDBCBB3126BC7A3B223D8002FF3C8E1A213D0001BC3C583E143D63871CBAEA6F71BDACE4A53D8DE96CBC459BB8BD02840D3BD1595D3D1A3DAB3CDF5F47;
	14925 :	BC7641B8BC420BDFBD034639BD4AF9FFBC7F528DBA1DD8D8BD42449FBD0F76F6BD29AFD1BD2B1DBA3C507DE4BDB2CAA5BDA4218A3D1EE4103C8EA4D0BD815BBD;
	14924 :	BD0C577DBD0A0112BD562306BD118EC03BE884CD3C063C063C247265BCCBF3CDBD2E1DF7BD24D03CBC7A8B4ABD0CD5E63DA84C22BBABE45ABCD54D7D3DEF374C;
	14923 :	3BAA0EA4BD43150CBB143B543D725F7B3D9225523B731387BDA3E667BD5866513CC7F6A3BD00005DBD328DDCBCB973EABD2813DC3D2E61F9BD454F5CBBF179B8;
	14922 :	BC2A0C3C3CAD8648BB84808D3D909D48BD093F2CBC4711623BD0E095BCE85D913CD157523CEE7A713C0B0D253D9DC39EBC84766DBC1A3CFF3BF436A43CA313FE;
	14921 :	3C0B8853BD1955CEBD436E6D3D2822B4BBBE34C4BD0156A6BAE6D1873D07B1B53C9BC3243D154D8D3CA4BE7FBCBC8A933C246F123D0A2B43BC5F96E13C3ADA3B;
	14920 :	3D580853BD8706003D825BC0BCC13FA5BCF00F933B2447EBBD3E2D343C2AD93E3C18E08ABC4A17B1BBD9610DBC47ECDBBD477D3F3CD74B7EBCB2B3793D7CDDAE;
	14919 :	BD16936BBBF0A2B0BD058289BD1041B9BCAC496ABD5667F2BB616445BC654C6B3C5A77DABCC2CB833C910430BC8EA5CD3D7BE076BD965B04BC8DA4D0BCB7E2C9;
	14918 :	BD677370BCFB4074BD3775BB3D093F493BDC924C3C41F4D4BC8F6D16BC8534DC3D08F8E33D8E202F3D1DC3CDBD229A5F3C4831463D1FB1743B66FEFE3D3F94E8;
	14917 :	BB841D893D16DE243CCE770E3D35848A3CDCF0AABD962E203D3DA860BC46DC0DBD2B29443C284813BD4E0776BCB3BA80BBC54CB33C2C9DDCBD15B3AE3CDDB77C;
	14916 :	BCE896E93D292E9FBD8F6AB4BD1647AEBC865B1CBCB480D23C45A2AB3CB271B23BE83362BC09933A3D6249483BA848D0BD3FB2ECBD16011B3BFDBDF7BB77794C;
	14915 :	BBFE08423A90CB8E3CB48FB4BD2455DDBD43DAD4BB96536BBCC5EE73BD5AFC11BD1AE66C3D7CE944BD65598B3CD95119BD2CF5DC3C6AFA64BC1DC4F0BC37B8AD;
	14914 :	3C5DB10E3C53D0553CC020F9B9FECDD2BD8FBB313BFE0D7D3D8C813F3D24F8413CCE61D3BCBA5E6BBB891849BD577A10BD531A2B3D7AA1693BED57A03D29250F;
	14913 :	BDCC6E14BCAE69A0BDB832E43AAD1481BD16D07BBC98C2293D5B63813D37C254BB83A9CCBD678193BCDA0ED3BB9273303CE62F063D4B115DBCC44ADEBC425D09;
	14912 :	BD6919CDBB071B8B3C6271533CEE1D19BD37922B3C0D0C5A3CA7D7D6BB8936493CD1C6593D0D178BBC87FD81BCA398D1BC477FEA3C89D93DBD3182253C348C12;
	14911 :	BD5A3FD4BD242BB1BD2E7527BD02DA593C5A173F3C55A8A3BD6A1D913D34A1523CE10E273D4A160FBD8C8F193BD8440ABD38482D3D8638D43CA3F1ADBD35F50A;
	14910 :	BD1A67D2BB010E22BDA9D3D63C96E78C3D07A8EEBC47978CBDB429C0BCBFAB6F3D8514C6BD259C7ABD011395BD29C8BABCB877023DC0155B3D89E316BB8AB6FF;
	14909 :	3C43B85D3D302B1A3C20FEE93D2C30DD3D5707583C88B679BCFDBF63BC384B24BCAC5CFF3C555A0EBD3BEB54BC930385BD07CADF3B8488933C74E1453C421816;
	14908 :	3C9E1A91BC1B441ABD0CB25DBD163128BD88325B3D035110BC03D6CABC3DCA473CFF5923BBCD1393BBB3B1793B6FCD2BBD5E9559BC8826B5BC4C54753D0328C9;
	14907 :	BCFAD11EBB133AE73CF0334A3CB0DD86BBF75F39BD485714BD4036E5BD25C6ABBBB21BA3BBB62A4F3C7B03823D388ED73C17E74EBDE698173D005E1FBC61FB44;
	14906 :	3CC9239BBC70486D3C9648CDBD959E21BD5E4682BBA7F1223A4B82183D257C2B3DA6B2B5BD1BF3703D6F28D6B8C64815BD0915233CD9DC583BBA6504BD1359E7;
	14905 :	3C9C1524BD30403B3DAE77763C022BF23B5E1C533D48DA703CA57502BD1E076F3CDB9753BCC2F865BCE7E3353CC390AE3BA2E2953C6248CBBCB913D5BD0C274B;
	14904 :	BD8412293C74D031BC8F2E55BCFE89D23CF2035CBC6E11473C597DC33D8BACEDBCA6153A3AAF23B73C4BA8A43B9D2EFF3C394E60BD2BB09CBD0503A5BCF6D31B;
	14903 :	BD8683853B47077F3B91AD003A62859ABC1A85153C5C983EBCF4920BBD37FCD83D3CBD0EBC7F8E1F3CD7D502BBC6D975BCC02A79BD405C963B18DD233D0644DA;
	14902 :	BCFE8FDF3D426897BCF698873B9542363CA8ED34BBBC3FD43C8E4277BD060C0C3DA20CD4BC1DE1C63C92216EBCBE0DC33C9843CD3BE8BD583D4FD081BB79D414;
	14901 :	3CEEF6233CA3D2CC3BC3611CBD1A5996BC3D334FBD7DB93DBDA398663D5D1C3A3C448C21BCD672343C80FBB83AB0CD7A3B73A58B3D7DDF15BCEE961FBC01805C;
	14900 :	BA43FCB0BD01FF3A3DBF1A67BCFC84643D5DD39E3BEC5367BCF620FF3D675384BCAE0214BC2F2A78BD1F0A41BD39C8D23C365BCC3C398E75BD679D9C3D140B3E;
	14899 :	BCC67A133BBA1BD5BC3936E1BCFB95F93D2E4EF93C3EF9D33A0F264F3C2C6A823DB322A4BD7F694DBD1F6A28BD2842843B59EE453DD183C03D0301713B369408;
	14898 :	3D7914493C8ABBCBBC70A88ABC14278EBC58C82ABD3A41F4BCB842B83CCF92713C2071A13CD8761EBC99A35B3D59DA163BF04F5DBC7A0541BC3DBE3A397E2330;
	14897 :	BB602BD4BC6EDF21BD0C1468BC4818DFBDC63F1A3D63ECC7BCD142BCBD0536D6BCFF15113BDAD2793D2B53C73D877DDF3BD9C0D0BC188748BD672A083D559E13;
	14896 :	BD1B44AEBC9D3B16BD830ECC3D8F1458BC23A579BCC82FE03C0E6E3CBB10034CBC817CF13D8214FABC97A27DBB4CE7BF3D0648983C8EC1413C3EC2033D17BB2E;
	14895 :	3CD8FE8B3D949E6BBCDE82C6BD018D1BBC863C53BB1D265EBCC3E14BBCBA02CBBC2E01D83D0C3C2EBC8A88333BF1CE143C50F6733C533D00BC9976C73DCD4E21;
	14894 :	3B2A1222BCB532ABBCED6D52BB23B11BBCB774013D165E4E3D0082653CC9B2D43E04C6AF3CC11605BC1644233BFF9DAB3C90647CBD1732ADBD5DBB7EBAF49CAE;
	14893 :	3C72E684BD1C21C2BDA64196BD8F1CECBCEB228D3D1E84A9BB4963C33D488539BC430196BCDB829E3C6CD95CBC86AE16BD35EAFFBB79BEFFBCCCB042BD452A23;
	14892 :	3D324A9C3D1DACC13B1E1B4B3C2EA21ABD8A4158BB26AF9F3D03A4FC3D17276B383430E0BC809E19BD4DC7A73B88DB3C3CC20BABBCD17054BD1A986A3D308F52;
	14891 :	BD00D54B3DC518DB3D154E1DBD049230BD2AE6C9B9520B683CAE7351BCF055793DA175423D4AF2F0BCB1D402BC985913BD80113ABBA0465EBCB81E4FBCB4B2BE;
	14890 :	BD35DE0ABC401AFA3D89AC26BCE0CED83C9C20693BAA52A93C84265EBD5C9E92BD50B51DBBB1B9023CBECCA33BDD4503BD3A7655BCA5BF7EBAE80A013CC7C1F3;
	14889 :	3C11104EBC905604BC8AFB463CCA21903D8CEC30BD3D3EFFBCD7E56EBCAC57CDBD10D3F73C35BD633C46ECB83CF1E2C0BD262301BC2FD09C3DE31C80BD00D965;
	14888 :	BC8CFBF5BD2AFA4CBCFC5CAE3D1B4BB5BC8254753ADC6FD3BC0883A53D37A04ABBA25E023CB232B1BC957B9FBD03D7F43D94C5B23C722BFBBCD94C963BFAEEA1;
	14887 :	BD24E0E5BB0D0E1FBC68136EBD18DDE5BC8281C8BC9AA6123C5352873C7055213CB3B773BCED14423D55CEF8BD0E4A273C539B1BBCAC02493D301633BBA52C64;
	14886 :	BC1F449C3D4BFF61BC9D4924BC8A0521BCF59BA13D9988A7BD44D510BD6489313CC459D93DD884343D1A4FCA3CBA69423D6F13E2BBE5F1AFBCC64CE43D2AD1DA;
	14885 :	BD2D5E9BBD0E15F7BC92FF9DBA931C79BA5CBE5FBCBEDD37BC2F0E60BCCB07243D4F2415BD2C90553C9EB560BD9CEA91BD08D06ABD5DC1D63CC2D362BCEE7EAD;
	14884 :	BB972CAEBCC82F1A3CFD6311BCAC9388BCB8CBE43D016DEFBC4ABA653D1DB2D8BD82AD83BB8C480C3D352DF3BCD92ADB3D23C13A3D1117113CDCE4BE3D12463A;
	14883 :	BDEDCB16BD087D493D02625ABCA926BC3C87D19E3D56AA2EBCBBA7283D412979BD0395743D4982F1BBE7FD973C9E3F793D20C22BBD45432CBD0171E73D38F757;
	14882 :	BC981A85BBE26DF0BD0C000EBB9BD186BA45A914BB22642B3DB9972BBC34A9793D129ECB3B8D7D22BCBF20C9BD9BD59CBCE8AA25BD5649A8BCF855E83D36AA80;
	14881 :	3CC77B7BBCE7C82B3D5634653C3FC485BC90540A3C657FBF3B26DB03BD8182443D0B8C67BCD37E36BCD9821DBD3D48AFBA9AAED13D1E91C4B931CDED3D55AE49;
	14880 :	3D376638BC611E473D49612F3D846C1F3C95D2EBBB378136BCAFB5743D2791C8BBBFC4CA3D05B1853C886F1CBD0ABD28BD5106A339DDA208BC65B10B3D186B6D;
	14879 :	3CECE735BCDF43813C1389A33C64B3ADBD8081633CD9EFBD3B817CAF3D024D00BC370F923CDE51553D1F60F4BCEDA94BBD6D67F2BC12D8BE3C917FCCBC151ADA;
	14878 :	BE10405BBBBCC377BD8DAA7A3C3E39C43C87DB69BD32A649BC954B28BCE9B345BCD65C433C9F77A6BD284E5837FE6AB9BBCE41473D43E25CBD4CBE67BCA9FA7F;
	14877 :	BC1A8BC63D3A668E3C246D583C8F8E403CC9C6963C76BA1ABD1331373D78B3193CC7577C3A9F260B3CC000003C405C673D33C79C3D93CC01BD28B4153B64CD53;
	14876 :	3C3CDE97BC16B0E0BD2F608B3C69E42FBCC2A81CBC86D1C5BC40481ABB363B6E3C8A6A9A3D451A303D7524AB3D662EB0BCFA0D2ABD707265BC8771FA3AAC607A;
	14875 :	BD43DED93B943218BAB906E9BD4B9983BC9494693D69DBDDBD60C2A93D21DD3F3D1C2FC4BD138BB13D03DFC43D61B08D3D83E619BCA6D54ABD33D5C03B964A98;
	14874 :	3C924570BC21AB9D3D3F04F23C8D0831BCCBCDB83CEDD911BC0CA3FEBD290B203D814F433CEEB11C3D51759DBCDDADA03CF2E7973C3A0D1F3D36D4F83C36A9DE;
	14873 :	BC7533AFBCF6FB7ABCABAB343CBEEEB9BB534F8C3D7373ADBD14771EBCC16CBA3D01A265BBF4E43D3D09F432BBFF39C33C907B5FBBF3FD56BD006B1CBD255FDC;
	14872 :	3D3706063C57C84DBD020D853C9ED8553D440DEBBD3D305F3D53FA3DBD051E74BA8E90CB3D48D0913CBF8A35BC49A4903DA169C93D020C233C4662843CD77E99;
	14871 :	BC812F10BCACAE49BCA01B1ABD2B09953D29EFA63BECB40FBD4B16A83A80CE53BD8CA9913DB5D6BC3A4C62B23D5322C9BD30543E3D269CD0BB95A1713D0522EF;
	14870 :	3CCE823ABB84D995BBEC253EBBF824683C836DD33CB2BF07BCACA9CDBCAA138DBD44D4C1BD766D0C3D46EADA3C57C8ABBCE6D33ABCD12C2CBC63A6FABD2B1FCA;
	14869 :	3BF5430BBB3E83EDBD4D9C923CE817773B28DA0D3BAFDE95BB60165FBD0C97F4BD708053BD352191BC5EE0C2BBE0013CBD2B00BCBCF22F6F3B5FE4AD3CE14D65;
	14868 :	3AA1B9BC3CF04EFABD4B05903C263865BD8C2E3BBCD3E00B3C68236DBCD1F79E3D6928D7BC8152A93CC35C45BCB2E4FE3C07E4CDBCD3D6CEBD6B48513CE773C6;
	14867 :	3D3953433D889667BC7E68F0BD45411A3AE915313CD4D960BC8DC9D5BCDE32FD3BDCD3CCBD4F81963DA5687FBA02BE9FBB186ED23BB85CDA3D5E0A1F3D5912C5;
	14866 :	BC707367BC209C673BB438433CFBA3CA3CCA8EB0BD6AFEB03C1EDA653B16D12B3D128A2ABB1B344EBD354900BCBE48D73D03F925BD301F62BC7FDB0B3C413FBF;
	14865 :	BB4CE11DBCE24D303CD753523CB08BC9BD03597DBDF2B8C0BA992379BC930BF03D62036739C978703D4B9BAB3CC5AC593C92AFAC3D47A4A73A25246F3C84DD8E;
	14864 :	B9D958BCBD13D1C8BD04EDDA3A71148DBD2E08F23C822C153C244A65BBF7253DBD3ED542BC25AB113C379C0E3D04856B3AD24030BD09C66ABCC8284CBD54763B;
	14863 :	3D74C3F73C86E5AFBD8D9085BCAE949B3CC85752BD3A54F23C787C55BD0949713DAD0955BBF76516BC45F550BD2A03B5BC3EED4DBC80202C3DAE9377BBEAE1D7;
	14862 :	BD934504BBC2D2D53D246F1FBB741184BC949343BD20AAE3BCA03A4F3BD3977CBB7F31053A89C994BCAF241E3CFD78D3BC2311E9BC9B75CC3AAE2EE2BC8D75F1;
	14861 :	BBA0B0CFBC1AAD7FBBA24622BD3E71F9BB6721543DCF74A3BAF72A673BA46CD8BCEAD3CD3D37F3F33D7C420CBDA1C7453C8394AFBCD8A7613C7C010DBCF235DE;
	14860 :	3BD57078BCAA0065BD6EFF10BD6941B6BC6836483D2B6D65BD11AFDDBD22987C3CE0F6E53D162309BC8A9885BC1978AABD4860A8BBBFF3F83D2AA66EBD03E1E8;
	14859 :	BBD5FA5D3D7105053CD7B9CDBD17CC41BCC23A89BB8127AC3C3011CFBC2B42D33D02C4C23D0D17533D0FFBA739F42A19BABBD543BD68543CBD5BA1CE3C2955FD;
	14858 :	BC62C2FFBD87D3BBBD68D4673C88FD183B8D0D5D3C613AA03BD192363CAA85083D3BF7403C0A99A2BC47A9A33C6537313A7020AC3ABC10DC3C88BEC63BAE44A1;
	14857 :	3CFA987EBAE14832BC5FB8523D0248323CD364023C3064DE3C8EC50ABCA464153CB4635DBC468121BDA0F2A63A644587BCB293B6BC7E72BC3BBBF1B23C5ADAEF;
	14856 :	BC6486B43D86305BBCB053193CDCFF88BD5DD33D3DE2A2573BA5AF5FBB1B14343CAE6DE1BCC4A8773CF19CC93D465617BDA849B63D85CE953D49E794BD4A33F2;
	14855 :	BCCC34E13DB27710BD80679D3C1987B23A5F07803CAC8F5E3D68EEC5BC4EB3EFBC67D5833CBF500B3CDC479A3E12E69E3BDAC33B3CE3B804BCD38E52BD886503;
	14854 :	BB93BD67BDA09EAB3D3E0384BC514858BCC778E73C87BF763C735589BCB38A5CBD7240393B0A6B7BBD4F32743D931BE8BDD9A3273D0C544E3D036A9BBC8AB228;
	14853 :	3CD8BB48BCC3218FBC0965363DC357D23DDD806BBBDD7320BC66E01E3CBD4B0A3D8E7C983B308395BA4FA55F3B54BB41BC0D4AC3BD1F6900BC8063DA3BFF9454;
	14852 :	BCE93D443D170A12BD49DCBF3C0DB6B8BD76079D3D2B2DC93CBE8A10BD82FB98BC0077303D37E2D63C2E8152BC9CB2C4BD3A673C3CA61F5C3CB3E5ADBB9C597E;
	14851 :	BC96DC563C7B3CB33D25A409BD5634343C96B764BD1548253D7CB240BC101ACBBCE520DFBCFC4FB93DEF40BA3C1BCB87BB04CEE6BBFAEEBFBC6560C33C5706D9;
	14850 :	BC2D8CB5BD0BBD8CBD43AAC63DC1A97BBD284C10BD26DAF0BB0F98A4BD26C0E03C9B3C60BD606BDBBAB842173C1F6DF2BACD5AA23D2E52653CE69A60BA9A6E5D;
	14849 :	BC849B24BCEECF033D333FBD3DEA39E8BC3333DC3CA0B74F3B8317F13B00E9F2BD19A7ACBC8C505CBC9ABD6E3D5A98B43C0AC52D3CBE8DDABA9B1B07BCBD635B;
	14848 :	BD1393BDBC5543D9BCD7F88A3D45DD1D3C2A110D3C9E1AF1BC666690BD028F85BCF93275BD258C61BCEF432ABCA2CFF4BCD62CF43D06334EBC1669D73D3BD05D;
	14847 :	BCC8EB75BD18349ABCCAF3B5BC300629BC8C170EBD2E9C04BB3F76FBBD3DEFA63DC4AB653D372675BCB471AA3D293425BCA2A3E73C5F10733D9D85BABD24108D;
	14846 :	3B16AE253C783CA23D4119963C85145E3AC801F43C17C66C3D6E6AB93B3DDB133BE45B433D09F8573D838BDF3D1674FFBCE91B523D800F7E3CB773D8BC7AD3B4;
	14845 :	BC70E6F43AFB3A4DBD83BC0D3CAE0719BCC1DB6E3CDD06773D07066ABCBDC9D0BD6A524E3CE4667C3C50F7373D6F9B88BB06C214BC1C7040BCE092CD3D0C65D9;
	14844 :	3D520F113D9E601D3ACF9083BBFA2550BB6A32003C4EAE2DBD4E7D73BCF75A223A1CF537BC1B2CD5BD4DC26B3CFAE1D1BC272A38BD81679CBD8BD7BF3CD16075;
	14843 :	BC1602D63D2432AABA799BE53C37472CBCD32004BD602F0BBB4D85BF3C6044C3BBC5A9163D71DFE83C95AB953CAB0EC7BD5AACFDB92AE9593C60D60B3CCA2557;
	14842 :	3D218921389007D63D8130AE3BB7C419BD2C6AE4BC7E754EBC000270BC79951F3DA1CFDD3D83451AB8C18A7BBD4589B9BC0F2B56BB9C562A3CE141953D813605;
	14841 :	3C8A1A5BBD0E66083D57D67C3C19AB113A3849F3BD42E755BC3EE7253D49C842BD2DD23DBCA1B917BCF88D13BCA415683CAF0E08BD0B5F9F3CADDD22BD137085;
	14840 :	3D5A2C163ADDEA8E3D8568FBBD8C7BBF3C35AD693C38DA113D3A84993D62026FBBE5588FBCD05C6C3BE8C571BA939BE9BCAC2346BD1E54A43B7AD7E53CCA8BF2;
