-- begin_signature 
-- ddr_init_ins_gen
-- end_signature   
WIDTH=512;         
DEPTH=15558;      
ADDRESS_RADIX=UNS; 
DATA_RADIX=HEX;    

CONTENT BEGIN       
	15557 :	BCCF0DC4BC1406D23C371532BD5BB8A93C0960033D038A733AB94B483C437766BCFD5B28BB3891A83CFD646DBC83ACA3BC3F3022BC0069803BDAD19B3B138AAB;
	15556 :	3D1CA13F3C23FDB23BAF4B783CBCDB763D37AE6B3D02F95E3CCCBF353CD96628BB3B74AC3C3F9C923C686B9EBCBEEB03BB062B86BCE359613B8E6E4EBD2203FB;
	15555 :	BCF07B0BBD03AB093D046F993C7DFFEB3CBDBA7BBCEF55043C9E3CEA3D306A5C3D7E4BA63C4BB837BD04547EBB2F3C75BCE7B8923D581CF2BD1147E23AA7C552;
	15554 :	BC604C053CA0B4CA3CD6E7CB3C9AFA61BC7FDC793C083BB13CF184BABC92C9033C1A1835BAE2FB8BBBEA3D37BCA6E0733BC51F4D3C5CA9F93A0E1BFA3C52EF15;
	15553 :	BD0C9B433BB492053C89CA0A3C06790DBC221F633CE47D6E3C31A079BD14BC1EBD17E2BABCEE09393C6F3CF03CCD96373C3EBD69BD00806DBC2FDDC13CE0B110;
	15552 :	3D36CEF6BCEC5E7CBCEEAED33C957EABBBBADCFEBC9A92F6BC0B54B7BC5966563AD9BB503BAFF636BB353174BC8867DD3BCA0D513C876ECD3BD495E43C51CB7B;
	15551 :	3D219E83BBCA4A6EBC9A8B49BD934DAF3CB33CC4BBE6FBF1BC9C2989BCC272D63D0E51CB3BCC0EF1BB92F30D3C3C4AECBC2509943BA73E7DBCA51FAD3CE3566E;
	15550 :	3BF9C298BCAC1F79BCF42166BC83E2FAB6519E573C6D71843CF8A8A23D0500D13C8229DFBCC54259BC65DCD1BC8D3A2B3C1E5EE5BD1DC6873B9A546A3CD9EA76;
	15549 :	BC0F4AC2BC1FD6C23CC5B968BD061C2A3D05CF45BCE19C96BCBE820A3C47E3BDBC13BDBF3CE6813D3C8C315F3B938BB8BBB6062E3C1776CE3907360C3CA9C6FC;
	15548 :	BCE347EEBC7A54733C6C55EC3C9D06DDBD0BDB3C3A97D3813BE65C10BCD55F843D60D12D3BC6CB653BB87FE23C243F183D2B1AD83CAA439B3CE6B9B03CC9D1B5;
	15547 :	BCABC8993BF9E6933C3A942FBB4F91DDBC81F7183C889DB13CAB98003D102B72BD483E9CBD3422C4BB45C41DBC2661C1BCFFA93A3C3CE8D6BD3975973CB1F25A;
	15546 :	BBDAE999BCC4FF4DBD83F74F3C765888BD0EAECA3D927FDC3CBA670D3CF4FAAABD1C3F1ABDC1AC1F3B1785E7BBF219D43C2371C43C9C148CBB924DBF3C28B046;
	15545 :	BCF13F4A3BF76035BBEAA2C73C8FA1493CD8034BBB9708C9BD2BFD6BBD24FCD4BB4AE8E3BD43634CBD2A9BC83D3D7BF9BC72372A3D0D46E23D3018463C8F5795;
	15544 :	BB6B24F9B9035E6F3CB560103D00F837BD45EF31BD19956D3B9B749ABD3F2DC83B85A31C3B1C288DBCE46CA9BD6ABC653B9686AE3D4922F83C52CC403B6B03CE;
	15543 :	3D4F566F3DA1C1C83D1ED5CABD6F5012BC99513ABCEBC194BCA9CFAFBCFF4BD4BCD533EB3CB9F59B3CF955EF3C21774DBD1A6F603C8AAAD2BC8AE1A23C1321E3;
	15542 :	BD09F47FBB3E76793C4BB9873CF9DAAC3D090468BADA5865BD331E9DBBC52F6BBBA98BF8BBF1DB00BC9DCAD33A94AF113C48E707BCF0909BBD37E3A7BCD0073E;
	15541 :	BCDB333ABDDE83833D8B5F98BD823FED3CF10066BD5089DDBC1EE3D33CACBF05B98B25223D0A17B7BC586716BC6FB9C33D002D9C3D6C3FF63C948850BC49C5DD;
	15540 :	3D7EFAC6BC729A7F3CEBE3463D2464F6BCC8D8D5BCBD1299BB2D92D73B6764D73D4130293BDB84F9BC6C0BC53C22D307BD58F0DCBD792CFFBD05827EBB7BD165;
	15539 :	3CD333B9BB89E316BBA3E58B3BCA92D6BCD8B8DF3C5BC4D9BCD74EF6BC1D92DDBBD504663D3C53103CAFE2433D7D2572BD11B13F3CFD230DBC9F521A3C3C4BFE;
	15538 :	3CED23BD3C91DA4EBDA270633D091319BC64CAB6BC58F5B5B9BC8339BD5C6A843CAAAECEBD2E065CBD09CDC63C1A54D3BD9CA70B3D055C1BBD05AAA63D2D103E;
	15537 :	BCDE3DC23C74765ABCB643AC3BAE8855BBAEA7F7BAF67204BC648823BD0795993C37BDE33D24DB9B3ABD8796BC06B6D53C2178943C6F677C3BCA3935BD135FE0;
	15536 :	3C456B81BD032DA63CB95289BCF03DC8BC8B6DFF3C9EFAB23BF5DDABBBE178CA3D4401E53CB6873FBD0D145DBB1340C63D43F160BC5BC4223C4408B4BD1A75E4;
	15535 :	BB4025DABCCC32333D063D5ABC017462BC1CE74A3C951E97BD0E9A4ABD0525A93C4384803CFFB9C03C753EFB3D1FEFDABCCCF70DBBEC0382BA79FDD73ACEFD6C;
	15534 :	3C5A5990BB969F3BBBAE31073C6E759E3D19A351BD32815ABCA8749DBC43A277BC8FA24BBD0B64E7BD4FA7CCBCA4941B3CB88428BD0459683C5B8BE43CC02DCE;
	15533 :	3C87CD1BBC053600BC6AD172BCAE661E3B795E8BBC3F70503CF6E670BAA51E03BCC80F98BC412BA0BD6D738F3C86FEF1BC132EBBBC459BAE3AA19AFDBBB94BA9;
	15532 :	BBE48AB0BC6BD04EBC89B1723C3632993C4090AEBB4A690C3C2CFF34BCB78B513B886F39BA417B003BE6E056BCE901D83D0145D4BC2940473D0EBC5EBC966C96;
	15531 :	3C9797723D01BE2CBCA0FDF83C869E83BCF8F6593C28076A3CCCCDA2BC851F7D3D06EBE43C1449623C85AAE2BD0151D6BB2D1B473C85C1373CA75763BCBBC116;
	15530 :	3CC5952B3CA945DC3B0C8974BBD46C94BD056E61BD03AD213C028B0CBCC7CE05BCEE8DAA3B38E5953CCB21CCBC80D4EF3C4B9CFDBD0C08213C9F0BDABD1D0A61;
	15529 :	BD52F93ABCAC4FFABC8AA760BC243873BD38CEDABD1D229CBC297E03BCE74DB4BC19B478BD7E33F9BBC19AEF3C89071ABB04D225BC0C3156BCDAE298BCE485E1;
	15528 :	3C2F1A733C96B9FCBD3A65DABC38A7C83CF5C93E3D09E59B3AC77D7B3860219BBC6F5DB53BB6BAF5BCA2DC953D25DB743AE3A805BD658110BC8A3B54BBAD0145;
	15527 :	3CC1A2A93CFEB81ABCB9BF7D3D07A424BD26E8503BE32E0A3D3BC62BBCAD4A463D4BEE5DBC769FB33CF05A14BD89C7023B59282FBC85484F3CD344E0BB375681;
	15526 :	BBFBC2F73B65E946BD4D743F3D0C376DBD0D13C7BB9184EEBC8511BDBB547B63BCC823C1BA841CE73D0DFF55BD5215A1BC02C97B3C256ABABCF208043CCE210F;
	15525 :	BD2068F63D1055013CB501C9BD0AD157BCBEF45F3D60354BBCE7DD803BF1878A3CBF5979BCF26F8FBD3BE62CBC871A9F3A8E54453CB4FD35BCC100723CD16237;
	15524 :	BD44185FBD5A10E0BB52DD1D3CA069B2BD808AF8BCA99C9DBC43A6E43CDEE172BC15B6EE3C46318BBB01FA6ABD753C45BD0D48B6BD292695BC70852A3D768449;
	15523 :	3C3BF845BD1C14C0BD3CF49A3D3E8E353BAF889C3D34C6A43D15AB293D728BB0BC71657E3C2A9469BCDBD4483D660763BCC54F5ABD0542D3BD4122FF3C6439E5;
	15522 :	3C760A3CBC01527F3C3F15DF3D07A08ABCF860103C46D9BABD41C0DA3C704B383B22EB303CD97D26BC90122B3D3B5A143CB86D1E3C7315E1BC85E2763C69D227;
	15521 :	BABA69053BDB851D3A725ABEBC39BC3BBCADCBA93BD90EF9BC70C88BBCAD31FB3C6BB73A3C8CD951BCD4339DBC586F74BA83ED3CBC65B2993D84995F3D13B2E6;
	15520 :	BC96A32F3CD7B8C9BC5382BA3AF7E504BC7D01213CC0CFEFBD21CEAABC46C8E23C7BE7653CD024FEBC7A32F03C8658493D4C611E3CB9AE85BC3AA35D3BA71FB3;
	15519 :	BCC120B93D25B2583DA297A9BB812A8FBCB352AB3D5BE2B13C8A9570BCE683D0BB2506063C257AABBC0208A2BD69B4DA3B0CA694BC9B6CD63B598FDA3B82CEA9;
	15518 :	3D5D39283962BEC3BBD476CCBCCC6E4D3C67BC4CBC631EF6BAABCF863D5F27503D335101BC938DCA3C9DC7BB3CF066C83D0B1866BC3A54FE3ACDCB90BD32619E;
	15517 :	BCBCEF1B3D6DF53C397CBD13BCF95F623CB5D5CDBCDC852EBAB882133BDE532C3CDE3FC4BCCD77AE3C8099BFBC4329173BEC2F8FBB4DF0FABCDB32313D1246E8;
	15516 :	BCAD03B9BCDFB0CCBB88F238BD47ED823C0DFD3D3CE7942F3D3EA983BD451025BD2A6EACBCE3D3D9BD358CD13CD266FCBC42A387BC973A513B51109ABC3D50D7;
	15515 :	3C2FF3773BE277B3BC9A08743CA83896BCEBB6493D2AD3C7BCF6E734BCFB3F07BD982E403CBCD300BD2298E63D38CEC43C3FD5653C5AB6D33AA26FFA3CA32387;
	15514 :	3D2F8099BCF2DAC63C8E85B83B5AFE04BCB440543B497296BCD887E4BC129C1FBC3011C9BC8AEA6E3AED8609BB89E9513CCF56BA3DDFAC81BC8BB8D83BC80C8A;
	15513 :	3C81FDDAB921BC66BD91BA1A3C9C9B2EBD028F363B8E33903BB63FF73C189DD73CA3FB633D01C8BB3C6F79BC3D232D42BBE78C57BD2D4F203DC0588B3D1D851B;
	15512 :	BB6E38183D3DEFCA3ABEE1A43D153D553CDA69633BC70280BAE84C303B3FE110BB98235C3D1435443A904FE73B5867B4BBD39553BAF48691BB60FCF13D5BD22C;
	15511 :	BCB7D21F3D82C99B3C0B0EA03BA31CF33C2E006FBB5587C13BCE939ABD37825BBC54496DBC32495F3C5CC2883D3C162FBC55CEEC3D0B82EFBBFFE8273D1A1CAD;
	15510 :	BC015F20BC2B1C623C8893F23C47561F3C6D6DC0BCDA0C42BC058A1CBB490589BBA00EA73D10636CBCC1F1A43C5EC6AE3CA77D4E3C6D2E3A3D4B8974BC4CDEBA;
	15509 :	BD39BE8EBC86CD5DBD18085A3CCA5AE23CC65B443CF66FBB3C025EDC3B5E98AC3CAA83E8BC397AADBCE81779BB021DD4BC93B9E93C5FCEDDBC23703F3CC0B2BB;
	15508 :	3C3266C13C2E8F223D6F7894BBD6877639937BCA3C3417393C8F0920BC2C92A0BD4078463BC180A23D172A143CD85FFD3B89EE12BC6AD6213C2082A6BC1A3A64;
	15507 :	3C8D538EBC7B29383BC17D133C8AA9043D46793DBD2710643BAD401F3CE0A7ABBBBEA4FD3BD514DE3CBB10BABC9A77BBBD198D333B3324B3BC366F20BC09F4D0;
	15506 :	BBBCF00B3D1452373CDB79713C15D406BBBBC616BBD606A3BA1629ABBC3F78B73B63B72CBD788455BCE6C7533C63C06C3C4BB2013CD6A0413A395C9F3BB5F0A8;
	15505 :	BCA985983C4A2CBC3D0949393B10D697BC9826F1BCD67F843C42C847BCCAF511BC578F823C1F5E053D49F77739910A0BBBB066673C307B1C3C86BBCA3CA2DAA7;
	15504 :	3C9D62FDBB8C2047BC426D983C00EE263CB98DCEBC2686FCBBD069F33D230BFEBBC78150BC8FDDE43D15F2D4BCC2EF0DBD135F55BCE5FCC03B0DFCBFBB004709;
	15503 :	3C4ABFA8BC848928BC947E293C2BD892BA561A213D24BBF83C2765F4BC6387553CF3898FBD395D143C0A10903CCBAA74BC7425B13CB13B4FBBDFEB39BC9EE164;
	15502 :	3C91207C3C90B97ABB81FEDABB53DB093CFF79D23B8D648DBBA36BC73B7F3D8C3CB74F42397256ABBC1241F7BC89D5E9BCA31D653ADE0B84BC7246773C82BFDD;
	15501 :	3BE378883C83C29A3B8FA2523D0817F63BB27947BCF71F35BC4037C53BFE4229B9A7E09DBC3437BC3D0CCEDF3B165D74BC996C7E3C7306353BAA1694BBC6EEFB;
	15500 :	BCEEA4F73C8DD04D3BEAA732BC19410DBC954733BCB53F5B3BD86B2C3CE25D733BCF5902BB2065C9BCDDF4393C7B4C03BBE7597CBCD03A703BEF7B1CBC592E0C;
	15499 :	3BF29783B8069CA8BB22B2413D10A8F9BCAF77AC3CDA7AF83CF3626DBC677C783BADE882BC116C2739D1807D3C848C463D000E14BD06B0A33CE046673CF2FCB7;
	15498 :	BBF82925BBC8A4BB3D0C23CB3BA7E24DBCF08986BD23F839BC8565053CBAEEF23CD2510ABCEEAFBA3D6A0A39BC4B37D8BCF183CEBD045BA23C7571EEBD133AB5;
	15497 :	BCBFC2553B446130BC4058B8BD75AEDDBCD621673B213F08BD03B9FC3BDBB69B3C45822EBC266F30BD04E8133D35BBB23C09E413BC27CB063D2CBA5A3CC748DA;
	15496 :	3CB706643BD90576BC2A6F61BC109CBC3C8EBF3DBC1E3140BBDBF9EBBC8EA0F0BC9C8059BCD8735CBC583577BC591E96BC25CD8A3CADBC893CED0BB73D3409E7;
	15495 :	3D24979A3BDAE0EA3CBDE14FBC919E963B663FE0BC8CFB2EBCCC1AC43D05DD85BC408789BB20E28DBCDA78FEBC33131CBC9243E8BD0A8B0B3CA74CECBC36D070;
	15494 :	BBAE5CDD3B37762BBCA173863B916DB53B52F2A6BB5C52A0BCA7A812BC4B1F16BA98C3673B51F2DEBAE28F083AD402B1BB428057BCFCAFAD3CD702C13D03C5A6;
	15493 :	3C09D4573B328B883C0B1EC3BCECCBE8BC91D371BC0CF7B6BC06B6B0BCF0A44E3C046D79BCB23AEFBD24D496BC0048143C30F2463C312D06BC067F563CF870F7;
	15492 :	3C8704B2BC9269183C8EAC0BBA5D51C53CE5ADD1BAC0E4443CB58E6BBBA87E9ABC82C99A3C3772EEBC8CF2FD3C76950F3C945B60BC4317AF3D2C1D62BC767239;
	15491 :	BD496B57BCE02CBFBCB66C9F3A81E1323D29FE743CC5C0693CA6F333BC988F5A3C786FAE3B4A43BA3CE51E38BCD01BCD3C8C088BBCB2E2933CCC3894BC929C29;
	15490 :	BC3BE0353CBB50C3BCA9F914BC03DB92BC40A536BCBE711CBC031CC7BD1C80063C8E47BD3C70ABF63CD95CA93C2EBFCD3C0A5CAFBA4A4419BCB84590BD00BD23;
	15489 :	3CFA342EBCD56AC7BCE787183C6639123AA8C53BBD1F42A6BC67EDCCBCDADBCEBCAE71053BED7FDF3B5C7E903B86A308BCA667D03D868DF0BC9CAE98BA6EC23B;
	15488 :	3DB2F8D5BC54718FBC256D32BD295C253CACC1F4BD0472A2BD121C7ABA93E0FC3CBBBF553C807CA23D8BF359BD9B4AA03D2323F53D39DCA5BD056B1FBD608325;
	15487 :	3C6607093C9CAF87BC91D224BD0CDC843C828B2BBD2E60A0BD4931133C9457BFBC0233ED3D2994CD3BF122C2BB1618A33D815D083C3761743C556DBD3C8DA9C1;
	15486 :	3C2A9ACB3C9B7BBCBD0BC3CB3C96A4BA3C0458703C62689ABD445A52BCDE30633CC79D6F3D358BECBCD676103BD6BC413AB66AFC3C963F773D31FECEBD1EF282;
	15485 :	BD55D6B73CAFBF8ABCDD73793917CC523D12C31A3D5F6EBBBD013A45BC801931BA2B0FE3B7FAAB6BBC1D7032BD4D4D0DBA43D3BBBA27F1B3BD2819723C921DA3;
	15484 :	BD15EADE3C9CBCF9BCF85ECDBD46A3E5BCA337C9BCC1C925BD42BC4DBD8A8C76BC633DD33997648ABD96FD6DBC70EEA83CC180B73CA67DEFBBE13176BD51F041;
	15483 :	3D2C36A3BCD619633CBD827FBD1EFBE73D1A1CC4BCBD6C583C533A4A3C9656B53C2B2CFCBD29062A3D51725B3CA0992DBC380D7C3D1321D03B8FFD0ABC830545;
	15482 :	BD5249EC3C9B5518BBFF27093DA04A1E3D437C85BD0512973D653A3F3D0B1F043BC5F9D4BCACDEFA3C6D1F743BAE7AB2BD222396BCD593003D95B088BB087095;
	15481 :	3B7F18F1BD08318C3CF57DBCBC481289BC163FEB3CA04DA93D2B4CF33C845874BC664B96BC7DA030BB260E543B5A3D4BBDA31898BCE295A53CC04CA23CD64D96;
	15480 :	3BD104833CD41ABABD955320BCDF2B52BCC61572BC7F87363C411B04BC9200FA3D1C76B4BAFA88233DB350F63C6F64233D18369EBD33EF6E3D7FD770BD8AF692;
	15479 :	BD08AE5D3D23CB8CBC44C2DB3D5282A43A32D444BD208385BC5201A13CA4A28BBB192B913D010FC7BCCDE6B43B978BEB3D55EC9ABC3D1D95BCA9DA593C5AE08E;
	15478 :	3A36FC11BD82541F3D234734BC55EA693DFEE2463D5FE2A4BD03E541BC52B375BCCD78ACBC3AEEC93C4985423D4564A23CFDF6D2BD2531DC3CE7651BBD9B54F3;
	15477 :	3C2160B7BD62C751BD8DE05BBD14FCD43CE4CD88BD14AFDC3CDC7E3FBD5BD71DBCF3360B3C848826BC8CA321BD4B4ABA3BE7A3AFBA1C5F19BC7D4BD53C899CA5;
	15476 :	BC12C55EBC2230A53D4A489B3CEAAF26BB3FD6093CE49BD83AE7941EBD19F7B53D6296DF3D0025813B05502B3CD7C5DE3BD139273C9AF1323B4ACBC53B8B1B78;
	15475 :	3C86B6F33CAA38A9BC370C673D044EE03C9CE2A23CE671E6BCA1ACB43CE55DDD3B8E042F3D790890BC84DA903C582AA93D951F08BCE9718E3C8E9B3E3BBAF52D;
	15474 :	BCC5A43C3C1829403CB5EB63BB02B178BCCF051F3BABA9D13D1D61193C065707BCA08A143C1B2372BC365278BC9D617F3CAD47DDBD3E8329BD173E293D048E03;
	15473 :	3D27C0103D16FDFFBD062B673D2C00AB3C02D7643A38B482BCD5F2F93BEE1AE63C40C8ABBCAE7AD1BCA1D7483D6F43A43C566C9ABD10A262BBBFB80ABCFB99B6;
	15472 :	3B53875C3ABBCA48BC51EEE53AFC94943D6B738EBCB96516BC0E30863D660428BCB954B43CB12244BBA4FAB5BA0556F03CCA4DC9BBAEE83CBD919AAB3C0C9213;
	15471 :	BC009DC7BC5D39AF3C62A6D33D551B483A8714323CE5E8963C5D3578BD0F68CD3B52B5E83CA49D413CDF9EF0BD810C4C3CAAD1EC3C51F7EF3D02F1803C66E1CC;
	15470 :	BC5C735A3C88BD193B94D7B23CDD9B3B3A150FDE3B2376AA3BFBE2463AA3AE523CAFBE81BCB887B83AA093C53BBB8A743C38F6C73D1267843AB008193CE69CC6;
	15469 :	BBD4B7B1BBA544ABBD1C64F23BA129ED3BCD3350BAF6D4DD3CDE695DBD2D5F75BD3AC736BCE1ACF73BB7AC363D807F72BD260251BCA3E8103C7B6A21BC44E4B9;
	15468 :	BB17E5F33BF3E2443C66919FBCB4631E3DA402F4BCA026713D27B8D2B9FF26AFBC685C1A3C9F5FB83D133D7CBBEC9424BD1796BA3C3B31D63B9B9C103CA54F6D;
	15467 :	BC1775A1BC7F73BBBBD90F38BB9BF475BCDD9E00BD284472BD016729BCF49F37BD834751BCB544E13D13F3AB3D32752BBC304AACBC4DACC4BD3443F4BC8EBF85;
	15466 :	3D26A0213CC394593CA7DDBC3C8B59463CE307B73BC51F7EBCE5B2B6BCF344673CFCE4283C9091E7BCCDD0603CB105F7BBF34F50BD04215A3B926160BC87F3A3;
	15465 :	BD0D22933D3085173CC553203CEBE7913D27328B3CA50718BC652E7DBCBBFD73BB55EB8B3C93D70C3BF4D91A3A9C8E863CCD05643C35C1D8BD2CD0403C565A9F;
	15464 :	BD2EEBA5BCA525663C906B063BF073E3BCF1674CBCEC31083CC9B7EDBD0A183ABC262A6DBD0301F03D77D1AC3B85337BBC202416BC1B393CBBBA1B3DBB55FB60;
	15463 :	3D41FAABBCDA62C13D4A79DBBD237F0B3A3185F0BC18FA213C0C1008BB93DA8CBB76E3153C419C3FBD0A223DBC9748CABCE37771BC6A687EBCE0409C3D118B1C;
	15462 :	3C97B8683CAB3F4D3CC66FEB3C40DA903C1E8A8D3D42633FBBA4B428BBC4BBC83D4CF5F9BD20AB4E3C1F6FA43AE2D784BC471A4D3BD07D733D718DE03C860306;
	15461 :	BC764AF2BC76CF00BCDCB1B63D02627D3CCF141CB91FDBB33CDAC3A0BCA04FD83CE3C2933CDF144FBC90BCCDBC7B1E273D2B114ABB7BAE6E3B8CCF90BC3805DB;
	15460 :	3D1C6EF7BC16294F3C079D5BBCECC094BB2CF8A9BC0438333C7F574E3C860081BD06089E3C8513DE3C25D10C3D2093A6BBA3218D3BC476C03ABC2FA83C65F936;
	15459 :	BA95745B3CDF7B363AB0A44E3D264EE4BD144D6BBD05A8B73C2EB8D9BD5E3886BC825277BD2F4D8ABD033BC03C90CFE23C4C42AFBD9B7F81BC2B9EB4BD13EF97;
	15458 :	3B1239E53CB2D0F5BA2F19B73CD4D2D9BC0DD8663C3B3E673CFB84913BB0249E3A992291BC7767AC3D0E305C3C0AE7323D5394613D13A27A3D83414ABCBF0B30;
	15457 :	3D3F5DF1BC001C4FBCDF3019BC9F8AB43D155F1FBD1107873D27DB413D47EB0C3D66E6FFBC0F8BFA3C9D0360BD0816E5BCC566323B3F9D2D3CBFD4B2BC05FABC;
	15456 :	BB34C7B73C415BB4BAFBB39B3C8E7DF4BCB9B48FBD746499BCE9F9153D2A22B93CAD85EA3CF01A333D0E5082BA8C52833C030CF83BB3ACA0BD239C933CAAC961;
	15455 :	BCABEEFFBD16D292BAC4EB3ABC6DCB393C0B724A3C52D38FBBB5D5CCBD49897FBCA0B9FA3C3A9979BBBC92373CBC0EF0BC69C4E0BD2F45123CA7FD483CD017AB;
	15454 :	BCA2889FBC8D38FA3B289201BD2978B63D7487753C93D4D4BA8E385FBD8308DCBB85579E3C910FC53BC12AA83CC406C5BC759D09BB91ECBCBD52F9403D220BE7;
	15453 :	3BA8AFE8BCA88C44BD920E2C3C674F8D3CEDD15F3B0BD235BC5B750BBC9ECEFEBC84B3F6BC9AF194BCF3B5FA3CE0FD3B3CD478463D1CDEBF3C05D5D63C3D8EF3;
	15452 :	BCEDB512BCB1AC733CE5FD15BAFC332A3CA2388D3A4A03DB3C23C0FEBCB761EA3B0A95363D86E38DBC44C324BCC6906D3D13F61D3D1BE482BCE9EE583C5A17AA;
	15451 :	3B03938B3D7A39E0BBB25ECA3D31EF5BBCD108C3BD0C36FB3D353710BC92C98B3D34EE683D990A91BC97C99F3D00169DBD277A1138AAA0B73D5210513BC6BD14;
	15450 :	3D25D81BBD1BDE973C0BEF6E3D123C913D360C3FBD4176AEBBE05EC03C4FC25EBB0EB53EBB4371B93D60404DBD3726683B1C1831BCA7ED473C4F2636BCFFA321;
	15449 :	BCACD63CBD259BA6BD07BCAFBBDDB4E33CE55241BCFCA0363ABEBCF0B9ABD23CBC91C0D53CB86F0CBBE13CEB3A9DED233D1540E3BB8976A6BCF6BA25BAECB975;
	15448 :	3C8C6BAB3CD2DB4CBCABC4DCBD027E763C2A7E1D3CA48BB63C7DA65C3D1CFF2B3B26DF373D143F69B988ABABBCABA6DD3CDF9B183C37178EB9B672EBBD07B35C;
	15447 :	3C4AD4BB3D1014DB3C97CE343D474FF7BB346EC73CFF6F6A3D404F6DBD1C3ED13C11B79F3CE944B23CBC678D3C4B961EBCB09AE53D2268D8BC15520A3C3DF60B;
	15446 :	3CCD50103D44D3033C5C1132BD134EA33C8BEB8EBD10D6E2BC8967A5BD587DA9BCB4C8E7BD47F4033C4D814C3C8BE6473CCC3274BB6A49883CDC922CBCC5743E;
	15445 :	3C12774E3CBE69F7BB2971193B11D8AEBA8E9672BD3A96ACBBA7CFD83D0860D23BF84D91BC9D12B93B1EFD5BBB356E39BB9C0A4A3D26F2683D24318FBCC0B63F;
	15444 :	3B962547BD8F76BA3BC0B1BFBCBAE9F33ACD7072BCC1DDB7BC6C11C7BC0626A7BD1B9C2EBD2456C6BC8B0A563AF46EF63CC78B6D3C046898BD0B1743BA4C1CBB;
	15443 :	BC88F860BC654CA73D1F6E513C9C0EF6BC8238CE3D2960023BFBCDDB3D0F25CBBB84E3BCBC9DB744BC4B3276BB3FAE41BCEE2F9F3CF13A4FBD624B643CCD0B57;
	15442 :	3D0BE8913D136F4A3CAB0BAEBCB8208C3B9AE0E03C8099473C991E473C4063C13C99B87ABC81C3253C2CD3233A13C7583C873A2ABC1DC9CDBB07AF30BCC5DC71;
	15441 :	3D1311663D07D55BBCD1278ABCC7D35EBCD948C33BDC4E8F3D0CBBA0BC1C93AC3C384102BD2736273C97FF5EBCD459CCBD20C7913CFDB74CBD46848B3B344B8F;
	15440 :	BD5058C9BC775041BC1C143FBD13F1C93C3F5103BCB214F23D31964C3C102EE43BA0E3343CC6B24CBC674835BC45E2883B95CBD4BC156B58BA98CBCE3C8D6BEB;
	15439 :	BCF6C822BD3F1145BC1E7363BD6621FE3C61EF7BBB1637BDBC82DBB93CA3AB6D3C803E7F3D1469CB3C886E53BD024C8A3BAF1B853B6546543BC6AC8C39929115;
	15438 :	3C4E339BBD3045573CC1ABC6BBCCA4073CD7525ABC09D4C53C0D9C2E3BDD1C9B3BDF1EF43B33C802BAABCE95BCC52DB93BE2C9FE3D29BC4A3C286AC93C558141;
	15437 :	BD4074A73A66AB343AB53502BBCD26F0BBBE691CBC5C4E44BC48CF8FBCB12841BC422349BC4901E03C9AF92DBAE8EB17BBEEA02FBB23D666BBCF3C4C3C2B4270;
	15436 :	BCD3BFBB3C7CEA8ABC5ED296BBFE5255BD5580DEBC7ED4F03CA51F5FBD4BB558BD0BD798BBCE8AF0BC8F3D16BD302BD6BCE099073C4AA8C3BCA19516BD0E9655;
	15435 :	BC52F498BB9C2D853B098FEEBD338D7A3C3C87CDBB8497FC3CADF8AE3CF504233C26B447BA881F923CB1966E3BD15037BD069B15BBA5F42A3CF66D04BBD7C255;
	15434 :	BB6F2716BC6E851EBA969D13BD8733543C7E79473C57FDC93BD58D723CD6FF3DBC75255B3B69F5CDBCE4634DBD3CB8933D0366AA3A530C923CB4C61C3D01DC65;
	15433 :	BC36D564BB3AEB21BCC421103CBBEB0E3C4D7A163BC953F5BCF651D83B08C1633B9351F4BBE1BC5ABC07E5073C37B7233B8864CFBC03390B3C12B6143BD2213D;
	15432 :	BA0BCA30BD1AF1F43CF4E9B83CB4D9E9BA703C4F3CF8008B3C0558FBBB113B10BCFAE170BC421D1C3BB243173CE94C5EBBAA3A433D150A1CBBCC56483C509CF8;
	15431 :	3D380CD23BC50B1ABD24A225BCE86D83BBA321FFBCE6D880BD44BAA33B1AE0793CB3A48B3C1781193D58C97CBBFD5B65BD391BC03C5A282F3C9ADA65BD0AA1C8;
	15430 :	BD11633A3C004E09B89E79D03CDC32463C804887BC2C5F76BC5E0DDC3C4E9BD2BC71C54E3C0C8C1B3C084FF2BB8AC6D63BF4ABE4BC2A1F82BCC9EF5D3CAD7F87;
	15429 :	BC1F56A6BC5865493D0436213C0F0D75BBD224BCBC4E69F8BC342DFEBCB05280BAC5DC5F3AADC088BD7889F13CDB013C3B125637BCAEC2903C89AE633CB326CF;
	15428 :	3C96FAAE3C9A97DDBAD45708BD264DAC3C1FD12AB9ADF02C3C53F1BEBC1EBEDEBA7DCA7ABC03BB0E3C93A65EBD24924EBC2848CABCB56CBF3BA52B15BC9BEA1F;
	15427 :	BD59E61E3C3C74E3BC25D0953CD9D007BD193EA93BB5B2253D4C93A1BC185956BB3A5C86BB7807E13C7F48963CC2160E3D0FFBB83CE535503D381A703C7F7731;
	15426 :	BD335B7CBD3EE3BEBC28242DBB3B8721BBC3AA41BD6236D53D0C32C73CAC214F3C9E0C703D127BA4BB6378A1BCA01E27BC8B2B9ABC162A2FBCCB0EEF3D00AFA7;
	15425 :	BA62A8763CE7D6B8BC8891F43C8692C63CD7EA943BC4F0ECBC81B9743C0786D13C0C73C13B5F4EDA3CDDBC3ABC843BC53D04A6FDBC6F9C4CBCB5EA0F3C2CAF74;
	15424 :	BCF2CC9CBD0CAEF23C969A98BC88C8DF3C822AE639B8D639BB57A4F03C4D14AFBBB4B757BC08A35E3CE2D6E9BB9F8C00BD1389A0B9AD6F19BD52BBED3CCC40BB;
	15423 :	3D268CE73C8D10483C4E62CD3C68D37CBC0FCA443C870B57BCA9D201BBEA359C3D3D0D51BC9F3B2C3CBEE938BC36DDE2BD026FC6BB907808B94531A839207F50;
	15422 :	BCD9C5623CC12049BC08E81B3C49B869BC171681BD60C89E3CA1BE9EBC8CF4D13D15A5343A925E743BA34A3D3D259549BC882E0B3A5AD6673D4DD9393C5D0F62;
	15421 :	BCB0A1A6BD1B88913CAEB1B6BC1B38FF3D8AED94BA18D8E73D5551C73CC08C50BCB9B28DBB2BCD41BD5384ADBB325423BCDA7149BB7FC677BC317C9E3CD10B21;
	15420 :	BCAAD3B03BBB99F6BCD9B63CBC35E0DA3CDC8313BC1285283CDE31CF3CC3533E3D12D1D43D155F9D3C84FA8FBC6B0A913A30B2F53D0D53EC3C2C3C6A3D299FC8;
	15419 :	3D6CBF873D0ED9EEBCAC2DB93BDA8CCE3BD12F49BB5C9B35BB2AFA13BCCDBF3EBCFE01D23C969D2BBCE359FF3CE5BE6D3BA0E8023B20D3EE3C97C477B969ABCD;
	15418 :	3D1498523C9A0F573D01FB0ABCC67C7B3C0854C5BCAF0EE23CCD513FBBD4B8073BE6F9F6BCFA6C44BCDB1A0D3C473BDDBBD18761BC886433BBC083F93BA0606D;
	15417 :	3BEC5CAE3C497D31BB62A0A83BE3E0783C2D6B10BB6C2F7D3CFC123D3C615B373CA4D2EDBC7E00DA3C043C2FBC9113283C9961A4BC48A7373B148E59BD8CAD98;
	15416 :	BCB31631BBE107CCBD51886E3C82CF763C4A8F82BC95FF0C3D3EB1F7BC5C1EA83D347AA0BCB06D52BC1B3B36BCA33EF3BCCD25703D1CAC54BCD9160D3C4675CF;
	15415 :	3C9607CB3C781C79BCB97DBA3D145C383D51486E3D3B4200BBAFCBBC3D3D9146BCC1373D3D0E31E73B33B2A93CEAC3603DA749153C808A94BC586D523B851CE4;
	15414 :	3D20917D3CF454E03D5BDBFDBD4C3428BD0BBC2C3C0D029FBC77F2CC3D52465EBC96C99FBC87996F3C40C827BC4A33903D384E64BD70A6FD3D8245303C93BB8E;
	15413 :	BC089321BD3B919FBCCFC7DB3CCB0A633D116C1FBC9E8C10BCAD46A93BB035CA3C72C2B4BAFFBA0BBC3727493D0272C43D034A5C3CA8D543BBBDF2683D883236;
	15412 :	3D2F2B683881C152BC7890893CF10774BC38B76C3CDFAE10BD1791E63C9E809A3D44D6AC3D7B5CEDBD804347BD1377B43BBEA3963AD55A4A3B8944A2BB002F1A;
	15411 :	3C88CECF3D55DF443CB79FEEBC8D6609BC1F87F1BC7E98223C56B4263CA09090BC91C0263D21A6CA3D6736C8BC6AEC433CF38700BCAE8143BD8DD1FE3C998F85;
	15410 :	3C419006BC790C62BA7A5AEC3D43C4863D02F362BD422F3CBC8B803ABD7B5E6BBC4572F43CA32983BD63A673BC00EC553C4E67EABBD6D0DEBC5BBA14BC288BE6;
	15409 :	BB12A9D03B346362BB173D27BA97FD473C5FCDE13D31CD4E3C1571363B44D201BBEE3549B9B111E93CABF73BBCD397013CDF8D743CEAC15A3C2B11F33C63EE83;
	15408 :	BC2189743C90175B3BA852D0BCA506DC3D20B14BBBC96093BA338FAC3B946C753D07A999BC8FF38DBBCE41503C120B673CF18C82BB1ABFC03B8C00C3BC8C5191;
	15407 :	BC0FA12DBB07B3473B8D610E3CCBCBB4BC9106EDBC4C1D9BBB1E6630BCAC508DBB8BED8C3BD17EA2BC9B1E113C207DFBBA4EFF7F3C41D41A3CB41D273C55318D;
	15406 :	BAD94D76BBD6C25BBBC42E0B3C195AF43BF1AEE53CA8FFDB3982DC6DBD0123CF3C8A60D83BFB2DAD3B340F993C679658BBE3E252BC178445BCFAF17B3C239A94;
	15405 :	BB6A17123BC79560BC31A2803C4A7DF63C7A70443C4B3EE5BC101B4E399A907B3C9E3B3B3CA3DE70BA9C8B76BC6749743B3D2DE9BBE5E7A03C7E2ADFBC09A2B7;
	15404 :	BBD3A8F83B11C9FA3BB6AC99BC73CFEABA8EFFFD3B792DC83CC772573CAD343B3C664B9FBCA21710BC67E3493B9B4A35BC03A441BC8FDADA3CE996BD3C5D28BC;
	15403 :	3C120831BC435B28BCA1EBBA3BCE395FBB0ACDD63BD2642E3C12012ABCC3B0F73B71EBFABC7A49A9BC23173BBAC26A153BA9033B3A85CDF5B8E2A7AF3AE7EA2B;
	15402 :	BB515BDC3C31DBA6BC3F2AB0BCF851A63C9010D2BC8DFA3A3ABB6FF13B4F3C76BBFDEF8DBBFCEA9D3A3B629EBCA888B13C0AA8273C3F1155BC417FF53BC972FF;
	15401 :	3C9DCFF03C3B91FE3BACCB74BBDB12C23C436D4EBB2C11183D0D0109BBC4261D3BF5D2583B775681BCC54AD83BB36DD5BC8A9CC9BBF1E6CE3CD55E553C5CBD41;
	15400 :	3CBAC3EDBC09054EBD093701BB4784C5BB53B27FBC84560DBC9531803C3701933C2B982C3BEC6C7CBCF5F6DBBC3549793CB54945BC21B9CEBB8C62653AE1267F;
	15399 :	3B8EA24A3C0E01E73C78AE353C918351BC9D90A23C5D2406BC3C81D5BC43436E3C8092C23C3043FDBB40F7EA3C1B8255BC3A020BBA336F7D3BA9795E3B327926;
	15398 :	BBA851D33C89E3B3BA2F0A35BC6175AEBD800096BBEE56293BD66EE0BB3C83F73CAA5AD0BC64524EBD02A681BBB2F2AE3CC358833AAE2C8DBD09971BBC7378D6;
	15397 :	BC8BA9BCBCE19FD7BC2B2DFB3C9C9E633BEAB80CBB3A8EFE39BF47B93B9F96013D1CAD5F3ACEE429BD04B5C13BE56E013C98B5A43C70F7B73B81040DBB85AC93;
	15396 :	BC43460DBB97B62EBBABDDC93B26B2BF3BE1A62F3CA713793D0BDCE73CCD1ECB3C3AF65E3C1D043CBC356394BCB194763C0021C4BC835E7E3BF64A5E3C9DE58B;
	15395 :	BCC599F0BAE4594E3C3F54A43B3F2F9C3CB1C134BC5DC6693C5245F23C54C6823C6C7D62BC9D01133D017DA8BC94F53A3BDB0F47BAF71F163C27175ABC8BC0FF;
	15394 :	BD1B4C4C3C0342953CD5FEA53C3646C93C179C0E3BAA27C3B77E7A2ABC48CD253C9001CB3CB8D64B39FEBBF73CEA7A96BCE7A751BB2A9FF03C8AE65E3C9119A7;
	15393 :	3D2AAF263C9DEF02BCEB3BC53C2928CDBC54B70BBCF475D0BC7239153C43254E3BAADDAEBA36D5C23CBC53B3BBB194F33C4059F23C57AEB33C4B3E81BCD80B58;
	15392 :	BC565E343CDD7AD93ACC66B1BC234C643C9263CE3D82EB3A3CD2B9193C41D9A03B416CCB3A6C3661BC34D562BC9649393CE68D3E3AD4B44ABC98E8FBBC5041EA;
	15391 :	3CCDCC02BC1989743CFCD583BA766608BC907704BB6E0E9B3C5FAE413AAFF88DBCC46B62BC0C8EAE3C5EB62F3CE1D171BA7E1BBFBBE2CA763C3476E6BBE3C5EC;
	15390 :	3CBC33E23C3B8FF83C8D37B13C1D3F5A3C23A878BC6EB688399F8435BC6946393D5A36443A68F0893BEE930D3C2590463C5704DCBCB2C0D03C4822283D02101B;
	15389 :	BA225B6EBCB872933C9F4169BC491D62BCEE165939773C87BC38D8743A42711A3C2436AB3CA455E83B62F3863B9FBDDB3C9A07D83C38F87E39E2A819BCBD673E;
	15388 :	BB653B443C314BAD3C12F9F6BC1775BEBD0148313BDDCB1EBC69356E3754F8273C77A0863C11E6B03C030C6D3C335C3D3AD106F0BCB7EF2BBC3F7F1C3AD35364;
	15387 :	BC3FB0833D30C3DE3BA10831BC089080BB1FC0323ABF0DBB3CBB4D19BBE962F33C865559BC22341DBD282D53BC012382BD0FDDE03CCA1EFB3B96FBD23B9A25E8;
	15386 :	3BB3BC703BF254FFBC6CAA4BBBEDB5493B1776C73AB8FCF9BC4676AABD1B95643BD768A0BCBE44DBBA8B7B75BBF4D61D3D0172DBBCB94F1C3C2F3516BC60F121;
	15385 :	3C647B123CAFAD4B3CF6CD4D3C244AD03C624630BCA6693F3B84F4C63C657F3EBBC425A8BB4853A7BC8EE7A13C532BF73C24F3133BBCC0A6BC1EAF1CBBF7E288;
	15384 :	BC362870BCBEC0B0BC05DDCEBC9BEC06BC49CEB83B156294BC431E08B9766BD5BBEBE3F03C536BCE3BD20ED13C8CDAAE3C5B0A963CC71D56BC2B4450BC164DBC;
	15383 :	BCC038A3BCE2A0C43C732CA23BD77F5F3CF5BC11BA9E17F83BAA14B7BAA4D92F3C0ABA07BBC9A79B3C25CF13BB51E9AFBCF11211BC8A168D3CA6192E3CE45660;
	15382 :	BBD38967BC934118BCCB733A3C98C1B63CB812FEBC85A0BABBC78D323B0234E9BAC14D2A3CC8ACEDBC8E9065BB3E048EBC97A5FBBBB1CE053C79D7B43C0F2495;
	15381 :	BBE98D83BBBF54E13C7E9D97BAAB8F70BC279A523C383D3F3B1266483B85D71D3C8767453D5A4531BA440EA83C3DDC7CBCA46FCA3C14834D3B3B3319BCEAA085;
	15380 :	BB3283D73BFDB0E63C34A535BC8DD03C3BF5E3253BFC0D8B3B232B5E3CB648513C29AE1E3BA1437B3AB9B095BC0FBE70BBA4DD9BBC9E49D93D43FAAEBBD6500B;
	15379 :	3C1160C33C687926BC960F233B70AB943D2143EE3B63E32DBCB5E07C3C3792EEBC8140DDBD21FE59BCEC280FBC1AD44EBC1A40DA3D59AE72BBD6D9403B4418FA;
	15378 :	3C3B12FFBC06EE0BBBC0A33B3CA68C8DBC068D0DBCC3D5CD3C2EDDD73B486E253D2305DA3D9190A3BBD0A40EBB950A1E3B87F518BBE0B1AE39A2116E3C970919;
	15377 :	3BDDDB16BC48FDC13C17B20CBD2AB5923B0D71DDBC145147BCF2D8D63B94F10CBD31C01EBC6116D0BCD63F10BBB9B34D3C28210FBD6B22E5BC994C6DBD4A3CF3;
	15376 :	3CD81B823C8DAED9BC5BF9613D02E748BCD35732BC272AC93BD531F13BE4E5243C49B62F3C0C66FCBD2D2526BCE2B40B3CADE9B6BA885649BCFCCC5BBC8BA08A;
	15375 :	BC5325263C4A9E88BAFB11E13D08B7D5BD278039BD22452EBD4E0AE63C8871E4BD5C05643C8744DFBD13866FBBCB41FABC15A6B6BD3ADBFB3D15B8D0BC03D6A4;
	15374 :	3C0212FE3C9F98CDBCBEA661BC55571BBB84F262BC8EA9143CA1C7453D0CC8FABC93F9793B3A37803CA653583D583EC23D1625BABC48334EBD46A474BD038ECC;
	15373 :	3C63A9E8BD3EEFACBC8600413BFDF1243BF6D9C7BC8928523C03E8C0BC32815A3C99DD10BC621957BD2DDF2E3BFC5F0ABC39E7A2BCA87712BD4D048EBC9146A2;
	15372 :	3C67FFF2BC1DA1333D1B3EDE3BBD2FEC3CC7E6E53C61933BBC3372623BAD9A5E3D093E88BC7E29043D3BA18ABC64BB7C3B69FED5BCAC427DBA74514B3C2EEAA0;
	15371 :	3C691FA93CBEBD753CD7910CBD36CDB43C4785313C5334613C5F06E03D031FED3C066F8B3D2AE773BCF73F083CFC1898BC80FA713C3726743D0D3F2FBAF69E71;
	15370 :	3CB42D47BC6A1075BC34781ABD71C59A3D09E3033CC776183CE122FE3D0BE519BC0350663D015DD4BC3EF8AB3D5C8DE73C95039F3CCDE3DD3CF91F43BD7508BF;
	15369 :	BBB4403EBD6C1513BC6A9B353D14C7403B2D79513CFC480B3C7244A23CD65715BD4DD94B3C84AD85BC501A683D802A653D4E6A253D2961CC3C35E05DBCEC03A8;
	15368 :	BC8077813CA4DE7B3CB24D8CBBD3D39DBB9B00B7BD38C7FD3BE0DE7ABC4C3D733CC56E0DBD14BA7E3D84448CBAFF58723C41F5D9BC984DA3BD60DC21BCBF62AF;
	15367 :	3D582D303D07B7F2BC0C87ACBC5FB16B3C4058D5BD2766EFBBB1D2DB3C38869ABD9CC8BC3AF1AACCBC84FF42BD73CF31BCA4A6CB3BBE93583C27EC303CA5E2A4;
	15366 :	BC88431E3D0DA704BC0043F23CC924473CC085BF3C822410BC22B8E7BCC961ECBC8BE4D63CAF6F39BD2A86AF3CB04081BB06085ABD089661BBC61F2CB9D5A455;
	15365 :	BC93DF1A3ABF29FBBAFB300D3C5196633C0EB2FB3C9BC26ABD358BA13D30A5F1BCE5A402BBBCAADFBD1D4DD53D02C6083BD4C2A03D1A6874BD279C80BBCC4D19;
	15364 :	3C557192BBE2735C3C9E418EBC825667BC8F645BBCD786E93C48815A3CC235943CD9D96D3C9F5F4F3D66E857BCAEB3B73D06BD633CAF7923BBB194553CC0CBF0;
	15363 :	3D532E85BC8EDAE5BC372D53BD491D16BB8E5FD6BCFF99B7BCE049D8BC2D20A93C093C12BC76C967BD35A0E1BC1E679EBC976D48BD28C9473BB011903C7223F9;
	15362 :	BCC9B3123C8B708BBD3B6EEEBC8037203D2704DB3BDEDD523B2686EABC0DB4773CFB6A5F3CF8B4A1BC7F78893D26D6DF3C9A31C3BD1EAC38BCDFCB483D722ABD;
	15361 :	BDFA357F3D2D2F193D415780BCA2327FBC32D845BCD667A3BC9501633D8B523D3A7366673D424C76BD42447E3D6997143D444BC23D0CBBBD3CEAFE51BCC21E1D;
	15360 :	3D832CF9BCDC05793CF0E5F5BB282EC33B6EDCC8BD4E033D3D01B8ADBD5801713B542F0F3C1BB10CBD8465DB3C864676BC8033DCBBDDE8FEBD191B1F3B9DC5DF;
	15359 :	3C1BFACD3CC291F83C8DAF273C3AAFAF3C7E4A423B4CC1FABAC384C53C3F281DBCDDE7D6BCC3F9473C8630ECBD35A9B23D80BDD8BD2DE019BCC72A063D014258;
	15358 :	3CF443EABCC5C6813C9C4F89BCE0583D3CC05702BC6D5EAD3CB2B3083C88E3D1BCCA20973C7797A2BAF59A5BBC048C243D1AEF023CFAA58E3BE9970FBCDE0E84;
	15357 :	BC45F4B2BCA14A8E3B94F36CBD0CA415BCF14CACBCD82504BC9E3DDA3D646F9ABCF90DF2BD145DDA3D36AF42BD4449B43D4A33093CE86748BD10387F3B6ADC8F;
	15356 :	3BF245C1BCE51F8CBC8027C13BE11B773C23C83CBD8532573C9FE5773BD45B13BC1A11963D5D05993C3B2905BD389E523BBD65D4BD2ACE3D3A13CDB33C98448A;
	15355 :	3CA22BF43C23F1EC39BE4A07BCABD26F3D2494EB3D0002823C96852E3D42F2C8BC31E101BC3B9FFDBD10E4563C8C5E13BBA5CC963BD996D33CE54970BD1EB33B;
	15354 :	3D65F83A3AC95CD93D09EF6AB9A9DB8D3CD7767CBC6DDAAC3CCEFDA23C329AF03C2AE905BCB8E10F3B214733BBC8C5ED3B679F91BCD07FB5BC778A693CEAD4D3;
	15353 :	BD1AD67EB963859C3CC67E783AAD2B7BBC2DE08ABCD68643BA791279BCDE7F5CBD79B69BBCE54F843CF0BB953A6842633D27E2B03A9300FCBC158A4DBC23CEB1;
	15352 :	BCDD098A3C24A2D53BBE08A03D334AF23BEBB5F0BCB0C6343C2F4A353C0967773CE3E7293CFFDE7C3D64572CBD71854C3A908681BC5BF4763CB5AA6A39AC8A8B;
	15351 :	BD466F3BBB9BDD603D0F619E3B1C0E79BB8E53E5BCB49A283BCFBB3EBB85D1C33D84AA483A8503063C3D8BAF3D96F0903D1277B3BC21280039A5F9673D14F7A8;
	15350 :	BA81C318BB8FAB5E3CF6AED13CD997AEBD5A732DBC2FA944BC81802E3D3181183C492F93BCDD86C6BBFAA376BB003D523C1751FC3CE47B98BAC9BEEC3B850AA9;
	15349 :	BBEAD679BAED52143C1D762D3CB2B3F73C9C41F3BA4DBECDBBB6E2A4BC5C4765BBAA60413D2C87863C8673BE3CDDAA393C6F3C2F3CB06E133C06651F3CD6100A;
	15348 :	BB5BD51A3BF4DFC13D1EDB7EBB6195CFBD1481ADBB10830F3C1578283C7DF0A03BAE408E3B46464E3C26183DBC2AA7FE3C8CC95B3D3D77973B01BAC93C3AA104;
	15347 :	3CCB3A0ABD0D9C3F3AC73FC3BC3BD4973CE0B9E6B986676D3C0C1C5D3C1464E93CB6C1CF3BAB579CBC440E5E3DA2B018BCF04A57BA8E6E033D1EE5D3BBF8F7FB;
	15346 :	BC5CC309BC6D7846BC778F613CF895B6BB5EBCEEBC9A92603B5EF8963CBA97A1BC7CC85EBD16E35C3C2407A93CBC69FF3C84DBDF3C6F7B633B79A8B83CF19620;
	15345 :	3AFA067BBC0CCCF7BC13FF113C78DB523C40D2343C00D8D8BC000D9D3A9778943CA824543A874B403CCCF65A3D01FC653CDF8B6A3C9EFC3A3B9D617EBCB033E5;
	15344 :	BC5A0AA5BBE46918BC1E08DABC8F36FF3CBD52553BA2AFB53C89277E3BD0A5313D321ED0BCFC2F09BC40CA54BD0118F7BB8977DBBAA5B47DBC75BBDABB5DB609;
	15343 :	BD0A4547BB4BB132BC33E23D3C4674A7BC848909BCA6CBC43C80A2A8BCD01CCCBCB227963C44EE993C101E383CA9870DBC1D11D33C7591F33BAA9D3EBCA99086;
	15342 :	BC87F8A4BC9781943BE6913D3C9894AEBC4E8D5ABB826CD1BC7579783BCD52DCBCE288373BCABD3FBCAF4EA73A6326BB3C37AF9EBC0118273C2CF838BB708ED4;
	15341 :	B7F16042BD56D2323C2AA5A33B9104D43AB2EFC2BB2B6D5F3CEED382BAC48BE03ADB05ADBB35EFEFBD5EF9233CDF54BB3D147D93BB2D3C1B3CBD4CFA3AA1E4F5;
	15340 :	3C6F0CB03BBD2B84BCCF5B7C3CBB19723AFD9CEDBC7818B63B6AFBC73B96D3CEBC8B4979BCDEB98ABB00556DBC4F74533D006C42BCD4CDFD3BF569CABB5D9563;
	15339 :	BC7EB226BB449992BC225C0ABCE79E713B4B9A873BB1781ABC456121BC9E47173CCE269D3C66C34C3C30243DBCBAFCA4BBAE9EB93CF26B6FBC6CE2873CD803DF;
	15338 :	3C0ED915BC8F499B3C86A335BAFD51973C1DE7903C2CC79E3CEFAEA83C6CC687BD1B7AEA3C835F58BC3C856D3BC5D4DF3C729D86BC0BEC9ABCE4DB633CA8857F;
	15337 :	BC8A14133D5582A7BC9F798BBC7A2D1A3CEAF4473C987B7CBD392B113C43A109BCE4790B3C21270ABB43F161BC8995DA3B3F8170BBF0F8E1BC9BA01C3B54C24D;
	15336 :	BB06B430BC43630C3D09FCF6BCC7BD153CE75372B9BA741639EBB3FF3C52BBA7BD0232A83CCCAD43BC238214BC59BF0EBCF44970BC5961E6BC7154343C712BD9;
	15335 :	BD366A9EBCD8E20A3CB0240A3C434C8EBB9E55053B9E23633C3BAFD43AD5D4DA3C631310BC3C9D9FBCD7EE513BF35985BB04B1ED3CE36513BC7601FB3D0C01F4;
	15334 :	BC4F22A6BB72152D3D00C8D0BCA69DA73BA9AA5CBC46BF263C629FC6BC94D0F73CBE34563B11DCBB3D0409703C4BAED13CC1587F3A8BDBDEBC62A8153CC25117;
	15333 :	3D0071283D17384C3D0C48C9BC935772BABF246EBC75F3AFBC863902BBE14BBB3C99496EBCF46E403C415D4EBB85CFDEBCBEAD0EBC83C6D03CBBFDC23BA51272;
	15332 :	BC0A098A3C87D8B1BD12080CBCD99171BC5C04A23C46C54EBCC83B033B3ED1F9BBFBE15CBC0A766EBC7C7644BC946598BC204116BA69283F3C608A1E3CD0D7B7;
	15331 :	BC2EDA1BBC7816323C9B80963C9F0DE1BCDF241ABCC384B5BD2216BF3CB311D1BCCAF5F5BD12751DBB3CB7DDBC8AE8833CB19650BB746E503CBE40433AE7D18A;
	15330 :	BC0907BCBCD9D26A3CBD3CDC3CE2E198BC1D18B1BCC4976F3B5350033C3ABDB13B8B090EBB32348DBC12B3993BBFAA78BB9193C2BD1026C33C2857713CD0FB7E;
	15329 :	3CB9552FBC805DD4BC845E91BCAAB82F3C83E7023C112DB8BCD307763C9670DEBC0C3BBF3C7B3BE23D2A8BDABCAB7373BC270E82BBC43197BA339420BA4574DD;
	15328 :	3B509D2F3CCE53A0BD4879F8BCA368563D22A7E93BD5915BBD11F517BC01F4BE3C5564E2BCB445C7BBF5998C3B6C6885BC7214B6BD0E3FE8BCF8F5683C663543;
	15327 :	BC936BF03CDC784EBBEE4C20BA8FD8A6BCF92EA5B94E67B3BCEC18773BB58A1D3D1F868AB944F0303C0561693DB641423C8E7E0F3AB02E7FBCDFD12F3C98ED00;
	15326 :	3CBCFFF33C05F91E3C0373803CB45792BD18F6983C7CFDB6BCB783033D286B29BC408620BC45E8EC3B988F683C90F0ABBD4B1F4E3BB94C86BC93B50DBDA23036;
	15325 :	3BACF1A83C5D79183C5ED9C3BD7B7EB73CBE4F52BB8B45CEBC592777BD1731EBBCEE5EF73BE9172D3B95E7273CFFB2443A6DB53DBC7301BF3C93FF9B3A5493A8;
	15324 :	B9B78A6EBB8F11EDBA6B553C3BE1D4B4BBCC860EBCCB4FB03C8D7ED03B3339563C3ADCAC3D3BBD743BF78EA3BB10453C3B063FEB3CC7FDCB3C9141EC3C5E5E97;
	15323 :	BD0864CB3CC5896FBC4C2258BD612E8E3C6D56683C0F1BF3BC0F81CABC7859003D4EC3D73AFCEB3B3C04D334BB94D5B13BF53C1FBB7D69713B7E4D01BB5A3E87;
	15322 :	BC30A9ABBDB9631F3D2C258C3C5ED9C7BC9D1286BCB7147F3BC114C1BCBCF5B33CDFC593BC3E7BEE3C4D8420BBFB4210BBE42B7BBC3D449F3CC1FBB13D376A85;
	15321 :	BC7946EFBBBBBFACBA912F3D3C985DB43D2D1B27BCC1E48A3DB9FFAF3D2C7A69BBD7BCCDBB41F03F3C65BA4DBB860AAD3CE18A433C04D0483CB2BB4C3C93BA7C;
	15320 :	BD5CFED23C09D18FBC5ECBC63BC34140BC246F983B2CD0AA3C96594A3D196CA23BA60F353D2EB70D3C4F5E4E3C114DCF3CC46528BD9104D93CEDE9D03C8837DE;
	15319 :	BCA8E2A6BCE8A65DBB9A76FFBC76129FBB74E6B6BCAF765BBBD83A5ABCB4483A3BDAEA5ABC509224BD06539D3D04BD66BC2111DF3CD3BB26BA960116BBCDAE19;
	15318 :	BD52EDB53BB1C472BD8C3782BC87A48C3D6C4BD6BD15ACAB3CB9BFE53C137E723C6DC91BBCB200E6BCE657F9BACD2DEE3D35A9CA3D0BA55DBC330BA8BCDAD97F;
	15317 :	BB5E7BF43C021FECBCEE519FBBA46DE93C5D9B9EBCA6293C3C402EACBBA53EAE3C0A4CF6BD07C014BD43202C3C6676E0BC9956AEBD288198BC4C8C2BBA3B338F;
	15316 :	BCFA97BA3CD72505BC8A94B4BC998E1FBB8BDAC83B929C033B2111753CD786CFBB83ED76BD879E76BC71BC6EBD1BF8FBBBFF91E33C892220BCF362CCBC2A0C73;
	15315 :	3C30DFE43B7FE62C3CB001D83AFFAEA9BB96E7973C9FC1FDBD2768F6BCC2F97EBC821CBF3C30E077BCA7718ABBB66DE33CE5F715BC53221B3D8294983C914F8F;
	15314 :	3D191FA43B38FE20BC90173EBC0CE8B4BCA8C7393B404B35BA3DDB963C2EE873BCB560D43C5AC4D2BBC6BA47BCE6F83C3D1F06E83C5549B13B50EB72BD2668D8;
	15313 :	BCA06D90BCDFEFC23D970DB3BC8178453AB50590BCFBCE53BD01ACB3BD6D12233C960166BC30670DBCA6AB163C70797C3D3178403C70C1E3B9B751383B2A6BC2;
	15312 :	3C8CF67FBDC147B3BCACBC67BD6D12703B1B95003D57DE75BCECFD6D3C264D5D3D38CA6C3C7CC1743CC71B233D0C797FBC5D2F023B0F5168BD5B5485BCD49B0C;
	15311 :	3BD7CDBBBD2343473D0C2DB53CAB47B73BDF376C3D2281483D491447BC615D993C517AA3BD878CB9BC92A426BC52C2403D28367E3C83F1513D101830BD82422D;
	15310 :	3D9038DFBB5679A3BA43BE2CBCE9E744BD919464BD21F83BBD5BB25EBC16194EBCA785113C746910BD12BAF23C11C9A3BC495C11BD2FBF073D149345BBD2BE4A;
	15309 :	BC159B723C621874BD6F6D403BBBDADFBC99F0923CCCB5FE3CB93EE83CFCD4A93D974EF93CFC93823A0CA96EBBD30B62BC22BDD03C0A5A863C15AE523A920991;
	15308 :	3CF781813D0730B4BB86E6D2BC35DF70BC3338133CB2A7E5BD1530813C862CFF3C2FF608BB9BD3D73C1AE210BC191D93BCA940D3BC860E26B8299F66BB32E7EF;
	15307 :	3CDC21C1BC20DD89BC1411F13B587D89BC746EB5BCF24D2D3CFD78143DD2C3A2BCD3998D3C856BB33C13B17BBBE43BCA3D20FC5CBC7DABB33CC33B67BD681C83;
	15306 :	BD1CA1FB3C562B003C80BD7ABD613B1C3C8637693A441819BCE91BA7BCE3F5533CF7D9F93C79600FBB01F33ABCD1B486BC5A16D5BCECFFA33B99099BBD1E3174;
	15305 :	BC1BAF0B3CC9244F3D562D0D3BE941083D0CB4803D13EA653CE6FF05BD04030ABCFBFB2A3D0D67C03D2AB990BC1114AE3D3589633CF6076CBD921AC93D270021;
	15304 :	3CC544D63D309876BC4A7C32BC9E929C3CE19115BC034793BD40F5B23D015784BC7F69DC3CA13488BC57968E3CC4D7FE3CDA5E41BCD2351FBD03F0EB3D12898F;
	15303 :	3CA6474A3AAC9A0EBC03FCEB3B540EA8BD184ED8BCF94E6EBCD8BAE83CC8ABD53D17DC14BCD9CDBCBBF1406F3B6E9DC73D0EB5783C1416593CCFF9383C7384E6;
	15302 :	BC6C28953B86951C3CBF5CC03C2E257E3D1028563DA848D73D011E2F3CBEF19EBB702CFEBC2A4F37BCA8FECC3CC8D7813C8A7BDABCCC5E5CBD82270FBBA3263E;
	15301 :	BCB07B44BC5F71393C252B7F3BF1895E3C764FE93C947BD3BC345D0A3C1F2535BAA33080BCF27E993CF19DFD3D307CEA3CDB560A3D180C7BBD22EDE1BB15EC1C;
	15300 :	BD0FEB85BC81FAB0BC9EB70DBC1F9FC63C3721143C870C013C5C11B33B0412033D031D2F3D83A0733CB2C47CBCE90AED3D1EBD54BCEF4A7D3C789867BC26BB49;
	15299 :	BC4A2EDF39B1AE1A3CD211553CDBE95ABD0FF6613CE87AAA3CE0D79BBCA886E9BB364A693C157CACBC68A92E3C787F0EBC2A1E853CF52BDCB9E2213BBD0E433C;
	15298 :	BBBD02B83C12399C3C17D579BCF16AC2BD5246A0BC35F8BFBD0C76603D1D678BBBCB6C91BC175E7B3D0CE4C83CD0AA06BBD158D43D2AFD0A3CA67809BC9815E4;
	15297 :	3D407649BCEB4655BC3C12CCBC1C9912BBF0E6BEBC43A4F93CFD59DF3D71499BBCF0089DBB3CFF973CFA1E473CF296B4BB5B2FA8BCAFC5173D546E5ABC87C2DE;
	15296 :	3C6EEAD1BCA92DF7BC347D85BB959C6A3B1D4E0FBC8B5C53BC94EC41BB43A1A2BCBECA71BC4BE5EABC3D65AFBD3E81843971075E3CD54D6BBC5CF2FABD01F8CA;
	15295 :	3BF24093BC9AF2EF3CDB5E5ABC563F75BC8865ACBB59F4943AFA1C3C3C98CDFBBBEEF6E33C1463E8BD32C2883C8AE3A53C95C0C3BD2E458D3CEA35A1BB3A0442;
	15294 :	3CF88FF8BD1BB18D3CEE805B3BB05B01BD01FF603C33A41A3CA75FC1BD175DB5BCBB6C62BBFAA1E53C906C6F3C4FD17B3D2842703C39B1FC3BE16C6D3AF81EC6;
	15293 :	3D3361AD3CF44132BBF24740BB1F0A763C086081BB9E54473D1E9D123C69F567BB37B77CBBFE014EBCAC69643D1BB321BA250DE73C5356203C74152CBC69DE88;
	15292 :	3BA4B7E1BCDFB8523D4297F9BC2EBB54BC93348A3AD18A523C4FC7D13CF390613CE994503CFECED13C6011D43C413EFB3CCCEEAABCE56BCD3CBCA48FBCACD12E;
	15291 :	3D0890A43CE704623C3704B1BCA3247A3AE50784BC314AB9BD314121BBA44668BB08D4713CAB14CEBCF2B8CEBC2D110CBC7506E1BCEBCFB4BC86E24A3C6C7910;
	15290 :	BC163961BCA3663ABB6159E0BCE6A324BCE30160BD150E2ABBEBFF38BA6984FFBBFA759C3BDB65823CE90A3FBCD7A7533C564E1CBD2BA19C3C0C6733BBB7FFBD;
	15289 :	3CB3DF24BC44AB543BFAF6BE3D573CC4BCBDD4593D35B7C93B9DA90ABD0DAE53B9E1090C3D4EA467BBAE9133B9AFC95B3CB2A85E3D02F0C73D4A1D483A9B8652;
	15288 :	BC732A7F3CB735F1BDBC0FAD3D4A6D07BAA6CE7CBBD829563C49093EBCAD63AEBCFDDBD6BBC14E7FBD0D853A3AC97949BCF5D2013CBA16FFBD78B48B3CB5FE57;
	15287 :	3D198CE93C8A039D3CA93A3CBC9E44B73D2AB709BB90A86E3CF24AD4BCD7117D3D552A743D303ABA3B7E76213B4EED8B3B8AF331BCEADD6F3C8320B53B358063;
	15286 :	BC049C573D280D5E3D771B88BD430DB03CAFEF223C7B06A9BC47732D3B8FDB333C22EBFABD2F13A93D43D39F39C4866BBCA4E1A23A03B64E3C4472CBBD33D6D7;
	15285 :	BD40DE203B35EA3DBCA8DC743CB3B9F73D192007BC34B44EBB5D339A3CFFCBA73C368CE0BB0C2265BC24DFA7BB624AE83C50BD3C3D1FF3C5BCCFBC87BCEB3307;
	15284 :	BD0A633EBD5E6D113CF3DBC3BBE593B43D402547BA6999F23C46698C3D1666DFBC0958CA3D165748BB40CFB53CE130B9BC5B649A3A967FB43B93056FBC0DF201;
	15283 :	BBEF0805BD900B91BC0E7AF5BD8F4E6FBC636F973D82DD36BC2DEEE63C95FCE9BC5AD43DBB71FD3A3C95F1FABCCFC721BD6595E43D2AAE963D10A5503C3F7AFC;
	15282 :	3BD2968A3D838AF03BC4D2F33AD71B1E3C8515E8BDA17469BB96B7E9BB66AB6ABCE4C26C3AC197103B8CF4103B05557F3D3BE2AC3C8186173D9CB201BD37D481;
	15281 :	3CC1440BBCE730E63AFE1FEF3CCA377A3BB8807F3CE32D4B3CBDA6E33D16AEFF3C1420A73CA030DDBD1E1892B9BCF8ABBA4C9338BBA15677BB3D8737BC803913;
	15280 :	BD4C05783CF9AEC0BD070CAC3CDD5A6BBB3770FC3C8E46B63D68A1E1BCCFC0D13C7EDCD53C2C84463CEFB9273CBEA8CA3D0B7694BCCF5EF7BB7BAAB63C4DE8E7;
	15279 :	BD34FB6C3D08C6CDBCE22DFB3C461E0EBC8213E6BBE7E488BC941A3B3C4A02A3BB4CA5B43D0A75D43CF2AA703C79238C3C8B77EB3D5FE50D3CD8A2FD3DD7EB9C;
	15278 :	BD36C6AF3C720D253D456FBD3CA1062BBC1E1373BC40C149BD459D5CBD4B6934BBCAE2E9BD27458C3CB101D3BD2A71F53CD0CFC63C22B022BD14496A3D10BAF6;
	15277 :	3D0FD7F3BCFC062A3D1178EDBD0D14683CDA5E263CA04FE43D333EB7BB0E3F76BD1511B8BB369D2C3DBDE63F3CD5DFE6BD89FD363C4A87B33D1999043CE60E6A;
	15276 :	BCB28310BA1E9D5FBC2A3FFA39B4C04CBCAE19543C7436E83C94F6783C58CA3DBC629A1A3CA22BC43C8616983CEC4B92BCA20E1CBBC97E503C3464073D166AE3;
	15275 :	3C63566B3C7144BC3BEC43553CDA3058BCD06069BC9B4955BD63938EBC6644E1BD2E54B6BCA79F593D08F5BB3A888346BBAD0A1CBB2CF8FDBC8789E73CC5FF42;
	15274 :	BCF5438F3D39B6DFBC1C30F83D4C353D3D112B2D3D9242ACBAB4A311BBDD7C09BCEA579D3C5A89123D1C71E8BB4B8469BD993834BBF7149B3D34624ABC916986;
	15273 :	BA8204303D1D27223D019B25BCB573C13B3D3EDA3D3D345FBCB606153B7A98CE3C11D7E93C85F7DC3D671920BB9156EA3C30F0A43CB500F0BB8C383B3CAD2640;
	15272 :	3D1C5DA03D1716BD3C0D821DBD1864473D716831BD717EA1BD2143BCBC3B9B06BC8E83BA3D4DE2A43BBAD404BCBF18973D9DFACEBD25B91A3C4F1FD9BD3A95E7;
	15271 :	BDDB37B2BC2F9ED9BC844DB7BD3AF10EBCFB72D73C5BFB8BBC653452BD690E41BC5EEF483B531A7DBBA560433C9A576E3BA4643C3BF41161BC8740DCBC4A0E17;
	15270 :	BD9BDDF53D9CB8173CB43573BD4CCDA8BC7852C53BF2D197BCC76F663C5D5FFF3B885EA23D0D1EC33D105B6F3B7869C33DC9C22ABC55CF563D019282BD3B2D79;
	15269 :	3C2465223D39141FBC31F9C93CA815033CABFB52BC07A15BBD6B6BB33D5172E53D878411BC9BB38FBD3E8D693C9A6AC93CC54533BCBFA1B8BB5AD2C2BC8D7A3A;
	15268 :	BD70E8983D0987413C15AF62BD197FD6BD6DD3783A9FC9523B81DCFDBC6159D1BA2B761FBC87D04DBD41AE473D4D2A1DBC15E85FBCCC2D2DBD86BB4E3D377695;
	15267 :	3CCEDE7FBD411585BA98F950B9A99EF6BD1D14D53CAB1CB2BC04AB69BD3B7389BD27D105BB5852B93D846E51BD1FF8193D6A05213D2057E83C45B444BD012B66;
	15266 :	BC2AB668BCD2CCBA3D170EDDBD0E274FBCEB4F463B4C25FB3D18C499BD8628F3BB63493BBB02E044BBF05F88BB682954BCE614193B8443903B8E42DABCD65FD9;
	15265 :	3CF2FE9CBAA1CDE0BC0A4CB73CFB29C83CA5D92ABD3B683A3CACBA913D0EEAF03CB3ED7D3C1CE46EBCC692283D3D30973ABDB6E9BCAB2D533C95EF943C9F17A4;
	15264 :	3B426281BAEEFFA93CB5CECCBBF16A30BCD26EE4BD28E9683CA6E793BD8A0EFCBC255B8BBD09FEAABC4DC4193C07825BBCBB66A5BC6AB29C3CC94F8B3CC21F9C;
	15263 :	3D6D46A53CBD0DE8BB4182563CB63E0A3C9CCB543D5FAFF3BCCE11253D0FF5E8BB0B7E853CA743983CCC2681BC2C0475BAF84F67BD0060C23D1306B13C35E2B6;
	15262 :	3CEA8E323D948F6A3BD60DC43D0EB3053D483BE43BF61C893D038AFEBCFAD9F63C755C763C5648D1BC49C8FABC1357AF3D4CB81CBCAA957DBCAFB185BD6F756E;
	15261 :	BCEF7393BD8785673AC212D23DA944163BC2C74F3CE43A2C3D57F01FBCFCB401BD3556DFBCCE5E283D33BBBBBD7C7289BC55F9D63B99E8D9BBA36291BD0386E2;
	15260 :	BC0689C4BD1EF455BCAE504BBAAFBB633BCB50C93CEB2C813D28BB9A3C5CF2E53C0583C7BC8426693D1373953C454F773C3CC7883D8982D03CA3ED58BC180AAD;
	15259 :	3C6372963C25BC173D8659213DBF157E3AE3FD60BD5D02B33D538493BC315C3D3C9D69C73C1436203A8A03B6BCA3C43F3C8CA2F9BD0889873D280B81BBA1DC6A;
	15258 :	BC5C3EF4BC8C54AABBD52945BCF47752BD19D3333C92373A3D01541E3CD45E8E3C30A7833D2DF9F6BC4196BABC8402F9BD390C5F3C3DB4AB3CDFA66DBCA85463;
	15257 :	BAE92041BCBF3D5E3B6393D13C87DB90BD5979E3BC3F794B3D4046733D5ACA09BCC1B3113C1BC99DBCA5D752BC02BF623D8642333C7067B03D1F82863C1B2C39;
	15256 :	BD1B8072BD282D0BBB2D54073B3DF539BAB3E6013C268D2FBD08BBFCB88A1233BBB58A2D3C84A3693ABCB926BC14E336BD07AEEC3C42EF01BCE663F6BD0656AD;
	15255 :	BD48D590BC2D1E7D3D9527673D5AE630BCD5DA9DBC6ADD21BC4A010ABBA1B9723D08D7AE3C2C68A3BD0349EDBBB9066EBBC35FA4BC10E366BD2A1917BCA45AC1;
	15254 :	BC1509913CACE1DC3CA7E850BD2CD16DBCF7E9D03D9B45553CD44117BCF2359B3D0538C63C6DAA30BC4723C9BD19A2573CE95C6DBB72DF27BCB01256BD228B34;
	15253 :	3D07D168BCA41F063C8FA641BD42DFE4BC2981023B9C29043CCAFB123D9547A73CDAA1223CB204473CC77F6BBDC0D5ED3B51B213BCACA99F3CF9996A3C1921FC;
	15252 :	3D01FCB5BB8DD905BBA8878CBCF90754BC86A5D2BC61E49CBCCCFF68BC236D9A3D5F3E9C3D1379223C6B934FBC3FCD1BBBA877F03CA35A4F3D41891CBC96DD4B;
	15251 :	3D1516B53D417C533CBD3E3B3D16D0FEBCAD176E3D00646D3BFB9B2A3D8EF319BD6796CDBAB2AF1CBCA13B21BC05BE0BBCD4A4983CA086253D3D2FB5BC58E084;
	15250 :	BB8CEC89BD33F6933C6A9087BCE450FDBD51D191BB9D457D3D16C87EBD5463503C8B1E1C3CA85A533D26BB323BB13CABBC99EA2F3D143DF33D87C8F53B785E67;
	15249 :	BB5133673CD15D6CBBFB3D02BCEF37D53A8DCA2B3ABAA91BBC6556123A66CA4FBD2D1C403BED2F6BBC623549BCAE037B3CEBD526BA99001F3C39B3A2BC529EEE;
	15248 :	BD16873EBAEB5012BC8B4C06BCD5E1093A58AD61BCC41C1BBD08CAA0BC618173BC5D1CDD384F6CDA3D6BC4C43BEBCDCFBD1F3AF33B8262CABC305459BCEB7B2D;
	15247 :	3B304ED93B24338D3D01E44EBB2B6BD8BD2C676FBD29D3363D05F549BD610DF6BD3E91D0BA8F8CA8BD857C42BBF5450EBCC3D8D63981E08ABC9D8922BA9F19C1;
	15246 :	3CF0A6A13C2279F0BC88C38D3CA6BE0F3D2D9AC3BC27717ABCFA82EFBD49CFC7BC8F7BD73C932CEDBC5CFA26BA6590323C835D153D0895253C575D1D3CED7D08;
	15245 :	3B7CECEB3C319F56394AFA323C2C1A2CBCBB7AB13B28A56BBC91E6B6BCB1FE293C43B7AEBD2F54C3BC373A2F3D41438B3C3A821C3CC5898B3C4CE586BC80CC07;
	15244 :	BCD47D4D3C9E11B93CEFB57C3C158B15BD5BEE64BCFCE4FFBCCA07A3BD0E52AA3C9FD9663CD120A2BD835803BCE0F4793D9685D23D125A44BBC9EF00BCD349AA;
	15243 :	3C5004C6B9CFAA623C841445BD0E7DAB3C452191BD5CE1A03CE15844BC8992393C8B4D5F3B6F32EBBD4314823D12F313BC769A6C3D35B9BE3BFC07A3BD2C1C93;
	15242 :	BCF2EF5FBD055E1C3CC66594BC5DE07E3CC50A503D84FBE3BCFD8B71BC3365723BD349C6BC4183873CCEEA253C9101233C3C40DC3BE5A6D1BB437223BC4C25AF;
	15241 :	3BA78E02BD1576473D072D033C023183BD56A24D3D8DE1983B8FEF81BC6D4E803C072122BD19A1363C9088B7BD1362FE3D09565DBB3B14993D0609A3BC8CB5C6;
	15240 :	3CEBDE67BD2A13D9BC8630FBBD98DF003B26B4533D31FCA0BCB6C412BC7A8796BC8991CE3C3585F6B9993C7338DF8D823CE09F063A6263183BEB53063A5C4112;
	15239 :	3CA56CDEBBCB012A3C5E18E2BBFCBFD73B0FBAEE3C885442BCC46CACBC54037B3B30ECD8BC13033A3BAF2A053BE7ED99BB27857EBC158353BB122B913CCF8D78;
	15238 :	BC3B3AF8BC76E9ED3CDBC5F5BCD2488BBC79ED30BBCF0FF93B2FBA143AB3E82B3CE23E503B9B1DE23D0E72983CB80F433AFEEC453967921FBA454A8DBD4351D8;
	15237 :	BC9455883C963B733CF48AC9BCAE6FE03B3D90F0BAD730F13CF2761F3C79F139BB7F205BBC6DF34EBAE9A3773B7F877FBC6006D6BC6BC9C43CBE6ECCBBBBDE09;
	15236 :	3BF874BFBC5C1328BC1597DB3BE632993BFF11C2BC464EF2BC6F80C33B8AE9E5BD26F0F63D023C91BC94E667BC1BFF823CB8AD723C936650BC0977E03CC36447;
	15235 :	3B50C0C63C02FF123C1AA1CE3D13C5633C6775123B2DE3593B5B4DEABC2103593C73C9A63CD711D13C83483F3B22B3903CBD6F853B3A95663C2C107D3C2D29E1;
	15234 :	3B80C4F53BC54957BA4F1F3EBC8685A6BCD86D6ABCCF9F2E3C6275BABC2EDE7F3BFF2F5ABB5ECD3FBCA0491FBC57C27CBBD51C223D192F4FBBB2566DBCA3AEA1;
	15233 :	BB67322C3D244EC8BC0DDF13BBB29DF13C5068A63C5F24B63C0934A4BC56221CBD151E863B9C40C63B47469EBC124653BCBDEC2EBC8EC932BC0BBB4ABA6A793B;
	15232 :	3C81D49FBD0F89E53C0438793C283C6FBCC2DEA63CF4780EBC998D60BB25BADA3C9F6976BBD94B5EBC422EBABC9373353BE2E3703C12796A3B48BF123D1AF35F;
	15231 :	BC80A5FB3D03A3AB3BDE6183BB33A78BBC77CDFD3CAE28D7BCF12F1D3CA062A93CBB4DFF3C96BC3BBCA45D92BCB120F1BB4D032EBA8661F23C9B6297BC79275F;
	15230 :	BA9AF4033BF7AE843C6DA5D0BD2496A8BCC7A67FBC772E493C986E5F3CD5305B3C0C5C35BCAB404ABBC7F034BC47A803BBD52A1DBCE602003ABF2FBB3C3F83E9;
	15229 :	3BA40356BC7A4D3C3D11DF66BBB406993D33606E3C20D75ABD6B47AE3B2531163D22345C3C2C9452BC99E939BCC7E652BD600E9F3D2622C1BD3F10043C46D98F;
	15228 :	3CE8E230BD26F4143C709623BC5D2F333D7FD82E3B90BE763D464C7E3CB9EEB53C1782543CD5D9883B4D35553A55976A3CD5EE8C3CC65BA4BD0408E0BD4E3DE4;
	15227 :	BA1FA960BBB99CE8BCEAD991BD7AAA4A3BA04403BD1D22BE3B509A3A3D356CCDBAC861A93D09F56DBD8A110C3D2A46543CFEDFE4BC108B913CE1A9D6BA4D4C8E;
	15226 :	BD369829BBFBBF783D08F404BC6A1790BD06E9DCBB8BC0E23D0BD42E3D3065473CF21281BD303561BC52ACDCBD869931BCA50633BCFCF411BC3CD8A53DA6C6C8;
	15225 :	3B9D9B85BCE1F0993CD558C0BD241D27BD3ABB223CD4BEE0BCF3A3C1BC6D42473B1469B8BCC500873D49A24C3D00AEAF3C5DD7753C43F0693D7BEE58BB1D27B2;
	15224 :	3AA1A0D1BCEC78AB3C7E252EBD26D34ABD475B773C1A467DBD58606C3C81DA403D202A60BAB161E23C045080BC786D2EBD026DF73B6C740D3C8C514ABC87FCD2;
	15223 :	3ACCD5983D1AAC99BC665A02BCA332FF3BD09D7BBC7966713CC12994BC0285FE3C6DF8CD3D8272BCBD4FE9E63D6577D53BBBB49D3D0266DB3D48EAB3393D036B;
	15222 :	3D844D0ABC647A2D3CCD4CF5BCE0FB61BBC3EDB6BD2F5C703C34171CBB8748833D2D4DC53CF1840C3C999D01BB042A4A3CCE769EBCC8D9E93C49B0FEBCE37768;
	15221 :	BD917F38BD4571353B9EADFFBCB8D119BC076526BBB4DEE9BB8664DF3B720D82BD044B3FBC430C5D3D0F458B3D781129BBC152A9BBA21CF63D0EF6D9BC9DCE91;
	15220 :	3D505CC03CE1E2E2BC9B0DAE3BEF4A82BCE178B9BDA4E890BD09ABF83D0D41E4BC818B7D3CB6E81DBC3800C2BB09CA47BC9DA0D43D90E0F53C64EFCE3D64B249;
	15219 :	BCAADA0A3CE6A9D53D8296BDBC681396BCD08116BD54534FBCF17CDC3C8687D33CDE3CFC3C00D125BCEE1104BBEBD4FDBCFD7034BC64B5F13D3BD4B33D12177E;
	15218 :	BD64E742BD495D083D20B13FBBE4081B3DA80A983B16CA5E3DA16BBC3D87E23B3B572722BB9A10F23D06C3BC3DAC71D9BDA413833D176BB13CA311713C09F1ED;
	15217 :	BB12F9B23C75FC533D0874D93D8DA0F33BB68E263C005022BD0C5C3ABCFE34C2BCB177DDBD0E2FF63D164DD2BD4133703C759DD5BCCA2FA83CB40275BC04BAAD;
	15216 :	BA2537FCBD05A835BC55E1B33C6CD8153C2C045BBC88D6D73B06B4FABCF9071C3CADF7223D0DFF813C4868EABC276F3B3CEC136CBC6334B7BD8F294EBC25F36C;
	15215 :	3D6D1B0F3B9CE833BBF5CC613BEC58BABD82DF333DBC72993C4135483D28BC8BBC9DF1733D47DFA1BC412FB6BB02510B3CF4755EBC777947BAD0E7A63C143ACE;
	15214 :	BB414D103DB2AEDDBC1CE8BCBD846BB4BACC9B943D46DABABC6AD9DCBC7429793D04AFB6BCF5F1DABC9493163B8F1C5D3D62DA933C1F30EFBCD293853D580352;
	15213 :	BC23DD483BEDDB703CCFAEAC3C53D82B3CE921133D8ACFF43D150C073D14EE1BBC34E4903D3BE51FBD69FEB1BC4907263DC2F0673AF0A65FBC395E56BBAE829C;
	15212 :	3D15727ABD80205ABD517A503C6386503CCC912DBC937A973CD2BE833CFA07D8BD36D960BD531BE83CDD72CB3CD18E61BB1355503C12BEE7BD32B3C3BD20BF2D;
	15211 :	3C26198F3CB0CE2CBD81F6213D834634BDA6D2053BDF4377BD7151E8BC7A435ABC416CA6BC6BBCA93D1E4909BD4B9982BD4A0493BC358F7ABD1BA2DD3CB37CDE;
	15210 :	3C46B28B3D17742C3B2A49ABBC6C76FC3C78EB103C2C1BF0BC1E2CD4BC88F3B9BC9CC9B6BC561BF0BC6400F33CDF26963D3218573D8FDBDFBC9D6B14BD4D30A0;
	15209 :	BC5A35F83D03F1B2BC21A7E23CEF4F8ABCBF53273C732057BCA370E7BD13E8453C5E7A86BD4CC98BBC77CF9ABCCB211ABCA854703D3123A83D32505A3CA154CD;
	15208 :	BD1CADA83C927030BD78E92EBD0AFFC9BD1BEACCBBDBFF5FBBA462E63B7320263CA3E2473BFE75FCBB908A9CBD7339E53C5EBAF73CC39DF03BF061D13D1D97F9;
	15207 :	BB1803C6BC8350ABBB9D9189BBAE8160BCD321313C810D133BE8F666BB14B8BB3C71206F3D2D9798BCE8B7EABD26ABBDBD40FC723BB11770BB13535FBAE3DD9F;
	15206 :	BB81F42CBD2ADE11BD044B0A3C9C3F82BD13DC89BAA11C8C3CE454A43CD7E1623D54F71F3D9F4B87BC2064BCBCCB92E13C14D606BD3D7B8A3CCC19703D620097;
	15205 :	399187003CE7917DBCD31D50BCACDCDCBCED218C3CD6B99D3D036D9EBA98C04A3CED3D993CDC90283D21B9DEBD08A24BBD3402523C378C50BCB500CF3CBEA9E8;
	15204 :	3D4F9554BC1B06E13C7189DEBD5A71B13CA0E342BC84F0DD3BFAE2EE3D19307F3D4BAE713BB363E13BDFC0833D220484BCA7488A3C085A3ABC1370353CE4BF6C;
	15203 :	BC98234C3C3A1163BD0915793CDBA961BC8019DD3D730CD2BD9C583E3C1A49E93D0976803D4C65B83BCB5A1CBC8B055EBCFC36F93B1EE8E13C7C169FBD180FCC;
	15202 :	BC6281AF3B478F7F3CFDE9F33BEDE0713CD263773C7845693C57509F3CA0366B3D021845BC3BB6803CF2F1CC3CA9E46D3D10DC6CBCBD11273D27C772BC29C91A;
	15201 :	3C6521C7BD15CB133C87B984BC6E00AA3CE287653CDF058C3AC97FA1BB2EBA973BB60E1E3C02CA52BC83A802BD04123F3D32FA133C15F80DBCA6F98D3C2F81BC;
	15200 :	BD74D0ADBCEC94B03CB87DEE3D8027D2BC7867033C0B6E3D393C12D8BA8ED3F4BBC99C4DBC3D953BBC87635F3AB95F023C0E68053C5586093C9A465E3AD3AFB5;
	15199 :	3C4CC7AD3CCAC3723B702C20BCE3CC0BBCC28DADBAF333DBBC5996A1BC36B894BC8026943A6C197ABC98A319BB2AC490BC65ED48BBBC306EBC9836C93CAB4223;
	15198 :	3B153DFABC0FA0FF3D11EB49BBB96D993BE0935DBC76D783BC2708043C91ED4F3C4E98CA3BAD9F0DBC6725D9BC9A6DE4BC4EB2623CCFF3413C23FE68B94177D7;
	15197 :	BB16CA433C998B613B521FDF3C0D5722BB22C8D03BCFDCE3BC5102FBBD0B4CD1BCFAB1D1BA41EBD13D0102A6BD3BDBC0BC313C5C3B903F9F3CCF7407BC29E457;
	15196 :	3C1346A9BC55C9E03D02DB7B3C80F0803C22E6AB3CAFA22B3CA67ABEBC73D1A83BF146173CC1F1733BE7C5C3BC480772BB964D4ABC002C0E3B9ED3263C79E48F;
	15195 :	3C5B9B363BEFB8E8BA79E9F23C8A0805BC78E1113C0B74EF3C9BEC2EBB8A0B093B220FD3BCB8A74A3D3352143C4C8142BC4FA6F43B8BE3E1BC08F19BBCBF5183;
	15194 :	BC1FCA2FBB629165BAD0A7F7BBDC44DB3CE61D30BC3D8D1B3CBB537ABCF79F803BCF6E4A3BF64F7CBA08AB84BB914B03BBC74D183C7283E73CA6DA90BC3A50C1;
	15193 :	BCF249133C8D8526BB8C9E06BC8054543B79521B3B206FA53C50A5F63BDE78A7BD0837B6BC211A66BC189F70BC9E98963CB4394FBA85E4C63B9123DD3BEE85C7;
	15192 :	BB1E322CBD2F518CBC292631BB4055B63C07B889BD70FE0B3CF17B323B9164A43BA67E013C188CEE3AC85F563C4EC16439A28AB43B527DE13C8801923B987FD7;
	15191 :	BC133D31BD2FD183BBF3B8483BE6E7C9BC57507CBC39EC6DBCAA5E7DBCA7DA5EBC3A9A5E3C4AF789394C6472BC8ACE46BB88CEB0BBEB3417BADEBB443B7A7373;
	15190 :	BB8EF8673C34B6ED399B2E38BB8C352C3B49C6B8B9BDE9443B94A0303AC17928BD1A81BB3C99F2E1BCAD075ABAF070BB3C3126C8BC8BA58DBBA842593BE3C47E;
	15189 :	BCFB66953AB9686B3CC96450BD1C03DA3D30586ABD5C54E63C4CC29BBD1E0664BCC8DD193B593D533C496F1D3AE27557BCCDEF80BD3417B83ABC4750BCAFE962;
	15188 :	3C81C2BA3C97790BBC9072EC3D14996FBCFCEADC3C75CA093D4361D4BD02C815BC2E561F3B86BA8DBCB7D353BB98143E3D266FF1BB914FB93BAA6D9C3C9E4C81;
	15187 :	BD2143373C33FBF8BB17EF593BAA0CD03D51F0DA3B034B6B3D01FFAD3C418772BC4FBB0D3BA6F3C6BC9CDB783CF5B49EBD029414BC468281BBBDFE513C3D584F;
	15186 :	BB544537BC5DF595BB86A0A7BC8CD46DBC60938F3C69A39D3CF00B043D1ECBBFBD0458D03C6024F63C345247BC72586A3CB46B693CC8FFB53CB72613BD0FBCCA;
	15185 :	3D0E823D3C01F0B13C990C013C527F843CAF2C973D7DA9FA3C76C5483B73B0703B578DA13C08E068BC0C0E833BD0D4F7BCDAF3CBBD56A6B6BA94F6D7BAB72E84;
	15184 :	3CA516C9BC1203F2BCC4B2E63B4A55C53D18BAF1BBFCA6A3BC83FE643C6027823D2AA3853BD79EC03C4A8364BCBA63273C9F16EBBD06E9B5BD346D0B3CB7858F;
	15183 :	BC6772383CF429433C1D2124BBA618B4BB2B77C53C814260BC1267B03B712AB13CEB4F793B2B5F26BB7AC43ABCC51F983D210519BC7150EF3C49523C3D181099;
	15182 :	3C34A3563D7584663C3559C43BA01C413CAAEDA13C66A43E3B9257813CA1725E3BD153333D192486BC5CCAD93A230598BC8CEFC6BD89E8143BA282323D0E632F;
	15181 :	BC3D00AC3BB33519BC3CB60EBCE2B7D83C1B886CBB5E65753C27699E3D29187A3CA309C5BCBCEE593C9631BDBCA189013C856952BC123168BD691D563D2CAB04;
	15180 :	BB98B9E33CC397E53CC06157BCD82F323D223F6E3B0BE1A5BB687B3B3CB4543D3C5B2FD7BC6EE775BCE4C5A63D2AEFC73A85AFFF3D4CFBB73CCD9C193D078666;
	15179 :	3C901FAC393536B0BD0D25CB3D12EBA1BC37FAD9BC8ABA1EB9B62CA7BD224122BCD476CD3D344323BBF5B4CABCEEBE683BD3132CBC8DD44C3CC73176BD202667;
	15178 :	3CA9A8903C53DFE3BD145E93BB9DB979BC722BE5BD31601D3B99039D3D5B83CCBD426B943C25620C3D843837BD04ACF0BD5086CEBD75AAA93C98F90ABD5DA36A;
	15177 :	BBFBCC5DBB876648BCF704F33D36529DBCAC5CC53D3C0B183C6678643D0F513C3B400FD0BCC1FE253CE437F5BD883C53BCCE65B7BCB2B029BD31487C3D5334E7;
	15176 :	BC3003F3BD0D483B3D2BB9AEBC4F1F03BD1278893C9B64A6BCC44FDEBA9403FB3C81A08D3D71DC803D166F7ABC2ED82A3D13DD0E3BA985CCBD330A97BD51C7E5;
	15175 :	3CEE3919BC226077BC0767AE3D1EC649BC983B8DBDC633733CC06B0D3DC432A4BCFC00E33D19DE1A3C130CCFBB0386303B7C261A3B49698ABC36EC76BB5C2AF0;
	15174 :	BC041CA6BCF38CF73C4ED1943C9A3B80BBA31A883CEB66133CCAE6833B55DDCDBD7B3A263D4D9366BD84E2ED3B092EE9BD8B83553CA31CE23A58F423BC8EB6B5;
	15173 :	3CD537523CD739AB3D123AB5BC891BFEBB55BFC63CA5A3793D049E87BBA066403D1523AC3D21258D3C8EEF2A3CD4A5073CAE67113D2883ADBC46EBF5BAD8EC1E;
	15172 :	3BC1BD5D3CA1B826B93553B1BD5518FE3CC4D355BC94F7A7BB7622423C8FD52DBCB541D73CA4FBCCBA69DC653CBAAE1B3C7E74F8BD04E0A7BD450270BC9C481B;
	15171 :	BCEA2026BCB8F6B2BB3F91333BF2606BBD80435D3D8F95943D6B61D7BC1B626EBBFBD994BD3300A9BB30A62EBCE8B33BBD1EE48EBCB0A091BCEAA8DD3CB2A065;
	15170 :	BC93FD043CE10F33BC6D73F33CE7F889BC85BAA53CCBB6263D0D6C4B3D1382473C0C6E893D251B7CBD332D473C40FF81BD1A0CF33CEDA4943C694E6DBC963F85;
	15169 :	BCDBD84DBBCC1F5BBCACAF253B3F18383CCD36B13C45379139DAEB06BBC2B7D7BC3E0E52BAC296B5BBFCBF003C5299C0BC196E133C3FB18DBBEB426F3D26B2C9;
	15168 :	BBA0DECD3D0D853D3C79684F3BB2A2BC3BDA18A3BB16C1413BDAADB13C833C03BB8CDDACBC0D37CD3C9D259FBB6F8742BB856BB9BC8566183C3D9353BCFA7E90;
	15167 :	BB9C10F0BADA41763CBA44FBBBB04804BBE19C46BC6EAD8F3B8248013AFC1AD23BAE0AE83C4569603C0A0F863C6BC269BCD729753CBBA8B5BB2B8C5B3B2174AA;
	15166 :	3B492FAEBC7F5CACBCD8AEDFBC977D9D3B9F0915BD396DB73C3F602739BDE8693C5D53CEBCE83474BB76A3663C040C08BBCD855BBB8432023BA577E0BB812217;
	15165 :	BC62C0773BC2048C3C439D173C51F96CBA0F48F8BBE8A74B3A7A1B46BBD3D607BC35D62F3BED8165BC8090763B7197CE3C9A74FCBBD4DED03C06260CBA91D3EC;
	15164 :	3B03B7E6BD10213D3BE4D76BBBCA20ABBCC3D6B53931F8493C141558BB3CE9AD3BA92DF43B80B613BCC4801E3C228D2138D9B6483C48C6C6BBEB8877BC8556CC;
	15163 :	3D1C6B79BC08A4FF3B28CEFBBC3E43083BA060C8BC7742CEBCDD6245BCB96DCE3BE55442BCDADBA2B95AF447BCBA5466BCAF3F70BBC4FA823C74AB163BC73F09;
	15162 :	BC021409BC94AD6EBAB349703B9CA7AEBAD1CC353C2657B5BB34041D3CAAE6E0BB56FFEEBAA41D053C45F428BCCE69C1BC40E37F3C34827B3CC680F83C27B135;
	15161 :	3D0B46F63C614BF7BC80B7123B4318E7BB44C656BC73F34EBC1ECE51BD329BD53BBAF749BB7AB0F7BC49A074BCA1F6753C5998933CA3DB9EBC0A7094BC045280;
	15160 :	BA3C4F08BCB7D51ABAE9A0363C21BE643CCD7F07BBAF28B23BF71E76BC180CA33A701CD3BC56FF7FBB900DB63BA0E953BCAC888BBCA121F6BCA351E53CED414E;
	15159 :	3BD15AC638FC4132BD3A5EE33C496D2D3AB145BB3C3D60933C0503E03CBF5543BC8F957DBD44BCF0BBFAF3C73CA25AB1393F382FBAB9B5E5BBFA6AA33C99DC2B;
	15158 :	BC42B3253CEF2197BC072C91BC469C2B3CC55C28BC1286B4BCB83A403C284AC13BDF8C5D3CC7B2373D7EB7ECBCF1FF033C7191CB3BFDA3903BC674FCBC97EEB9;
	15157 :	3BDB96B6BBB3BA3E3C2070813CDB26FBBCC2DC27BBCF48D63C5DD36D3C85847F3D81A373BA894CF93CE9F2823D7B20DB3BD07D59BBC4EC503CDEDA743BF32BED;
	15156 :	BAB46B5BBC00021BBA91C3363C86B0D13BFD9B4B3AA358023A998D0DBC83C01ABBD634C4BD5304B73C920635BC580779BC4294BFBA04DB213C998BF83DAF57B7;
	15155 :	3C1478193C670A32BBB30BD93C905236BC9C3F983CA049B3BC273D48BCC4F611BCAA32FE3C4681273C0DA9643C7926A83C5504173AB2B6CF3B606462BB7A6E3D;
	15154 :	BC66C1463B5D193FBC7BA2733C6CD79DBBD573AE3C475A053CE60D233A9929E93CF66113BD16AAAC3C824F0A3C9C40E13C3D310ABC9DB21B3C919E913C8AB94C;
	15153 :	3CE6820C3C24A8EA3C1B2FD8BC6673D53B782AE4BCFD4BE4BC9F45C0BC3D01DD3C24358F3C87AFABBC92B923BCA3EB163C8142F8BC903025BB0ECB1D3D0A3CB4;
	15152 :	BC941E733C53306ABD107E44B9DAD40C3BC8F901BCE436EDBCAF6232BC5B8D1E3C7468BABD59B6353CF824F63A6E8CE9BB456324BC7F0388BC3CC797BC9CE2D7;
	15151 :	BC3162DCBC08C4B03BCF80A1BC0887F2BC0638BE3C9A37693CD36F30BCF913B33CAC9BD63C3CBB93BC5B64053C636B41BC14EB423CD83B6F3CA39181BC1C7BF1;
	15150 :	BD4C07C83CCC9A23BBD5B68FBC077814BBCF690D3C63442BBBAE2D43BAAEC3173BFB32F1BCA57FB5BCE0F2CE3BD9FF11BCE97571BCA1ADC03CB527BCBCBC0FE0;
	15149 :	BD88087EBCBD0B9F3C9571E03C5E7EB0BD26A7ED3BCF60EB3B115AE13C588BD9BCB8AAA63BFB8A2F3C42D1F63CABA2FDBD2E4777BD0F62E5BCC2DDBE3B1EE5A7;
	15148 :	BC1824E0BD1A803D3D176FD3BA9AD6ECBC3FE5D03C201C0FBAAB3EF93C7693213D42ECAEBD4C923F3CAEA09DBD2ECB43BC0CE9813D092531BCFBC5E13C82C196;
	15147 :	3D86FCCB3C82C106BC32C1DEBAA261933D38E778B8C8D0B4BC5CF1503D118E98BD422CE6BD665348BBA48A96BCAFF639BD13B2E83C82DF3A3D279FE6BC91310A;
	15146 :	3D2AD935BCCEA1F6BB2F2FDE3BA62C793C387F8EBC8EE9303CA934693C9561A73D2D8CF13CCC9EDDBD138132BADDB540BCD4930CBD35BFEDBCB4E1E53CE2280B;
	15145 :	BD4608373C90515C3C5F189FBC7922153D425F473B5BB64DBCE6B1403CD816493CE41F933C2C2388BCB656E43CC91E183A1FFA1C3C4EE37A3D183721BBD21378;
	15144 :	3C1C043D3CF6E4D8BCA66212B97C7975BD20CDD33D2A08C3BC90D0F7BCE4F17D3D0B5F743D2F17C63D31B82A3C15AA603D8031C3BBDFE8BCBBA52FF13BB6FC4C;
	15143 :	BD56BCC4B9397115BD5933933D33ECA0BD5F4CDA3D3F67B73AD4C4C83C8C335CBD097257BD1B3BFEBBA2C26DBBF070E33CDA4A463C94A73DBD073D5B3C359808;
	15142 :	BD580F4F3D0AC963BC517480BC93129A3BC0F6533CA3334C3B99836CBCF3B9D53C84A58CBB8803B1BD22165B3C1D17563C295B9CBD0169F1BC8B74F13CD2F76E;
	15141 :	3D9CCD46BDBEA4E63C3896C93CA93780BCA714D33CAA44FCBCA487DE3D909E3FBC2F96013BE312ECBD4427E5BD3ABF3E3C44EAE9BCD2FDBDBD27E634BCCA17D5;
	15140 :	BD408BCA3C4010F9BCEED1FDBBF2D0C23C1AC0C73B70785BBD8D4B57BD61193B3BB75C87BD6A2417BD1864F83D43191C3C47741ABD242B773DF8E0B53D400578;
	15139 :	3C350E473C078DCDBD8D2C54BCCB1C4EBD13926B3C8E454A3C0D38753B0F7BE3BC20C867BC9801F13A06AFD9BB8BBFF7BD5A46F43D383B583C9E5769BC273D5E;
	15138 :	BCC1A8133D0C4147BC348BFFBD02DA3FBD3B0EABBC33E34A3C3E24A4BCE6A06DBD1EB86B3D6244C2BA49B8ACBC1CD4BA3D0D8E47BC8BFADE3BF369AEBC8BEBB0;
	15137 :	BD6B6FF1BCB97A1F3D2C51563D685AFEBA43E9713C49FBACBC4AB3BABCE36CA23D52D9863C236A553C92A1E6BDE16BEA3D2FE825BCA3E93ABC9D6380BB978559;
	15136 :	BD29DD7F3D07E0A83CB0A936BC22431FBCD4F31BBA8B893CBD0EC681BD89D8C13C3533C33D88E4713CA67B2FBD2BB1843C71CE1FBD033A343CB0671BBBE1AAB1;
	15135 :	BCE0B8B2BCB66E54BA9F8B54BD1612FDBA8791493C5E76833B291A613CD48A703D28CE763D752DB6BB2C1E313CEEB8ED3CC600D43CA56BAF3AA06AC1BD0EF27D;
	15134 :	BC9FD289BD2AF9313C0C36D93C3C980E3C79E3DF3D5E414F3C387B8CBB4F9C57BBFF3954BCA96D6D3CABF7D03CEB02FBBB30FEA33C0BC3A7BB5BE216BCBCA18E;
	15133 :	BD24C9DFBC69FB1B3C7FE617BD1DA740BCDB93DABD0BD9D0BA05990ABD3015B6BAFA1D773D9F1D583A77A812BDA82073BC9FB6F8BCB57589BC5602083BA09470;
	15132 :	BCF5422BBD7CDF9F3D669A4F3D3ABAFEBC4CB154BC50F11039A60DB93D170809BCC52350BC0AC2CABD0923113C1EFA3F3C686402BC48DEFD3C2EE213BCCEC948;
	15131 :	BD5A92263D4232B039DAFBA9BD865339BC88BD293D5109E9BD8A6C50BD2E7A1DBD89DF0F3B3FC33C3D26A16EBCAB3A843D48426E3CD4EB1E3D02A6033D070080;
	15130 :	BC4023AEBB66694CBB7ABE45BD45B0423BF6F3F4BD0F6C0EBD99F87F3C36A4563D06EA8CBD884C893D1057453C2639E43D0BEC13BC3C5A79BD27BD8C3CBA0139;
	15129 :	BC12FF99BC3B5BC3B949B274BCA6C54F3C5D59483B4DCB163BDCD4FE3A1990983C3DDA16BAB65E9D3C43A4F7BD17200DBC187C433C7B6111B9B444EABBB72504;
	15128 :	BBDB5B7EBC4BBFE23C93187F3C4A2BF3BCBE7B95BD1476C7BD1D443D3C9B2FE73ADE70313C15548FBCF82E44BB867115BC9553E43CD696223C9505C13C0C44CF;
	15127 :	BCF1A6A4BC848230BBC47ABBBCE9E68EBA8DAA96BC0D0A683ACC5294B9A9CC07BC9197A8BC776A343B9B15BEBBDCCDF6BCBDEED3388229D73B924ABFBB10EC68;
	15126 :	3C373D4CBB3CD2A43A044A103B35B9C83CDC7F193C4B50C6BC5B5445BC01904B3AAE16FBBCC77D9F3BAAFE293B8B96CBBD00331F3BBDD2BFBC8B93E93CBF4B2C;
	15125 :	BC25083F3BDB2BEEBD071F38BD295C883B9B1C383C2FF1BDBB92D35F3D0F24F2BC98C5363BA72CE13C91323ABC7276883C8E1AF8BC304D873C0478CF3B45B618;
	15124 :	3C5DE6E63AD3D2CDBCCEEC113CA3B003BD0D46343B02B256BC96C6DDBC00D3283B389BA6BCACC7CE3B3DE7733CEDCC60BC31F72C3CB12FE33B538D3DBD140CD4;
	15123 :	3D09AD49BBA6AF173BF136E2BCD08D66BC931A68BC9F6AB53C8B673A3B6AAEE1BB78F07B3C2B7F7ABC8513903A1316E3BC940D6D3B9ED3D0BD054B063C76CC3C;
	15122 :	3A2F9CCFBBABCB403C2B8482BAF75D28BC2E5BE33B1B06CB3C0B64183CED776F3CD86B02BD396E57BC0C41413D049AE03D1B1C3E3AA1579F3C9261CE3C016E5B;
	15121 :	3CF1E01CBD021ADBBB93D61DBCC614D33B06B6A83B83E06D3D2A991FBB9246013C1535CFBD3515AEBCCAEE4CBCB5176C3C8656E53B0EAF9ABCF1C34EBAEFD2D8;
	15120 :	3D6A533D3C84C8A9BC3DE0B33CAE6C543C96310F3C05F340BBB35F68BCB35B123C91C1963BDE714ABC7BAB5B3C96C9103D3E99863D1CE6EDBCC03D863CA1DD1C;
	15119 :	BCBBA7DCBD1518F8BD058432BB75645BBC389825BA9555ACBB8303C5BBC8CFC43C0A75A13BDE9DFA3C8374393CBA637D3BE587F0BD25AA71BB84F6713C91CA3F;
	15118 :	BCE47141BD1C6F733B8D16DF3D0542983CE5E43BBBE02C08BD0D40FA3BCB05953AE985053CDBB258BD02814B3CF35F23BCBED496BC87C0A23D8746BABC192A0D;
	15117 :	3D03B0F4BC5827DCBCC07D9F3D287325BCD030DABC1D60C03D2DD8A73D0B83BE3C926F47BC3FB0603D9F3F15BCBD48313CD2CF3F3CCAEF0DBBA3E2A13CF5D4FE;
	15116 :	BBB84C333B89FAE6BCAD70C53D150A56BD2226083D06C1353D5047833D58D7A73D4BF88B3C1983233D0E98983D23589D3D0DC09EBC6BB4963C2B09693C45D1CA;
	15115 :	BC9EC7EF3CBF1700BD1F9D4DBCCA1E1E3BDD595B3CD5B007BC9FE538BD01EA1B3D67584B39F479293CEA45EC3CBB0956BC6268DBBC8B2C703C3FA9743D403063;
	15114 :	3D25313FBAF6DCB93CF69EC7BC702B8E3CF941503BC79F753D1FC5A8BCD224203D0BCCF9BC853FBA3C1590AABD10C853BC80FCDFBD0FD30E3D0A2BC93C8F1564;
	15113 :	BCAE53213D264547BD423D3FBD18E5BEBC0938103DAA7205BC31C141BA47ADF83C9FD0853C5022133D622403BB9FCE73BD084A5F3CEFD939BD7A2948BB37B75B;
	15112 :	3D19CDFC3D3645C63D1A71D1BBC295E93C0C7A8ABCC6A3DDBC180778BCB1C83A3BDB7D5E3D18994EBCC9385E3BFD01CE3D02C77F3D20E038BD0560C93C271B7D;
	15111 :	BC01F4D43DA860BCBC99EF3A3C9DDD8C3D7E4DEA3B7DEFB03CBC70563B5483BB3C9D3F1FBB91A0563D420166BBD5872ABD4040AC3D7C57E9BCC888F83C7FD92E;
	15110 :	BD18640F3C89D79B3C5604B8BCF5EA673D4B4C87BD0201DE3B5F2BF93CBD0D40BD32BD1ABB3E8B313BBB12193D9820883B014A293CB4AB373C530FB03D4C6A80;
	15109 :	3C4A28013C1C38263B6B4A8BBA90CF683D081F32BC43AC29BBDD72C1BCD4C3023CBB3F0D3B374989BD3ACCB53ADC1165BC95AED4BC4796BBBB9C8CED3C60E61B;
	15108 :	3C629D1B3D354451BCD6EAFBBCBFDA6E3C1AAD0BBB997F873CA3A803BBC1A3CC3D0C316A3CDC12ACBBE2D816BC1D3CCA3D31AF703CB92D1BBB2E40173D0EFA82;
	15107 :	3B46C3053C87E9BABD02B5F6BD0A53BABD183F6ABCCFD2E73D5466AEBC4CD54F3C298A9CBB07B90E3CC2A9B53CAEACDD3D632C413BEAFCD13AD91783BC8A1DD4;
	15106 :	3B9A82793C233875BD0F7BF2BB8C2912BCBACA22BCBB2442BD1160773C7958223DAF03793CECDEFBBCB04D05BCB63DB93CEEA797BB80661DBC962502BCACB09C;
	15105 :	3C9FD0DA3CA206C43D0F6F343CA0184F3D56A9483AF98A983CA62BA8BCA5B4F33C6AB9C23BB41158BBBA6F7E3CB8E857BB33F9B1BC58782CBD2D7BE6BB98E318;
	15104 :	3D2B33863991CA633C96B63FBD007E7C3BC6B5BF3C68FF37BD120EA9BB9BEC053C0B8ED8BC754ADF3CF86A593C8C5F00BD5E855CBB7AC8263C7EEA3A3C8658CA;
	15103 :	3CA4101DBD376929BD68C2AB3D30EDB43D102C223CA30B95BC610E59BCA7B070BCC25F713BADF1A9BC3008DEBC00AF0C3C0C118CBD72D863BCE899BFBC776C10;
	15102 :	BC44E4CABC8D7BD8BC07E2BF3CA52459BD00AEF9BCCDB6B73CCDB5C23D0C45163AED00813D8CC7F9BC4BB5C53D11DAEE3CB1E5883CF2A374BCCCCEEA3CC620FB;
	15101 :	BD5CA982BD71D3323C5F041EBD690583BCB14125BCABD5283CDC66D43D12D563BCA0D476BC894D113C0FFB95BB8EA4453C129A95BD8AB548BCE4B03B3D82A8F6;
	15100 :	BD0699733CBDE2173CB5574EBC0902B3BCB42999BBEB1471BC0B75CA3BE1C3B43CA19E7D3C87DE91BCEB975CBCB940FABC52498CBD0BEEDEBC70CD13BC06E72D;
	15099 :	BB82BFC0BC0CBE94BCD86A843C52FCCE3C849372BB57E73EBC315BD1BD24A992BCA837563C2C470E3D3D5D61BC93EB693BA3FAC53CF4433D3B2D88A9BAAFB45A;
	15098 :	3B8314383D169594BC90F1963C8102CD3D23452F3D3B7E523CDD17B03C58F2BC3CE7E88DBD4F7F74BC332E753CF4AB633B0D8129BD0B8A4ABCAAC928BCCE1753;
	15097 :	3B59B1803C03680EBB8894753D0DA86CBCEE89E53D1AB7F8BCDD25D2BD78136D3BA6A099BCF010C63B6CDECDBD0705A8BCF6F98F3C2F062ABCB531723A51F9EB;
	15096 :	3A99ADA9BD0A46F93C0C66B0BD05AE63BCA622ACBD2859653CCAD472BC2091BD3C021470BC8B05FE3CFDFC9CBCB11179BCC9DB3EBAC1B7FA3C7F83763B24F7CF;
	15095 :	BB155C573CC7B3813CEE02843BE04EBDBCEACD683C9E5DBBBC23DF2EBCD6EDF23A9F7719BC70222ABC247B493D0881AA3D0F22BA3D20F035BCAEC1DB3D49A604;
	15094 :	BC3F30E83BDF5CF03C94872ABD25B9033B0D14923C4EAB0EBCFE57733D0401913CA27FB03CDCEC86BC3F1D183A3080DB3BA681A3BD539E313D1B8BB8BBC400DC;
	15093 :	3D1F30033B5D49D13C1EB70ABD5E77B0BC4FD9FBBC33C120BD23E3C6BC4F6BD1BBD79681BB5BDBB3BD74C7253D02D29DBB8F0782BBC40B1E3CE2988E3CED1DB2;
	15092 :	BBEEA647BC65C065BD0D8638BD2F4E4E3C8307DBBC734CB43D7BB78CBC95EEF6BC82AB8D3D366D66BCEF0180BC6890AD3C84ADD63B4914BC3A0A79FB3B3EADD5;
	15091 :	BD3382E33D06518F3CB0ED11BCD9B6E0BC8EAEC63B187C66BC643274BD749B8ABC399A753C0E02C9BD2EF1833C6B5BFEBBDF9A993D128AEE3CC86A5CBD06C47A;
	15090 :	3A48E8B13C83D025BD3EE2293BD3FE57BCBAD94A3CAC318E3BD3765C395809313D0B35223BD2225ABB015BBDBC58B8753BB4D393BCFC6CA6BD0134EB3CA255F5;
	15089 :	BB7AC064BC7246A2BC12B3E03C6907D5BD24EAE9BC94DFF7BAEDE8FCBC06A5533BAB44003C1712033BD4C50E3C9105F0BB66CC72B8A925AEBCB02B743C791612;
	15088 :	BCCF46B6BC61AD783CFB851C38B89C64BC4847F53B5F37533BB3EB203CA1928EB8AF9C74BC21AEF5BA634F6CBCE7A3D8BCA9B63C3CE0C6613C8D91A5BC843DCB;
	15087 :	BCD6A1113CC06E483BE2BBE43B87650EBC3B01E63C935029BD0D1D903B0FA0E83CA0F916BC4783243D6B8A24BCB6E8873CF82B933CA4967A3D61C23E3CD3637E;
	15086 :	3C88A9F4BC05422D3BD9F9B2BCF2A872BC5255B53C1806FEBA4641573B76481ABBC8A0BC3B4BDFAE3BFD21683BEABA263C364215BD02604F3C0D73F73CE1A6F3;
	15085 :	3C2D8336BABC83BDBCD2944F3CD9EB133BA990EDBC8641673C957ECFBCBF42153C14C29FBC8F54C53D24EA233B5EAE823D2856AD3BB04283BD11070DBD04481E;
	15084 :	BD1A0AA9BC40F6A3BAD888323C70982A3C951CC8BCED1384BA227F22BB7B29003C7235E03A2747F5BC8CC78CBCA3F4A4BC9B1436BBC09ABA3C0BD860BBF41B70;
	15083 :	BD5A55DD3CC27CDE3C8D86B63C3F5BE83B9184743C4F7C0D3C664841BBF27D9B3AB09EABBC56A4A53D04AD16BCE5E703BC0A35443D1AF886BC86D552BC8313A7;
	15082 :	3C32F6E9BD196056BC533DA03CC81FF9BC239C6EBCAFA7553CBED2983B935A0B3CA4F9483CE933F3BC4F45BCBCB81B6FBB802A663C104E043C1B82A53C697E43;
	15081 :	BD08D646BD432D4DBC683CA23CD01482BAD266333C924BE5BD3B537A392A3781BAEC5FAC3C9FFD04BC01857DBC559BE8BBEBDCFDBBA79ABC3B11662B3C1E4300;
	15080 :	BC99AD523D43036EBC9938103B75FF163BDB64403CBCF70DBC4328D6BD1B42BD3B0FBA6C3CCB8D5D3B1FA804BD13FFFABCC357F13CED0FA03BC4C4A33AE7A3C1;
	15079 :	BC94C3793D263DBE3AFC377ABD854A8B3C16568B3BEC37AFBD35278FBD5E9AA4BA9521FABBD92DD73D5E11283BEE97513BF7CCDD3E070792BD4045EB3D17BE2C;
	15078 :	BBDFD9983D059E50BCDE31C1BC1C252BBD64F5CC3DA55156BAD4C0503C7455C7BD2C30B5BD7071963C7BF9C1BD9819753D2FC87F3CC33F17B9DC4367BD12721E;
	15077 :	BD89C8AD3C95AD66BC8406FB3C6708EDBD0D6296BCE89A7EBCFC8FFC3CB4064DBD2C31DFBB8BD804BC89F1BD3D1A936B3C62F12DBD587D173D6AFB303C8A2FB0;
	15076 :	3C9ED34EBB1843FBBC5BF8ED3B21A1B0BCC561E33C681454BCBFFF69BDFBB5103D2D17FB3BF5679D3C7B9E5BBD511BE0BACF6E75BCFBDE50BC137109BD269741;
	15075 :	BD0291E8BC23A2C3BB8D612E3D0C4AC93CDE3ABABD2588C2BB036DB6BCDE40713D5DFBDEBC8119B63D8B46E4BD13BE1D3CFD9970BCE703CA3C6B46A5BBDFEFED;
	15074 :	BD04A0523C7B4CECB93EDBDE3C5556F2BCBDB2C53C78C66CBBDBC4BE3B9728F1BCBB67333D39C666BDA384C73CC0E1F23C4FFCC73D8DE81FBD0FA13F3D551557;
	15073 :	3B00B90FBC7072A5BD3FE8583C918B973D1F7B803B5DF9713CC80E9A3C12A8F73D7AC826BD43055A3BF5E88DBB2679973D30B716BC9C6F4CBD0887C43D731BDE;
	15072 :	3CD48CDE3D059EB7BC8F3387BD0146AEBAB675DE3D8E3ED8BC3488E53CCED7A73C88CD4BB9B3BE39BCB49C4B3C8C78493D4F5F01BCB17EBA3CF94614BC1E08C9;
	15071 :	3D47B9053CF8AF253C72848EBD5966BCBC1333963D7670EB3C8A4584BD62E499BB801B32BBF22BB2BC47C41ABCE177BBBD9156F7BD7E43013C13DC5F3D061D6A;
	15070 :	BB326EB4BD06A5F9BCA8E9F4BD8EC20DBCEEE106BD1BCAFEBC5BB3CCBD3F03EDBC3571BC3C56221E3D6DEBB4BD3D004A3DB260FC3BD0AA7EBD1BC6AF3BBA3CF4;
	15069 :	BD2D764A3C80126D3C283C7BBC2D989FBCDC9003BB9C1525BC8A7271BCBE14C83C19EFBFBCC1BB57BC6B5B1C3D16C2AC3C9F4ED83CF7400B3CBED30E3B89F80B;
	15068 :	3D0CAC343D7ADAFBBDD03B2A3CA92F7A3D5F2B313B4F1EA2BCF6E4C53C50EDAD3C00E9483C78B0193CFAE4F13C26C8FC3D0D9EDE3C0FB7EA3BC2A21BBBD35E95;
	15067 :	3C9207803CA07D2ABC12370BBCC6E451BD14EC4BBC1057373C9793EABD340B8DBC9E3D8EBC39B0EF3C7034843D1B7BF8BC8476A03CD929273D3D886FBD35DC9A;
	15066 :	BD1BCDB5BC1C15193B0E1BDABD32B5963CAD46F5BBE019B6BD4ED7E2BCCEB1B83C9FC950BCEE8AD7BC3F95D43D363AE83CB453413CB3767BBCE530DFBD9E7F9A;
	15065 :	BD0CD039BC1EAEBF3B4999913D6A81B3BC0E1A8E3B679DA73A55D03D3CB7FC6D3C4FD68A3910BBCBBD763F76BCAB3B3DBD263FD43C79A33FBC68878D3B9D1884;
	15064 :	3B8D65643CC0D6A43C6A1EA6BC8F0FE6BC886D7ABCB2D23BBCE2587D3BA029FBBC3CA678BC8DF9D23C850385BD13B491BC0BE869BD395543BC7701BFBB2DC444;
	15063 :	BD6946403C4E35ECBC871861BC7C18F3BD07ED8ABCB54EC5B99CB09EBD98F62F3AA41F2C3CDC4F5BBC90732EBB86C3CEBA8771D6BD51E83A3A545CCE3CC31F78;
	15062 :	BBB178F5BD88C795BD1F17DB3CA984CB3CABF4F8BD700550BCCD85093CD95F323C33F9FFBB16A4C7BB4D96C6BCD076E9BBED05773B742AF73D05AE5CBD82729E;
	15061 :	3DA087FBBCC2333EBC98463ABCC62E24BD1318CA3CCA62813D2E96893C1AD651BB7799523CF1E67D3C5715E23C1C2CF1BD6E9B433BE177853CC7E317BD2C274B;
	15060 :	BBFEE8E0BCDC2BCEBD0425A03D24C77EBC72C6903CF0DA50BCB424F33D3200E73BBF20083C4040ACBBF47B233C87C331BD21A75E3D159F4D3C82ADB9BCE0240C;
	15059 :	3CDADFDF3C28B2E03D00B2BDBCCCAE7DBA8877ED3D1335BEBC21C9A23CA5D01E3D8A2E07BC47BA7CBCB23FCEBC9FE0F8BD58A4F1BCA5ED793BC04853BCA13D96;
	15058 :	BD6D94943CF1CA3C3CA70244BAC86BC93CDAD0C53D2569353BC4A1D53D8000AA3D45B7BF3CC7CBAF3CFCF29DBAA8DDDB3CD140063CC9C5FB3B89D8EB3C09604F;
	15057 :	BB235C17BCFC2BE83D670EE43C0D7E2D3D6094BC3D8ED9FB3CB33544BC19792C3C4B3D25BBC2A56DBD140D91BCE5F012BD26AC663C3AB6C93D78C18EBC39D1DB;
	15056 :	BCAAC3AEBCCE15983D80EA6EBC8AFA663C60DF53BD918D86BCB74575BC9ACE1A3CE9CB743C3AEFF5BB280ED4BD638BA73D70E86B3D22E7A1BD88C3983D8BFF31;
	15055 :	3D42B7B5BD177A953BA63B9BBBCA2DAFBD8AE92CBCCBB2BE3C9C66FBBAD85F86BCB4A6C9BC05F3553C9009383B8D1EE73D222D8CBD0019443CF06ED83BAC728D;
	15054 :	BDB62478BA31F1EE3D09BFE4BAB02E8B3C1991B43DA4B88DBC9AD17ABD61927EBBBE5DE3BC8FF4E7BD2DFD57BD973E5EBBE2C278BD2D72D93C932C2CBC9F266C;
	15053 :	BC84586CBCCCB3B4BC31960DBCBF1550BCE601C1BD05E4E4BC6998293CF802F2BC9E3D503D19B3B53B7A733FBB9BAE963C5EC11BBB097F0C3D056DEDBA17F362;
	15052 :	3C1E41DDBD8F26F73CF83932BB5E05A1B9E5803B3D7C1A9CBCFD08EFBD280782BC8CE3253BC950463D05B1B6BDC7C9583CD03F8CBD0B2395BC81AFECBCE557A9;
	15051 :	BCA5279BBDCFAAA4BBB775D33A88DDD23D0C9FF23BF9FF693D101F673C468688BC0FB99A398AEE6C3A5DBE203D053E813D63F11B3C768ABDBD1E7574BC87A677;
	15050 :	BC364795BB6755A5BB9FB4ED3D1118563D001DC93BC0BE5E3C298EF53D3428EABCED2654BCA1D4BC3C35168F3CB54DDA3D0ACFC53CCC61B03D58F651BCAC89AB;
	15049 :	BCAECC8EBD0D2FF7BC5753D23C934281BD596E91BC54373ABD593EE23D36269A3CF47D753BF9B31D3CB7D3953C11D4013CBA93803BBDDF713CE890B8BC23D73A;
	15048 :	BC4691673D1B150EBCB49ECE3A329321BCA552E9BC9CBB22BBDC28AC3C7F8D17BCD850D5BD18F07BBB9F65A9BCB073163CC7F3073DB65916BCD2FB343CCB38E9;
	15047 :	BBC8C8A0BCCE4508BC44712C3D3FECD63D2631C63C99AA6ABC8BEA22BC511E9F3D5D79C8BC5169923C1E719DBCE2EFE6BC5AA3223D5BE1C9BBBCAA0A3B0C914B;
	15046 :	BC0E6F99BC41467C3C93EF813D2AEC9E38CE7963BC3F31CFBC857BA93C45BEA8BCC2D05F3CCBB441BD3B9D41BC832D7ABCA4D2F3B918A8463C81A02B3D7A968B;
	15045 :	3CF276073CF21B323D021641BC5FB9713D5E51E33C65AB833C17C8F5BC42332E3CA5C4D93CF54641BD9315E83CC138B93BD0BA3FBCA7FA03BBAA8B5A3CF21073;
	15044 :	3C5045E43D5557813CFA9637BC151F6DBCD7EC9C3D006A00BB3751EF3CD78B35BD23DE183CB039853D7523033C2BA0A7BCC71777BCD91791BC81425E3C94A135;
	15043 :	BCBD6C273AA307E3BD1C5DF43B95C3D63C60371D3CADB2E43D49A56D3C52F2143C4D9559BCE4E7E73D0D0B86BD2D8562BB971B433B8D80443D8318CDBD271305;
	15042 :	3C0A58F3BBDF4971BCC5C0FD3C449B993D0BDB2B3E08431C3CEF3591BC83FA3F3D37D06F3D02F2F53C5731B7BA547318BCDF0ADBBCB217A3BC5EBDD23BB5609E;
	15041 :	3BB54A66BD46C8DC3C19A4EB3A119033BCD5FBA6BD1340A53C2785453B4BCE40BD2ACB983D1ABB72BB83C8413C8310073D459F63BC46999C3BD299323C730269;
	15040 :	BB55591E3BB27D8C3D322DA7BC6B7AF93C8824983D1A92503CD513463C48FED9BC7661833CAFC4BD3D3B1C9B3C076F15BD0003693B3984303CC3A9CA3AAD0F62;
	15039 :	3D72FA1B3D4A19AF3BEC25FABD6746D1BC9506913C1863C9BAD08798BD2646623C3CF5E5BBA19D4FBBD0A57F3CF54105BD856DEC3C16DE9D3D2F751F3CEF883C;
	15038 :	3CB368AF3D1319C13B5E8E5A3AE7FDD53D13EC5A3B113552BD163955B95F61523C34276EBB6C64D7BC132AA73CE98CE3BCE3121ABD850E12BB8CFA763D2F5267;
	15037 :	3CEEC4433C7EC694BD1EF81C3C4536D53B3FF7373CE5C2AB3D19B12BBB13C23B3D10D976BD4455EEBCAF8D1EBD213F933C41F3133BB0379A3C3F08B3BC842586;
	15036 :	BCAB2C863B370C953AF85D8A3CFA222DBAB35838BA8E1EAABC124EC2BCB424813CE143093C70A38BBBE31706BD52A7413C6B80AA3D0AD6063D464EDA3D6FE4CC;
	15035 :	3A490555BCE9608FBD254CB83CF78CC33CE7FC5E3A257D103CB074593CDC3FD13D2319FBBD101B17BCCB0BB3BC4494CDBB2359BDBCD2A0A53D145A32BC86A722;
	15034 :	3C9FE78F3D3C788F3C86F8DA3D03F136BC5BE2E53D50BF1EBD477515BB827A9F3CB884C43D162E99BCEBA14C3BC58C073B6F740E3D58F6113D4A08A43CD8913C;
	15033 :	3DB9E736BD2DBE6FBAE10FA03D99AC5B3B2689943C67F8EA3D9E34C53C7572F83BC672813CC2151F3D2B525CBCD1BE123CC273793C52CF10BCEFDF3CBC252C01;
	15032 :	BD445F0FBD35F1813CD803AFBD18A7D5BBAC91D33D2B47E63CB156E83CBABFFB3BDF0F78BD84D236BD56D7563C4778F33C3F48D5BC46574EBD84BD493D759BE3;
	15031 :	3D58B246BCC71373BCBB9D30BD2052D2BCDF66D6BCB7D49A3D27161CBD4E371DBBE171B9BD2762873D18FECCBC42ABD5BCA17D46BCF9EECFBCA46B703CA91498;
	15030 :	3D1778D03C772CB0BBE89064BCEA2B003C99AC723C6B4B30BD47C07ABC49AB863CB110453D8658983C06B5F4BC18076ABC9AA1C9BC788E9FBC516922BD59C668;
	15029 :	3D0B66763BD544C13CB7E8773D2E382F3D0F475E3C24A3253D2B8E583C330CBD3BFA32223C23D6D03D3BA3F13A91D0D3BC890F1D3C5CBAAFBC85F76C3D2D3E45;
	15028 :	3C997635BC8A121C3C033472BBC2C089BCCB89A7BB31D170BC7D55B03CF1B1E0BD7F5760BC28C97D3BBABE52BCB221CDBD0EB8663D142A7EBACBBF0ABBF5863A;
	15027 :	3C97CFF9BC9BAA5E3D00CBC7BC3A269FBCD36B1E3CCA3E5CBC965D673C464DF7BBFE9A303B2089783D2DA0D0BCCE8C8EBC39D237BD49B3A23C803184BD0907B3;
	15026 :	3D3D933F3D12796E3CAFC29BBC76B0263D7D43A93C74EF65BC0326A9BD68FBF9BCBF8DBE3D208AAA3C2382223B07EB62BAE64AC6BD693522BC822591BC9DD8EA;
	15025 :	BC4ABC913D16841F3C93F5D13C638B443C178A4B3B9D50E93D1D7ACF3D18DC053C3AB8AABC3549E9BC9D691FBCEF8DB6BD40A4313D09AEAA3C8C2B6DBC18DA69;
	15024 :	3C59FDFE3CC4F506BCAF04A7BCC1D76ABCDE45D4BBDB3F7BBD09343BBBE442953CE451CD3CD80528BC822016BBA13C32BC113903BBAB24F83C99127ABCA93096;
	15023 :	3C580721BCFF34093CB203CE3CF78A5FBC407BB83D4530873CD3EEFA3C2C780F3C8A3305BC9D4B8EBD430C623C7EC83C3C984B043C297501BD2B22C83C1CB0D0;
	15022 :	3C7C11D9BC64E355BCAE99DF3D162542BC0D9D6ABCBD4605BC3D77C93D1E19FBBBF483B4BB1EE8D4BC24B6B2BCFD19C9BC42D016BD001939BCCB83DF3C857ED4;
	15021 :	BBA952E73D48E0653D1A12C03B5D6EDB3B12F9C03D08940E3CD35CDE3C1B7CDA3CDF17C93D1BD527BCF38C55BC861502BCDB3AC33CD1242ABC3599FCBD16F4D1;
	15020 :	BC46C06EBBD2DF33BD2FAA59BD39909C3B47AC92BD335389BD39990FBC99E61BBB068832BCF225453D5B76393C61E8E13D321297BD012EB6BD1E6E753AB7A954;
	15019 :	3C7515A73B5ABB813C89227DBC0375953C41C5EB3CD38271BBC626003D19C3A6BBE9C811BCC55EC53CB3150ABC0BFD483BEAF58D3CA1D7F1BB9F4C0F3C3D41F1;
	15018 :	3B558ECD3CF191693D39DB243B6BFD923BD231133B9A054B3B0A0E6A3C0C59313C91CC2A3C8C46F5BC0ACBA6BCA7F545BAA930F53B0D6688BBD62BADBB234F73;
	15017 :	3B6BE4FE3C94293E3C46D97E3CBD6AF53C4C328FBC089AA0BCF934133CA3047A3C005501BCA155E93CBAE0D63D3F0124BC32B51EBCAE5E5EBC5F62C23BC54FED;
	15016 :	BAF45B8CBD4EFE70BCF039F63C220BEDBCDE6FD23C7B3119BBABBA303C7DF2B43BD41B9A3A624DE6BBC060B6BB9B7818BA9955223BE98D133B2CCDBE3B8704D8;
	15015 :	3CAF0D053C1B84343BF66B84B9192470BD17DE1CBBAB57CABC17B27BBCCFD7843C3BDCDEB9C3829D3C39078D3C4A212C3C84C019BD19C4243C42C1753AB2AFDD;
	15014 :	BC9568C9BA245B30BBFBDEC23C7649913B82AD5BBC26F768BBABB9923C666A5C3D1952C23B3445BFBBA0A4FE3B348ABB3B613B9EBB9C09E5BB397C2E3BD5B20E;
	15013 :	3C18D45C3CE15E48BBE6503CBB951459BCE63AE5BB4756C53C0438EDBB68D7A4BC00D9FBBB46B9873CA331B0BB4E97AB3C81DD123CA57A103BD96734BC4765DC;
	15012 :	B830BA36BCE2F34FBAB18AA8BCCC94CA3CF725143CEB5FA0BA48DB37BCC1C84139D9D119BCA3E37EBBD4DFDDBC66D526BB303E2FBC224F2B3D4D02BF3AA34D99;
	15011 :	BD036FBA3B366BD13CE9FBEDBB237F03BBCCFACD3C91C48CBD0A77DF3CB4D32B3C4AE5383C38FB5F3C837F733C5409ECBC9B3D5CBB0C07E03C2683DC3C8E236D;
	15010 :	BCAB96D9BCABCEE43AB0E4A33C2DC110BD2C99BABD0FB1AABC91E043B9A139C4BBF6508ABC15E4853B66FAF9BCD05FBF3CE08A56BBEF8E7A3C7F13963CE41C87;
	15009 :	BC096A00BC3F18603C331A4A3C1B962C3A6528713C913134BBACAC24BD1EA041BC252882BC15C8933BDA4BEEBD1A99663B9F6C45BBB529B23C84D0BDBB968511;
	15008 :	BC5A5F9BBD08177E3C5BB5B73B90EE6EBD3C0081BC60EB1E3C38962ABB76586CBC930A91BB036AFF3C5DB362BC4DD0A7BCBD4A74BCAA500F3C6C412EB9251B94;
	15007 :	3C62AE8C3A6256D9B9988194BD409AA2BBE11391BCB74CE63C72700E3C0226E6BCAACCCABD4E25623D694CCC3B92678B3C4E0BD5BA6B24BF3B6080FA3A63BEAD;
	15006 :	3C86DEBA3C323E1ABBD154613CA3943E3B1A1BD8BC1997C2BC2031A63C4663A63B71433F3C4CD005BCD61E05BD141F8E3BB0E159BBF30B333BE1FCD1BC425AEA;
	15005 :	BA59FAD0BBD3F9A83CBFA2BEBC7A57EE3B5C5E483CA5C236BC4BFD013D62222ABB1381023D13AE623D04758DBCDD77FD3BDA30C43D07E9CF3CA126E3BB3DA15E;
	15004 :	3A501BD2BCA5F63F3B95DCE4BC74282BBCFCAF4CBC4F4FAF3C6B17653D065CD3BA20625A3C895F663C5C0933BCD9F8973BC72A163C6DA1B3BC8776B03CDE422B;
	15003 :	BCCBF3683C97A7693D28BBD53C625FA63D1216AA3A1ED83F3C2FC991BCEF3EA8BC74C1983C0D3BFB3C0B5212BC26BF633C91482DBC8FD6C03D0BA6AFBCBB3195;
	15002 :	3BA30D49BBB08F803B116448BD054D213D35A44BBCB654F53CBD55F9BC8E716E3C7B99033BB67BC63925EBA33B7649EABBE4EC9DBD56A9133BC07B173C94CDCC;
	15001 :	BC9C10333D4F48C63CBA2200BCC19E3138EF8741BC32A88CBCE852803AD7B849BBF015C03D1BB3173C238AB93CB07448BC970F743B7F5FA93CB75E5D3C5F2DBE;
	15000 :	BBFDD10D3D04789FBA893ABC3C806ED33AE6B7B63A0E6A533B14C44CBC21FBCFBCB3E1833C1CC7AC3BE193BABAA94C44BBC96F75BD3DFF1CBCC1801C3D07809D;
	14999 :	3B47D0C6BCCDBA98BCB01DD4BC8C0BBF3D1E41C7BD8AB653BD1992CB3D96A79E3C8BEEF23BCCD0513BEBBDCCBCCBD2B4BC2B903EBAE1D23D3C1F0CA8BD13C87B;
	14998 :	BBA842FFBD5F01B53A82166F3AD6CE203DACF7EBBC843ABE3DBC0DD4BB52DFE0BC2B30B83BAE52E03C8B5A85BC5D45F83D23D80E3C84CA72BCF71D62BC79E86C;
	14997 :	3C2C5A473D5E2824BAB983743D4DCC1EBCAA5C823CA9D54F3C8EAE97BD37D002BBA2431EBD3B02D53B0795523D3A790E3C6F43543D688E433D1E58BEBDA91728;
	14996 :	BCF66131BC3AC0FC3D4D5D08BD823AB83C362DAFBC7D9CA2BC0A6C913C046F9ABCDE1C5B3D02A8A23C19B70CBCABE8BA3D3ADBC6BC6816DF3CCD8CBA3D3E88FD;
	14995 :	3BA02F483CDA4C85BD3A6CA4BC2333193CFB8CCFBD93E589BBD147E63D9F92F5BD347D12BCC9DA03BD9548373BAA38E73B92E9FABBD716273D81BDBABBE5AFC7;
	14994 :	BD047CD33CA05BFABDA05786BBA37B523C609EEEBCA7EC2F3C4F78DC3C3BE3753D0FF02BBCEA2AFFBD189565BBC93E153D248D02BC2ECD9ABD20FA37BC8F1D06;
	14993 :	BB71F0593CD651BA3CFD2A80BD9862E9BB57CF7C3C1D71ACBD4D2E4B3D2206E93BA6AF08BD524A6E3D122BD4BC036680BC8DE2933D869DE03D458BAB392C762F;
	14992 :	BC541698BCDD3C25BCD3DAECBD6A16343C8E34463B91F29D3D035E33BC28476EBD02F9793B7F48AB3A889E6A3C8D1717BC090AAA3C2687D33C494847BB9BB3C5;
	14991 :	3C8A1A1ABD0CC690BD8C5ADC3BCA22843B41375CBAF0F8193CD78775BC2B7A6E3D01B38639B241653BA139B8BD00F68B3D328455BC77FBF7BB468FA33C6ED44A;
	14990 :	BD7D742ABCACA3113AC93F94BD38224F3935EC503C99077F3C36AC6ABB92198DBCCD1639BC239A843CCCAD903CB2E91A3A5F1B66BC3F32E3BC6C5D68BCAE0772;
	14989 :	3A9882013CC31D8B3C38DB8DBD3D24BABC275DC5BB18162DBCCF1FC43C72929EBBD95A62BD2AFA0CBD16714A3B755A6C3CA21D9CBCCC226E3BF493F73CA8538B;
	14988 :	B94C8AEEBDA043553D0BC661BC85B428BCC05B64BC78EAF3BAD5A0AA3D020003BC8F870CBADA91363C0193B03D0987513C95208FBC80230C3D2346D53C8A06DE;
	14987 :	BBDB9FFABCC4E02C3C248A2C3CC3A0E7BB36128D3D5960213D8D5C7FBCB397CCBD337505BD04A58BBD589DD83BFA29423BA5107FBCCB45F6BCE2419EBBAD2D1B;
	14986 :	BD3E8FB7BCDF873FBC248868BCB932043BBF2552BC23BCDEBB7E587EBC892D2C3C34EC37BCEB7BC0BB896B06BCA9AE50BC4D04FBBC8759D0BD671BA23D646257;
	14985 :	3CDBCCE53C097C433B1C34D33C870925BD136E76BCE077963CECC7EC3CED93053BCE3CEBBBA08CD13C9C9ABD3B943222BC9574CA3DA9D9F93C1AC368BC70F22A;
	14984 :	3C66C6A43C0697833D30B9ACBD5417053AB562293C2202B33CB06A143C9A9D04BD4994A23C5B945338A74D4E3CB197313C66ED893CB1E3893ADA7CA73D457270;
	14983 :	3C196B473D137AA2BA67FE623BF2F71E3C7E7A1DBC67AD4D3CCBB19FBCA4ABC2BCD6EFD73AD6AAF93D169C38BC80589BBA43CF2C3D92A8D93CFCEFFF3C7C9906;
	14982 :	BC4766913CD7E609BC0D3148BC1A1ECA3CBD3F97BCF3683B3D318A6C3C6EBED53C0B4BA43D70F3A5BC3DD05BBCDE338F3D70B592BA33A3F53C872DC73D55A1F1;
	14981 :	3D171A6FBCE80D9FBB1379BF3D14DD313B6380E33AD11F3BBD0BE7BBBB118E64BD06A93DBC3C67C33CFF73F7BCB540B53C20A1FDBC5AE28B3C2B1B3A3B9AEDAF;
	14980 :	BD06A2EDBB624DCCBC242B33BC8EC4033AB832D8BB1813C8BCBD17E03CF0E47DBBD6EB363ACCA6FBBCD0905A3C7EEEF0BC9ADCAEBCF0D6133C3B2C8F3CF3D786;
	14979 :	BC199794BD664AF7BC8D0502BC4D4C31BD5D2716BD94ED9DBC92E4983C3025B6BD9069813B6992A33C9D2AE63D492D80BC7BA63EBD25D45DBCE9C8E2BD721334;
	14978 :	3CB02147BC76290C398267003D063F103C987AF83C5C3E403CEC8B823B0E0F52BCED7271BCFB2375BB144BDABC9083253CC9E4CCBBA5B2AF3D9A253C3CF5D750;
	14977 :	3CBF452DBC675FDFBCD9B3F43B14DD82BC17959BBC8089A33D559767BD2F5E7A3CFC9DA0BC8643FC3D376B363CD8177E3C4C722F3D00B742BB9F06553C4C7DE4;
	14976 :	BC8C0769BC0B212B3C8853FC3D4F2572BD9E2A51BC7C29343BFD72D63D2FF3E2BD8DE2763D727F303D6521403D9912743CF44447BC8F09873D44BD89BD5C77A4;
	14975 :	3C57CAA03C5DDC0B3BE64AD3BC603955BCD9F4283D1B37083BFE25FBBB7766923CE8D67C3C18B36A3D2561643D91FB97BC3AEBFFBC0392A1BD2E660BBD0FB1CA;
	14974 :	BB74751ABCA945B43D1E1C643D4A066E3CFC82E93C148058BB5DC6B5BA3176F93D02B3173D7707AF3D8680A0BD0381AF3C10BF78BD35B5BCBB6A8E753CCCE021;
	14973 :	BD5E2811BC8C33D13D09C04F3D74B1D5BD41F908BC48BE63BD2E4B5B3CD29BD13CC238CFBC2255E63CEC15B7BD1B7C5C3D1F4CEF3D9BF0F5BC800E263D60F84E;
	14972 :	BA3018923DA13B8BBD0BAF92BC179245BCD69E233C4AFA3E3A1A92E4BD265866BCC1A1D43A78C738BD2A9806BB9FBC543C898A09BC5C7D343C18CB1ABD2CEC29;
	14971 :	BC948EC0BD249A0C3C6E9FF93D4CB1123BDAF0E23C0D70993D13AC64BD2DF99EBBB82A3EBCE7D859BD06334FBD57D4F0BCCB3E71BC5C35B2BC95E24BBCACD1F4;
	14970 :	BBDF851DBB35E0F73D392721BCAAAA20BC886414BD02B50C3B28A8783D99CAB439DB932A3D08845EBCDB9913BD31BD17BD0850F13D8E69F93D082B96BD48ECF1;
	14969 :	3C2269553C4D0154BC1264543B6A20B33B8CA09B3D1B60DF3D39A3663C95E120BC422CE2BA8CA0053C7E617D3CACF07C3C7A15F03C8E575DBB05005BBB9BD535;
	14968 :	3C4A75FB3B2ED1B33C8040AFBCC1DF573D5EC02DBBF13480BC2CA2F8BC88792E3C7213C7BC4641CCBCA25994BC4C19AEBC688559BCA02E683BA799B6BC4CFF6A;
	14967 :	3A6056643CB3E1BC3C160827BCF8D711BC89DA4CBA755D60BCE30A793889621FBB59EF51BC98AE74BB65282A3C196B89BC57CFC2BB8021AFBBA3CE643BF2644B;
	14966 :	B99ADBE9BB8D2852BC00FEF43BC4A0BF3BBF82743C703838BC84AF88BC3B2669BC165C6A38D9E8E33C3A59ECBC6A1B2C3BC08D78BD1C6081B94535923C90CECB;
	14965 :	3964CA0A3B5A021B3B30026D3B584A9BBB13C8893C8819EEBC8AA012BCA8096FBCB04C263C40CD123C1AB4743C0C9CD0BC19CCB03C1C16F0BD1B367FBB189CF3;
	14964 :	3CC35532BA9674A6BC505A4B3C2790DE3C0484543C9F141DBC05F9AE3C7D58FB3B9BC42F3CB21AFEBCB537A7BCDDA4373D0E47DB3B5AA604BCC45F803CA625B6;
	14963 :	3C376F323B1581423BC8E0DA3A780D87B9AD1FD8BCFAB5823BFFCDBCBCFD7BE03CD993CA3997FA823BB23F3B3BE35B6CBC8D3D8C3C2186E1BBBE60383BCFB511;
	14962 :	BBDA62B63C9E06FF3C165EC03C595268BC34A9CF3A461F1FBB0020EA3BEC8F6B3B931CA13C07987A3A875399BAF011B83CED38023C13D2F2BB0EE841BB7A6936;
	14961 :	BCB5C572BCDE1641BBD510043BF58313BC7E29013C21E55EBD092A643B0D2ABB3B9B4905BD28B3E33BA01D0C3B1BDEB33CE7F2733C2291BF3B006BF7BCDD8E6E;
	14960 :	BB80D02D3ADF106ABCEB9C7ABC99A6EABBD4628C3CD191F1BCD074C3BBB0501BBC077F233C0DCA2C3A1ABEAABB69BDF43B51EA543D59E4033B9361CF3C499E4B;
	14959 :	BCEB8CCEBD1226BFBD19FEB53CBF872DBD10808EBBA64248BC238ECD3CC184F6BAB003743D5E07C3BD8CCB5DBCCEA494BD8692CE3C661908BC1C077B3D7BF15E;
	14958 :	3C54F14B3D2CBA16BB22007BBD458CE73DA404DD3B602081BD253B0DBC9DAECFBA8897BCBB0478983CE270BF3D91833ABD4330A5BBAB544D3A4B7B04BCD7BDE0;
	14957 :	3D0DEB8EBC27E8A5BC2809553C09C53DBB805E0CBD52F774BC974EEABCB1F0013C4B2D333D1AD29C3CA4E0DEBD9975E2BBCA50463CED1F68BB7ED15CBBF9AAC3;
	14956 :	BCC6CD913AE3150BBCA8B1093BAB7D5B3CD173CABD5D0DE33C5FEAF33CFD07C03D2C15B4BDA854A3BC498678BD86901EBA0061FFBC50AC5CBC8060C13BB93242;
	14955 :	3CDEC3133C0BA52A3CA21340BD0E776F3B14C397BC36D862BD1C5F8CBC36009F3D240E203B9853C43BEE77813C38A5F83C88221D3C8C9A563D334CE63BE113BE;
	14954 :	BD196049BD2B4BB1BD02C53F3CCAD61DBDDD51963D10C99B3C2CCF3BBD12D2EFBD01A45C3D4412893D91F1A93B45C78CBC4EA6F4BD8C90C43D12A7053CF6A896;
	14953 :	3C0BF1AABCD01976BD57B6D23D6D2BC6BD1877B93C7813643C82526A3C92C1FA3C9490B2BCA3A7CABD190BD6BD02E9AB3D157056BC9AD8A13CD7880C3D408435;
	14952 :	B854FA643D29FB36B9913D803D149750BCC3BACA3CE5841ABC7CD07ABD829BB03DA06976BC19535DBD37B324BC7DD8803D2804943CDF5F893BF9DBD73D0E5A1D;
	14951 :	BC85A1113CF07AE53C28379FBC6C6D41BD4AF0A1BBA54B92BC539BD7BD26363FBB498336BC9B3E75BD506DC5BD0B85CB3D8474F8BC656AAEBAEA9B3D3D2F7C4B;
	14950 :	BC8E2AE5BD4A8C233D70B165BCB4130A3B765B0C3CC49C67BCCC6682BD4CDC82BD7D53223BF47A873D2DECB73B423B4A3D0D709C3C56EBC03C33F9673C78E546;
	14949 :	3C899C7EBCA4317A3CC72F283D06CF2E3B802991BCD3AD273C1039F6BD1F49E43D1416BC3C90A1593C82A51F3C86CD24BC08567C3C5F38733BEB6FDBBC1FDB9E;
	14948 :	BC75FED63C6C8E963D2149C2BC0CC670BD23D18139F00D4DBBB12DD63CDCED483D63B1CDBD165AD4BB695A763CF4699FBB1C946C3C13967DBB9F99F2BBF03ADA;
	14947 :	3C3073CDBC5752B7BA6226623CD8977EBC13208ABC2407E93BF95C1BBB1D0AFBBCB28AA1BBDADFBBBBC96BA93D5EBFA03AD2D60CBB9E38483D0CE8173B09846F;
	14946 :	3CC2EE4CBA1E58A1BD3B52D53CCB5626BC715C743BDD0A78BA8C93C03C53DC18BB0A2432BC5A6ECB3BF4AC5B3B226A033C3DDECABC029F77BC339230BBAB8F62;
	14945 :	BCB56C50BC88FF20BC4CDAC2BC2BF319BC455AD3BD4BC11FBC0EB4163C13BF553BA92661BC076B32BC887558BBC2A0F93D4F95E93B9D4DF7B9CD3722BCDD922A;
	14944 :	BC9AD90E383ADE74BC7DC08BBC998EEBBC94FD3EBC09A0EABC21FBCABA5B20BA3CB10673BD15B4C3BD2C457BB9AA5E33BBED94E7BBF8D9B63C26C05C3BBF59CB;
	14943 :	3D4A0C41BBF7A962BC515D923B34A95A3C1CB1E4BCE8C98DBC7559863C9594C2BC69D92CBB176B7E3C83854ABAA899073C48F5F1BC5E7A14BD29C82FBCD0DBF4;
	14942 :	BC784132BD3798423C25CA923B8820E1BC533E113C713A273BEA71F1BC70B29DBC9E1C683C84FDCDBC19111CBBF3801B3C8BA0713C8D98F1BC38788ABD2F494D;
	14941 :	3CA7C2DABAEA1D1E3BA180D0BCF3D1B93CABCCDA3C4240D9BC8D8166BC9F7359BC730D013BDDF013BBDE961ABC3A7AF6BBE62A0F3CC656C43C6D0F743D07C04A;
	14940 :	BD046FC7BC36881FBC4F152BBC5B93AA3CC2286C3A3F2617BD1C36093C936F573BBAF4C23C852A3C3CD96946BC82EB24BD40B3F9BD332F903C44C878BCB376FD;
	14939 :	BBC391493CE45FBC3C418E2D3CC38AF6BBD993DF3C346CB8BB9820AFBCAF84A63C9D8D113C4964DA3C37CB103D1C801FBCC33659BD1529643CD05F9BBA642464;
	14938 :	3D3501DDBC99F1B7B886DF96BC870734BBCE1FDEBD010F58BB8F23F6BA613152BD3B83F2BC997BC93D39CF3D3D0F28FA3CDFEBF93BB4E72A3BDFE728BD0B56D8;
	14937 :	3CEDDF63BBF660903D323F47BCA98D963C7D32F5BD3FC91F3C35DFD23D8C58CF3C99D601BBAE3051BD41EEA6BC1D4C0ABD45937B3CFC57573B415E08BCD840A8;
	14936 :	3C5AD5FCBCAB7D82399F9CC53C8C94A53AADA84CBC378242BCA54E18BBAB868A3CA0EFF63C83BCE5BBA01CEB3CAB66F4BC287C44BD3FC8E9BD19FCA23B2C31C7;
	14935 :	BCC4C7F7BC5B161D3C9DC22B3C14FFE83D0F6C393C5E2D5B3CA3B8DE3D62D2F5BCE021C1BAAC8A663CA56BF4BC866BD43A088D21BD0B1FB8BC350816BC7077A7;
	14934 :	3C9E10683D4CBCEF3CB086313CB584C7BD2FC1EDBD52D53D39FD6AC93C6AD5753BA92E6EBCCC59E43D21E7C23C04D739BC55EC0B3C18340EBCA2614CBC8750B0;
	14933 :	B9E24AB33C9B6A7FBD1E29253BDEE5133B42F073BCDE2BD83BC0ED76BC9DA601BC356963BCF3E6973CCE6BDB3D7739FCBC3A24DC3C047527BD37B082BC8B5E04;
	14932 :	3CC19A0C3C64C111BD0C373EBC977DFBBCA801CFBBAB6AE2BB368A59BC94DE3D3CE90927BD174F9C3BE73BFFBBF0DFA5BD0FCC63BCAC5438BD8E8DE6BC7CCF2D;
	14931 :	BD15B9E23BC45E0A3C9E4DFABC5DE34FBCADC354BB4E7EDDBCC9984FBCD54940BCF3F0DEBC51B4A53C1B3B42BC077EE23BF1EC89BD48FB6BBD0E06653D8644A2;
	14930 :	3A454FD7BD4F70593CCF2F5EB9E4FBE23BAC22C7BD8CB683BA6E4CF5BB3081D4BBDAE2F63AECDA793D0C80B73D0C30FBBC2D6795BC7FE4F13BAB8FBA3B9465C5;
	14929 :	3D9709C63CCEBAD8BD6667A3BC01920C3D2E9CB03D10368F3D5865823CFF8D72BC4FF4FF3CAFF4BEBD2442A93D0344B3BCFDD501BD74FE48BCC02FA9BE0BE064;
	14928 :	BD84B1C9BCA0BA863E245C213D871E32BD9E0F5CBC9060DD3C98B5CC3AD4899BBD8267DE3D40B6843D8990493C919AA43D34F3573DE71D62BC3889D13DA008BB;
	14927 :	3DDDC663BD28EDAF3D86B5C03D5F1EFBBD34D19CBD9F1374BDCB8085BD8A878E3D90B9C1BD86B628BDDF63D33DD685CBBDCB53A83AB069C23D8E5D9D3E20FA65;
	14926 :	BDB26D86BD3AE1BBBD5B211CBD52F03A3D64012FBA38CF20BCE668043D2368C53BA831BBBD87F45E38DFCD073D579926BD3FAC3E3C981366BD961270BBE421E1;
	14925 :	3DA9FE313CB35F41BDBAA4E23C8EEB64BD569E2DBD96B90BBD2DB6743D2DF923BD8061D2BDBFFAE33D3602D03DAD0CA03DBE6479BD5564013D7458083D976393;
	14924 :	BDF2D3EA3CC7A71B3CFDDEE03DA86191BB00AB893D1B5E1EBDC168CFBC9BD5403DD228753C278782BD8D2DBC3B083A60BE13DA4BBB9C81343D01EA3EBC0C0680;
	14923 :	BCCB2B9C3CB5EE84BD0BD21FBD82D0033DB2369A3DFED796BD822D5A3C60D7493A07C01CBC7DB4D0BD7FAD0DBD06DBF7BE79CED33DFBA27F3D23DB29BD03E045;
	14922 :	BD42BF903D3852263E035386BC768B39BA8BD550BDA2A299BB37FA57BCDF6091BD3B8F2FBD886E833D806478BD76F98EBD8EA0EABCC0417F3C39561EBDD5F001;
	14921 :	BCF65E8BBE0627FCBC9B8E103D8A273B3CDEFA903C4C4BCBBD93B0CE3DEA3A44BDA850483D07701EBC55C0823D24F36B3D9A1FF9BD27AF793CA14558BD847AB8;
	14920 :	3E220AB03C39CDFD3D22C61F3E09BF21BC9836013BD3BF56BCF7798D3D7B05753C150FADBC68261CBD36857DBE0002C43D0F6A58BDBC66D7BD9B8B923DA731A8;
	14919 :	3D286057BCCF1BA63C8336AABD4C6728BCFD56A8BD1CFDEB3BE537D0BD9D0F8DBBFA9AF83C8C1D0BBC32319A3CC0FA023CAEDA2E3A68008A3D1CD723BCDEBD8C;
	14918 :	BD20277DBD0180B33C2DABD0BC0E05253D2DE9B63CAC24CB3D3C6F623CF7B0F73B315EA33CB2BDC8BC7E214EBC430C98BC97414D3CB71A54BC028859BBA4A21C;
	14917 :	3D1127BC3CFE232CBCAF71DD3C9D7262BC2EACA33D32B10FBBC4AF713C1137333CA7D6FF3D6668513C4D036B3BB79A4A3B6DD00DBCC5FB6B3D0837173CC75FE5;
	14916 :	BBBE49E8BCA146C5BCD232913C9326CBBCA28EDEBA2893E13C9D37F33CB90C4C3CF46AB43D64A3943C958CDFBC51DB47BD2D8020BD00D45C3B5927753CAD72A8;
	14915 :	3C449265BC0435FFBD82A715BC813925BBA1A3DEB8D5094C3BC7A779BB99F694BCD52ABEBC68E83B3B2B7982BCC6FAF03D560B48B97914503D697B3C3C53D833;
	14914 :	BC8452CF3B55C4553CB07720BD1F58683D260AFEBD213DEF3D45F05DBB07B46CBCB7E5D43BFE14173CCA92B9BC0352293CA88CBCBC378E173C4F28163CEE1BDE;
	14913 :	BCD755003AD70217BC80375DBD861B933CE8CFB23C395EF83B80C61C3D042F0EBD23B7293A6716F33C3D9E75BB5ADC783CB323F6BC8848743C8AF1743AF9E27E;
	14912 :	BB3161C03CC633CD3CD1D2273C4197ABBD20542FBD4C69ECBC6BE41EBCE127363CF0565FBC32CCC3BBE951E2BC287B43BC20B5F53C8BA300BD1927F63C14AE2C;
	14911 :	3913F951B9E8E6EA3C0FEECF3D56008FBC9B1B4BBC9B223A3CE7FDA3BCF53FC13B1D01653C10A5C7BC7D4040BC7FCE81BC809FC33C0517883C2DF7B23CB51F35;
	14910 :	BC47A65F394769BE3CAE79FB3AD7F1813D139E70BC11A7E5BBA2FBB23C6D3E2C3D0620A1BBB79887BBA410E33C0ED5FFBCD65A413B549F36BC856371BC3059F5;
	14909 :	39C30A8DBC0B16AB3C8D0D1EBC5C87473D58E363BA747CCC3DBCCFF63D29C0343A8C81CABD1FCCC2BD178BD03C357F9B3B334FEC3B802814BA11BCF7BD25BA7C;
	14908 :	BBBE3B30BCE0AFE43C0609D1BC0941E63D7561DABB6B069D3D18D4823D08A9463D784BDABBC646C1BD30A7D5BA22E4DC3D20D5C23D32B48EBBE99DA53D06EAF1;
	14907 :	3D111E32BCC915EB3B90F7D0BC59068EBD2DD6A3BCBDA8FE3D1BAF6ABCF9E7BDBC8F4D7A3A1082C2BD434E9DBC29A2A53C258066BC86EEB9BD8D18A13C89D34E;
	14906 :	3C60F2FABC3B9C8F3C19B5813C1EB1AC3CEB81453905E151BD696F28BAE407D5BC447BAB3C7684CF3D3883C23A9806933D89FE963D7461A13D37EC9C3C718765;
	14905 :	3B3856683CC4E4B93D29C49CBCA233ABBD751D62BD2B689FBCDA1FADBD1C8F7E3D925BA5BD0329E7BD2F7FB4BCB7A68F3C95A4453CBE3BD4BD26FA2B3B93355B;
	14904 :	BCA9699ABC355A41BC4717CFBC79E1CDBCBD7733BC901D503C4C9C9D3C63F4E5BC85075ABD467B9CBC253C3E3D1F15223D1AC283BD991F2DBD14B642BC8A5C5E;
	14903 :	3C11EA3ABCB1EF463CCA0381BD28D055BC4B64AA3CEB4C863CA8E47B3DB11692BCCCD5293D191E2CBD525E693B79EB933D21988D3BFC45743D4A3E69BD036E9F;
	14902 :	3D2312EEBD29E783BBCDF6643CB55640BD84DA803CD5B5B5BD6341F1BC6CE498BDAB032CBD8A1AE23CDAE9353BDE18EDBC53E49F3C62F8C8BCE368E5BC1BE90C;
	14901 :	BB0A5EF7BBC8D3E33D0694A9BC4498A6BCAB44A73C42A992BC74F02DBD33B0C43D0856A7BD8990B53C54B212BAA7743C3C71F2E63B06DC8A3CC79D80BD388893;
	14900 :	3CEDB948BD5840B6BD2140EC3CB3812C3D033AD93938381B3D094BBA3D0DE558BD74306BBC18302BBCFA33BF3D39A49E3C0CC0FD3C9AB3F93B3A793BBCA3234D;
	14899 :	BBABE7A13CF593F7BC12B4CD3CAD6E7EBB3B7816BD0BBA393C76D2D2BC6AFA1CBBEB99AC3C1092943B8F18B7BC4461763D00C20F3C6C75BFBB063F38BC804A78;
	14898 :	BD9635283D00ED4CBC244056BCD3559F3B62B790BD2B9DD63D2B3EF83CBF1163BBCE327D3B8CD8653D3A657BBD0426DFBB6151B73CC59E72BD5C5123BCD1D906;
	14897 :	3D8323BE397B6295BA00494DBCB2802A3CDCAA293CAE2E3B3C82242ABCBE3D203D2257D0BA3E351C3D0F6D69BDABF8573A7C33593CBDF60CBD1A780D3B2CE1EC;
	14896 :	BC98F5023CA6AE133D0945AC3AC0C8C13CAC61F4BD45F2E8BCBDF59B3C86AEBC3CA61BF43BA12C5BBC7EF2813C45BFA1BC7917B2BC50162D3CC3BDCEBC68F7D6;
	14895 :	BB697742BD3A7DD53C9C1AF6BC2ADAD2BBF266C4BB91EB433C759109BCFA5C38BC795FACBB65A4B9BD06506ABCCC2A7EBC81A7EABB2D399ABD39A960BCB82061;
	14894 :	3CA42A5CBD44A6D03CAA6177BCCEB8C8BC42BEEFBCCF3AB43AAA56733A82F86A3C59A1F93C1587D4BCA44F473CC1DAE43D699287BB9E82683C7AC4543BC4100B;
	14893 :	BB6C49523C0AA519BD0734463CA5E4E43D8219FBBC62B4A8BCAAB8A63B4DDE6CBCDE21123C6D81543B470AF9B9183B583C6C04ECBD9673393CDF4AEEBC8C0C84;
	14892 :	B9B642B7BC0A88F93C8EDA06BB1087983C28BF0A3CE235DEBC477CBBBB9B613CBCBE8E7339A20F55BCDF0149BB929572BB0F6948BC04CC0F3BC9A5D83C006A86;
	14891 :	BC3F82793BB6A66FBC4152183CF575F83AC0EB993C34B756BC80DD1CBCAF68FBBD0ADDD63C772A0F3C9F4379BC7458B5BC9A85DBBCBD47EFBC2110243C4ED11A;
	14890 :	BC17BE36398370833D1D3A92BC80E02ABBFDB7FABBE35948BCDE80B8BCE074CB3BA5E8ED3CFECE47BCA4F3DFBC9C2D1BBCBF26D73C422749BB30CDA03C3B7C2F;
	14889 :	BC412DE13C57EC74BD0AEEE83C1A530F3C92476439B1261FBB94FAB4BD3D98453AC355B5BC085C8DBBBFB29A3A8172413CBB110C3C72F588BA96DFCE3BEE3BD9;
	14888 :	3BF086E33C81C9503834215BBCA80F18BB45D8E0B9F1CEAF3C9B1046BBEA87F83CAEDE003C2AC1033B334A823C1F80A3BC6526F23C1B53C7BCA74C8D3C81FDD7;
	14887 :	BC920020BC7925BB3C9ADBB13BDCBCB4BB6C9FA2BCA1CEE13B7346A8BC6B44693AEBB1E1BBAD48CDBCC0E8CA3D95B9C63BFCCF763CA0FE5ABC851D503C53C319;
	14886 :	3C00D2A73963251CBCBB8604BCA4F6A83BA35926BAF46FCF3A8C4E473C3DE8763C9B19813CB85332BB49B5B03C187C6BBCE47F24BCD30C2D3BA6E1C3BCC6FAB0;
	14885 :	3C9984453C527EB33A9824A6BC1FF6273B31ACB2BC7C4C52BC7DBFA4BCE35982BB29922E3C82BC1D3BD7912B3BC3F4543B7FD3B33C91CF1C3C39111A3C9E1FA0;
	14884 :	BC9A734EBCDD648E3A6514393CE86A8EBC2BFD85BC45499EBC58B7D7BB08E71BBB8052F83BD54038BC52DBFE3B717192BB80A2CCBB5D2EF03B60DD03BAD2F59D;
	14883 :	BD16AB04BC375D643BC1FD87BBF8923E3C71372C3CF90210BB99D8F73CA2759EBC15B771BBBDDB0FBD1D9DCC3BB96186BC56DB8DBC0D0FEA3C901BA2BB276522;
	14882 :	3B2F857A3CC45B313CA72746BCA09F293AFE07543D1C79EF3D127B4FBBD4FF16BB56BE0DBD1286B03C5AB46B3BCB6187BCF9D4E73A1CAB64BB868F633C74BEEE;
	14881 :	BC5C6792BC0A25913C6C3AC1BD18A0F43CAE3CD53C850609BCBBB9953C438BD23CA0129FBB0F66DDBCCACFC9BA1252B3BA0C6B193ACF44B43C3BBE02BCEA7259;
	14880 :	39F3C162BD0362E03B47851B3CE8FF13BB95A713BB9A271DBBAC98FD3C9D3498BC6B8A0B3BD4D40A3BD83686BD2210F7BC2D672B3C6785613BBD3573BC2E4CC7;
	14879 :	BC055810BCAD02FDBC4B7478BB379DBB3C961580BC8BB1583D14CC373C21BB613C737F163CC80029BBFF3BF7BBE800843CC2EF45BBFFF067BCB89338BCE0CF0C;
	14878 :	BCF0278C3D5CAF393D021918BD08C0133C5059B73B446D253B99A8DB3D237F7DBB2A82B93CE609E03D41DF94BC31AC703BF6E9F33B958E2BBD1563383CA2C0C1;
	14877 :	BCD51D8CBD817EFA3CA1536B3B8DB3E1BCC1A063BD1B02B0BCCB3698BD3591E3BCE9C1D23BCF813ABC92333C3D1A7B25BC61C82DBB3A9330BCBE0C3B3D07B418;
	14876 :	3D3D1DB1BC56EDC9BC558FE6BC257C833BC5DAE1BD37F81DBC4953903B8E9BD03D104105BD1BEA253B295EF7BC6E92F33BAD146C3BF4D9D1BC56FEDDB99529F4;
	14875 :	BBE78BEE3C8F2EAC3C7216BA3AEC80AE3BD23DABBC98499E3D30F437BCE68D8EBBE873E3BC044C07BC827453BAEE9C70BC138AEA3C04E4433C62EBEBBD0AE4F3;
	14874 :	3C59FEECBC8D5F6A3C356A76BB61257CBD159E56BBF07FC2BD0747C2BC2F7388BC4DE7E43CB73276BABCE7873C31F60B3D01F1C73B2902573C147B143C933648;
	14873 :	3C9C63F03BB2BC1F3C80CA51BBE920B1BC920736BD5E880CBCA55F85BD24D99EBB01C3F6BCA91F6DBCFC732A3BD54BA9BB0A86F03D25ED0CBCD0D1F4BBED7872;
	14872 :	3D09F1BEBC28793C3C258D26BAB4C8E0BD1C4F8A3D4BB454BCA01ED43B872564BC878A33BC99B8DB3D07B74B3C3CDE28BCDD328A3C304A96BA3A12BB3D2A17B5;
	14871 :	3B91C04FBCC19B6DBB76E581BC5290F33C3A1B6CB9107B883BABE05A3CE072B63CD7BBAABCAA518A3C4E3C35BB8EF553BCBA1D98BB9A5E123CE6C99ABCD96B35;
	14870 :	BC8C769CBD258E01BD37FA2E3BB83FA63CAE3AB53CE0938EBC6FCE3F3BDB7870BCDB74B5BC214EFBBD0C13CE3B1C6049BC7C42763C56A200BCD17AE7BBDE3426;
	14869 :	BB27D389BC31E62CBC84136D3C3F0A13BBA61B8BBC6B88023C199FAF3B80E2083D032A853CEE16AE3BEC88FEBB550D0D3D1641593CD383C7BBAB318A3C70703F;
	14868 :	BCCBCEF2BBE965643C790253BCCDADC83C76A68BBCC8EAED3C17B4C03BCE80CC3BD1D3F8BC2CC07DBBA94FF5BB8E4E4C3BED18BF3CE0D94E3CA0D6D4BA91D017;
	14867 :	BCE4A267BCC31FDC3C45D52D3C1BC43EBC358816BC26460E3CA0CCE63CC56993BCC6BBC1BC440C99BC8B4A71BCD1757BBB2615A73BFC1415BCE27E11BBC914E0;
	14866 :	BC978968BC9986B1B9ACA04E3B5740D2BC1F5B9BBC4CE553BC8E4C98BB31B6BDBBF7E8B1BC545031BBDA5EF13C5E1D44BC7FA61ABB8A4A5ABB01E83CBC8C60ED;
	14865 :	BC7C666A3CCE01B43C7FC1B53A94843E3BA0EA183BEFE4D03983DFE7BC838826BD10FF2A3BF4B0683D1FD70638E552BABC728B92BBF7DC08BBEEC56A3B844454;
	14864 :	BBEC9154BCA1C3DA3C6C3FA9BCE482CABB53DA65BBA777043CB530A73C4F42363CD02A51BC8EC094BC8F53843CBFF48C3B9E37193B7A973EBCDCE469BB6D6D56;
	14863 :	BB8D503CBD25E4CE3C844D2CBC425E03BC932F913C86739CBD05A64C3CC1BCCC3C6B8C903B0E32E23C90DCC63BC07CB03C04C89938ED674EBC1E4667BAFF3365;
	14862 :	BABD588C3C63ADA0BC55BECE3C923FACBC856F0DBC5906E538822B64BCCE42FC3C5474F2BB1E9347BD09DDD53BD97B3C3C82EAE53D00F61339C564283C807642;
	14861 :	BCD5AA0D3C89F5013BDC24F7BD0359D13AA7E30BBCE5645ABCFA9DD33AEBEA1D3C1E3829BD4FAC11BC5E44F93BBC9E9D3C913FECBC0E988F3D165E0E3C669FD6;
	14860 :	3CDCB9E4BC29E90FBC8BBA193B9F377ABCA73507BC43781F3C132959BC38CF99395522A7BB3EDD9E3C25D5BF3A7D13C0398E30E5BCDB86223A42E40F3D541F94;
	14859 :	BA9AADE1BCAC01163CB1BE1F3D0382ECBD35C3E0BBA58AACBCB5C81BBC1AF325BBF159D23C8A6B2F3BB23FE3BC16233CBBC0D2BDBD60CD1B3D276B9BBC0FD753;
	14858 :	BB6E76EBBC7FF4D0BDA8B9ECBB91817FBC7B45483D05DC34BD163B823CCB80CCBC0E81C53BCC2768BC939658BB2BAC35BC835B843C295D00BCCF2E1EBCE23769;
	14857 :	3CA4A066BC83EA64BBD92D4C39BFF1DFBCD7CFE2BB091BF53D5176AA3C248948BD47FE443B92E77A3CD1913BBBE199F2BCCC24C1BCEB126BBD09B631BD36A283;
	14856 :	BD0018503D17F53EBC499E00BD0771143CFD52593CE02F473D2C43A139498F363D4178B0BC9212E13D45D97B3CD69E6C3D9D93313C0482EFBD2F6AF93C8B18B7;
	14855 :	3B7B41493D2FD065BBF411D03C034C573CC1DD273C6C257DBCB4E22FBD73EC113C6D62233D6CD4223D105298BCAE271EBD044ED8BC830DF73B155F26BD43BC68;
	14854 :	BC3B2A783B587DEE3D350FB83D0A5238BD94AF56BD1023C4BD32D042BC90EC913CC4E0B93C5A46CB3AE1F5E3BCC75C41BCCEF2D33B84053DBD0ADF8A3CC74996;
	14853 :	3C4822723D50A7D1BC73DA7D3CCF17F43A1E6D74BDABC6803CAF050A3D254060BCF91898BC2E567ABC3E8EBBBD1AF56CBCC4D7FE3C02A1DCBB00FE1FBD1204B5;
	14852 :	BC4DD4AD3C8E15F73B5DCC43BD6FCF143D8DE98F3D8E3D2CBC21F537BCCCDBD43CF74AAE3C9805853B7AB6E53CA0AF783D01C523BC6E83D33D32EA0EBD06C9AD;
	14851 :	BD63279BBA02047B3BFB7FC0BCAF1CF1BC978FEBBC60445ABD031332BC5B6B643A7BD61CBD256692BCCCB004BC816B4C3B3F8AC0BC7CCA1ABAE121493BC5A837;
	14850 :	BC0008833BEF5B483C185AEABCC5BDFA3D102F3C3CCBE47BBD11B3E53B6814513C67DBBFBCD17AE0BC6DB1F23CABFCF739AB3DBCBCAAEC95BC1545F23D12D7E7;
	14849 :	3C96A33A3CEFD6D73CA72195BC9B06DD3C6F9073BB75461A3BD0649EBC84BEC7BA945990BCE3C975BCFF9DB9BBC237F0BC32CB603D360349BB6E7E58BC53DD2E;
	14848 :	BC0548663CD6CF193C39BA34BCBCAEEBBD500DF03B6425E5BBD1ED06BD609982BD45E9F8BCD43635BCE8412D3C7668713A260553BC82EA433B3702B13CB28BC8;
	14847 :	BCDA8697BC89E2813CB48BC33D8E217CBC10B557BA2F6432BC4DF3693AFC35B03CEC3A753D477FB2BD60D46CBD301FEBBD40FC1BBD0F875D3CA5FAB83BCA0B60;
	14846 :	BC6717B7BD09B111BD63BD203C14B15B3C9523023C95FBF33C8750DB3B4E6C323D457DB63CEEDBBCBB87C494BD32C2F93D23F63BBCB1E121BBBBAFF53B30DFC9;
	14845 :	3BBA3E353BC8931B3B7B35FBBD1E4A9FBCE26DABBC95FA33BC9ECEBC3C00DE533CED40403C2391C0BD4FEE303CA899483D1AA5CE3CAB311D3C0776823D1FF0CB;
	14844 :	BD1278E5BD03CE87BB1952603C39F27FBC6B021EBCAC6DC23D83F3153D057D2EBC767B60BA18A1BABB84BDE93CF0C1673D4CEBFBBBEE934FBD4293B7BD2021AC;
	14843 :	3D534F8B3D5A377CBA46B51ABC2E3651BCA251FE3D4BD9BF3CA2DA013C6C7110BAAA22DD3C6C3E2A3D908A01BC226DF53B424AA3BC5290ED3CCF5CE8BC7A701E;
	14842 :	3D6A6896BC70909BBC898BF7BD2CA4ABBC8CD72ABC8CACE33CD6AC60BCE7AF7B3D20B429BD764FA1BC613DD7BD1E10BABCC7D40F3A02AC4B3D59FC263B71618B;
	14841 :	3D468490BD6228D0BC57AEBBB99CE9403C4F77873CE9FB1E3B91219C3CDA735C3D799478BC60DF7C3BFB08CABC85F5D23D6F5DD8BD0958A9BBBFF937BA95CADD;
	14840 :	3BA2CF413AD1ACCDBC1EB41F3CFAC8B03CF594B43B8FAD013BD461F4BCB2A6B6BA779FFBBC530C003BC718A23CF03C07BC17A782BC2965033DB79886BC051AE3;
