-- begin_signature 
-- ddr_init_ins_gen
-- end_signature   
WIDTH=512;         
DEPTH=15558;      
ADDRESS_RADIX=UNS; 
DATA_RADIX=HEX;    

CONTENT BEGIN       
	15557 :	BE036BEEBDFEDC32BD7E0316BC94BB4F3DB09AC83D1020CB3DD0CE4FBBF0785E3DC4029F3E11A95DBE009347BCD078FDBDFD6E83BDE5B27B3E87AF2A3DF112AB;
	15556 :	3D21FACCBD0DC93ABD129FAD3DC44F43BD7A97F4BE81CC65BE4D1D21BBADD5853CCB35AEBAF04888BBABD9183CE4E503BD97F2133DB7CAE63D7AB3C4BBCC50F5;
	15555 :	3D9D30773DA81E27BE17DB463CB28F2C3E433A403D3B906BBCA80F0DBD5B122A3E67B6F53DE83796BD94A4CB3C38B1C53E4726CDBDC5DC16BD80884B3DC4AD3F;
	15554 :	3E7C01303D3E60723D8FF9003DF2C6AB3E001EC9BDF1A7123D6B147FBDB8D1F7BD859CEC3DC14597BCEFB06EBBB251D7BE24FDE1BC5D451D3D04DF93BD23462C;
	15553 :	3CD65A38BDDED9713DF7ADF5BE18E5F43CD98690BE1A3DC7BE0F49703C3C94A73DEC4C70BDD89C913D821F95BDDD236CBDFD1256BC7F5304BDD41110BE075A7B;
	15552 :	BE19C9C8BD8A83593E029279BE2A29C8BDA921433E04A93D3E1A10D53DA12A06BD5994533CD9F64EBE3B772ABDB958E33DD5C5E23D6B9D2BBE28666BBE5CD7F7;
	15551 :	BD391D8A3D2DD74FBD991EBEBD047C533D673EEE3D7A50FEBDDC1B6A3BB7A923BC490C6E3DDE3AC5BD026C48BE6CF0C83D078D6E3CABE486BD79920EBD29C5D7;
	15550 :	BC9C3DFDBDAC47263DE6ED9DBC61529D3DFD07BFBDD25EE73D2F5FA13DB87C413D7F0F563DA04E393DD9B497BE0E4318BD19702F3E73EA393C544DF53D518A1B;
	15549 :	BD6895413D12EC82BD143D17BDD0EF29BD4F340E3DC20D23BDF1F51FBD223677BD85C7DDBD9993053D75E30FBE5DB852BD98C7FDBE069E7F3B4B603B3E4B01EA;
	15548 :	BE0A4712BD242BBFBDBDC223BD4999BF3D14DC7E3E000A603DDAD492BBE028323D42E680BCA07FACBE391013BE029025BDC6D227BE444FB83E2047EC3DB37978;
	15547 :	BD19F1D3BE703EA0BA06EA7C3D3F7348BDE623003D270171BD642E7ABD7F80333CE36EEFBD0058513D642724BDA889A8BD2630C33DDBF1543CB268B43DC35F15;
	15546 :	BDFE570E3DA731A63E41965BBD8963B83CB3FF24BD49EF26BD6D9D1CBDC0A4A3BC929E843E24DA2C3C514F00BCAB1DBEBD82A262BE2D13C6BD43F6ED3E2705A0;
	15545 :	3E1C080B3DD0E198BD97E79B3D4BC4F53E129E6ABCE2F8C4BD80AAC6BC5F0E70BD5787CCBD36A6303DE9DD313DD413973D2B704CBC2C2602BD6004C6BD72C067;
	15544 :	BDF4C7BD3DC179E73DBFD7133CDCF02CBDAC07E7BCCE23F43D7AE00A3D8E399E3C6FF4133C8CD0B5BE7DAFFE3DF845DE3B20753DBDCB7409BCFE50183CA90EA9;
	15543 :	BDABDE7C3C5D7D213D3525393C86EDC1BDD143D1BD5D3838BE88C62B3C995B12BCF0BA213CC27129BE3A724D3C8F36CBBDB422783D81B7C53CF09BD8BC35E52C;
	15542 :	3E1027A4BC85C7B1BD0DADF6BCF1DC793D979CE1BDAFCFA83DC087863E3EB4A03D935D3ABE6264E9BCAD300F3D3B35143E19551ABDEFD7C53C9907D13DD63697;
	15541 :	BE7CFAEABD0FFF3D3E281E883D88A1013D1F4A67BDD79DF0BDD8A1F23DCD7176BDDAA4513C943AF7BD235F8DBE30FCE03DC7827BBE0EAFA8BDEC85BA3C2E9ED1;
	15540 :	BD931134BC8FFDE33DCFFF233D74A2E8BBB655E53D01E7FA3BB8C17D3D14058FBD93C61CBDF42584BD5E117CBDBB7D06BC92FDAD3D88E52E3E5FA1263D2EC788;
	15539 :	3DA4BA1EBE9D0723BD6100F03DB907B03E4A5B9F3E489C21BDF30131BE4FFFE0BDE402783DFDEB0BBD5DE42E3D7238683E2735A33DEE23C03D7679AB3C4194B1;
	15538 :	BDB7BAAFBE414725BDED55773DEAB1F7BE53DE7DBD4AE9493DB343213E05C410BCDA830F3DD1477D3C90D4D33DACD0993E10DDEFBD363D38BD912D043CEC5531;
	15537 :	BD38D68E3C02351CBDE3CB67BD15BC22BDC8EF5EBDF997B13D26ED49BD7749833E57B0A3BE259B61BE1227E1BC8CAC413D83748C3C0779EF3D5859C1BCB056AF;
	15536 :	BBE492A43D0666CC3E5053ABBC89E014BD7F0A2EBDF195B6BC28683C3D89EC01BD5E9E113C47739EBE3D15AC3BE24E12BE2390A13ADEF6553BFD3D2B3DFEFFCE;
	15535 :	3E0FF4C53DF46FCB3E4AD9143E0675EB3DA1ABAD3D98775A3D60769E3E04A548BD8FEE3E3DAF5B6FBCAC9B30BD6D2CDB3E3ADB843D83F093BD880C2EBCF040E1;
	15534 :	3E6D739E3C5DEE033E00AC9B3D7A4029BD25BD503C930AA6BE05E5323DE406393BD5A274BD9E1D40BCBF28F1BE5F6FDFBD638A823CA9577DBE0B24023E6CAED2;
	15533 :	BE0ED8C43DC3E597BDF034C0BE13ED213E3277993D27CABFBC962F4CBD35CFE83D6AF7D93E06D7363C94BE523DA04893BDEED7433D69FE4CBE1C507A3D0C56C1;
	15532 :	3D5EBC9ABD5690A1BD5E74ACBDC31F5E3E27A379BE5F35DE3BCDAAC93C5967193D4E0FEE3D752B9F3C404A1B3E19249FBC1A1F29BDC1A043BC2161D33D343675;
	15531 :	BC6EB1A13D8AACC83D3CAF3ABDFB83413DFFF05E3D9B99F23CBDA5C03DEE10013E3317AB3D8D1F263DA79C49BD34D4C1BCE255463D8963DBBC2F6D46BD80CFEF;
	15530 :	3C8889F0BD940EA53D608A693D7257B4B98091703DCD3BE23C53AD543DB31A80BDB290A93D8C638EBD9BE0E33E3C741A3DB87BA83E39FE23BD30D97E3DC22484;
	15529 :	BD9B4B01BCC185CEBD69063ABD169700BE09AFD8BC619ABA3D9E55BEBDC8849E3CBB3CFCBD9149ED3DEE734C3CDB11EC3D6D65F43DC6FF27BE262F233D51A5C0;
	15528 :	3CB5E569BE6DBBECBDAC4DFEBDE202B8BD56297FBCDBCE5C3D82D6AC3C898A57BD4E885A3CEECC65BDB7FBE9BCE0C7A13D9B91F53DFF96FB3E3B74B43E1B4363;
	15527 :	3E0205EDBD1DBF1A3D72C3093D4B9692BD7B37123E134FF0BC010DCF3D2903293E0BE3493C79677EBCDFAC7EBE1972AF3E6C6CE5BD91B549BE1EF9BF3DD2BD0F;
	15526 :	BDA92BC13B5029FABE09F4EA3DE1A801BCFB3A143E1B2AFB3D8EFCD83D1B67F2BD107272BC8A35633E3D5CC43D30F2773DCBECFEBA265C01BE3AE931BE36DC7F;
	15525 :	3E72E4ABBE2402783CCDBA8CBC1765003D34EE463B1197A53CD2D3C63CB867ED3DE0C9A33D6E8A12BE20FF7FBE01173ABC8D748F3D7F67473DF63EE0BD91599E;
	15524 :	BE13A6A8BDE852CD3C97B58F3DD8ABCBBDD0963BBDC498773E1697743E8C5C1FBE07D121BD29FC703C507A8C3E1CE74FBD86F4A1BD9EF6FF3D3037223A31C58C;
	15523 :	3D6912353D18CE8ABE12DB333DCD4E74BCEDBB133D9176AF3CE54169BDD3DEE7BD5182133D87D7F73DBC2609BC92695C3CB1278A3DF0E259BD874B5ABC154B2C;
	15522 :	3DDBB08B3D0C79B83DEAF841BD8CC5E53D65D1EF3D26245FBDB6D52D3E4873DF3C658202BE3CD7ABBD8E1A073E03E77F3CEFEC2F3D7CE39DBD998B10BDEAD3E4;
	15521 :	3C12A04EBD0122C5BD1F5E7CBDA27194BD3A54E0BDD50B7DBD8DAB8E3D0A5B3EBCB641333C130CD93DC7E47A3D965FE8BDF96C1F3C853C613DF303EDB916619A;
	15520 :	3D8A6A6B3D04BD2BBE3291F03DBE0767BB8CE531BE2B09DBBDD73C5F3D9BCA7C3E6A258FBD2143563C8BA2B3BCE8C5493D0146A2BD026A39BD5379433E27D445;
	15519 :	BCEEB9763CA3917DBD491A4C3E1DF9763D170435BD49B1963C651199BDED172FBDB4736F3D2532F53D1AF067BC85F6E9BDC9851FBDF11374BC10A96C3DAB48EF;
	15518 :	3DF0297FBE184A243D3D8FA83D6AA7B5BE01748B3E251017BD2681FD3DFB5C053DC909F1BD5061943E220F8A3D13594C3C9497283D9A8CA43E080D143D9076FF;
	15517 :	3CADE40D3D568F73BE4F62563CC27AF73DF05384BD2A95AD3D1658E4BD5DB17B3E6114FC3CDE71D93CC0CD17BE24388EBE02FA71BDA48FD7BD8B5046BD43267C;
	15516 :	BE2EF445BDBE2845BD8E886CBDD1ECF13C68B08EBE4D5F48BDC70872BD6A0611BC2F9158BCE66A27BD4FA1EABD5AC6E13DCCB77F3E52C68FBD8507793E11FB85;
	15515 :	BE1FF66BBD6C0093BE0CF1AC3E8046F83D923AD5BDE5338D3C62BD9E3E12EF73BD4BC55BBD83BCC93DB9C587BE01CF9B3E826206BE092026BD892AE13E03FA89;
	15514 :	BE4563A1BDD00A223C0DF1293C8163B03DF68C1D3E2D0C4BBD4CFC193DA175CDBD29FF063D8CD4763D423EE03CC625E3BDB76C2CBDF8E1FEBDA155CCBD9F70FE;
	15513 :	BC4DF6723DA5AC7C3D5BD4413D161855BCA0585FBD57EC303E1C194DBD66BE763E1B45403CD740BD3E5479FC3DC72E193E1561ADBD7A5123BE8D0E3BBD97941A;
	15512 :	3DC0506A3D4B0721BD99C8F83D9917743C847551BBFCE6F13D6BA5533D1937693DE7C88EBC093940B9AB8020BC3B64043D7B037DBDF5102F3DFD89CDBE1B63B6;
	15511 :	BE3DA05DBD8DF7003D311DF5BEA275C83C29EE2EBD35972E3E1163D7BCC925903D638CC73E008C003DE5FDF23D8C15283B5B37743BCE947CBD3D1C4A3DEC689D;
	15510 :	3E289998BD45687EBBF46A343B9282EBBDE89EAC3D5737E83EB66CD3BDD7EB90BDC62EBEBD1A251EBBC0294A3D7F9E4FBD018921BE06F612BCBC8770BD1038A2;
	15509 :	3D8884733DF14DF63E2F165EBE2352143E6B7870BD022C75BDBF9EA1BDD993D8BDC82621BDDFEE6E3C6B333E3B1831B43DFEFB06BD6804273E15538C3E83882A;
	15508 :	BE34509DBD72823CBE20731A3D4917893CB17E9B3C44F39BBC950B64BCF970373DDBFB54BCB56260BD93B927BCB1B0CDBDA5C53D3D3DCB6DBE00439F3E5E76B3;
	15507 :	3D96DBE4BD2C2E453CD0DF983CA8A5B6BDE36D6CBDAD6DCF3E31756CBC08BA713D42CB92BDF1528CBCD291EFBCCF47E6BCA6B5703DE0EF0C3DC1767A3CDD231A;
	15506 :	3BDA8DF1BCF9FD00BD65ED9E3DED11293E06B7E6BD512F353DFC6C59BD15A339BE338AB63CAC5042BD9F3CD3BC95D5D3BDED68C83DAA4FC1BD008840BD49F9BA;
	15505 :	3D957DA8BD877A5FBBE697FC3E102F4B3E799209BD960B713DB87618BDA311E9BD2D5A05BE01FC7B3B9452673DF3DD0C3D24FB94BDDB5B78BD9811EE3D51A637;
	15504 :	3DE547D83DD6EA55BD91CE3EBDF65A47BC71AFB43E4E33A63D8BE83A3E8A6E933E7FAD18BD88126CBDC5B3BB3C33D560BDEA1F4EBE144B853C8149BB3E30BD58;
	15503 :	3CFC93133E3FDCE0BD00D799BDCFB2913D9142D33B888A7F3E45D2653D258E043E301A56BB5FF1063D7221573B630E48BE8DBD89BE12BCB63E0FC013BD700DD8;
	15502 :	BC6324EBBCD4D27BBC60F4D3BD6F9E8A3C4679863DCFDEB73E1D570F3D7249C13BA5A5A73DA0B2FE3DDE85F1BDD53C97BE31105DBCEDD3BD3C8C69FEBD677853;
	15501 :	BD0958B53E4293D73CB83D59BDDB14FC3BA23560BE1937BCBD81D887BE5DCC863C077E513DA559703D67FA4D3E44F71CBE05E498BD2940D6BD8C857A3E184E5D;
	15500 :	3DDFFB43BD15C9513E3541043CE3B541BD63E1973E2F54883DA50E8ABD870D72BE1C89BABDC637FD3DAFFA93BD70F88FBDBC34E93DE76218BC9B46EBBC31EAD9;
	15499 :	BD6A424A3D82D9CBBDE7288B3DF0571CBCF5B076BD412594BDB4FD3A3E1724DD3E76D5A7BDEB7A80BE3D7619BDAA13403CE31EF2BD807DFC3E7D9242BE1FCF87;
	15498 :	3E29B1DD3E38470DBE167EF4BE24B0723D4E7627BE36570B3E0A7018BDD0DA32BE5918023D375B13BDBC5D68BD8E05DA3D9D26B33D36903DBD14C76F3DD7650E;
	15497 :	BD5FD371BDBF988F3E2682C73E22FE6FBDDEDB3E3A1AD37DBDC838CBBD2D66DDBDA161153E582DE3BCEA70D5BE1396BABCD08D6DBD1A48B5BD9085C13DF60D2B;
	15496 :	3C21FB93BD9CD3E4BD88466C3D0AE9A0BDCD1FD63E17E1803E58990FBE0564283CB2783ABE16343EBC1391863C535B203CE86825BD104254BD68D710BCF5B851;
	15495 :	3D880B4D3E4D160A3DD7EDF9BD872E2F3E0F72B5BD7C24EA3C57D4263DE7E5ACBDB395823D9D7DEEBDA228353CA82B02BE401777BD738269BBFBEE9EBDB4341F;
	15494 :	3CD0EB4EBD6EA25A3BD98635BD849E2DBD03FDAE3E08AB16BDCAF0D4BDFD983D3C9BBE6FBDA22249BCE186873CABC4C8BE884090BDF35B1BBDF94A5B3E5740E8;
	15493 :	BD292428BE1E494A3D6A7453BC355CD5BD7945333DA724BF3DD3DF2E3D77C8B0BAD6797ABE841EC73CE0FA303AB3279B3DD133B13B085CD1BC5EC962BD825667;
	15492 :	3CC7B3653DA1A30E3D466388BE15BB0C3D234BC5BCA7FE6DBBC9381CBD656FF03D4562913D737EA83E02C78A3E1FD8AE3DF0C31E3C362C5DBDC598043D211AFE;
	15491 :	BD9BE505BDA7DE63BC7353833E16F0CBBD9F6E3ABA036B06BB8CFBD63BADC82B3C21D1353DCFA14BBC345C7C3CF2E4DF3DFFAF5E3E5AE5CB3DC3CC9EBCCDE73B;
	15490 :	BE19CEB23D85506C3C6D91643DD0909EBE3452D03D5C3DFABD6961953C57D986BB2F76993C826C3DBDC76FDB3D94037DBE41F8D3BE3895B03DD47DAB3DB798E5;
	15489 :	3CDFAEF9BC1A05333DA521643CA5FDD43E02EA593DAD39C03D581C4CBD4BF7D1BB8E93A7BDC225DA3DFA07C33E2326F4BD34522E3C85C4C83CF3B935BDD34066;
	15488 :	3DDC20EBBDCD56573D52E1B13C89BC2C3CEA35D73E4BA49CBDAC90533D3FA3073E29F5B2BD7159523CD01FF83D732570BDA711843E3254E13DBFAC52BDAE33A0;
	15487 :	BA7CC6EDBD8CAC863E0F0EA3BD9796C4BC011C68BD05124B3C349FD3BDEA8AE3BCB115CD3D54BA403DB2F04DBD9E0D3ABDCDFDCEBE26DDA13CBF75A6BDBF85BD;
	15486 :	3D416E5DBCFB3F14BE25B32EBD4FFA093D529480BE33773F3E49C334BDB7B5D2BE4490863E27DE7CBDB47D223E2B0776BC9359F43D55A54B3DE7C48DBE041615;
	15485 :	3DF9D115BCD3ACF8BE1915B5BD6563E9BD9F2BC13E5F59BD3CDF94B4BD6F7C2C3CB11853BC83A9523DF7A6BF3CA4200C3CC69D7E3C54F4A23E0EF8763D10CEE4;
	15484 :	3D12CB913D1A5BA6BD82CD6EBD87DA0F3D9268AC3D004B4B3E612CA6BDD5F92A3CD5102D3D17CFAABCE96D193DD3307A3D98547F3DD71E4F3DA48BCB3DAE9B49;
	15483 :	3E26F17C3D7F0F02BE6E7ED6BD92E5EC3AF9CF81BD16FB6FBE1F9E21BDAC43BDBD409B3F3D5237AFBE42A1FB3CD388D4BADD8D743E09A2CB3BC91C80BDC9AA1D;
	15482 :	BE33CBD93D8284E33D5FDA4D3E0143883DC2DC173C099F573E1DE2EABCF485553C456D8F3CB549173D9774B73DF2659B3D8044113E000E47BBE2482D3D532366;
	15481 :	3E66930FBD9292B43E07CA3A3D907ED73CF2E6283DF0E161BD1601FDB93E0FF5BDE4ACD33D98F4763A5BE6503E417439BDC48FB13D8698313DC6C1E2BD5F9970;
	15480 :	BD79E153BCD711143E46DE53BD4EDF363D400B603CDACEF73BCC8FD73D66F1F8BE40F40EBC83FA173C6356F83E376E15BE2DD65CBDE20679BE353F353E24402E;
	15479 :	BD6C9460BD7E2A1A3D9E0AE33D76211ABD48133CBDD153A9BDDA7D433D81647FBDA4ADC83E14D35F3C3FA0F93DC2FC0F3DF4B5143E487CDDBD9B7D0DBE1BF0A3;
	15478 :	3DC14444BDD9C9653E39E6D23E115D283D5FA85CBD6475423BDF0714BE34A1883E4B66FABDB7FC0C3D5AD766BAA329F9BE3CE9D73D3B114EBD7E413CBD37FAC6;
	15477 :	BDAC8D653D2DD2A1BC81EBACBC2258723D7B5F10BBC4CCE6BCD9D180BC4548583D6D7A9A3D54D5DB3DCDB9DF3C4267DABE49917BBDC7D933BAECF06E3E647A2F;
	15476 :	BCABBEA63DB3F76FBD8DB6B1BD7643FEBD5877513B80038FBDAB58873BE49074BC47EADF3E0BB3D7BE0C5EC83DBD6C053C52B8B7BD9EC6E2BE0B9F35BE0CA40D;
	15475 :	BCEDAA23BE1D7E4C3E2E07303C5F91013DE58CA23D42AAFABDF104F93D44252B3DFF68C13DB453BABDC0B9193DE98865BC89EFFDBDDE714C3E0B509D3D120876;
	15474 :	BE083FE7BD5558983DA48EB53BE27AF23DC7BC533E2AD545BD8DD69ABE1F9549BCC205BB3E07F8A43D855967BD45FACE3D954533BCE0A812BDB233D83C637774;
	15473 :	3D39C3C1BBF816473DAA509BBD6668163CA076693E0830A7BD4909ABBBCEA5DF3D0F9148BCE25EDABD7B8518BC22713BBD775B6BBDDFFA75BE3F6C2EBDC68FB2;
	15472 :	3E06BFBEBCF60509B85813AE3E1E23E9BB306C673DB6963ABBEF0338BD8154CD3DDD2887BAB0441D3DF2FB81BDA2B8043CD6D4AD3D2F1926BCE2EA21BDA08C88;
	15471 :	3C655FB13D8D4350BD1BEBE43CE11AB23E56800A3DB39426BD4C9D59BDEC355D3DB3A96E3D275CD33DBEDF49BD5FB37F3A8B45963E0C7FE43CEAD8293BBF2765;
	15470 :	3DBAD440BDFB9D10BD09711A3D0FE3C53E3E1CA9BCD283813D36D0F3BD89953E3DFB3C8D3C9D2F5B3CC03CE2BD370BBABDE75E2BBDC1F7E0BDF6AB3B3D9FD4E4;
	15469 :	BD8FAA7F3D8251FCBE1C9EBEBCBF3D09BD8AA9633D8E77483E237718BA4A9853BDC794EF3D31212D3D4817A03D0DB89BBE01E1733C9EAA803DD3D1B43D427910;
	15468 :	3D8798183D7087B33D00E6613DA988FDBE22A44A3DEC4A50BE130290BD9463E5BCC0DB4C3CF55B17BDCAE596BCE3C3F83CB7D05739FDB2C1BD461C44BD9E8AD2;
	15467 :	3BF5C3F8BD283AE53CDDD0623DE47F62BDEDFAB6BD1E31C13E229E60BD8A63D93D8BE0303CCE8A58BC2D92773E13376C3DBA8B033DFA6775BD8BB8AD3E72D463;
	15466 :	3DF9969EBD9AB337BD601889BDCC8806BD8C1C16BCCE30303D95855E3D98D7593E1F26E5BC24AC2ABDE3DC38BDE0117B3D2D5590BDE2A7C4BC8F66DA3E2E49AB;
	15465 :	3D1619813E012B053BF04CA23D6F60553DF4663DBD058248BD97334FBE6127353D9A08023D55DECABD85A1D33E0CE17ABCEF97D6BD6C66673D39A5563D468AE4;
	15464 :	BD578C47BCA8BEA1BD7309AF3DF38851BC9441163E16F52F3DEE5B7D3D7FEEC0BE2F753DBCD711363DB8D736BD3384643D1951703C799B473DE76FC4BD075856;
	15463 :	3E38553FBD9894233D6A7BB43DCEF111BDC39FEFBC9FCD17BCB526FEBD9BA4B4BBD3091E3C07F2DCBE75A5713E3C0FCA3CBDF8163DE167D9BD24BB3C3DB9FD51;
	15462 :	BE3F3CC2BE246757BDFA029EBE12E95FBD20C69EBDD78F9DBCD665F7BE3279F33DC3CF75BE7BB8783DB1E85D3D007680BBCBB7C8BC7439D9BD8F683C3C99A3EB;
	15461 :	3DA87A39BD8600E63E051BC3BD84C460BD909F26BED828523B542B67BD2770C5BEA0885E3E2E2C01BE165F15BDBF3A37BE0D47E23D60DD1CBE017E9FBD23111E;
	15460 :	3E208DD9BDE503693CB0E3F73D55D048BDDE32CEBDDEE1FDBC5C24BEBD941938BD6E4ACFBDA515E7BCD7BE26BC45AE47BD0FEAE73D26C0A83D0ACEC93DF7EF7E;
	15459 :	3E2C40ADBBCFD0023D8D24A0BCFFE874BD18D98E3D124694BD8D37763D897D713E0BB49A3D14BBF8BD9CBE613BB5FF23BE0369CCBD40C3E7BE9B369FBE03F430;
	15458 :	BB35C0D83E04A1263E76A7593DD5BE7A3DCACDDA3DD644E43E0046F7BC22432EBDDB079D3CA4FA763D2A67553E2B6C7CBDC5CB6BBB311854BCEB9535BDAE4AD4;
	15457 :	BC692E17BDB0A27B3D56588E3D9AFDE9BC5E1C11BD24D2583DA96DA9BD2871CBBDC7DDA23D97227DBD8BA7A4BDC071DEBD87BEFA3E197F013CCF4FE8BD51B0E3;
	15456 :	BC7E0C24BE063263BE1B19323D8DB5D13D0C2F93BD59B6B7BDAD7506BE1BD5E8BE0BBF43BDED4F83BCB02F2A3DBB14BFBDBA2088BCE511E4BD5517AB3CBF7C8C;
	15455 :	3D646353BE031111BCAEDD0DBD6ACA08BDFDC00B3D43F5E33E537BCABDDC441DBE5969B0BDA27C1C3E21850A3DB85668BD6B5C4D3C8F15643E19E0383C5378BF;
	15454 :	3D682E153D96ABE23E47A016BDF14704BDAA6F79BD321B463DF57CB13CAC61573D0FB4B03E02D3083D0024263DA38D303CE05F5EBCB85F22BE15191D3D2A9A13;
	15453 :	3DFEA8303DA4A75EBD7A7D6D3E514B44BE18D94D3E1537EDBD533AEEBD98EB05BC8E51543D2811F8BE4867A23B839FBF3E61C5F3BE301169BD5AD1E33BD941DB;
	15452 :	BE0AAFC7BDD531BC3C01FA35BDC52BA8BDA92FE2BD63DCB03D8B5779BE5A93BDBD280CC93E4A50CD3B84577EBB424E4C3D23CE453E9E3185BD0D2AEC3CD7EE15;
	15451 :	BE0DF43ABD9A18513D951D3DBDB8B7A73E25FB39BDA4C6F1BCF7D5F03D4D1BFC3DE4780C3DED8C01BDAFF79ABE35E068BD0CB87BBD6F286CBE86FC563E8CD081;
	15450 :	BDA965573CEFB26CBC44DFA53D18C0CCBD216DCBBD463B50BE405F56BDAC651ABDC98C8E3E99EC89BCE53E41BE2BEFF9BD8B3602BD832C763CCDE064BDD50DA1;
	15449 :	3D3F52DCBE178B18BBCCBC2D3DEE4813BDBF24893DBB81E0BDA4D0D23A8789423DAF544E3D0C38783DFA82DCBBA48F8FBD52EAEABDEFC9E5BCBBBA31BDCCA760;
	15448 :	BD322BD33D2EF5943AB5A624BE1CEDDB3DDEC8BA3BF77F3F3AE2BCD13D08C702BE1C9FEDBE8947A4BD4124523CF1A0DDBCAC4B3ABD4EC8D0BE7DC49EBD3E033A;
	15447 :	BDB3CE053E03C2F83DB66B3EBD9314303D32D9063D90DAD5BDE95331BCF1672C3C9C61813D687417BD7D2424BE201497BD9DAC6ABC1021A03CFDE2183E4068FB;
	15446 :	BDA03DB1BD9BA8F3BE24DF493C484DDFBDD644DD3D2DE46F3D1788743D9E2E663D99BD78BE4DA4373CADE7EB3C598FFDBC8948EABD7CF6CD3E525105BD5CEB4E;
	15445 :	BDEB3C363D4E458B3C77CA273E1C31EFBDA382013D88AE1D3E3302E8BB012CC23DA4488FBE72A958BD1C51C73D3C16293CDB29DCBD20AEFEBC3E6ACBBD0513DF;
	15444 :	BD68732ABDFDFDE23E1D35C83CB7BA2DBC3AB52A3D058413BA5E26E83D4B897BBD8B2514BDAD3B333CC6BD853CB3689BBCD8EF853CEAB231BE13F2C93C858DB9;
	15443 :	3DBC8CACBD86ACF1BDC050D53E34C94E3C4CC619BD3034ADBE51E704BC37CFBCBDD299C2BC3AC5743D6E7E5C3D1E6A90BD4A0DB63DBAD5573CBAEBD5BD7CFE3A;
	15442 :	BC084AFCBDBD69BA3D5F4F5FBDD253C13CD232F1BC1DB1703E016D1F3E784E443D27B3783CC275B2BD2972013DDAA851BDD782D3BE43BBA2BD2DC0D4BD4F3108;
	15441 :	3C1D6271BE06BA7F3DBEC3CFBE9104033CC507C33BB0E016BD501C80BD759436BE071A073D5B74283CDB6006BD0D6A853E0EAA49BB527D88BE0A3FE0BE029EAB;
	15440 :	BDDA26153E3BF780BD9FAF67BC99B8BCBE1360C93DE523D73D2B95E7BD56945BBC08736CBDB6D4FEBDB0D342BD932542BDCE60F2BC0C327F3D94C7CF3CCFEC29;
	15439 :	3E04D40A3D8501783DD9D74CBD773962BE0484353E0E46863C4077F8BDAA63A73C34A320BD5FE39D3B60FCDDBBF750083D9CF210BD18424ABE54199EBCC81216;
	15438 :	BE5CBFFBBE613F91BDC85A23BE386A4E3D2B6B7FBE53C2FD3DBD3A91BD172C1ABE3DFFE53B0B9F473DF04993BDDBE031BDECA40A3E3453453DF21077BD872A8A;
	15437 :	BBC8E3063D82F97C3C8BE10BBD5C01C8BE7519433D67520ABDDD968EBCFFFB09BE68E2B63D52B0163D0CAA79BBF06BB6BE2FCBB43E2F900F3E2BEF4FBCF9E0D9;
	15436 :	3D4770D6BA92A58CBDCED0963D3B03133E522B033E36A991BC88CBB43D485A4FBC7809DA3CFCA1ECBC7FC9763E199A193B7FAD0F3D1479393E01D2D63D31854A;
	15435 :	BDF35D76BBE23422BDD8B9DABD7E60A33E05F2EABE008A08BCD3545ABD9F9F573E208D663E115B613DC390093C055F29BE1013DF3DEB87F3BE04FEF93D3C1190;
	15434 :	BAA000EE3D624426BC2FDD893DAD17FF3E1C7833BDF98F153DC76AA0BE2F5F65BDA0B8353D5AF7363DBE1EB6BD547C2F3E196F37BE34B86F3DBB7488BC986127;
	15433 :	3B35F32A3D88FB703D9EFF5D3B0129473C7E46D6BD505638BE3CDB71BDFC68E0BD9475603D5CC2BE3D11364D3D620F2F3D38DF413DCA13F63DA238F73E330075;
	15432 :	BD0BA4B5BCB8EF673D1CFB7EBBD9FE473C8CB9EB3E5651B83BA4250D3D74BF883D180E3B3DD06C95BDB8328B3BFB2070BCD19D193E4D2820BE23B79ABCB41447;
	15431 :	3D0B8ED7BE491BCC3E143A73BC17543DBCB401243D2BE3F43E21D9CB3D5635613D607057BC1A8DEF3C257C72BDB279E9BD79D6283E851451BD6E5EA0BD49313B;
	15430 :	3D53F511BD374244BD9626F13DCB0AC73D7891D0BDD4C60F3CE27DB33BC60FB73E60604E3CD8C91ABC506645BE638544BD9C70E3BDB240083E4ACC9E3D40B0A8;
	15429 :	3C84120B3E3BF36FBC34993FBDCD0152BAF7FA1BBE166A4DBC7633903DA30F47BDE5B6D73D6CFCBD3C825AF1BC832C44BB0D4BB8BA7C7EDE3A3D77BEBD77689E;
	15428 :	BDA2598CBE021B0C3A61C65438CFF1B13CDDF7CBBC1F70CBBD5EA7353D55E5643E110C0F3BAF37B2BAB16828BE0C349DBE04826B3C8581433DE4B06DBD8A77DA;
	15427 :	BD1D30723DE8AB2F3C6CBB4E3E063D743C82A370BD40C4D63DE2E0F73D3C73AEBD45E9D53E322821BDF53A33BDDFE484BDD12DBB3D15A73FBCEBE587BDBDD82A;
	15426 :	3E1C20DB3B87110D3DEEEC9ABE47BCAABCBC2687BE6F4DEDBDEDB6AFBD99E0F23CA249C23DB06AAB3DA26F02BCA419ADBD96E385BD19AD453D8DD2073E3F31AB;
	15425 :	BC907B673D9D1FB4BC7DEBA3BC688FF6BD813308BE58FCFA3D8C2DCFBE12F8523D58640E3DC9C2DEBE0B6D523E15A3163E01B8D73D4092E73D68FE2EBCC203EA;
	15424 :	3C8DB6A23C9A3B55BD8597013D7D0E12BE4AF590BDFCFCA73E03102C3DB8E985BC82917BBDDB52823DC88CD4BDAE633EBDAA95253D0B5DC3BD8A97E7BD8E9964;
	15423 :	BD839433BD696556BD2091A3BD34F0043DB92EBBBE03C2593D9218FABC99D0E2BE095993BCD6C1133DD99F2A3D53C5E6BDE6B40BBE05BE86BC456F083E3C2D16;
	15422 :	BE3A6645BA41E8B03E597C303DBA43423B47285A3E127D70BDDA34383DA8D936BD0D759BBD91A93BBC6AF3D3BDC4630F3CC97FD1BE06357FBD8924FB3C8C21E1;
	15421 :	3D01496A3E9143A3BC220FBF3CB549C33D8E02BABB06E4B63D135794BD89FA1EBDD4FAF4BC3502F8BE05AB793E41F66D3D9469633DAF1BD23DC0E5C3BCE4CCAF;
	15420 :	3D9DBAB73DA9EBE2BCBF0C803E007339BD9084B13D0ECE963C94D5DA3E51B0913D76D971BBA3EE0ABD70179E3E362FD63E1653703DB284403CDE6291BDBFB4C5;
	15419 :	BDEF4666BE00B2E0BDB42A0A3D17A42DBC8DE861BD45F6A83D9F4BC83D7A1E9ABD675DEEBCFA5D5C3E090DD73E15E5AB3DF19403BDB2106C3E0A28953D8A17B0;
	15418 :	3D5A061CBD994C88BD05D8A33CA8B4A5BC8BFB363C519A33BE2D6F65BE62EB323C02A11EBD5ADAB4BD0364773CC2BCB9BE3F53283D5B5D74BC6190543D03ACC8;
	15417 :	BD36B502BD8D9F353D83E4823E20BB70BC6E9FFA3E0C3D44BCE3AEA23E5EC0B7BD17D3C43DF9AA45BC5D19013DEF894B3DA6BBC5BD49F22D3D981C2D3C32AA52;
	15416 :	3CC92DD7BDDA803EBD9904D93DE2BBF2BD992A15BE2042AC3D1C834C3E93643B3E05593F3E6D586F3D83652A3DA64610BE6F73563DAC30A8BDEAF37DBBA3FF87;
	15415 :	3EB610183D569DC8BE036931BDF257643E2716C93D96AB92BD76BF8F3BA19D0EBE3CCDCA3D9B48603CE48B09BDA25062BE3BD11E3DBF8D6B3E297EAE3D0EC798;
	15414 :	BB9ADCD5BCBEADFBBE1906963CEFF4E13CB5312B3D28BCD7BB60188BBE179F923C1C8FC6BC31C7C2BE308E9A3D72250C3D962A4A3CF2A2D93D4D706D3DC38FD6;
	15413 :	3D5833603D7896D3BD9095A43CB27FA43D390CB83DF9BAB7BE1466A43E1CFA923DE587C3BD12CC5ABD69E30ABD8009E2BE1667BD3DFADDEB3DDF77613E2208A9;
	15412 :	BDDC74A6BDAE939A3E1923E33DBF70373C0AC24A3DBFB1673D975708BDE0F684BE0E59413E2F3628BD034E243E2F7D92BC19D4813D7D57F0BD1DAEB33C708D15;
	15411 :	3DB29069BCB489193DAA50BDBE13D2673DD1E1983D610B75BD7B74023DE0B2E2BD2D54F93E8C8F693D6E3029BE04D77DBD82552F3DE7CC473DF7AC5CBD10EC30;
	15410 :	BCF67B06BE1C558BBDC65E5B3C5FA5CFBDE0AAC2BD13E6FD3E3834FE3C67C909BD9B71123DC47335BE28490A3D0673D33D5E09A83BC88416BD2AE9B7BD383ECC;
	15409 :	3E70D7703E6445CB3DD10FE6BD9813743CE6201E3CE250D13D390AB43C7541B5BE0CD4013E3752143D23FFC83D7083FC3D886F2D3C8928613D9D92BC3CEC5C94;
	15408 :	38E90152BE00AA13BE971C903E327BF03E3C5F1B3D8E0A62BD8A74753C97FD643BF330EBBD90CA57BE03AEC33E9455253D0776073DC42538BE2888E5BE1227B8;
	15407 :	3B5424B9BDD6C8A0BD93316F3E54165EBE2F72203D53073D3D072E8BBE4207103E2C17993DBD2225BB9C73D4BD90E1773D13F8453DAC43EEBC396AB43D0A26A7;
	15406 :	BDB6F0F33CC2E4FDBB8DD94ABC46F67CBE28637D3C4988D13D5178C13B3A4DA03D9C54E43DCC4B7BBE46D380BBE1446D3DA86B59BE2840A8BE2490E03DE0AC4F;
	15405 :	3D3AF40F3CE228A2BCA16B97BE3F1BF3BD564051BD098E3BBC155CF3BD51D936BCC290103DEB53613DA354CEBDCD365EBAF5DFB33D6602E43D8C9229BD935167;
	15404 :	3E32069CBDBABF863D968BF23E23F1EB3DEBF6CCBE0DE25B3D281DBDBDF58FBEBE174CF43D158CA4BDB30AEE3E8D85DDBDBE8AC53B73E89D3D32C87DBDDA9BD0;
	15403 :	BC45F6DD3E46AABBBE353C1BBD4FF0DE3E28D72DBDF6C277BD8755B93D8C6EFC3CE959723B85A6523E0285FD3D9A3D8EBD4117333AFD3D143DDA88273DB5D289;
	15402 :	BC8C38B6BDBC98B0BDC9B02E3AE871943E21F7FE3E92B88FBD750740BCBAB3A73D0DC8B33C9F320D3D1FB7793D9592883D5068793DDDD01DBD2BCA133D6116A3;
	15401 :	BD59F11BBD4F9C7CBDDC2909BD34870F3C2D71B63DEEC1BDBD560322BAEE1644BDA06E12BD27DF473DCA8DE2BD4BA63B3E2CF091BDEE0704BE1672C0BCA6AE4C;
	15400 :	BD823A15BE1989143D949524BDBC2621BDB4616CBD898C26BD9A3CC1BDAF8F8DBD25BD163D7E7B123D1CD1DABCD4BDDA3E20EF5B3C6E53C8BE0FD58D3DF1FC6C;
	15399 :	BDBD569B3D848D71BD3A62E43D26EB0EBE60201DBE294FE5BD0CD84A3E880ED8BCE2CC3D3CA624FFBD04C79BBD9DEEBA3E154100BD99A899BE103E093D8C648A;
	15398 :	BD1EFE66BD95BCB3BDAB79193D2F04B53DDCC612BD8709383D07FEA33C376206BDEE75DCBD72E263BDF3011ABCAD67D6BE571BB2BE133D503DCEE2EBBD9EDE8B;
	15397 :	3C11DBAF3DAEC845BDE5C203BBE183503E08DC43BB743E93BD2B2873BCFB48553DE9F1E2BE16B12BBD657FC43DFC417BBDA19CF63D839E1D3CA884913D34CEEA;
	15396 :	BDB39BE83D93533FBE04642FBD876036BD8EF70B3E35C14A3E14A9D6BCB3CE2C3D9D24FBBD5ADC9C3C297EF73D93448EBDE5ACA2BD25A50DBCE2C3E5BDCFBF3C;
	15395 :	3CA1E69EBD6A8B583E04C2443DB75F20BD1DF4653E005A7E3E0E79C23E1005B33D62A5D6BD57807C3AA969873C11B30B3DBA88093D4BC9483D4AA65D3E3D973D;
	15394 :	3E219398BD9369DC3DCF3E98BD896E283DC539873B9812AA3E4AD8BD3DC291073D5D8D85BD9BE5323DBB24CCBD4D0196BD245431BCFC0C3E3E5763B2BDCC7E59;
	15393 :	3E6130A03E80789ABCED2BBB3E40E0F33E0C8343BD7C167F3C333108BDCA96ABBD103740BC2F26983DC6E7C53C14C5113DD340063DCCDFCB3D24C376BD48DA3E;
	15392 :	3D8DF3F53D8D5CA2BE0D39A53D2FCF223D3435F03D282F183DA3083E3D9224B13E0A46EEBD4CFED43E1D789B3E21D5C7BC1B06203DC07D9EBC8F83723D89A4F6;
	15391 :	BD1E0CDE3E25A3673C87BB723C87F0233C975E8E3CA3CE7E3D6F4C2C3DE3C5943C4F2BF5BE183244BC2BAECB3E2E5A96BD37C38B3B7BD7FB3C1D03F13D935D0B;
	15390 :	BCBBCE04BCEFBB2CBC018C553DB5D1E13EA5BB813D637BD23E0CB7383D37B1CCBD14A5E53D3F78E3BD308B053E13F6BE3CF161B23D521ABF3D8109883DEE1CFA;
	15389 :	BE8D6D0B3DE8CF693E0F88853D842A813DF9E8093DB65BBFBE8408773D53255FBC3E9411BE0EC6B4BCB8FEBB3E87275EBD9FBEB6BDCE3FAF3E600A6E3B9635A8;
	15388 :	3E02DCCFBC4CDFAEBB9EC4B13DC05C8A3DEA4F33BDBC91663D9B43713D075E723E2A261B3C6D4C743DCC4567BD2F75F03D0819BD3DA60BE13D83F292BB6CBAB4;
	15387 :	3E836E1DBD4453FBBF0A71143DC012F73DABFFD63EA585C8BC9DA09BBCA2ADD63BD802E23D1B4A09BD36D67D3D9011CABBD59D7B3DD5FCC0BCB046423DBC57E2;
	15386 :	3E53E6ED3D42D7C13E14D6ECBD03D2193DF4E68B3DD9A15DBC9A1AC9BE01D516BE117F673DF1019A3DDF53CE3C2D7D99B887CAC0BD163DCC3D6C0094BDA8FD58;
	15385 :	3DD9CDB03CA5172ABBD276FBBDDCC153BC2DDCF53DAA7BF9BBB968A43E2D79023DF7F4DA3D8B1F143DA4FD9A3E30E7A03C61D4E8BC64D1933DEB6C72BD12E46D;
	15384 :	3A136FBDBD48677CBCEE294FBD00350C3D58C5883E48F638BDE8C1C43DD47018BDC0578A3E13778A3E1BD256BC840A003D9EB6AC3DEC6A5E3DBE19F3BBB9199C;
	15383 :	3DCD78283E275B473DA6F7FABD5056B83E32BD603D9946D83D8FC802BD2EAF87BC8A112B3DFC98233D825A0D3D3A52953D95E9703E323D783D805E313DEC1B66;
	15382 :	3EC400243A306C88BD06DE1C3DDDA04F3D0AE3BFBD8D48293DE334273E653D043CFDEFAD3CC64CCE3CD5D0E03B9B67D7BE2EAA5C3D9B095C3E089FC5BABBA1BB;
	15381 :	BD251668BCBC2439BDD4AB453E0119DE3D8D1F9B3EBCB3543DA123723DFDD9D43C9DB453BD0A2942BE2B69333D2A13973D97D9F3BD9F75BC3DCB0D8EBDB428F5;
	15380 :	3EAF1D00BC596D63BBC924A1BCDEF038BD084D783E1307C33E16552B3D236CF23D27B4BB3C3BA8B33DDFA9123D68F0553DF67DD13DA26E5A3DA65C753E234D84;
	15379 :	3D8EC25A3E53D2783DC0633F3D805C9F3D8A177C3E0A54703C9903813E592A33BD206A383DAF8ECF3DD0F43BBD7DD4D7BAFF4DD03C6FD233BCCB8C203E1E2EA5;
	15378 :	BC509EAA3E108D9B3E2CDDBC3D3CD50B3DBBE097BCB8E861BDA218FABD35C7323DA3E27D3E05DFF8BD4232C43D7BE9AF3DAB9B303D1B3E073D89D9803E0D0180;
	15377 :	3E1B5E7CBE0EEDF73D9D1818BDF26B01BE3BE9773E2D36C5BD45FAAFBBA1E83D3DF9E4723C6F6B3DBAF13F693D7C9ABC3BA75C953DDF9EE53D2E4F683E0E34AD;
	15376 :	3DDC3C903E1FC576BD102D0D3D0A8BF43C49AB823E15F0493E1156513E0F046D3D1D25CA3D9676013D43BFB53DD921A93E04A7DE3E129B0ABEA15275BC85C53A;
	15375 :	BCBFC5053CE783DC3DF1F4643D7C01F03DF5BA6A3DAFE3B83E2C0D94BD5F4B51BC25A30D3DA0178C3C6AE994BC9A07BC3D8F28B2BC43DB293E114E5C3D7ED2E0;
	15374 :	BCEBBE43BEFBCC093D07AF02BD11C52D3B9EA939BD9F8A25BD2757593D7B625F3CE8776A3CA122C23DCACCC83E26115D3D82B38CBD8768613E75611A3C9AFE77;
	15373 :	3D42EC563D71CD403DEBD12CBDE0B29E3D8B49E73E2C30083E0006E2BAE6C30FBDDB816D3DDF50223D00B51D3D3191C3BDE8F5633DB0B9CB3E07A11ABE005345;
	15372 :	BDBB1E943E0135C2BC8BEE72BC7ECF2F3A66822EBD3C31003D763262BCC99307BE501C1E3D3AC75D3C1E0AF0BD54D5833DA6408ABE1AF2B33CEBBA1A3C079E7A;
	15371 :	3E3187A8BC9FF5E8BC0B7D073CD8FBF83E8FE197BDDB4E2C3DEBF1FD3D0658C93D4A4F723C84C6593DFA132DBD6BBF843B722D583D8B6EED3DDA706F3E6FECB0;
	15370 :	BD025338BD6B00003CF400A7BCDF00553B03F582BCA0A895BCA34AE33DA15BD9BC8D7A903D5C7D373E0512F43B6C5CE53D03DEB9BC88A0713DC75863BE113E1C;
	15369 :	BD62E0C53D9D81583DED8C25BDDD13073E03B0993D48A58BBE087D3BBC550F523C60A3133D8FE57B3E12100EBD8C15FBBD8925BE3AACD8BF3E15E377BD228CEA;
	15368 :	BCA2D3123D462511BE1D06083E1324DA3D7A1AB63D3788543E4FC3073C1549D33DD743173E204F01BD96F3353C87F08B3D2F631FBD75CAD23E9979A63DCCDF0F;
	15367 :	BC1D9C5ABD426D8D3DA104E13D90BBDC3CA5B7EDBD1F23863DF30FA4BD2D71433DD7C8F63D9BB1443E5A08F03E875A0ABD09587D3CE294F3BEF66453BD5948A7;
	15366 :	BCC8A519BD1D6E363DCA35C7BCB0CCA4BD4644433DC9B76BBC3919323CE7C671BDA95B4C3DBF53453D120DDCBCF30B013ED9F88C3D0DE42B3A15D3733D238930;
	15365 :	BBE987563CE7C16DBD831A033D8345E43D98E4C93DD471BBBA8DE2EE3DD44AAEBC27E091BC4FFE87BE48D3523D4B41F3BD43DCF13D2045A73DC4FC953D5ED224;
	15364 :	3C02870A3DABA76C3D4293573DD635553BB6AFDD3DC30724BE33C6FDBE02045C3D9AF209BD16BB4C3D9F10073CE4B632BCA5EC693C8931E73ED10D8C3D84EF19;
	15363 :	3A9DDE90BD2BFCDB3DFC03243C7163AF3D7542693DD43C88BA736D4EBDCE5FE4BCBF3C93BE04FF073D9E41823DF076C83BCB56723D8E9C813C42525E3E311E88;
	15362 :	3DFF2B753CC356CB3D57ED6ABD4FC5BE3E83FF003E3DA36F3DB552CC3D34BF743B672158BC9FC6053D2AF41F3E92CBFBBD38BA02BCE3A8E2BE086CD63DDF7ED4;
	15361 :	BDBEF7D13D9691F53D4C9FAB3C0FEC313E66B6C23C45655EBD9823C13DE1329E3E6242A03E6D4B05BD35DBBBBDDA0965BCD798A53D8EE60F3B9C4B803DA8820E;
	15360 :	3DEC14343DA9845C3E4798D9BB6D382DBDDD8D023C11688BBCB32D5DBD881F473D82EEEEBD4C9CBA3D734B6BBBA8A32F3D55EFED3C0AB6393D82C1C43D102886;
	15359 :	BDCFF83FBDC700CB3E0F5D373D6694DE3DCEF949BE04AE043E35DB363E26CBE73C6519873CBB75F0BBF0A7E9BD784AF33C8718C03D27D048BD91FA873C2C80B5;
	15358 :	3DE25C50BDF320583C3614683E210FFB3DDC1459BC9357FE3DCCA4CFBC86F3BF3D1E0ABB3DD127333E74E647BC305B45BC51A76B3E869C9C3B604AA2BDAAA2DB;
	15357 :	3D065A67BE222737BCE90EE73C1E908C3E6637E8BDCB53C63C0466DDBD55D53FBCF3E72B3A81F9A23E26F2AB3D275A333CC8E4C23D2DE7213C197CACBCF94325;
	15356 :	BD9DF765BD80B9C13D0A7041BB05C8E5BCA78D503DB307DB3D926E78BC8B0E4C3D9863F73B0301DD3E04F89C3C1C7427BD16CFD13C8D01353D2C52373D690282;
	15355 :	BD7A3B673CFE41213AF73E4ABD2B95993CF60604BDC975DE3E1822AA3E1A3D4B3E3954463DF4CD9D3D2EF6223D00C7003D094B803E3E0E303E1C2C803CB635BB;
	15354 :	3E17F9DBBD14CE8B3E7A7158BCC7EDD5BD69699F3DB005C63CE6D5183DBD85963E115E693E3F85AD3D146401BB00A49A3D2F103CBDADC1A2BDD1C9623C9F347F;
	15353 :	3DEBB3B8BD8123123DE5F4363D842BB7BD1EE6073D80655FBE2531ED3CE79BC5BC34C2423DBBF393BD7E66D33D8F960C3D696940BDA8F6ED3D8FCE113DDDB9AD;
	15352 :	BE093558BB6B211EBCEC95073D6F8A7A3D7BD323BD10F3CDBCF024503DCFDE563E13FE6ABD8212043E4109833DB6236C3D7CA7A83DE0F5BC3E2D1FDEBC7D7225;
	15351 :	BDA573483E0684C6BCE64E8D3D387E5BBDD0B7B4BD1FF7AABC664579BD279844BB4EA844BDE4D6703CC13DEDBD8899113D915218BD314261BD28854B3D1E36E5;
	15350 :	BD15609B3DDB532ABD66F2383DE9C5893E08A267BC30361E3D5523913E4F23C93DB57E113CE262F4BD8CE42B3D64E96A3DD3D6C13D794450BDB0BF573E37BB91;
	15349 :	3CE131813B9896FC3DDCC4803CC8DE623C77E0D8BDB6C16E3D4911C23D9F24193DA5006C3DEA4D3DBD0A73F83BF5FC403E0C2A2B3ABC19053D4E21D43CB5A1A6;
	15348 :	BDECA73A3C6CF964BD92505B3DD0C0A8BDCA3051BCFCC93A3C329E4BBC7BFD1A3E8825363DDA7B913DC30F613DB87F9EBD9D50EEBCCADAA83BA401C43E215F9A;
	15347 :	3CFF0192BE35CA753D8D3D643CE6AE633E0B14F23CBE853E3D49FAD4BDD16AE23AABA68C3C8F9A87BDF7458BBD29D8FDBDB282EFBED5CFF73DE7A5EFBE32ADDB;
	15346 :	BD0F568C3DE0C9BBBC7F8E4F3CF344243D984AFFBD1A5F1D3CD185203DD050723C06E4C2BDE5B9153DA829CB3E01B90C3E6D50CC3D8727383C8BFD6C3C7CF907;
	15345 :	3E52CB64BD5FDDF83E9974C63DFA79E53BCDBD6A3DD5DB7DBBF9497FBB0503503DD5DB5A3DD1C19D3D1E89963D09E19A3D6D9BB23E6AFE5FBE396B6E3DD9FFC5;
	15344 :	3E2FF30D3BD388C53D549708BC21B7FC3D0E20373C0067CB3D93435C3E1D22863D4B1A603D0100103DD7880ABDF5CC66BD3B3C833DD3625B3DB288843DDCA25A;
	15343 :	3CE16FE03D25ADB8BDE3E9693DA14B413D20F970BC1E94573E0CCE3A3D02DE543DE7A5BD3D5A6A4D3DB2142B3DA7F8193D3A108D3E0920A23D32CC623B0C7449;
	15342 :	BDF2526DBB38628B3E0E17043E0170A6BE02D2C33D3D198A3DA5BB1CBDD5314E3D2DFDC13CEEBF30BC97F6B1BDF5A366BDD5B3EC3D39FDDBBB638361BCDE3CFD;
	15341 :	3E399B6FBB3B633DBE219532BDA8966B3E105DBF3DF8C1513D8AEB5C3E9117193C12020BBCCB1532BCC79D5EBD611AD83D90E0713DF0D8B4BC9A5FBD3DB81EF3;
	15340 :	3D12F99C3C478EFF3E375EA9BC3A3C6ABBCFD77BBC796FCD3D9D8DE33DFF8BE03D9E6AFA3D911C713D5E8A83BD6192E23D4A17CE3D95A702BB7015FB3E2B3126;
	15339 :	BDB2AB1BBCB8479D3ED395BD3DCFDFE53D5C1449BDD34F923E0674413E15DE1CBC8BEB833D0ED6563D925DBF3D0AB3673D1DA40CBDA6EAFF3D120CD5BC2119BF;
	15338 :	3E0C3ED63D3C4BE7BC637D7B3E3D476BBE36C77EBB76B9CF3C15B25E3E345DB3BE0EAF9D3DAAAA4B3D9501043CA1F328BE27071EBDBE7D253DDAF7053CEFCBCC;
	15337 :	3BBC4E76BDF4D90D3E35EF30BB79E23ABE7A84ECBD5B5E5CBD4ED2C73D59479B3DEAE1683D9962F93C54CE0EBE237AEBBE4EBC423DCD78A03DA0749A3DA71CCB;
	15336 :	BDBA1976BDB08BFEBDAA4CCCBCEA06183C9E829CBE1EDAD9BE6FE37F3E403A0C3C93FDC53BD0D8993DC6906C3DD6BB3FBCA6CD62BD9FCD1CBE83413C3BF42DCD;
	15335 :	BD6723E73DCA9618BDBF5F1A3E45BEAA3D2FF0C13E94B6413D6ABDD93D2521693DCCFE4A3D9FA468BC79C3F33E10C28B3E88129C3B8638B9BDCDBB75BC8B565A;
	15334 :	3E57063C3E1D93B5BDD3C87BBD1DB924BDC33861BD26C3AA3DA743FC3DCEA449BDB439533E61BD353CDA1B56BD8FBFC2BDE83901BCF9359DBD68A2913D6279FC;
	15333 :	3DBC479F3DFFFBFEBDEA0E7B3E5D5EECBD19C55B3D4AD68A3D071521BDA5BDD83DE19154BD3E07E03E86D3AA3DC06E643C1C61B03D6B972CBD8314FBBDD32E90;
	15332 :	3D0073A73D3DADA6BC8481DD3D750BB63D83E06BBDDBC7C4BD84283EBBA5CDC0BE9A0B913E5189223DC3B498BCB49254BC760B79BB8B7C72BD2691153D1EBCAE;
	15331 :	3D89704CBDCC8A51BD86E55A3DF11CC8BDD415E1BDE9E172BE886B2D3DD48813BE9133413D9BCCC03D19BFE03CB229393E4A95A13DF6C5A63DC32E4EBE555D4D;
	15330 :	BB41B4AD3D86E3BCBE9B3118BDBF3DC83E1E5CDB39A4DD1FBD3BC4673E3583893E647A763D8D2029BDE4B66C3CDAB8E03DDB973A3DB5AED0BD19485EBDF3BFC8;
	15329 :	BC8AE002BD87FBFCBD98853A3E3FBFF3BDDCBA9BBD4369673E97C391BD9125AEBDB4AAAABE5FF2E7BE3A3C1A3D1972DE3E17F6F1BD09C7F1BD3479B73D7C63FF;
	15328 :	BD2926933D05B01BBD4B29D6BD1E25E2BB4FFDF13D55639CBA574612BBD3EAA43E82592B3D2BC8DD3D80DDE83D7C88BBBE820D8B3DC510393E1AD7223D25C93F;
	15327 :	BDE1D8273D2D3265BB8CA41D3D5F6BC03D2EEE583C312978BCD3D77CBDCEA562BCCBA39F3E30C6D53DB7474E3DAAE6E13CF660003DB09DE8BD57C7C9BE1D5EB0;
	15326 :	3DA869ACBDED6FB2BD1B4FE73DDDDB013E52CA9B3E52BE83BDC4A62BBCA80F413E3CA8353E06AD183D818C963C8CE1013DACC27ABE002B3EBDFCD0ECBDEBA917;
	15325 :	BB5F6F1ABD87289A3E1C5670BD8DEB243D82E94DBDCC4ECBBCFF5470BE2782E7BDF311BD3CC48BEABD87E899BE4216E3BD714BDCBB5768FD3CDE2412BE5BACBE;
	15324 :	BDFA2585BDD549053DAA1F9EBE5202AE3CFF2466BC94F18E3D7566AFBD3EC40FBDA6944FBDCB4C833DCC3DF6BD823AA53E0741303E416306BC9FF583BD19F3B1;
	15323 :	BC0D5B7E3E1BE43B3D565F923DB863F3BE741054BD180F5ABE70EAE03E07E41DBD3D2812BDF0D1093DAAF8943D08C7CDBE1C92333E15F39FBDACC3EA3DCDBDD8;
	15322 :	3D83AD56BDEE3BCC3DAEA6D73CEEA4793D15FDC9BE0ECB393E1BB6F1BC0A8FB33DFEC29DBE603B6C3D2EE30F3DDD571ABE0CDD6CBD9D8069BE47E5973DB22628;
	15321 :	BE37DB1F3CFFC4333DB8591CBE077A9FBD9E100FBD2361833E068D43BDFA52CDBC3C5660BE196973BD10F8E53E905BD33D3E56C6BD2E12DC3DD6F8C6BD9D87B6;
	15320 :	BD64F3C7BDC74109BDA3FFE83E05CF1FBDEC61643CF8F43DBDC66880BDF3264BBD6D72A43D296E08BCFF90A5BC57D90FBE085FDC3CF0D0E5BD287D5A3D7CA696;
	15319 :	3E24C0123D2817883DD5E287BB80C072BCC80998BD334E07BE36DFF63B61F521BC2ED1A1BD672B59BBD16695BBF3B2D2BE04E4E8BE157C9A3E1E58C3BD8C9C10;
	15318 :	3CEEF095BD8CAD30BDAA7A113DF0068FBCC5A5F4BC3DEA203E0A26CF3E4A86313D0569A43DFD43AF3D826EFC3B5E59F83DA4137ABD4C261A3DA59D253E812E64;
	15317 :	3D239D233DA53D33BD59A6E0BD07FD6F3D4408C0BD1D64D9BD0DE0EC3CA710C7BBF8482CBD83D9B0BD52ED29BD24049D3D9FE95B3D1E9E8E3DAB69A53D3FE6A7;
	15316 :	3D730A933D139F1DBB3D69D53E01288A3E3ED36A3D0DC8433D2E2D8C3D3B4D133E5ED5EC3C82F3093E721557BCD03FFCBC89617B3DD76D053CBFE6343C3AA57C;
	15315 :	BE206A433C5D1D443E0A76253DE4713B3E084276BD667A80BCE844413CD821763E36A595BE0567713C0017CC3939A8FD3D9DF22C3DC982CABCA6415EBE05921B;
	15314 :	BA940834BE25060ABD483EC2BD2819343A1E550B3C0C2F853DB18257BE69E0C3BBA79193BD5FF9143E058FE93C028A49BE065683BD887D1B3D3DD689BCFD3B62;
	15313 :	3D55F9273D7531A7BE338C05BD5101913D1228A4BD1C715A3E3D00D43D1ADED2BD3C42D8BDE529F33CC75053BE528D2BBD39CAE1BD667E8B3E7AE99B3E507A16;
	15312 :	BD7909A83D46E3FD3DAED521BCC86E3A3E3163493D825D95BD9C113D3C854D983CF7FF08BD473D32BE0E1B543C348D8B3E0CBD7D3DB3971ABDAD30FDBE18EE57;
	15311 :	BD0741F63D82DCB2BD63021FBD8F35A6BD8B06293D733D423DDFF80DBD00FB99BD54F21B3D98DE543DB61534BD52681A3D1AA6463C7D2661BD800A123D78FFC1;
	15310 :	BC357F57BE1E9DA23C1C9720BDCC0D353BAD5A313DADCD41BDE6C57BBC8912EABE6EC036BD762972BDF953F6BE576F39BADCB7B03D21BDFC3C73149A3D67926F;
	15309 :	BDECCE97BD1B73783E0794AD3DB04D8B3E360F6C3D53C5A2BD756348BDC73EC4BD96C91F3D21ACA2BD583D60BE1551B23BBD3723BC950EDF3D125C85BE21D658;
	15308 :	BDDD7229BC60495EBE4A98E3BDA4E0923E1A12A63DA134AD3CD698003D6F709A3D9E1C413D93462EBE16F245BE0AC86ABBC5F6333DFB0EFF3D7EC3593B007106;
	15307 :	3DAF70C2BB3559893D982921BDF6AFDD3D70C007BDD5E80ABDED7D71BDDB6E1CBD51FD91BE583B9D3BCC3FBA3CDAA1F63DE308043DF89462BC8A1DDC3DB73A95;
	15306 :	3D59C6EEBB31C4E6BDD786A2BD3D7196BCBD00C1BDB094E7BE0C41C43D694C58BB13255DBCE4E28C3C2CC2303E5449023CE014063D3AC7893D3165A33DF7ACD0;
	15305 :	BE378E14BD9A96453D93BE73BC1DEC5BBDD6DF883D4128D9BE09509B3DE14C6C3E56EF87BD557D68BBC57C69BE350922BDEF83523D018C4A3D464618BDEBD7C3;
	15304 :	3E4AB625BDC1369ABD59BC15BCA6DFD73E0CB07C3DBFC2953E13C90D3E21699BBE08B2B6BD98C02BBCA1C0EEBD2267253E2A419DBE54581FBC36A391BE29B62F;
	15303 :	3D91FAEFBDFF40D7BD170A7DBC839CB23D708104BC318FABBCA98DBABD224BDC3D50B2E53E075D223E2E66C53DA1DA6CBCCC62D53CD4D0C13CB758483C22D6DE;
	15302 :	3C8E2BFF3CB6E71F3D6D34423CD9A7FA3CEBB176BC2E50A83D64AA5FBDB120D13E845EFC3E25F25DBD724B5EBE35B2583DCBF5D6BD85730FBDF2EC393C564D28;
	15301 :	3E8FCD043DE80AFBBE27C0A43D4DD5CC3E398E43BE183F7F3CE0A9403D2D77DBBE5A1C783D38F53C3DAE664E3D6DA88C3E18581EBE2767FABBDCE07A3E015ECE;
	15300 :	BD230C583E02556DBCD12EEDBCDD69643D740C493E290D9D3A226696BDBC9C8C3D8E1AB93DAE8A38BE13C799BD5D7A2F3D8401FD3DADB551BCEF32F4BE2219CE;
	15299 :	BD933CEBBE206927BD9DD0AA3E187B1EBC6936D5BCF8FB41BD1E3760BD48827BBE3A6AC4BD629A3C3C869C8F3DDE63B3BDE14D5E3D5DD3953C37484D3E37A542;
	15298 :	3C6DDE673DB850493B316AD73CAB9C163C40EBBBBD5873203C9EF7333D5815F13D4DA539BE67BB523D234928BDCA80F63CA8ABB2BDE89DA6BD6F6FCE3DA49ADF;
	15297 :	BDEDC29EBD818C9CBDCBD02E3D3732EA3D5C3B1C3DB3FC0E3D7BBA13BC8D83D43C3CBDC0BD609EB73D2233A8BE0729803D0D0362BE1A7080BD14EFAD3DFCEF48;
	15296 :	BCEBFB3DBD1234273D971CD4BE2C1FCD3DBD0B983BFE8C43BE16FFCEBC747269BE69B494BC902EC6BD9CAB8CBCF5D4E1BE2F3C2FBD26FE683E041CCD3DDC8DFE;
	15295 :	3D453AAD3E23BEA7BC5AC4743D6A1D103CA556473DC290D9BD9B85853D85F5DEBDF6ED113DA56F653CC485D83CCCF5FE3D8500283DA4303FBB3C5E6DBD5045B2;
	15294 :	BE06CB673DA85AE63E8C7D713CA68B463E0FC1BCBDEDC7E43DA5AEC4BD19BCA53D137FBF3CF37D913DC3F2293D9BB7B13E2D608F3BB6E1EC3DB4CEE13C65791B;
	15293 :	3D1D3D683DCA452D3DFA6849BCDC3F353DC2BDDABE13998FBC6196C33E246112BC47549ABDF109473E0A0204BD87A7BDBE0F774B3D7F0CCFBD799A71BDC5ED3D;
	15292 :	BE34AB30BD30CE37BE1B4960BC1010AA3C81B8FBBD237C4CBB47318EBDF8FB1EBE42B235BC3ADD7A3C8DC11A3C42A6663E7CDE3D3DC994D23C6974EC3C4F63DD;
	15291 :	BDA042EC3E5199873D9DDDF63CDE5C98BCB3DCFA3E8F8109BD4222223C330683BE0DA7123DC6D7FA3CD1EE76BDDCDEA43E38B5B4383229FE3D23D4013D8BF75C;
	15290 :	3DA661B63E2FC83ABE01A3553C0001163E90BCB33D1E69B03D5A4F1EBCA154DABDD23B5CBE1BAFF53E0F68A83CE901F63D639075BD432F833E35EB673C0BBA98;
	15289 :	BDA74082BE0366253D9B564B3E7904653DD676A43D6D175FBC37D6ACBCCF9838BDDFB37FBDBBDE823E24CB923D105167BD1366EF3E92B4DA3B9DDAA53CBF7A62;
	15288 :	3C670538BE0263493E1F61513CBD8C0D3D4049B83CA9C0AFBDEDB0B4BDF6918FBD1C6DAFBDAA1238BC5827E5BC583F06BD56AFC1BDF3C39B3DD527A7BDADD2E2;
	15287 :	BC5C59F9BD7526AF3E1A37D13C5932F9BCF84794BDA3A1EF3DDADCC53E437D1ABD21F6113DC992763B05A9503E1A0D0DBDC2A8053D89DBB23E5FE3CC3CCF629E;
	15286 :	3BCC4DB13D354AD13E2CFC7EBDC880A5BE11C509BDD5015B3BCD45A73D5356643D655C61BD0EEABABDC2FEDC3D296C1DBE00FA29BEB5B7473D10C5C83E243CD2;
	15285 :	3E024A03BDABB52EBDDB0E12BDCF59A03E0A8B873D60A1D9BE024BF83D6C5EB53E013C8FBE4CFFDABE270588BDF5FC13BDA69159BE2C3AE4BE0271F43D8416C4;
	15284 :	3D60B2553D35C0BDBD0A27D2BCBB9B7B3E4977E63D836F6E3C45E0F8BD98D71F3C183950BE26CD893D610146BE22A5483D25A5043D6864B53E2E64DA3E832D79;
	15283 :	BD20FB64BD83A321BDB53086BE0A15D7BCA0B7873D8371B43D143F223D42F2A43C7369333DEA58EB3D63F6CB3DBE3134BCC3284E3DE959D93DEC3BBEBE02036F;
	15282 :	3C77C1B6BD6F8D4ABC952E41BE590F69BD3203F3BE2B91AABDADED59BDB4E6F83E3B9CBC3D5C943C3DEE2374BDFE69943C0ED6983D40D8CF3D18AA723D8C4C79;
	15281 :	3D08F5DFBDE90DE4BE01A68A3DF7635D3DEAC93B3E568B593CBFA7A6BE4185AABD5F44713B7DC8673D28E37DBD22549C3E0A2A3ABCCB118D3E38B59FBE0EE469;
	15280 :	BC59A9FFBE21B3FDBDF48814BC87303DBE466A40BBE946733DC6BD103DEA1751BCC521C33D3DD6CEBC6DBA38BDB6F1EE3C7573F7BD17211D3DB6B6063D513443;
	15279 :	3E1EEBF13D2B807F3D63FD4F3DF66EABBDCCC45B3E0C9992BD51EFADBDF9ED7B3C6DC91DBE15FB933D98139D3E02E684BD98FC95BC9C84B6BE13D269BD072DB2;
	15278 :	3D06E5223E3AA68D3E0925F4BE02F35A3E2120F7B9CA619DBDF5B22F3C66CCD23D40732DBDA6F99A3B1EE4F13D7E3E523E5E4AD7BD9B658CBD175DAD3D9D14CD;
	15277 :	3BE7BF79BC6193AF3CE72F81BD0703F3BD42E7593D8A192ABD6AC272BCAD6B2FBD8C69F5BC4FFC5D3D82C2353C908C9C3CA1E79BBE559FAEBE1F14083D32D5FA;
	15276 :	BD9B907DBD185DCABD1485253DAEF58D3C63D76DBE59211FBCD935EE3C041BC3BDC0B85ABD1888ABBDAC4625BD83C86FBC3AF166BC209144BBBB8DE3BE21CCED;
	15275 :	3D1F93DE3D5AC3C6BE5C0EA0BD1BD0A83CCE90A43DAB6DF0BB1C235E3E18E862BE027D7C3E12B955BD81447CBD79F86DBD5690883D21A65E3D2F5ED9BE3D75E2;
	15274 :	BAC435483D01A71B3C32DB07BA9D22773A406573BD227384BD741C8FBDAA85313DC2BDBBBD0ED7CC3A9C90AEBCF49CF4BD97CA723DDB2B2F3DDB4003BD46618E;
	15273 :	BE14F75DBCD6C40E3DDB0B05BC88CC513E11D8E5BC128605BD9A00E43E07E6B9BD33DD5A3D667B28BE0288943D28010CBB24419ABE411669BE87D056BD53048D;
	15272 :	BD591EF3BE0C98463D6E01A43CE15DFE3CED9844BE23A1033B1B137A3DCA556F3D2E163D3D11F737BDC84FFD3D849EACBD8790AC3C9C67A93CD390B5BD73C63A;
	15271 :	BE0D7432BCB558D6BDBAB65FBD983F57BD8B1D173E45DBF5BD801BEB3DE5CD2CBD1C42F83DC42E0BBCBC532DBDEB4690BD7280EB3D8CD7E03D985E683DB5772C;
	15270 :	BCB08F693DC53318BCC95ED1BCB5BD86BE1159E7BD908D843C0F821DBE244B993D4521F33D68EDC43E061058BE1B03F93DB8F8EC3C1E38E73D61B7C13D9B84DB;
	15269 :	BB067BA13C9D218FBDD564F13CFD63813D2122313DA0A56DBE0927A4BD04536EBC4010E63C8900403D849989BDA7FBB13D28C65A3E29C6E63D00D8CD3DB418BC;
	15268 :	BD1CCCE63CE39827BC2D0E133C05AEAABDA55B4BBDA0C18ABD32F3DD3C281BCB3CC4E31CBE4D7A8C3E6B5D893DF2951ABCFAB2483DD275C33D22602DBC881CEA;
	15267 :	BD41CBBABD921FDA3C72C0303D239D093DA2B668BE478A43BD4521813CAA428F3DA4B19CBD2BAF47BC71049A3BF9B00F3D801F89BCA79B193D8ED2A4BE43E588;
	15266 :	3C2191C7BD57DF7BBD298554BD5F42E1BD1700D5BB846722BD7C474FBD82D282BC869D2E3C340B62BC9E3BFD3D442B19BCE642E1BC06D447BDCC30213D7C7555;
	15265 :	BDA04D12BC50233CBD2580B8BCD20EEDBDCB0E24BD486899BE10A9DBBD744025BD14DA6ABDACD6A9BE20ED7BBE470132BCC784163D60D34F3D543F27BE1DE37F;
	15264 :	3DA61E9C3E4821303CA012773D1E5AF4BD82339AB8F34C65BDE835C4BDB4F75F3DC95910BD1C748EBD917354BC9708173E117A813E7FF617BE1656523DA00D19;
	15263 :	3C97230B3D276C623CA436193CB0EC1D3CBA8CB93D8C3DFEBD912F6A3B9830533D851565BCA7F7DDBD7F2D5D3CCE16D5BDBE2F423AB95C65BC46B9093C93BAF6;
	15262 :	BD9AC6763D1B547A3E03E0A1BDA88A6A3C937182BD9A8368B9B0A499BD19452C3CD068E1BDF06D603D7673BE3D3283EF3D843CB23DC4C361BD163C4F3DD84493;
	15261 :	3B3E9DD93D55C57DBBF6A5DE3CB6D43FBDA1D2E8BC11620D3C94EBA9BD8151D73BD4021F3DE766443C82B7F83DCC44063E02A6C23DE16870BDFE6EF9BCDE2F01;
	15260 :	BE55D765BBA61F54BE24E6583C6573AEBDDE70453CD11A6EBE1535FD3DC1B4433D2C1C1F3D1B500C3DA92533BDAC847CBCDE4549BD706CC6BD0F6858BD2B07E8;
	15259 :	3DD5936B3C8DBDC0BE7BB64A3DB2BA2FBC6FEA79BB9471173D39D4BCBD489D723DA58B113DA3B30DBD8EF4753D7619923DB616323E34CD04BD779741BD9379C6;
	15258 :	3B2BE5F0BCB7F5CFBC98472A3DA4A16F3C963BC13D8BC85A3E89C36BBD0727A73E04303DBB53EDFBBC1763ACBDDA28593DA52A04BE2798223D396508BDF2A0AC;
	15257 :	3D5C51023DDB9A1DBD922CDE3CA45F92BD12481B3D85840C3CAD73883D2B194D3C5E1DDC3D6E81BBBE05F7E4BD041232BE232FDC3C54CCC6BC72C9893DB0C75A;
	15256 :	BD26E965BB4C7D25BD18DD683DBCB42D3DABF2B0BD37C1A63E0E4AA83B8DCFB33CE1A5CBBDCB5764BD886EBABD855BEC3DA91114BD5128E9BC9BACDD3C22189E;
	15255 :	3E1E02933D941E753D993DC83CC3B92EBDA52E883DBF5207BD516F17BE02E3AEBD17BA17BDB667F33D310BA4BD2FC158BCFDB8383DBB338B3D1722DBBCD8F017;
	15254 :	3DF5B28E3DBCC2F03D2C582ABC842895BD45490EBD9C19563D2BE7583C980B82BC23B9F1BD864DC23DA78108BC4EB5B53D7494263D30ABAD3D80B9DD3D17F3F4;
	15253 :	BD7938E53D7451993DF8F1A3BDE83380BD8BD8F0BDA051123DE3DE093AF8539E3CA815733D023E1AB9BA7FA23B9C25B23D79AA123DB6240DBDB11ADBBD97CFB6;
	15252 :	3D984D643A8FEE88BDF2E1FA3C52BF1A3DD362623D50FB5C3C549859BBFA4261BE0B36DEBE3038703D456F1DBE0239D1BAFE1C093D0B51F5BDA8CF33BDA08859;
	15251 :	BDB7AFAF3D1A06B8BDB2C7DFBCD11251BBA22A94BD14AA97BE06769CBD4C3B94BE0F1C073D9E16EFBD052C493CA5DB4C3DF078E53D4166E23C6BBFFEBD59A7B4;
	15250 :	3D7F9841BDD2FEEEBCBEA5023D56DBD1BCBC2898BDD6F7FB3CE71C32BDACBE15BDFA973E3CD9A9EFBC90E6FEBDBACF223E07E8A2BD5FD3673D651621BD63ABCB;
	15249 :	BD4EDF43BDB1E26B3C654275BDCABD5ABDEA14093DF65B2C3D8F758C3BEF4E00BB267318BDB27CD73E303BC7BD71CB1EBD79ED0EBCBDC2723E05FDAFBD81B86A;
	15248 :	3D8278303DD8A7A1BC9871FC3C575050BCA10BAE3CE0D2A7BB65EC25BE340A4DBD99A0F3BD1B55253D21E69E3D8F28A3BCC256F33D3D0243BDE6379ABD81956B;
	15247 :	3D9D03C8BE01A4123C0E92E3BD1D4E1B3D0866DF3C93D7FEBC9895BC3D3971AF3CA85488BE01EA87BD09B26B3D8935CFBE061EB23D39DCE03E1A5D0FBC0FB566;
	15246 :	3BCB83633D721D5E3C4E33B6BC9FE53CBC85716BBD8C4572BB7AEA9CBDA2A430BCA17F20BC0BA6A5BE252A50BD5BD544BD90C47C3D31FA01BCFA287E3DE4E56F;
	15245 :	3C334EAA3CF7AD80BC19C10C3D0EB81D3D9D230E3E64C140BCFB1A4F3D4B0BCF3CA696D6BBC8F221BC695A17BBF2A27E3CBB510BBC82136A3CD990C6BD41BC0F;
	15244 :	3E0FA012BD6C041CBD221AC6BD36C4863D8E0B6C3D3F4A65BE34F73DBD8A706B3C8D4D1CBD4825FDBD0645043D6913F73CE2BD1FBC8D2DA3BE0977FBBDA59F31;
	15243 :	BD0B16F3BD01E3A7BE21FBC93D4F5BEE3C925304BC9BA9513DC18CE7BC91ADD9BE1A811DBCADE66A3C8857A63CCBBFC8BDD91F2B3D1EBC203DA4AF5A3D25A92C;
	15242 :	BE1FF2D4BDB82B1ABD61E4423D3ABE0E3E0CE18FBD1E4E51BE055F5BBC10E9B0BD07A3113D6C0556BD0F1A8C3D6F35CBBD76EDB43D908BF33B85FFB13DAAF390;
	15241 :	BE16C993B825BB84BC99F1203D9BE9483D28BD63BD8F05AA3D31513E3C7B7AE6BD77BEE53D7260C4BCB0F0AA3D99CCB83D1E46153D2F26D0BDB1CE4E3D9CD225;
	15240 :	BCA15E24BC1C679E3DC59771BCB82762BD8372B7BCAE1A9DBDB06538BDA1EA4D3E4772DA3C591AF0BD1066313D8E0DDE3D33D3043D6A56F3BE15F6223C8FE351;
	15239 :	BDAE4E66BD45F99FBD45C66CBE286EE9BC14B9BFBE7B623A3C1766433E2D5F463C3C7C1B3D228F243D45A8BCBE2B40A9BD7473E2BD56710DBDC438FABD1EEFEE;
	15238 :	3C3C2EEABCC72B29BD8297C73D31C9B8BC4882203C3DF3243CCB1AEE3C8813853D6591D73D367B1E3DB700713E6C823D3DC86BE8BD9AB523BDAA7B0FBCF1F962;
	15237 :	3C903EF23DB023DBBE3779ABBDCFAA2FBD9C7F133DE8557C3D46D90BBC3A17743D0D4DA63DC65B743E38E5AF3C38D07EBBF98F4C3E029809BE7A9E8C3D5D78FC;
	15236 :	BBDA513E3C9AED2F3D9FFB2EBD1D60B4BE0FBD9CBC37D9F53DEA7F0C3E401DC03D0BA0D33D43E11A3B3FED013D0BA9CE3DD40DA33D99DF32BD9A53A4BD569516;
	15235 :	3DC544D4BDBF6581BC4FFD003DBCDC87BDE4629C3D270E4B3DBB80AA3E0EE08EBD62A290BD0E94403DA93AF63DA1A1A63DF71A8D3E08B9B6BE092A983DB862EE;
	15234 :	BDA63C8CBCFC720D3C9E4B5CBD950CB5BC2478363CC632DCBBE0E8D0BDD330CA3C194530BE2A4CFB3D54CB5EBCFD71AF3C98EAF13D3D3642BD8D0AF0BCA8C21C;
	15233 :	3D14B82CBD9608EE3D02A150BE0F3276BCA196A63D9433C4BCF604CDBD3168C23DE0866B3DAE19BEBC478288BCFF23D03D5C3BA93E1CD157BDC0CB243D9D150B;
	15232 :	3D8B5FD1BD3F52D4BD40F34FBDAA2BF23B30EEFABDC2C1CF3D886CB1BD6095623DA4F5C8BD052860BD779B823BB45C95BDA728D3BCE1CDF63CFE2579BB8A291B;
	15231 :	BD503FE0BD8CAF48BDFBBD4CBCA6748F3E10FA71BD0D71CD3D8A65D33D0280E83E109574BE12DC493B9F7D77BCAE30AB3DCA01F9BCA7A36CBD6656F8BCD136BE;
	15230 :	BD9078C43D3046D93D36C15E3CBF923A3CF006653CF35A76BD390752BD5C15523D2D5A1FBD875F8E3E57DE063C6EB81D39CF75CBBDAC821C3C54364ABD04BB61;
	15229 :	BDA50D043CA4F1383DA839B9BDC04237BD0FC6BFBCB4F451BCFA0A4A3D67CAB9BDD0125C3D573DDCBC454B8DBC2A0019BE49A2D13D7AE460BDCA26553D77E005;
	15228 :	BD45092DBD8DF6793E02D222BD9DC3393D43B8E53E2C438A3D2CC6E13BB249CEBD8AE3893D5A4EFDBDDBAF9D3E148758BDD1C90E3C85A4CC3E1EF89A3D38A3AB;
	15227 :	BD7585773DF84F1D3D85401A3DA1A2B23DD88E10BCF03C56BE206585BE2BC263BC62DA89BDD3CD10BCEA67D93D481FAD3DBFCE333D1C383CBDD1622C3AA36521;
	15226 :	3C5297ADBBDCA5A73CDB12103D951B8BBD72043A3E168F1EBDD9114FBCE47AC33E2025D6BC9E8E5E3D10B80B3D426F37BCA4A93B3DDA45B73DF5CCAB3CB76C1B;
	15225 :	BDCC0C2ABDC3B29ABDCC9F943E2D3A213DB203D23DA2BEE93CBE6B7A3C59E46ABE0B50D2BCAB85003D89BF943DEDF9783D96A4863D3205733D5658663DA1046D;
	15224 :	BD606A1DBD865B5BBE21B368BC4859AB3D431179BE0D621B3DAAE2403D9BDC1DBDC5BF523D1387943D975ACE3DD2343CBD302BE33D834AA03E00D5D03CB595BB;
	15223 :	3DA7BBE23DBA7289BE43437CBD8AE4B4BC170869BD87821D3DA4BC9BBBAC7CB73CA0BE803C6A45E53E1C1662BD181A25BD5E48313DC3A4D63DCEA410BDB84FF7;
	15222 :	BD237C403D8C744EBDEF1838BD5D20233CB5224E3D89A6C53D40D7463D0C2EBE3D9E25F93D439F3ABD982B0B3DBEC52BBD66D1783CD77BACBD85A663BD92FEFE;
	15221 :	BD4B42DCBD90CD15BDA202863DB393093C876C013D12722FBD62FAA23DE3B31D3CE188CCBD2DD3C6BCF63101BDBE6D0B3DD0E195BC98B1DEBE2184FE3C8B56DC;
	15220 :	BDC67E553DA5F52D3D8A3CDB3CC9DB1ABD70F22DBD1831803D90C6D1BDA275F1BDFFC46B3BA9E3053C965349BDC96C9FBBE3D663BDABA296BD7DFFE5BE0F3976;
	15219 :	3D2F1660BE0947BABDC4D50A3D6C88563D9ADE633E058721BDA206373CA635DABC1A8BFFBCB0B6333E0499903D55E71FBD6A4F87BD64CA813CD7D162BD290E68;
	15218 :	3D5F6ED93E058127BB66F0843E2251363C0FBEAA3DC938C13D372FEBBD29B4DD3D2D1B76BE5DA15A3D6788053DCA4D6ABD7C39553D94513B3E095793BC8A3D6F;
	15217 :	BD923BBABDB0460C3D8FBA66BDD06BFCBDF48F72BCA4BC333CFBAC4DBD137BDCBBB30A413C3DD811BDA90D19BD1D298D3E64C4A0BD1ABF7B3DCD387DBC3B5A5A;
	15216 :	3C9DF91ABB080B663C8A6E093D32E6CE3CA16F42BE4FAFA6BE3406453E4622FABD606F823DC05A623DBB59483D3D5CFABC0BECE33D899C5DBD6B4E6E3DE5DBF0;
	15215 :	3D447827BE68E48D3A595ABDBD8D181D3E5404DF3DC18EB4BD15AB68BE7A57DBBDED3EBB3DA3FC9E3E325ADD3DDBCD3E3D0D6EABBE1656F5BE6E12573E43FC41;
	15214 :	BCD053983DA9BD0ABD7A558A3DB375B43B9DA15FBE4A8958BCBEEB42BE8088753DE310EC3DC5CA753C073C5FBCC79CB0BD95C4AE3D82C0E53D984F29BDE3EB00;
	15213 :	3E2079243D8CBF51BDBFAD843C8E94193E329002BD468B353D724F52BA85C072BDF0F55BBD989713BE869C34BE1611EC3DFDE85ABDDAD22A3CFB9AA03E5AF418;
	15212 :	3CC770ACBCAD05733D6165973DEC67D0BD12C5E9BCD3F06E3A3918833CDC1A16BD1E968F3C6933FABC26AE84BD32D3703D3FCFD63B02FEB2BD820B69BD1AB34D;
	15211 :	BD1F9D91BC2FEE303C2210C53D9F4BE3BD05B6263D04A2E93DA7B5283BA52EADBDE399AABC84B90ABD24347E3D5289213D3B6830BC9FE6653D15D9053DBEE985;
	15210 :	3C985523BE3FED8E3E75B0F7BD154BAC3DBC84883D20111D3B214DACBE394A62BCD32580BE2142FCBE1780B23E15F4DDBD2E78533D7829F43D997BDC3D94CF70;
	15209 :	3E4EE10EBDDD0D6ABDA0FEF5BDE79C383CD1EAEA3D235E833DDF8D55BD99CE523D669A563E3691E4BDF95ED1BD25D994BDB75FE73B2AEF25BD188B1B3CCC3FF8;
	15208 :	BE12B4C13DB29484BDC2F246BE40C05CBE3A1838BD5841693D414C70BD77049DBE44DDA7BE70F3F5BE06D818BBEDEEFD3D8D0E5FBD90F04F3E37B96D3D21DF2D;
	15207 :	3D96691B3CB24CEF3D8B1B84BE0D54463CABDC273E2F2EDA3DE3EA83BE11A8073E461CD0BDB881303D28984EBDBBA36DBDD1F2213DDC8FDE3D85C84BBD465033;
	15206 :	BD419FA63E449403BC3A07893CCC760FBBADE8BD3E010134BCE699E1BE1216003C14F0AABE6DF93ABE3DB9DB3D1236E73D98B7553DC5A5B2BBFD9539BDA57986;
	15205 :	BD9D88F8BD8C2F06BE709D0FBCF1A02239EBE0FF3D717D92BDD2ED37BC2FA32E3D4FBB94BB610D783D2BCC403D6006C53D8A977E3D8B18733B34AC8FBD7AC9C2;
	15204 :	3E1D07F03D4EC9D5BCA5DB79BE24578E3DB760A7BC0C39133E0DF3793DE2918A3E52BD033D85BFC13D27FCF2BD58F7EABD385520BE3F906CBDF962E53BFE8F4D;
	15203 :	BDABC412BB9954553DADDB6E3D9B1598BE31932E3E0F82FD3C9369B93DC7DA45BD2EE8923E2C92503E40941A3B03E8DEBD6359923DF2263E3E81CFC83C9BDC3F;
	15202 :	BDAE6BBB3D250382BD7C00E23D2C9EA9BE274EE1BE92C7D5BE6B3EFCBD6A31323DBFCEF33CA41E0D3DCA06B5BD15DA38BE946B2BBD0FFAF33B9066C93D95A9B0;
	15201 :	BDE684383D8A73343D752344BDDF53A73DBE2EA63C7535C0BDC3A985BD8EE5B13CC2FC91BDE0CF5EBDD012B9BDD61DFFBDBA05AABDDE7F16BCB2C2473D40FF2E;
	15200 :	BE0F10FA3E4C540A3D7F740C3E2C734FBE09FA7EBD842C803BD8D650BCAEE26CBD9B57A03D2DFC713CD684023E0816C33D14DEC43E1E2E403D127443BD46F5B7;
	15199 :	3D668EEF3E44EB853DA884583B66E8803D23712F3DADE9F3BC925139BD4201C73D23CCA4BE06921ABD1022D63D60DFBCBBF580D3BCE567773E19A17A3E9DC937;
	15198 :	BE1FE4BFBD13838FBE1B494ABD66B93C3CB61AC43CAACA80BE38DA3EBD74B83DBCEFC4843B1031B43CD9A7453D9C2E503D82AAEE3D1E4F803DAF743F3C4DD359;
	15197 :	BDD130E03A9B9961BDA10ECABE0A51943CEAD68A3E0E63733D9F7DEDBDB77155BC59A64ABD82F376BDBB7CFF3D1D7DCFBDAD10DCBE14FC44BCD2D95EBBAD6FCC;
	15196 :	3E1ABF153B2B8B083E0F83C23BC785033C00975DBDE567323E118097BDC50172BD6F00463E10CA32BD046F5A3EBDC9863DC4B912BD551011BD990BBD3DA85761;
	15195 :	3DFAC94BBDF22483BD91A3CA3D63F3263DDDF3503E0A32593C87363CBD26EB1FBDD5A523BD935C613CE55D083E11BB303D5B744D3E426FAEBDAF67193D766F00;
	15194 :	3DA62DCC3CA0E8DE3DAF40FA3DF2A781BD790161BDCB89A5BD7121F9BD293E43BD3FFFFABD9C6AB43B1E6B67BCB3B1243DA0CA29BE0743A33BF0F3983D9A995F;
	15193 :	3D5338333E156F5B3D820A3ABDF0CF62BE03AFD6BD1F19313E013155BDC9209BBE1795D7BB988DE9BE0D566E3E08EE47BDC037A53D4CDA263DAA9D3D3E655CA5;
	15192 :	3D617AE13CC79DAE3DCD5F68BDC0054ABDA2BE12BD6B52A4BDAAC301BD6353A5BDFC5AB6BDCE877F3D4EC129BDDA418ABD05F81FBE752FA53D8C279E3DBA998D;
	15191 :	BE2637D5BE40BA0EBC5F992A3D9E7EAABDC87DEF3BCFFA063C9469F4BD864D233D1A3641BD8C38333EBB9228BDCE55A03E107B803DCE7988BD57C59DBC54FAAF;
	15190 :	3D1C6002BDA789D0BEA15F433D90B427BD147DE23E740895BDFBB64EBDAE69E13E1CC6ACBDC3DB08BBC6A89EBCC06E61BC1C96553D843A75BBB79F84BBC4D384;
	15189 :	3D8F68DA3DA4EDF93D352EDBBBCF6656BDBC68363D7F8FE9BD745754BD6568313DBD1D573C3790CEBE8403BB3D8CE586BCE797613B80A2ABBD0EF25BBE81AD56;
	15188 :	BD49F882BCEA3DFD3D49145D3BC6F4123DAE4E543D87F42CBE15E945BD7BE2C0BE335F0D3E12686ABDBC37E1BCA28B273D23EAA0BD8145A7BD93AF66BD3D3BB0;
	15187 :	3DBD38F73DDF70AABD80F4F33E1DCDF1BDC3A2833DD30A88BDC890CE3DE161373D72FC8CBCC30A573DB56A34BCDF58AD3E07EA323D8C7660BCF4FF9CBCC8B0CC;
	15186 :	BC008D273D4F97AA3CA1D80FBCC75560BCE7B766BCBCF51CBCB10ECDBD35599DBDD91D5FBD8774FDBD3C13F1BDAE057BBD224776BD118116BDC33466BE038E50;
	15185 :	BE05020EBD2B31F83C86A0EB3D277F0FBD1F983A3DE77A2E3CCFCAE7BE08B1D1BC85701BBD9713A7BD723BFBBDAD52D8BE0CBF85BB433F5A3DB7C836BD83565F;
	15184 :	3E5B6A6DBE4B14113B8B7839BDDE010BBCF52A3DBBFCF3DEBDB539CCBDEB51BE3D9946283CAA54DEBC535A203D5EE2DABE21F4EFBDFE906DBDD3597D3D5417AE;
	15183 :	BB0EEBA2BE91AC4BBE1F30133E1295D73DB63C66BD56D89CBD83313F3E185042BD10C8223D18F6643D42384C3CB99C263DD995213E6E11713E159781BD2049F9;
	15182 :	BC9706A0BCC601143DA105F1BDBD3DCA3CAB9169BCA46BA4BD8C4C8E3C808100BE2316C33C4AF6B73E23AD62BCF875CD3D9F719FBE130F4DBD6B5EFEBD823EB4;
	15181 :	BD392739BC1E17EEBC8680F6BCF3482FBD007B663E0DAB543DA0B38BBBDC3023BC0F874F3DA60E473DCD03D7BE524AB9BD9C58F73E1A27163DDAD26B3D332CFB;
	15180 :	BD8AD8BA3DD304633DE4517BBD1A0E9E3E3A8D5B3D0A862DBCAD20063C0F885FBDC5864DBC9AD3D23E12C8AB3D09DC4E3E1EE588BCCE8C6FBB392AEC3CB7591D;
	15179 :	3E39EF013D8A0FA1BDE484CA3D2B38C23E027ECCBDC732593D944F943CB91ACBBC8A9C603D84162F3C1534DCBDA4309F3C57C47DBE229217BDC1D92F3C8136A2;
	15178 :	3E1524A43D0DF25BBB391CD03DA29FF8BDE1BB0FBD1E9B973E3F753BBDF165A83CBCAD6D3D2F0CB23C6C2C1F3E119133BD6A217B3CEDB299BD7338723E4BDB13;
	15177 :	3DB353333DE06BEB3D8C11F13DBCB435BC9932FFBD112CA5BC1B95DA3D2BB25D3E09534E3E52541F3CB7B7DABE51F1EABE8E4F3FBDC9CBA83DF8BBB83DD4C7B7;
	15176 :	BDF8DAC93D808DC03D952A243C811E73BE49CE873C42F9763D73DAD7BCF2B01FBDDB2DF4BB3643FCBC0B12C63DA751733E2E35903DE80E613D9E372E3E42B270;
	15175 :	3C83B3CF3D09B1A33DF54B83BDD235A7BDBA0680BDC836E23DAE53AF3D877A263D71B363BCDA5C6FBDC27D2ABCC42EF8BDC3258B3E27240EBD113C403E0C6D95;
	15174 :	3DCF36C83D98748ABD571AFEBD8C41D8BDF0E8B33E3752CFBCEF2D923E0F323EBD579A80BDB602493E6DEBC83CC92B10BC83110D3E15CF6ABE002AE0BBADFE51;
	15173 :	BD46991D3DD0E6EC3D4E6639BE1CF6853CFB6D163DCE68F83DEC89EF3D20E8D53D915EBABDC2A6993C67B2D2BE22F3E43CA35F99BDE0E947BE19333FBD6BF0EF;
	15172 :	BEA507F63D893342BE0C77C73E035B823E4A1A44BD88C8DCBDCA7BBB3D6893B8BE1482713DEF3929BD3447C1BD3E63A1BDEEF986BCC9D96CBD440F46BDC4DF37;
	15171 :	BD8A57CDBB4B87F83D8F13C93E0381353DAB3A99BCD99BAE3D20E2423CE1B8E33E14A6DABD1AD7BDBD3CE2333CE36275BE2720CB3C647AD03D7419C4BDCD4F6B;
	15170 :	3CC5521E3D1377E5BD9BD8163D8A2A68BB0EB40EBCFA10343DD203663C6CB86FBDE2E8EBBDC8A6153D31B5C7BD20E0D8BDD1498FBDE28F3FBE35A5513D59CD9F;
	15169 :	3C4B4F793C6A1D123D6E17EEBE3DFEE9BCC363E13E4402E53DF34BCEBE54E67F3CAA64BE3DE321D7BE200B1D3E10F8AE3BC11B063A9982B73D7D6E3E3C60ADD6;
	15168 :	BCA88310BC8FEE773E453B6FBC7477603C97CD0E3DA54BB93D17B2D63C1688F0BCB3C97A3D7C3B463D48D706BCD6B4EB3DC046AEBD34579DBCCCCC61BE79CF1F;
	15167 :	3D1E0C1CBD625A5E3B6F93E0BCA21C9DBE687888BE48F34F3B881859BDE513D13C984A973E42ED473CAB45B4BD62EF513C24F585BC9424A23D53CF063CF9F3BD;
	15166 :	3C81BD2FBD46E3413D9EC2F03E0EBE0ABC8B69D43E216C43BE11C087BDFCA6973E30A69DBC6B88913E7A1ED4BD75FA6E3DE31CB9BC8598F7BDFC6698BD14C199;
	15165 :	3D75E91C3BF69E35BD8484723C3C6C56BD19B92DBDBEF0B43CC64C34BECD21FD3CF8CFECBE2CA65F3D985847BE0D6FC3BDFD95743D22EB12BDA3E61D3DC170D9;
	15164 :	BD9FFECBBD6E52C53D84A24FBDFFC053BCBA09F5BD73C1A93E0BCE0A3CE847973E533340BE101D9C3DB43BFCBD57CDCD3E2927623E3DF9343E0DDA5FBE7E3D6F;
	15163 :	3D3CF01D3DBC4CF43E3E8E613DD8B8F9BE0AFE743D4837C7BC18C4B4BE0A21BD3D27F29A3D2F22A33DB5AFF9BD55B325BDF0B95ABC73785D3CBEF8DC3CDC5919;
	15162 :	3E6681363D797FE03DEA035B3DAE91B33C7AAEF43D8C8493BDCB109A3E87ADE9BC8E27AE3D66705D3E18263EBD7BE5953D8424E53CFAA452BD6A713F3C3D8998;
	15161 :	3D7EAC443DEDA393BCDF5618BDC33117BE2DC8F53E049A0EBE1E1D07BD4513933E264D66BD65258C3DF8FC873D11ACEC3DD8FE16BE0954873DA7030B3D9A88A1;
	15160 :	BD95C19BBE1F68DC3DE0D649BE1A426EBCB7AA95BD9E1ACE3E4920A8BE3576EC3E21F5C0BBFD35E23DE5CDE7BE0A9DED3E0B90553E26F6853DEE125D3B54D74E;
	15159 :	3E7714F3BBAAFD05BBD0E77BBD8E8ED13E039657BE5C34C13A1F6C1B3D652F2F3B85B4C83D7BA73F3E037F2D3C917B00BC5DAC15BE4BD7563DE5B6A6BD25D9BB;
	15158 :	BDF7C2EBBCA0B95C3DCA0754BE6D4D9ABBC843C13B9C38A8BD5E4AC5BDC04724BDFC4870BDCBC32D3D81BF233C92E9093CA1CC5D3C15C7843DC8CE653B32FA30;
	15157 :	3BABDE083CF8A0A23CFD3F363BFDDEAB3D7226DC3D736720BDD69A3D3D94F6F8BD312D593DC1FF7EBE252A44BD92EAC93C849B303D88E7373D5BBBA53D26493F;
	15156 :	BCA0348CBBE8C0083DA69E48BDA847963AE920E7BC8AB96EBD732E013C45865F3C187AA1BC6156333B5A2F0E3C7C3BD93D9F56BB3DC12BB0BDB0D97BBCBAA10B;
	15155 :	3BFE70D5BB9CC5973C30F03C3D7194A5BDAAF8203DF54DD5BDB7CA643D70963A3E192300BBB034C93DA8E93C3DA0FF013DE9B0AC3D6EE1E7BDD06CD33E29F970;
	15154 :	BBFE034D3C8EBA633D8D21513CD718B43DD5782ABD9CF85FBD48F3CC3DA6B9CD3D78F6A6BDD8E7ECBE024A5EBD5629B3BC908C5DBC341A883D0FFCBC3C5E667E;
	15153 :	BDCC1522BC0AE794BC7531833DB7F8563D173102BB16BBCEBCB01DB13D86B1A3BD0D05543CCE618A3DA19CA5BC94A7A23D961BE23D0D16623CFBF628BD858DC2;
	15152 :	BC3482D6BD30F4603D77A7DFBCFE157FBC91B9973D69ABC83D31C4DABBBF816A3C9F99F2BD19254ABC5242B0BD0CB80A3C93CA98BC863CB0BDABF9723D0E2BC6;
	15151 :	3C9C402A3CA324353B9D7838BD84733CBDC16F103C8314B7BD667EE1BC774EC93D0D278B3D0A59C8BD906827BCBAA40FBCF865723D34C8D7BD0E4EC33CA332B8;
	15150 :	BD9262B93D93B6F83B90B65CBD84FBBD3DE80D95BDBF35853DB580873C4C87C9BD3987A1BD2378583CC2017E3D10407F3D21A9D03D6812963DBFF7503D17C98B;
	15149 :	3DBB2E2FBD168A22BC89BD7D3DBD2998BDC313EF3DBAF09D3CFA4AD83D691EEF3D074D343BCF0C4C3B3DE5633D0FB4993CC0EDCD3C79D54F3E2FF635BD9055C7;
	15148 :	BD90D9883CA53852BD0F3D3DBD9BC7063CABF4293C30AA383BC10CDCBD5C9922BDF2B0FEBB54E021BDECC3C63E0FAE76BDA16F953D984949BE093F033D484BA3;
	15147 :	3CBF5FC9BB93AF48BDD8DA60BC6192EC3D8F765D3D8E5B123DEBB1FF3CC1DA9CBD359E483D10B51FBD58AC93BBA25C45BC7A74FC3D966381BC02B302BDFA7DAC;
	15146 :	3D5077103BA33CE6BC42175CBE093912BDF7490EBC168FB3BD8C2C153DA5FD6D3C28B6883C10285BBC7D6237BCD4A3B7BCB7B7B3BD7E748FBD89836B3D827854;
	15145 :	BD663E22BBC6DE193D4B7B9D3C8018083D3014113D4F859EBA6FFA21BD95416ABE40C260BCC191913CCF87773E234C4EBC5091F53C70B515BD2CE91DBCB6DF91;
	15144 :	BCE1574DBE2528DDBC50FA28BCCE24C5BD7324933AE1C839BCFE839C3C8E9898BDCB5EC9BD237C973D87D1D6BBB176D7BDCF78D8BCEE886FBBFEAC49BD0CBE32;
	15143 :	BD369744BC750BC2BD3EBDB33DD1235ABC10EFBA3CCB5F653CF0F92A3A0F01FB3D07915BBD451722BD3C9CDC3D635D9ABD81D25ABD9AF7893C125B33BD18A4EF;
	15142 :	BD0BB4553D53EF21BCB16CC73DCC2DF73E07A689BDB9CCFB3D0975993D95E1C73D0EA4893DA198D8BB817AEF3D12BC163D5589A03DC32EF8BD70E1C33D57A402;
	15141 :	3D8556A43D8E95173CF912D33DAD12D3BD8194203D4DFECB3B7574BE3D585E573CE0A66D3BDA08043C91D64E3DFE74DF3CB73D103E2BE9B93CCBF2F0BDA6818F;
	15140 :	3D21B9663DBB51EDBE189049BC92EB1C3DCE81593DA15EC0BCCC9D4A3CCBFDCDBDB57A963D62A67E3CA64E1CBBBADBE33C57845E3E1CD3503C9BA4C63A22F346;
	15139 :	BC2B6D263D3E3E5ABC1DCDBC3DFD5D3D392031FC3CAF8B5E3CFCD46FBDAF3F743CB0D372BCFC49DBBD0C5A0CBB761A4BBD173E0A3D8A0A0ABBF00D78BB3BF252;
	15138 :	BA4497B53E1A45083D16F0B93C35111F3D0A222DBD917B4EBD4338383C093EC6BD292184BD4BABB73BEA9F8D3D85F1A33D6B7785BD865347BD1259FD3DA71D0D;
	15137 :	3DBC6B50BD9493163DE70280BDBF02F23CB5BA7DBD0704373D00A042BCA0BCA33D182805BB1F5DDC3BE5658DBD79B1673D732DE53D256760BCAD63153E065809;
	15136 :	3D4C58E33C7CD0053C508928BCA19211BD8921EF3D00CE823E07B9E4BD6631B53BF6A8E73D220F3B3C70DB3CBD38ECE53BAD3E773D83D80DBD1D0C24BCE291BA;
	15135 :	BD4C51593C88C05CBD09C1ABBDD31DCEBCE3C9703CD664F2BD13A541BC486DF6BC6CFA2C3D3FDE7B3C2970FC3C263754BC6350C33D5CA21BBDD841633C8EE00D;
	15134 :	BD80730CBD1AC1A1BE1D68B23D29839D3E82CB5CBD141A553DAC747F3E1900EBBC977B723B58EA9EBD2B5BCCBA856D5FBE633D5F3DE6C099BCDE4EAEBD42F2C3;
	15133 :	3D985C02BE13BF0FBCB9105FBD81EC28BD6315453C3B1F393C60AA013D549261BC43A3133DD74A5DBD21A23B3DB5D6D1BD5E9267BC402CFE3DAE653BBD5897A5;
	15132 :	3D9AE2A7BD4F0AA2BD950E46BD1A9F66BD7F62C1BC8ECA063C19112EBD1352A6BD85B3063DB2D6AFBA8CEE6E3E04A9143D8B492DBDADF2723D0638D33D8152DF;
	15131 :	3C386F113D853D56BDC0E7503D5390BF3DB8606C3D836326BC7BFBA43C31BA593D4CADE43D8330B5BC02899BBCC08A053DCA745E3C7A1F293CA50245BD1B6CB0;
	15130 :	3D6020FA3BF233EB3D95127C3D1991343C904F803D0B175C3D59C5853C9CD57C3D4022033D3BDEBB3CB58DD33D8E2073BB87F3593DA950793DA959F83BA075B8;
	15129 :	3CC4C14C3CDAD9393C988A0D3E35C3363BB2B231BD3A3023BC9D87B33CE67902BCDE35E93C12F44ABD3AA1AF3DA253EB3D2675C5BD5367033D6DFB523D11244F;
	15128 :	BBEABB463D669F56BDA77ABCBC85897C3CDDEDFABD8D33043DDD5E21BD5BD4EB3DC3146A3ACC485D3D149B403AB4EBDE3D9EBCD6BDD31BBCBD2F16A53C83FC90;
	15127 :	3C96FA363DBA3FA43C8536F13CF7DEBC3C8D81A8BC40E700BDEA98483BE66EF9BE0D74473D93C45ABDBE0E71BE022AD33D583C203D927243BDD022AE3DD5124F;
	15126 :	BD2628F9BBD8AEBB3D1C947EBD4823193CACF1913CDC1C693D7F5FBCBB9DFB6EBD0B0B6D3D96234DBDE56DE23AB2FB933D9E8F79BD0A95EFBC8B868BBE008277;
	15125 :	3D5E21673DC3769CBD9762E3BD7D97AB3C9DC71B3DE530D6BB46FBC93C43B344BC5A4A67BCB32CF2BD9B2B1ABD763A64BC8FA602BC76D2C63D9D6619BD02D99D;
	15124 :	BC8300123DDA92F93E3FE996BDB5F9363D59CF63BC34C675BC8A762E3D2ED0A6BC9A345FBDB47205BCE43DDEBDE0B7F13D710CA8BBF8420DBDE84C953D943C73;
	15123 :	BC0889D0BD6F2ED3BE4890F83DA26CEBBDB1C518BD34ACD03D6EC5B73DDBEF063D5CB1393D6DC694BC25F881BD847927BCF797C13D5BBE293DA756FB3D141BE8;
	15122 :	3CCEA65E3C1C6D793DA51BB1BD927C473DE33D92BC0D1E9EBDEEDB40BCDC9ED2BDBCCD1BBD8D9A3BBD52525FBC1CA305BCE490D8BB26EF583E10EE1B3DDA1E18;
	15121 :	BC99B4CA3C8B8D3CBD8901693D41E4383CE5EBB7BC39DD24BDC0EC42BB35C738BC3783133E0C9999BD320C6EBC39D290BBE7BF4BBD9D554B3CD007533DE8826B;
	15120 :	3B630C463D58B8EBBCFC93BCBC6CEF87BCEF0BB4BE015464BD925F883CE5E517BC8821E93D933D4EBC622C293D7CC5B8BCEE59B8BCC38EE53C8777983D86E75E;
	15119 :	BD099A9F3D5FB616BB5CDC13BD1DFBAA3D53E4263D9607DC3E13101FBDB87B67BD0D8E763C8A2EA93D5928B43DFE7C503CC1A766BDFAEAF53D40394CBD874FB6;
	15118 :	BD468D4B3D856322BAEB0522BDD721713D261B8C3C20008D3D2BAFEBBD078A2CBC78A7893D3230233DEA77C8BD5DEF36BC9EF36A3DBDE8103CAB881CBD8B40B5;
	15117 :	BD185F97BE15AB2EBD4F4CA0BDBE344EBC8B3A9FBD5409C43BDF04C93CCC92123D82A8683D3FE31F3BB66641BE0E04E93D4DABBEBE1BDBACBDACD4C93DCCA974;
	15116 :	BC8110B83DAB6A45BD23B23ABD6FF12E3D2C58CABC7516CDBDC1300D3D7BEAAFBD9672DFBCA5F4603CB35193BD11412CBD23A643BD20EBC8BCC917123CFFCAEE;
	15115 :	3E06CF71BDAB857A3CFF02503DDF6D65BD69202A3AC27E6FBCFD8E08BDBD4281BCBB7F4BBC4396283D5CD6DCBD18E4F23DA6A14D3CA54F6FBC8A6A953D3B9CAF;
	15114 :	BC3A6608BD2EAAD73DF068503CC3F9193DEF94D93DCAB56ABE08BDE33CDC583ABDAB931E3D69E92D3D4B77E2BD5836A6BD25431E3D08240EBBA1F110BD82032D;
	15113 :	BD732A53BDDD81303DD882F1BABDC497BB2C1DD1BCCF35433D314CCE3D99B68E3E2A318CBD89F2A23C8C0432BD892D07BC30C089BC8AAC19BBE707113CEB02E2;
	15112 :	3C10ED3FBE1E0A86BB275128BDE0334C3D4F1F63BD3CD67B3DAA67483D54D4BEBBECDD993D86F6703C5265F73CD84E97BE039C423D6A374C3C85DACDBDC844ED;
	15111 :	BD95B893BE4DC3EA3D11BE58BD0A8F783D1E7AC5BD3D45C0BD277AF63D2663643BA2E0913D27C76F3D60C21D3C06AF023C87C3D43E1BA483BC2D8135BD609EEE;
	15110 :	BDCF45F93CF29D353D70520E3DA174483CCA16893C74BB7734B6DE13BCFE035D3DA23B9D3CF59D123C80BCFD3DE682633D19964CBC4A9C7E3DBB1DC23CCC4A53;
	15109 :	3DE551A2BD92EF553C2D05BB3DFA267EBD39A0B1BBF71C97BD7E6B8FBD51EAADBC45512DBCC2B963BC403EB43D2B1DCF3E4D09E63D4923D7BD0E8F6B3C9728CD;
	15108 :	BDF96F32BBB304C3BD46E847BCB9DF243DD2D2F1BCC787E03C474FD0BCE634D63DA48611BDBBB668BDEFF4B8BD086BE83D59DB513C4773A6BDBE0A083D613FB1;
	15107 :	39DD96E13C3D2C7B3D0DD6B13CF3FA473CD7FA35BD679253BCA8D6D5BC94B3183C11AB30BD50B645BC724AD6BCEECC1FBD8B7208BD43CCCCBB8A80573E075729;
	15106 :	BC7816FB3E0C061C3D644FBD3E0265073D83B58E3D340B1D3D82171ABC71AAA23D2A79123CFB82F0BD8F3FCA3D5287033C4025FF3D8738D7BCE7660C3D256EE9;
	15105 :	BDA9C26BBD35C328BD600644BD5E9536BD189EC1BD79F1043D3D2D523CAC3B2A3BBB0F873D2EDC253DD86C69BBF4CCCD3E49CBBABCA24F7B3CB32D073CCD3A92;
	15104 :	BD6F95F43D848581BDA98C153C3EF6C23D47B329BD621BBB3DAD22553D6CBD1CBCF59B443CBF84F7BD0E25403DFC7DCF3D1704683B81BD5EBCA0C26FBCC602BA;
	15103 :	3D37EA22BD5D899C3C8202EABCB9668DBDAF43B2BDE8C609BD47B6EFBD94185FBD911498BCF95E033B45B819BDF58F833D8DA67E3C84320DBD8A5F8DBCB6A69B;
	15102 :	3C07A8F3BC185762BCC8F31A3CDC426EBC0BF0FCBC69485CBD2372E23CA69CD0BD55AF22BD73F3893BA6AD19BB5921673BFCDE163CDDD35C3D4683553D6A2B24;
	15101 :	BD8DA877BD6D0973BDA7E6D8BC130762BC1432533D1015C93CC703DCBD19DCDA3B455CC83DCA0EB8BC4954283CEFAB01BDB87015BCDC2B993E59AED63DA6DE17;
	15100 :	3C8DAF8DBDD002BC3CC279483D5888DF3B2F801EBD8A58E63CC7FFE0BD960CD73D17B5B1BD44446EBD03DBE8BC7116A8BC39D4CBBD67BF033D8B4E3C3DC4567B;
	15099 :	3C352750BE0EBF403880198CBE1A60E7BC9A593C3B3C5EEABD441EFF3C951672BDF34DA23D1E7DC83ADD3CD63D4EC9B0B9AA61AA3D3EB4D03DEB198F3DF733C3;
	15098 :	3CCE7DB0BC1A05B63DD196983CFE2497BD9FE3B2BD667BF73CA4C10BBCE15901BD25266BBE060DF3BD6D54CFBCFB96F7BBE109FA3E34D949BCA9EAC73DAE822A;
	15097 :	3DFBA4AD3E16EE9F3DF0CF4CBDF41290BCDCE544BCBA88733D1A09E0BD8B32A9BDD8BC373DADA4C13CA2FB3FBD9EF96A3DAFB2D4BD147630BD056C05BA028245;
	15096 :	BDB44FE73E2170643D1133CF3AADE8ADBDF0275DBC3BD51E3D6EFDEFBD88E92C3DFCAEB1BCA34D763D9DA3603D5AD7A33D4624473E5A9A3BBDB643713E352719;
	15095 :	3E29E7963CD93E7FBE8A0638BC9A84FFBDE3A3F5BDE72295BD5C2B4A3D45C6763D406F903D77821A3E6A245FBD9B4003BCDBF05FBE258D3FBC2180183D0D6E04;
	15094 :	BD6B8BA63CF6422EBC7EF83FBCEBA4A2BDFFE7E43D9FDC6C3D99CD48BDD8D0D23D9BA47BBD78BAF23DEDB3A1BD67A16EBD73D5763C1BB0593E12A1693C805088;
	15093 :	3C9825173E524ADF3D948B2FBDCBE8D93E6325073DA75EF8BD8B74603CEE53A0BDA970A1BCC61AEC3E439AA1BD7704E53D678BC23D83F6DABC4718213DF392F4;
	15092 :	BCD1D939BD6098AC3DF01702BD0487E8BCDB0DE1BD0E2E8DBDD021D1BD9CE7EC3DCAA3153D484FEFBD954B40BE69FE5F3C58E30E3D8F24463E21D7E73DF9FE8C;
	15091 :	3CD52CAF3B7585B1BD052D62BD2CD62DBDA19723BD92D28BBE2F6725BD733857BDAB0910BDB9B793BE135C2E3E1089B03E527F3B3E37CF3EBE4E30B6BC83066B;
	15090 :	3D030C0F3C11670B3D940A773DBA32E9BDECAF603D7465263DF4D7E5BDD5FB61BC3D5592BE09738CBD0FE4633DA60BDF3DD0841A3DA10AA43D38F773BD1A5D2B;
	15089 :	3C5ABDB33DFF65EE3D3774093D37D88B3D41BA7D3D6CBE213DC975BF3E0E8DC03E02ACE83E4706C33D5DD1FB3D32385CBC8CBD2DBDE9A6053E3FED02BE25AC54;
	15088 :	3DB0FB803E12A1E63E2DFCD23D4A924D3BB529AABD54647A3D3A3957BD99162E3D236118BE2543293D8979A23D8287F4BE061211BCE6C47B3C479CC43E2B722A;
	15087 :	3E15E6493D04D620BD6C41D73DC9807CBC38B504BDCD734CBD97F373BDB23E49BD4FBFC93D54D0773D41E91D3DD3755DBC55B242BD309B6A3D4C596EBD8B679B;
	15086 :	3CF7702CBD340F6EBD1159FCBDB9CBFC3D3C3841BDBE5862BD8AD4AE3C707DAABDE5A728BD5C97ABBC2E091BBD83A7EF3DA6BB2ABE0E8DEB3E16903E3DBF4A35;
	15085 :	BCB0A6B0BD4754493DBB45573CAA0AEDBC8E16923BF23B533DE1E29E3C73F4DBBDBD2FEBBE07C61B3DC54979BCEBB3A2BD67FBF7BD6831363E1132F4BDFAABD7;
	15084 :	BDA10E38BD18CCF1BDF0FA7FBB2CFAECBE02D27D3C9B9E363CF38274BD84823C3E47E60CBE39C34ABC31E97C3E8FCDB33E0D6FA6BD0141143D67EBBFBC1BA0F2;
	15083 :	3B29B324BDD79180BCD3825D3D27F3B8BDDA335FBD3994523DA84087BD3B99C63D9E61EEBD0006C3BDC942B03CCCFCACBCB648F23DD0F1473D6327A03D84A7A4;
	15082 :	BC98D6433B3B57CC3D56AE833DCC9323BD0289BEBD9B77623D5658093E12DEFBBC57356FBD05F16F3E32363CBCDD6C2A3D8676333DA06BA3BC14DD053E15B3E4;
	15081 :	3DFBBB873DCBE957BCD821FA3E3989743BF52E1DBD21FD773DD82C0B3D48EBFD3C395AA63D09F9FC3E32D872BDA4CA9DBD451587BDAD029ABE1C2B11BDC9E6F1;
	15080 :	3DF211763C8841503DD05495B9E4D75FBC4ED4C93D0B358EBC0F9BD53A6BB8E13D09B4A0BDB687B0BA9983A83D7A852BBE1E7E6E3DA8758EBD4A1DD33B808AB3;
	15079 :	3DAC00CC3E5FAC2CBD88297ABD44CDB3BE17F806BBF5380D3C3A5329BD16C65E3DCA031A3D781A3D3E5676103CC315ADBE072FC1BDEB45EE3CD6500EBD4806DC;
	15078 :	3C23845EBD59754C3DDA42C63D71ACC13D4031993D78574EBE13FFCD3D7AA630BD1559DA3D3AE90CBCA3B5983DD4357DBE220739BCAA9E9DBDEA2EA4BD78E33D;
	15077 :	3E294E613D97320DBD58602CBD3B46DE3D1F3700BDDEBB833DFF6AE93E00B6CFBCD548E13D5F8E963E2AFA0C3D395FF33DF203A73C8825233DC5CAEB3D0E6F12;
	15076 :	3D2A5F22BD3CC467BC4CF188BD06FFD8BE3380223DD3C4EEBE1601843E0082E4BDF6712A3E96C6963DBB739E3DEDF2E93D6D98553D17A7A6BD8556BABE21105B;
	15075 :	3DFC62C7BD5B01703E064BAFBD2A401CBD89DA083CB44D8D3C7395583D43F9663D961231BD85FF233DB67C613E85E0B9BCAC86FDBE08B4433D281118BD4527B2;
	15074 :	BD8EF0C3BD880EC03E4C478EBD746703BDAC60983CEDF204BBA8F40A3C9010BFBD0A9158BBF92138BD6508F83DDE889C3DA4B8593D15161ABE23A9D23E0D958B;
	15073 :	3DCC75E53DC05DFFBE2DBFF4BE0EED67BD6239FE3E17B5EB3C4EB4D4BE37E9F5BE424B383E07B4AABD13F6AFBB9594343D386163BDEF71563D1DAD99BE1059AF;
	15072 :	3D81C5C33B5F6925BD6C247ABCEA5CBD3BD9C2F6BCB925C63CCDEE613D0EC5C8BDDD1139BD336D243DE4D4643E330159BD800288BCBBCFD83E058263BCFBA00F;
	15071 :	BE51C3563D95BC2E3D924772BD557DD8BCD81FE23D9EB1093DB130143CCA231FBC59EB173D025AB83E10516E3DCB63803E6FA2A63DE255A63D4E17833D748FFB;
	15070 :	BDB6CF11BD93D9A23B865C35BDBE9A87BD2CD101BC45EA833E4423F23E2FED1A3DBF37D0BDE3C2B03C8C2E2D3D5EBCEB3C82E1DF3BCA41A73DD5214B3DE14FE7;
	15069 :	B83296B23D6C9C42BE0072AD3DABB12EBA0F790D3C58A0AFBC6496CCBDBD6343BE2311603E6971663E1971E7BCC13331BE200A7D3DA0295B3E27F17DBC85BED2;
	15068 :	BE4A7941BDA695ED3E28BF15BDD256963DBDA2103B63917F3D877418BD34BE3ABD07A3E0BCDA7E54BDF2906D3D5C45843DB2AEE4BD1F73F33DCBC271BDB69B98;
	15067 :	BD49B26A3E04BB5FBDA943DD3D8BCAFFBD40015A3DD4C24A3D7F1CC03D9B71BFBCDF38A03D3008473D8E84CE3E1FD471BE137D953B774E1A3CBDCF323DAE1339;
	15066 :	3D4B0C1A3D982BB23D564D33BD276D65BE4CF1593E3928113E4E88D53C83647A3D2D2845BCACC03CBDE6A74F3D9AA16A3DF2C3C13D797FBB3C826FD73E01F9FB;
	15065 :	BD817213BCCF4A8B3DF8FCCE3DA8F491BE616691BDBB8C813BD1802F3E1A3AD6BC619FC63DDF459C3DF1E785BD8A3530BDBA8FDD3E498A9EBDA6B0763D24938E;
	15064 :	3D0D403C3D0E81B83D6B1490BD1F2F883E2753AFBD041DF23E0A8CD13DB342A23D73F8BEBE02D71F3B0C4FF5BD1AE40C3DC8BD00BE48ECED3CAE65313C864FFB;
	15063 :	BC7024C33CA69A4CBD26DFDE3D85B380BE2DFEF0BE359F9ABDDBD5ECBC5D04E33E4D19EBBD36B8ACBE42BE933D1949043E51FD8EBE4F696EBB5E181D3E1347D6;
	15062 :	BEBC0B993E336DA5BB702A423D959832BDB165863DB9C5B1BE9814903D853DCB3E0B5BBBBD77B0CF3D5CF11A3DA71BE53D5EF97B3D83AA3CBAF422E73E21EA2D;
	15061 :	BD0B37AF3C63096F3D06422B3DE295B4BD230FCABD47B8CFBDF925B93D4B4C74BDAA9B42BD7B2ADCBDC9E4093DA190C8BD47CFA63D67C401BE1DD95DBD26F9E6;
	15060 :	BD1AE3DE3E696923BDB1162F3D7FDA3CBBB7577E3D95728C3DEAAE2DBC51F489BE8C6CFFBC703AFB3E2CB1783C785A923DA0EEA73D2123E73D8748E33D9AC5F8;
	15059 :	3D6A503FBDA5C0B9BD3328C2BB45E325BE0859C43E2184A6BE389DB2BE04E0EE3DA60710BE33082E3D762BF6BD1A48E3BE023F6F3DBD56153CDA50D13DF8B620;
	15058 :	3DCC2CE5BD56377BBD23C8A43E2F525A3D77CFDE3D36E304BDDDCF2ABC847A763DF9EF6EBDD04B223CE7B2423E4E9B7C3BAC65FDBD74800ABD808446BDD3C9F5;
	15057 :	3D463265BD9932D83E0FEFB3BE2453133C05D91EBE0D222F3DE9C9F4BE51D3313DAA3011BDB3BA0D3E0FDC53BD64D5CCBE221CA03E0DEF743D52913ABE00A68B;
	15056 :	BD91ED9B3E19898FBD91622B3D1378A6BE653B4B3E5F59423E4E7D1EBB4D76863D34C1533DEE8494BE10DB893E813EF7BBD82AC13D6D79EF3D41BEB4BDBEAD4C;
	15055 :	BE3EB9523E16C9703DDEF3B8BE24FE343DF8D0143E48F676BDACE4A33C124B60BDC1E0E93D2CF22DBDA2D9133D9035E0BD9D094D3DEB1279BD0DBB023BD37D53;
	15054 :	3E1FED9C3D44BB253E83697EBDE1CCCF3D69C758BD9E4EB5BDCEB371BDC15F8CBDA580803E0431C7BD7BBE47BDE15F113DBC61B73C9CAAA03D4E476EBC9C1882;
	15053 :	3DA4FC3DBD4589D83E29B60BBD80D9C53DB7A5D23CF64316BDEA306ABE404C1D3C43DB20BE2ACFEABE3257A2BD6B1CFA3E2FA13B3DD6835EBD6E3128BDCA162F;
	15052 :	3DB6C6FDBDA9E3FEBC8BF8E23DBAE3B7BB12D00E3E9C4095BDFC95FD3D09332EBBDFDF583D040D1EBDB6A7523E0A7C6A3C3B6F0CBDE0D247BDA1DBAA3C14D905;
	15051 :	BE218A673E7193A3BC11A5B23A917A143E4F167E3C99DEE9BE4CEBF93E2391CCBD9C2C25BC387CBCBD4CFC73BD1F9C28BE0A0419BD7DC21ABD854295BE046EB9;
	15050 :	BE3CFEE2BD9C02033D1EFFD93DD8A470BAE4BE9C3E2C849E3D195C893E256FA63D3535013DAC09B73D1C67363D126878BC3773ACBD0B90F73D5F706EBD2E2CF2;
	15049 :	3E1A47DDBE4EF59CBE1956163D0543E0BDE269BABE1CF947BD36AD133CCA2E51BD5BCF03BE51353ABD7E56AE3D5488023DA51E02BB558BBE3D23E4BDBCEDCFC8;
	15048 :	3C239F493D89FFF7BDBA6713BC8D88E4BE16930BBD2FA8AF3D77D092BD896A833D3EB2DA3E7B5EC73D62ABE2BC9AE1383C5B22FBBDF9D135BE3588063D8D5C5B;
	15047 :	3D0CC6B73E51B011BC4FB4D5BD294936BB69F9DF3D4FE92F3DBCA229BD6A7831BD98170EBD2F02B73DC4E83DBD7E9A0FBE0572C1BE4FD5C83CD2044ABE0C7CBB;
	15046 :	BDEF1DCD3D64D5C5BDB89345BD1416A13DF4CFF33E22B30DBD870DAB3D721FB93E26C69A3D53E88BBD8F5D7DBDD7C4A3BDAF0B633D7262E7BBF6C2DC3C896426;
	15045 :	BCC37205BE2003863D7F88F5BCE048ABBD8F1BD73D0C8603BE5F4036BD422FF6BCFEE6F0BCBAA9E53D7D1014BE03D6D03E8271923E0984C0BDC8B88C3D9D58E3;
	15044 :	BD674F073E11F938BDF3EB31BCDE27ECBE3C98C93D4AA3C1BC81C8943DF8D22EBE3CDFD7BE39AAB4BCDB194ABC38F62D3DBD6504BDAC4909BC95BCE43D04EA2F;
	15043 :	3CEB8E53BD81127CBE2F927FBDABFB0AB9F17F6E3D789A3CBDE14A7F3E367A613D878F71BCD125F83D9D5037BCCC67D53D2C55EABD48F68EBDA8444B3E077BC7;
	15042 :	BE11E8DCBDD766AE3C7153CABD1F19473D72BF5EBBABF42CBD1E3A1B3CA8F2143D2669583E683A1E3D82AD18BD063158BB57C483BE30980E3D3FFC4ABDFD6048;
	15041 :	3DBCE578BD70389ABE1381573C88E327BDF414D53D27C3883B564850BDB9F243BE5FD43CBBFF9F653E0E127B3D9F0C18BDE471E53E4022173D5FDCD0BD6DF3F7;
	15040 :	3D14F7FBBD16D769BD27A407BB74527DBDBA80A13E005F98BE0DF8FCBCDD6E81BD6D0FAABD3DFE083CCDBBFEBD53B3773E48C2A93D85D3123D1D05BFBDB3173C;
	15039 :	BE043EE5BD6812553DF3294C3E1978F2BD1C131DBD4D1776BCE9AED83DDC0F7FBE3E20A13D8DFD6A3D3D87B73AB845313DE583AE3DCA05333DE77AED3DA11A0B;
	15038 :	3D4568EABCDC01CF3D4C21CA3C7323B8BDE5B96FBC87A372BD7C34FFBD7B1929BDD54E293E185BDF3D74E2DEBBE44CA13DE5AB9B3B5FF0513DC6C4D5BB648279;
	15037 :	3D73F0B5BC2F961FBB78D8C13D0540203D16204E3D55CCF7BD2DBECF3D8D14613B9604CD3B6F5F28BDE60EA0BDDA53A43E110D54BCD850C13D7297693C4CE9B9;
	15036 :	BDA118B8BAF41599BD1A011A3CBC9981BD9029CABBAE6DE2BD64352CBBF69170BC72F7403D2A25163C14A8253C6868093C3834D43C75706E3BEC4687BD428D47;
	15035 :	3DDE598B3C0953A7BD8B0F74BDFC8E83BD04F05B3D6646793DC0DD68BE02351CBD140BA1BDA385B3BDEEF2643C68A29F3E0DD7A13DA987183DE4A803BD4312BF;
	15034 :	BC9AEC0ABD82BF18BB009976BD27EBBDBDD9E203BD1A71F3BC48A0A8BCBB841A3D00517D3CE4A97D3CA6A2373D4C6A3F3BB0F9213D68450E3DE193093D643179;
	15033 :	3CF659133C0D909ABC61EBB3BC87C1993D49FB4D3C70A956BE1134963DC060F93C3F8F9E3DD0E51EBD36E600BD7D9763BDC9E0493D552F0ABC6A73E4BD369C53;
	15032 :	BCFDEF9D3D15C6FCBDA84DF53D24DFB43CB24C273D32B6AA3D13E7D8BD89143CBDA6895BBD9686F0BC624FCC3D1DD1603DFE5CB4BDB4367ABD9DC749BDA30ECB;
	15031 :	BCAFE3D2BD3CE4D23D508AEDBDB555783BBC3B353C90696A3C9275773D8346B9BD476976BD9822AB3D0A23BDBD7834533CF69C1F3DA9ACE8399DD6C83D0DD4E6;
	15030 :	3C5E1F1FBC3F99EB3DE36E0EBD337ED43E804B323D1DCB933C9CC3703CAF89E23DAC679DBD100286BE2B21C8BDFB2E63BDB28A2EBD53C52CBD71CFA3BA25E3A5;
	15029 :	BE231FE53DD10DBFBD775C783E252845BE15FF123CFCBA533B86928E3CEDADC0BD4CC5E63DCCB42CBCC6598ABC08852B3D19BDDE3D4F8E2EBE1777173E26E15A;
	15028 :	BD3CF0EC3E268AD73B7A39E53BFB2E93BD4D46633CC39E1A3DA85ADEBD46DDE6BE0A7A52BD913BD8BBA8A2893E30F947BC921F4CBCA585963D1725373CAAD959;
	15027 :	BCB3C5BA3BD3D345BD73C257BD7AE2F3BD42DBFE3E125E4C3CA36BB83DE61F403CDFBE08BD9D9A72BDEBD3FFBDC73A4FBD370FA43C8488543D31FE65BCD7B685;
	15026 :	BDF72E713CAD5928BC85D5BABD54A132BB0A61513D17536DBDD863453CD384ADBDB1A1693D30A237BD431B42BE09ED313D146CD2BD4E38D33CD162953CFFEF50;
	15025 :	3D9FD32E3D8BD9813DA671BF3DAC56F6BDCD3361BD11971E3CDB252ABC02DB153CC2BA263C89A4643D37A1FF3E05224A3CED3EBD3D9912DD3DE230B2BD17A79B;
	15024 :	BC9C75D63DF50C73BCE139B63C9B41163D4CF7083C2525A3BD838019BD585075BC9376D23D711E273D3CB5B33D4FF31E3E2C2931BB635E2CBAEF24D0BB7CE25B;
	15023 :	3D8756493E10C0D0BDC61C383CE90C7F3CD45AA53D40A012BC2EAD4CBD79D2F63C4D310CBD62F9693D84B06DBD2F9B32BAF0871DBE10F637BDE9E150BD338A7D;
	15022 :	BC0EDE213D7C59E53C8104BCBE0186FE3DDB92DC3D12843EBC0061CB3C69798E3D8C301BBD6C0D71BC978E193D119CD73DBB12973C832DB53CFC23C0BDBE6E1C;
	15021 :	3D95F0E83D16C2AB3CA2EDA53D1B063EBC7354273C86F0313D6114C73D12C4133CFA19F4BCB43D36BDA2D353BE28C5E9BC64A8033D60FB2F3B91E4EA3DAAE7D0;
	15020 :	3D0F1BCBBB4B364FB8C527F1BE4C37333D988FC43D3CC66ABCF2A7EB3C563EA5BCC0107CBD6FBE6FBD85C89FBD93BAD73D7CE4B13C8E72163E2D0F693C801AA2;
	15019 :	BBE38A123CC7595BBB9895E7BCA709E83CBA72753D7698323D22241A3CD746A03C8B47CE3DA24D0E3D15E1D6BD6F6F19BBA31601BDC3E06F3CF85EDD3BDB2EEF;
	15018 :	3C81C0C8BD5DB7313D39F339BD56D5863D6586EBBD2CEF413E160671BD75A2613D8E40773CBD3BE6BCA3FD52BD20D58F3DAF638DBC4C49D03A02F51FBD8EBDCA;
	15017 :	3D0F2447BDA7F4103D815C79BC86E606BE29258A3CCB6E043D97A19F3D9129163D8648A0BD87D8833D89F053BE070B9C3DC723423DD4D2753E052D32BC6D09D0;
	15016 :	BD5278C33D406CF8BE4D9B413CB00016BDC528C23CD3A968BD863DD3BBC451A43E217D0EBDC0A9783D1DBA0A3D99EB2FBE2D4E6DBB89DF38BD92F3C3BD1E5D30;
	15015 :	BD91905C3B4E3653BD32C289BE2DBDB53DF5AB54BD643D6A3C96CF49BD4CA9B73D92C7703D0E7FB93CF9C20CBD0F65393D32AB9CBCA8B663BD1935F8BD3B6839;
	15014 :	BB6082A5BD1F4ACA3AC37121BD2E109EBDE227623D7A84F5BDF0FCCC3C6690B73D0CD7F43CD744C7BD6C735B3D3FF42C3D399925BDC9B8D73D9D566BBC6E7261;
	15013 :	3E081793BC9538093DE355A33DBCEEDD3B9388823E039A12BDBC14A8BC12C948BD7B56C53E6FB8F33D89329B3C069C363D859A86BD3FBF7D3D3A4BE73BF2DE76;
	15012 :	3D9BDB64BC00FA413DA13859BC9A9E4FBC5722A6BD76C1143DAFE7C23D129D42BDA6FE203DE634483D6588F23E0937913B7D1DD03BB82D2FBD6AE7543D90064E;
	15011 :	BD835157BDAF9C263E0AD6C3BB8AF126BDE585223D063B75BB840682BB9CBC633D5E867E3D9667ECBD88CAD9BD75A7DCBDBD88113CC0C5B93DBB8DEABD3E1F50;
	15010 :	3CE17769BB74F3F3BBCC4465BC23A50CBDB749573D960A6E3D661870BD91D818BD3C5EF0BDA92FF23BC3931FBC567DA6BADE3D56BDC1C996BDA1636DBD8DD5AC;
	15009 :	BD1C2AA6BD98C4483D7922D6BD68C027BDA777693C326F5B3CD9D3873D918930BD72CBEDBDA2CE943CB04BD63D5FAE423D11A4C73CC93508BD8474F53B9719F8;
	15008 :	3DEAD555BDB6D9CCBD65C97ABCD4C8AABCED50B6BDD34073BDAED7273D033885BC3657B43D8A5D47BDB689ADBD7B544CBC13EE7ABC361D243E00F8813CC67938;
	15007 :	3D13B478BDAA7D183CFD1F353C2C96823BB034243D273C1D3B07496BBC3094563B0A62DE3D5037063D2FCE573E175FBDBDCD777B3B886CB2BD472519BC265B12;
	15006 :	BCD11219BD2F8401BCAAFB48BD9149C73D0CB509BDD72219BC96EA6A3D04E19E3DF17001BD902963BD194B583DEAD1E43DAE8FB4BD3B427A3D956BC73D53A06E;
	15005 :	BE0353823CD0A7093D20C2593C54E2F43E0DC8C93DA582F03D909939BDBEFD46BDD9DDD2BD079C503B8FB754B9F789183C3F77D2BC93DE7FBC85D5A7BCA96F5A;
	15004 :	3C622DC03BBB19793DE856E13B31842B3CF6C3E2BC75E513BCF7EB12BDABB9373CF29D563CFE22663D3CC6BBBDC937673D90AF84BE1F624BBD17AC57BD64BBDF;
	15003 :	3D3B1C64BDC892AB3D56B4183D90539D3C4C038A3B958130BCDEF858BC775018BDD3B067BBD82B78BD469C84BD1B9BCE3C528727BD0E0BDFBC06C1723B300640;
	15002 :	3D3791793CB1B2D2BCDFCC243CFD38F83B5353E83D812ADA3CF7CBBBBD1310C9BDC5E0E73C57CB1D3D2C3F16BE3763D83DF147763C1CE67ABCEB7CDC3CA14636;
	15001 :	3C99E3DDBDFFAF873C4934D63D695667BD17E7E2BD11004E3D58A66ABDE45BD3BC85A8533DEF4B5EBDA21C49BD58C1253C97A3B0BDC38F923D8D8BF0BD286553;
	15000 :	3D1719673D9CCA783DAEF3093C2B83DA3D9950E0BCCF47A9BC328157BC695055BD042F0BBD7702F73D022D2ABD828D3A3DF39491BCC73E24BCEE8E383D70C11F;
	14999 :	BD190A6EBDCF35913C06A2653D69BA433DF71F4A3E8187203D0DE6BBBCA241F93C11F3D83CCC99ADBD4AD8CEBDBD4ECFBCBC27FDBDE365F2BDA3729DBD1AFB8E;
	14998 :	3DEB5D3EBC943F0FBDB7123C3D331A043DCD82A0BC9379073BD874413C2B0A0E3D198F8DBD2EFF2CBD6AF521BC4868C53B9DF81EBD9AE8013B94BBD0BE1407CD;
	14997 :	3DCA03BF3D034921BCAF04933CDFE31FBD5D7603BC8C8163BCEB56C33DF324B93DD4C2A03DF394513E03E1AEBDDBB866BCD2F6ACBC3EA4693BC1F0FD3B064445;
	14996 :	BE188C6EBD7C25E43D9F50D43E16FF6B3D25349C3E11F227BD5A3A20BCAEDA8ABDDC6C6F3B772FA6BD17356BBBB445D5BD279BDBBCC309113C6FEF84BCB50668;
	14995 :	BD5898C43DC2FC403CD65B1F3DB2FD9DBD45B6F33DE9D267BC3DD3DE3AE00B903C3831B3BB3E50EFBD0EE8F4BDDBF9263D2C2253BD68B922BD765D8DBD781C6C;
	14994 :	3D97EAE53CA94ECB3DBFB9173D5E8BC03D49C8A9BDB35CC0BCBAABF4BD03958B3D8A508BBD1B6593BDBB389E3DDE89AABD8A9362BC8615A9BDB098383DA5D1DB;
	14993 :	BE1EFE583DEF7946BC2C0804BD919C9D3DEEAA603D1277A3BD88C4753D4354CD3D01866BBD01780C3DC7B419BD8DD8B1BD2C871B3D065B593C8459373D89AC94;
	14992 :	BD7564F83DAAEADB3D2D14EC3D7266843E045164BCC2F56EBD63FE313DA9DDB53D86ACE3BDA39BCE3D00660F3D519F6C3C852ACCBC3FD6423CAA94EE3D7A8CC9;
	14991 :	BC93025BBCF1DD74BD64E48A3BF738633D8907EABACC8A26BD6179CD3D4E8EC03D90D9C5BD2C7C953C5CDEC83BFF1B283D5C58DB3DFEC42C3DE6199D3D7A28E8;
	14990 :	3DB5F348BD6AA0433BB8C9D93C57548F3DE0D5283D6C286DBE3479CC3CBDF664BD066E91BDC35BDA3D242EFD3DF63F2A3DDFF2293D9CEF03BD16B6CD3D02321A;
	14989 :	BD9385E9BC0F4221BD0C6AB5BE051DA03C518D45BAFB60A8BE0664003C92B1183DA01B07BCAE7FD9BC26139FBB8FA74EBC54598F3DB134AEBDF498B03D881D54;
	14988 :	3DD6BE01BDAA6CE8BD6793533D2C23D9BD5BC95A3D44955C3CEDB9143D986DA239C4E8FDBD4D0908BDA366E9BE1EBAA5BE02252CBCDBA4CE3D3A60CEBDB5E043;
	14987 :	3C73009EBDB4F28C3E02141B3B43235FBD40DCCF3C8F01E33CF73C403D88B1AFBC9A87E03DF98EF1BD173B68BD4DB98B3CEB42B4BC18DC603CEFC969BC1788C0;
	14986 :	3D7B3FBD3D424D4ABC0765273A9A8EE2BD8400DCBDFFE291BB91B00EBB1345BBBC9F7EB03E1C42673C513965BD980BDBBD0B6B16BD998775BD4EE194BC5D43BB;
	14985 :	BD40D2763D0C85953D61CBED3DF45C383D3723293CBFD945BDA080DBBDCFEE463C92571FBCC39E99BDED93823CD637B13D1A02083D6377C33B132EBD3D4D3CE9;
	14984 :	BB2A26A33D419FA33D944FE73D0C87BEBD2B96683DEFC4FA3DC287A63DB9A3DE3D8E847F3D7AB07BBE48B4303DC61CAF3B0B179B3D146106BD8C42173C275DF3;
	14983 :	3DCF8880BCBAF4B0BDD05E1B3B85FFA73DDABC2B3D8983623C7318903DE4B96A3CB445743D026DEA3C3CB4A6BD0BFC703D4D3CCABDBC22F5BD54FCE33E3CC68E;
	14982 :	BE48A6683C5AABD03E17853BBC3E78F2BD051244BD43E2BC3DDC3A993E471DE23C3C40973C94E73B3D42753BBDBDC8AFBE215B2FBBAEF3283D95A6373C68D1F6;
	14981 :	3DA986153E088509BCA0F00FBBC5AACE3BC30C053AEE6AA33C542DDA3C64AF45BCEDB9C43DFF082F3C9D02BC3D5C596839F51044BD8E9A38BD315EA2BD73F5BE;
	14980 :	BE05EA123B878A66BD69E8A33D3F6594BE3A049BBD301C0F3DD792883CF2339E3D821F973D9E376F3B8EEFA4BDD0C0D43CCBF8173DA8BC9D3D32258F3D7DA5EF;
	14979 :	3A8B7E28BD6A76A23DCAE4583D05796C3E073899BAF8779ABA932A993DBCFE103CA7E740BCC43D923C8F705B3D9962613C7CB9473D68FD14BCC18E7C3D2D447B;
	14978 :	3D73BF77BD17A7BFBD5319F4BC3FCEE2BC81926CBD71BBA2BC58F338BDE5DC84BDB4B4ABBCDEEE143DDE47B23D5FB7D23D2559753CA5D28CBD7CDF74BD4F01C5;
	14977 :	BD91F0FF3C549E1D3E12958C382F995B3E550731BC0304B2BB35BE853DF19BC7BD90171B3D319D8ABE0D392F3C3E44433D19ED033E2D4E4D3DCCB85F3DE8343E;
	14976 :	BDCB62663C385EC13BB4BD213D4DE6B5BE0196543DDFD8623D674B07BE4B15543D1A529C3D7B5DACBE37EBA7BD0E8E71BC4805E23DADAEC7BE0451D23E02E34F;
	14975 :	BDC1B17FBDD30850BDDF70483D2804393B8ED3EEBE241F9D3AC4B0483D06F0D93E0F2DB4BD47890DBD1246693D23CF56BCF411323E0D408F3D352C0E3CE1F2F3;
	14974 :	3DD88EEF3E1E3848BCA760ACBDD1C0F43C0AA1103D9ECF36BE3489B3BDC2B6EFBE0AE48FBD53AB2EBDF9B7C3BDA1C2A6BE77865439C732CFBDDEFA463D35DB7E;
	14973 :	BDF617813E3BC7D13D9B0D353CBBE1FDBBBA4558BD64BD41BDA51FAC3DD1E676BDBE43F23BBD37EBBCC6C6BE3DD64D81BE379AB7BADE85333C487DA6BE58EB8C;
	14972 :	3D9D4A023DD353B43E3E71743D9EF9FCBDE892FFBC82429B3CD39B853C94C347BDFE00D33CABBC67BC806BA83E26950A3D81006DBDA4441BBDD672A9BD15F1E9;
	14971 :	BDA750B8BD76D7283E0C74813D0731C8BD3BE8633E1B78FEBD20268FBC4558FC3D5635DEBD1E09233DCE40783D20C9E0BE72474FBE38031EBD6FB649BDEF19ED;
	14970 :	BBFA88FC3E1CE5EDBD812EB2BD0395F1BE1B25993CDDA3163CD2EED9BE4CE60ABDB9DF72BDC403023E0AF1D2BC1467733D0A321F3C90CC43BDF496B63DEFF6F8;
	14969 :	BE14A2D1BD1048E3B9AFE9213D7E6C6BBB8712F9BD4D8D3A3E1E3AE3BE899153BD3B51AFBD9812CD3DDE8D51BB662121BE3EEE40BD9514A7BCD72318BDC0C42C;
	14968 :	3DCA8BCB3C2384F53E1E43F73C1E85FDBDC1AC92BD0BFB92BDC92595BD9A7B8F3CC218893D8A07453D9ACD1DBE0BA3523D549944BD188A623E3F187EBE132765;
	14967 :	BD333EA6BBC380F9BC9345763DBBA50CBD49AAF13DFA46E7BD1A8C61BDAD1F9D3B31B9323E0A911FBE41579BBD82CE393D2AEED43DB958A1BBE1C2E9BE034913;
	14966 :	3D8776B6BE6C8EC73BFCA3543C97D1903BE07E663DE59205BCDD10C1BD875C05BD786C42BDEA53A3BD65B41CBE718E07BD390D683E2E4BF83D48A5C93DB02EB6;
	14965 :	3E139D9ABC6CB98EBBF230CA3C47DC60BD501A88BC2074B43E3F4E89BD979DE43E4194CCBE561644BDAB97693DFDBAA6BCBD5AB63C97C898BD490F30BE1427AC;
	14964 :	BD340D363D1FA6CEBD8B6E2FBDB8D3173D9F2E143D9B1D103C1BC81A3D5A6F483E2307443E3FB39BBD1690A4BDC9D279BCB9ED333E1559C73E7D8D13BE00E2D5;
	14963 :	3D536DEF3D96DD193D45F2933D82DCE3BE0B7F5E3D611A4D3DD227F6BDC2455CBCB9F48F3B886D6F3D440E793D837398BD3A0472BE2D4015BDAB01CA3C7826C9;
	14962 :	3D410A79BD90D110BDAC20803D59749A3DFECB50BE8A202ABDEA747DBC2534773D113EE8BAD96048BDDFD4CE3DA22C4ABD0037343D92373BBD9D5F0FBE1CB7E5;
	14961 :	BC7E8BBC3D3BC4BC3E14D230BD8FFA343DAA01DFBD0E64C3BDBC4693BD8BE9C9BD4543E4BDADE7D8BCC61F50BE237EDBBD4537113E0ADDDE3CFBB3733DE36894;
	14960 :	3DB66D933D27A7923E6F6E643DED063A3CF4D25A3E1603EB3A1BBD40BE465AA33DA621C23D1D1A3B3DADB7063D03178D3D3CF0E23D88868B3E8FBC213D05FB24;
	14959 :	BE325D483DD116113EC3C727BDE76755BE004EB73BEEFC9F3E31867C3A9D7EC2BD439B97BDD6DE6ABD987D10BE855186BE0D68AABDC876273D02B4083DEF5125;
	14958 :	3C28D4F8BB0B0EC33D2791E93DB7AFCE3CEEDB96BA9811CE3AB8F345BD1985463C7B181DBD250223BE3C2B6F3AD82BEEBDCD4787BBEFB5E93DA53428BD67371E;
	14957 :	BD95EDEABDDA8B13BD7C1631BB2C45523DE35442BE1F6B62BDA09E8D3D8230C3BE09B445BE2A0BFBBE06A9233E20A09F3DE40AFABD90CF40BE595CC93CA7CCD3;
	14956 :	3C821DFCBBEA7DE33D97C6F23DD4757B3D1DCE82BCFF0019BDDB30383DAEA5D83DB0D55EBDDD6401BDB1AABEBC56137C3E5498683D4F69D93D64A4D03D729F80;
	14955 :	3D4CC8593D5E5B7E3D79A7A5BD28DE15BE87F37DBDEAB20ABD92E624BE1AC2A1BD97F309BD82E6E83DEAF54DBB1057073D9B0A24BD5D925CBE876AE73DE0E5E5;
	14954 :	3D84A7053E0932E03DE5A6EF3E30AF0EBE3C3DE8BDBC0AD2BDC1141BBD97EBDEBD487EF5BD91CE7B3DB0C71B3D2C2E333D8F661DBBB4E2193CCC5F0EBE427127;
	14953 :	3DD8E0BA3E5669B83BCB0EC5BE366BC63DDD37C03DC97AE23DE8DE48BCF0FFD1BE061FA53E0EEC47BDCC3244BCBFA7EABDB3681E3E19B1B2BE3CD3363DB4F6B7;
	14952 :	BD74AF97BDA37D8ABD3BD49A3E26C50EBDAEC0F1BD8EFF59BE4CDE12BD29FB303D4639363D0AC7ABBC1E547DBDB04EEE3D9218D9BCF769123BDC133E3E6F0ED8;
	14951 :	BD9ECE6E3D9AEE663D2438E43D5F00D6BDA5D3B93C7503B33DB688A0BD308A0A3E07E7B63DD2F1513E306D79BE1AB26DBD53E1FEBCD92712BE116ABD3BCD78AB;
	14950 :	3DA83FA4BDC0CEF83DE5EBC33DBB28DF3E1E5D7DBC96AEA03E0F56CA3D6AF3C73D7756D73E477E57BDF5BC42BE49982C3E0CB479BCC319FD3E128459BC0DE4B7;
	14949 :	3DAAA75BBE286CD9BC612EE2BC13B7AABD8864F03D5757AB3CFCACB03D9B672BBD4CF68F3C2FF4DEBC5FD6F13D6FF3A7BE1229AE3C7259623D2D382C3DB4F5E6;
	14948 :	BDC29B3BBD36E03CBE3885893CF27AD4BD44255D3E0D1346BDC781DDBDA670A6BCE9BEAA3C0FE30C3D792D02BDB059A1BDD7BCEC3DD4A389BD8750043E996B56;
	14947 :	BE263D9BBC582F0E3E18396D3D666966BD56B60D3DC5242C3DF26F093DC12E90BE04CC5C3D8A5723BD558F58BE1AFC5F3DD9C26D3D63D1E3BC1F5E743DB088F1;
	14946 :	3DFB1F51BDC133C53CC43F69BE0177343D3683353EB5A921BE7E702EBDC94A10BD91BD5D3D9454503C5CFDDC3D933B2C3C49CAE1BE299CE93CCF294E3DD13AF2;
	14945 :	BD7511AEBE4D3C1FBDAB5CB83D88FC0EBD1B7B51BC06D2EF3DA939783DBD19763E9C3D73BE49AA063C06B5243E0632A8BCC16EE43D23CE34BD338BC03DE8BF86;
	14944 :	BD17B3C5BD9F18E9BDC5B863BE19147C3DDA3A183D94D6173C8035493CB75D5F3D99C2193D888320BD1B90F0BDEB6882BDE8A070BE0D08753D03F3853D6B8948;
	14943 :	3D9108E73E1DF5283DEBCED13D2B36F6BDBE93993BF693E2BE1A7C213E6463AC3DB90305BD82DD6E3BB6168CBDC16248BD734EB43B47EEBEB93874093BA01722;
	14942 :	BBA500CBBC954CA43D9771F4BD87E0893D3B91D93E31712E3DD30AD73CA8771A3DC05CB5BDA1BC00BDA198F5BD88103A3DC6B0673E0C7078BD9B168B3DF289A2;
	14941 :	3D984C7D3D346019BD135767BE0EC6A53C01B4ADBBBC46F63E1BB2F13DD770153CCA87C13CAB7CD13CEE70F83D958B4ABD8FA0753C704B913DCF51E63E509866;
	14940 :	BDEB7ABF3DFB6198BD913F28BDC6CCDCBE167017BE6C3E8CBD7B17683E338AB33D444A44BD62DAFA3DAFDC293DB9E6093E0DB5313DADDEFF3E7A0E1ABDC52B86;
	14939 :	3D53CC7CBE0E1AC13DDE37D4BD9293F3BDE3F7BEBD8BC070BCD1E98D3C3FA7CD3E6C48E83CB79A843DA7FCEBBBB713023D6F55F0BDE0E8843CE19335BE0B447B;
	14938 :	3B1504A7BE07D3DFBE03F3EC3D1F238E3E1E6F883D8996D63E04097ABD809FCBBD54C06F3CD6D2C9BDF6126ABD9D63C73D169F51BE3BACA83DD16CF03B9C6B86;
	14937 :	3D8DDC8C3D6C271FBE159BF23B4C9DC6BDA5FB5C3D9C92663CC7B1CD3D82A4AEBD79B26E3E50CA1B3CAE9F3CBE802D8D3CA04EC8BDC91BE7BCE960B9BD2A1AF2;
	14936 :	BD8CD69A3D0AC01FBD0B9138BE57A2603CF5BC97BD85EB543CF596D93DB2BB72BD596F423E3722C9BE8955B3BD6226A83D3B80D5BD9E1045BE08502C3CFFD39C;
	14935 :	BCD13FBEBE33E4B7BC575740BC871C14BBC4108CBCF9A80B3DCF4921BCC80FC43BBCDA51BD78BE753C82B87B3E2853283E4198C3BDCEE0B83D1BB37CBDA10A46;
	14934 :	BCFBBF7BBE511053BE87566B3E1E6FCB3DDED6843DA70F6B3DFFFDAE3E328FAB3D939610BD23B221BD55C9843D844CAF3CD3579CBD0AC430BD475EEA3D4F4F89;
	14933 :	3D9D623E3DC52C4DBDBF27A1BD6FD4DC3E526E39BD04651A3DCC70B03DCF9352BDEB00CCBDAB022FBDBC48B13D243A80BE2D4F2F3D452D7BBD6BAFD3BE171FD3;
	14932 :	3DF2E9FA3E0307D13E2758D23D4E892A3DB0A8E13DFA102ABD621EAABE1123053D2CD102BD037EFA3E7696BFBDB696403DA0AF9FBD4720FD3C249DA73D86C01A;
	14931 :	BE408FF83E780DFEBD596782BC9F14A13BF65EF13D5E8EBDBC2F5B0F3E4F2E473DDCB59CBE2B45E9BAE111A8BCFF0ADE3C51311C3DD3422DBD88521ABD6CF563;
	14930 :	3D8FB7ABBDFAA30D3DADDA973D0CE5FC3DA3C165BDF2A49ABDD4BCB1BD84091EBE8A472EBDCF5EBABDA152ED3DAACBD9BD0724FA3D793529BE33885B3955E1DB;
	14929 :	3E935C55BDB46149BDC7E80EBCF683D1BDC51E23BD9A19223DC809343E0CE8543CCF40933D82407CBE625386BE2A118EBD5B876CBD2E9D893DAAFD80BDB269BC;
	14928 :	3E8386E2BE77F88A3C89DF20BE34F6EF3D8604AC3E128FAABE0661F3BDDC2E58BDBAC14C3E3E8D1FBDF7F6CEBDC07CE9BDC640B0BDE539A5BE6141B23DE3EE5C;
	14927 :	BCE0BC583DB3D947BD81EB393E08D2F8BDC6BF553D434F393DBD82503D0904F9BBC488F7BC844903BDF49029BB320AA6BE1D5C033E22558F3D1061803E10F6CF;
	14926 :	BE0B25C8BD4D5E6D3DEB74593AB1F0DF3D852A683D37878E3DDABD61BD9FDFE5BE0F8EDEBBD3E1B0BD6D74AC3D542314BD1BCF5FBC757BE13C93F7443C09B6CC;
	14925 :	BE6245D3BDAA13DCBC6478963DBF606DBE0C5D023CE68DE63E02763C3E02C1B53D82CB343DC5997EBD0BE530BC21649CBE20D7033E87AF0C3E1F32EDBD41AB33;
	14924 :	3C651077BE0BCDB73E0207D7BCF5964A3DE84D133E0B9716BDD05916BE3636683D7B09B13E04631F3CE1DB523E14EA9FBE88F09EBCDEB5C1BCBD7E87BE16D772;
	14923 :	3DD2AB94BCA9E10B3CA98A40BDE735E6BDB2D7073E0E91DA3DB3D1FA3DE4DACE3C8AD0F2BB8A5353BE05E333BD9CD56B3C91D343BD44A94C3DE5905EBC0FE449;
	14922 :	BD9F6B253D20F952BE89FED33D6676893E0996D33D3D38AD3D4E11BF3DFB17843DF6E9EA3DB71CDB3E60611A3E7E169F3D90DADC3DF990C7BDAFE68A3CFE06B0;
	14921 :	3D0A74CBBDA431B2BDE8991EBCCF7D5CBA89A2FEBD7184A4BD3089983DD99F73BDC3C170BD87B04FBDD44A6DBD932212BD1D8461BDB8BB87BB94C60C3E44D337;
	14920 :	3C0B5121BED893593DFDD2083C9C9120BD5E62A1BB84B9E3BC6C2EBBBD3491C9BCF421EE3CBD90AA3D952641BCC5046E3E04EED23E2901AB3E0A199DBE2081C9;
	14919 :	BD68BDBC3DB7B158BC0988BE3B46F29D3DE9DCA03B095D543A129B603D7BE7DBBDBA5DC33BD67A65BD8FF8073E59341BBC9FE5AD3E1DCF8D3C6A3507BD335B95;
	14918 :	BE0931C9BDD477A23C93AB8A3D1FE6853C8E545F3CEEA48A3C1C4B12BCC62F5E3E370082BD0BF5C5BE3579E83D55411C3CBB2BEDBDEC74E53DAED8653D7427D3;
	14917 :	3E07B934BDFB3AC4BDA99487BB3E5902BDC5A6973DE48344BCDD7762BCA34A91BBCDCF743CAB5F323E2355C4BC82FF5B3E06003EBD5E86E63CE938C1BCA6A74C;
	14916 :	3D7ABB133DECA4413DED759D3E675D413D1DE7DFBDA2803D3DC18582BDAB25063CE764FABD4A2D8ABD00A2703DDB63CB3DEEA394BE14DBB5BE080DFEBCA9D9F1;
	14915 :	BE08CE513DF11C3DBD271B8BBDB08250BD7C915ABD18AAF23D83A34ABD82FC683C36EBE83C73F349BC564428BE543905BDB0E45E3D8D01A93E31158B3D8B33DB;
	14914 :	3D930E05BE04BD20B983F942BD47E5E93ABCB0F63E1535363C9A6DD83DCB09E3BDC716BDBBF3D7ADBDA5CF54BBBE5D7F3D0A42643DA3C64D3E060A663DCE464F;
	14913 :	3E0696943D8D7844BE030E58BD8DDCADBDFF5A843D1A5B4F3E0C6C923E5B79473B378821BE47394E3C899E6EBE2474ECBBB4271ABDB2DED23DC364E43D82739D;
	14912 :	BD57A9D23BD8685EBC45272ABDA8D8843A9B9275BD5E7F2ABAD93DE23D3065C8BDE08CBABCC60685BD82B9D8BBF06BB3BD17B0A73D1059B8BB9005DFBC44E679;
	14911 :	BCCE61813DFA0E8CBE03ED5CBDAC54AB3D47E83D3DE5FA593E5325A0BDCE7260BDE80478BD0D8F473E4913D9BCAEF5A4BDC3CFC1BDDBDB15BE0335093E0C36D2;
	14910 :	3DEB80E4BE22F3463CB9915C3C05DCD3BDD907B23D39C9F63CF1D222BDE7956BBD2E55013E0A42C8BDD7BA763C69F139BCAC98DABD82D59CBDB863B1BDA8D7F7;
	14909 :	3DB96941BE102B813D17934CBD73F7003E7FC3743D9FD744BDA52970BE30C2D4BD226F873D73BDA63D8602A33DDA906BBDB4B8F43CFB3A1DBC96C9DFBDA52E6B;
	14908 :	3D55EAF03CFC85C8BE506A61BC961ABDBDEF6C0B3D0254B3BDEBC573BDF897FABE150986BDF143ABBEB867413D80D2D7BCCAB2A83E197B40BC2CDB85BDACAC42;
	14907 :	BE0BBAA3BBDD74D03DFCD3723E14724F3DD74FDF3DF1E246BDA7F92B3DC8B2833E1550FA3C6F04E43D0CF748BD0295823C238784B92AE84ABBA69CD9BD884EE0;
	14906 :	BD40F8933D47D322BD8AA7B9BD154ABEBC8F2487BE93849FBC865DC3BE2E4B923BCA1101BDB29D943DC3518D3D398B2F3D496D0B3DB991BEBDE0C4F4BD1D3C6C;
	14905 :	BD6320FCBD4A8CDE3E0B3287BE72E624BDAB59433DBA1BB43E4C3BBF3D9DCC54BC905ED03E335CEFBD4C9653BDE7C63A3D2BC499BC879F0CBD9634C43CF9BF62;
	14904 :	3ABC71CC3D8CD2263DCE8C193DCF06093D30F30ABDA1BB963D3A8A1E3CE0BDC7BDBEC9DF3DE8ACF2BCE81B733D7948CB3E9A62393E4C14FF3D4BF3003DCC9FB3;
	14903 :	3D8C8365BE0BBD2CBE66EF9F3D45555A3E84CB543E276E8CBD8D0509BD896DC9B9EB5A28BD72BF9ABE5CD80FBD4A27033CBD09EABD6AC9DE3DEA4C513D9600ED;
	14902 :	3D7005CBBD20E1613CD7041EBDF8D91C3DC5E07DBCB9299D3DF3CE163BE8742E3DEE0AD13B41C490BD9BA3A7BC70E1A93E870C3C3CA1F24ABD697C323C620B0E;
	14901 :	BE8182DCBC526938BCD32CF33D42CB57BDD0FF03BCE45D05BDA8B07EBE010098BDCFDCC63E3B72B5BDF33FBFBBEBCE423E09F571BDF976B83C993750BE0201F1;
	14900 :	BC9652D7BE40D4F03DAD841D3C99A0B93CC678383E2690D03E02C921BDED9FF4BB05EBAE3DAD32D43CB4E388BD16A1B33D9D5977BE5182BABDBA4CBFBC85FBD4;
	14899 :	3E46CDDD3E4305D93D9EEAD4BD614C79BD28AF323B1DADE5BD618356BD0CD34CBBF2414A3E327867BCE9425B3DF064D5BC87E68CBEA2630BBD65E0D63DBA3246;
	14898 :	3DCC9623BE09EC1EBE0B0EE4BD548DE93D0F9531BC5A16613E5BC32E3E615018BD82F1363D9E07C13DF2D515BD9D45CABC75EA7BBD6121C73C3407A53D0E52AF;
	14897 :	BCBD1280BD1F45DFBC2340033E3FBA23BD5D5D96BD2722FABD9B3A58BD7AFBA8BD51A1D9BD38D7683DCD2FD7BE137D1E3CDC606C3C56499CBCBA3A5A3DED3C95;
	14896 :	3D36C214BD57CC913D5E0D8C3DC3A5DA3D31E458BCB64E5BBDCACA4EBDCCA54DBDA5FB5EBE1E23433C8049633C7ABDB9BDE118FEBDCFD1ECBC79864EBB684248;
	14895 :	3DA13EF7BDE0C2DABC847C133E460E0EBE0FC5033D2D9F4DBC17D522BCAAB2E9BDEEF56A3D872B4F3D076CDA3C92A8403D2B6E07BDEE731D3DD1D83D3D8AE503;
	14894 :	3DE73FA13DB4B1BF3E331A80BDEAE8DBBD9D9C543D7F6806BE2AF8FF3D9C5A9C3D3E326BBD9162E5BBC365D63D3633BD3E2F41823DA25FA3BE265ED93E95A4B2;
	14893 :	BDC4E3B03D773B6EBE87E9A4BB20D9C93D495238BD28784E3D202B903BAFAB0DBDAC222EBDE52F443CF5720B3D9B9C2DBE0629DDBD130DB2BDFF04523D9674F2;
	14892 :	BAF326F5BCCA80F9BD3CAA70BCE3A53EBDAE26CABD41061A3DB9ACA7BD01B1BBBDE25649BD5B538F3D9134773DD6ED103CAF2FF43C28134E3B6AF40B3E326EF2;
	14891 :	3D9D1197BD188D08BE2B1D6A3D52C239BD73D6AFBE03161FBD83D18EBD3C04FA3E1672C43DEED06BBCC864973CB7D7EB3C9BD8B2BCCE4C1ABBE6CDF83CFD566C;
	14890 :	3B18DD58BE9F1119BE5E1B64BCE1743DBE707612BCED110DBD520C4FBDBE5CB73D7A83203D83DB45BDD5F2F5BE65EEE53C249E4DBD36836C3D278B35BDA3F8C2;
	14889 :	3BE92ED13D6E6E8039E546F2BE6656FABDAEB81DBD5BD1F8BDC17F473C34F66EBE8D11393DDA0358BDB65AC5BD74CFDB3C2E8909BDA134DA3CCE9BB8BDE0A2F9;
	14888 :	BE2F4D353E1E7E2EBDCA8A0D3E17E78F3DA9FEEBBCE499F2BE904C9F3E30C9223D8FD5F13E155A8FBD9A9D273D5E69253C84D2AF3D69B91DBD8F49BABD5F32DF;
	14887 :	BE02956A3CB92C133D9F1552BD7BAB98BD2CB360BDF9779E3E2F29C0BD26FCB0BDAA95DABD40C8E5BD83455B3E2A2AF53DAC93B43CFD05A53D878EDE3D9FFF76;
	14886 :	3E6EE7B8BCA821C8BE416ADD3BF1B5DBBDC097FEBE3C43DBBE0BFA263DDAD299BE2CD5353D0F02853DC378F13D5BA53FBCC64AF4BDA908FF3D935EFABDCAD59A;
	14885 :	3DB876D3BD7501A1BD1EA5D43D472806BCE685DE3CB77AC23D6FB167BE11E9E6BCC9F6C6BCBCEE44BE5BA9933D103B943C3106403E0D314BBD23BD863D805E3D;
	14884 :	3D1A0C133C1F9D973E1B3B963D06FE55BD9CE2BEBE34C84ABE8D55CB3DCB2DF5BDDDF8ABBD0C5EBE3DE7A6C83D9492DEBDAF4014BDC0BBB9BCB43DA9BC91EDFA;
	14883 :	3D7D811EBEB2F0BCBC46ADBDBCCD91E4BD0EDBB03C7E5817BDBF74AC3C0CA5F03EB34D023DEDF9E8BD48DF923E3137E3BD993AFBBD65EB6F3D4AD208BD9CBD5B;
	14882 :	3E25C568BAEC0EB73C0094433D7A5C4B3A8391D9BC0538D93DA2C5653E1313D43D2CA479BDCCF952BD6180E3BD4518C23DD40F2F3E025A43BE7A77ED393C589B;
	14881 :	3E4E92B1BD66E7543E239C47BDDF7D7DBD8D93633DDA6C553E33B35C3C8BA9433DD5B5573D2F0220BE468823BCE2A7053CD50D7DBE263AA03D9F9F02BC682B20;
	14880 :	BC86CC3EBCA96BF0BE04C8F3BE0ECAC1BDA0E7633D8D7ECCBC377633BBF366A2BB9B15D23DFA3674BEA2D9D1BCD46040BD96EA393E88B0AA3E3B2AA83D8B1CC9;
	14879 :	BDE16374BACD096B3CF9E200BCAC7B123D5DFE893C804ACABDCA4D7FBE19250C3D1DDBB3BDA3AD76BD5581FD3D046085BCC7EA1F3DD35E083E1191703E016305;
	14878 :	3D7AE348BD8965843E2F8AF2BDEBF0B83DE787933E2091973E24D74FBD473A903D4F24FE3D939341BDDDD2713E03E0B83DBB7C7FBD6DC603BE0196DEBE275DD4;
	14877 :	3D0860663CD672B9BD05CD27BC659E4BBD5FFDD73E15CADF3D4A8005BD9B73D03D9D89163D1AE56EBC598D00BDF5BCDE3E181CF2BD7568FDBDD0D1ABBCFF7977;
	14876 :	3CCC1BA23DCC5498BE040A173CAC3E853C8AE77FBD96CF093C856E1D3D3A2EF6BE10BFA3BBDC473A3D39365F3DD49213BD90B8E93D863266BDD41E0ABD9124DB;
	14875 :	BDF709D43D158369BDDD87813D8A1D1ABC8FF3853D604BF8BDC1BE77BE2810033C0B8C8FBE07CE293E309E73BB8C33983E2E1B0F3DD3D8EF3DCBFAA53C092D05;
	14874 :	BCF209F4BD62E5203A041C3EBC5D54863D973010BDBF163E3AF7621BBDE16CF1BE2910D13D18E130BDCD21633BA18C2FBD8155B93D9C1FAABBCCE63E3D525302;
	14873 :	BDC3534ABD0E9CA73E7C0AC73C8D30E63CE9A0983C9744AFBB34FE11BE24EE973D09423BBE025B66BE36128A3D596DE43CE8FA19BCD62CFB3DDAD042BD674524;
	14872 :	3D04520C3D1B206E3C9CFE013D0D66953D72EDA63D5F5628BE277942B93AFEE5BD519B3FBD0D2DE53C19B04A3D240222BC8DA01F3AA853043D163117BD8F4FDC;
	14871 :	3DD6C37BBDE27E14BDABD8C33B0FED55BE03489F3C1DB9B4BD024EE93D8C881D3E398C003E3245FC3E13592DBD8D54083DC4541D3E39D3D0BD7545D2BDC6DD2E;
	14870 :	BDC40E943DC6E9F63C19052A3DDB1633BCFB576BBD801A5C3D65D3993D016CB63E44561CBC8E2A383E1821D33B419C7F3D43297D3D9D30D4BE02D539BDAEF6A5;
	14869 :	3DA088B0BC731BCB3D9DD7BFBD9D4C70BE008DA43C24D47EBCB87DE33C433A1B3DB837F0BD5F1B0C3DCB825C3DAF3A5A3D63A4EBBD7C48C23D11B4DB3E197C0F;
	14868 :	BD94D04BBCC1FCD3BDA15AF1BDC758F83D4BF685BB242A193DF802F33D08FF01BCA0AA793C0F53BCBE00DAB8BCC4AA62BE28704B3D3C426C3E448555BDE04998;
	14867 :	3C112CEBBDBB42FD3D35FA9E3C8C300ABD4E720D3D6404CE3C699E223D365A10BDBCC93BBDF6D744BDF83489BE0AD515BE66DA24BE4E3626BC9F6C093CB45FA9;
	14866 :	3D6D4BB4BE3301EC3DCE7582BDCDE52F3B85AAA7BC364E463D7D4F973E37B431BACDB21FBDA13B633E4F9315BDEE1DE53CDAA4EE3E7EFCA7BDE9CAEB3D8325C7;
	14865 :	BD1163403E2BE354BD936A253C46AEA8BC83BF843B2273C33D8236E2BC94F7963E056567BCDFD0BA3E186F4FBD7FD0FE3D240B31BCA4CA55BE4B484ABDDF1CEF;
	14864 :	3E08FF2F3E57EA10BE981A33BD4F3368BDAE50443DB0599ABE115C1D3D85A5F7BB494BD03D8D4CA83DEE4E06BD50C773B991DD133D9AD7C5BBA850AC3D804D2C;
	14863 :	BC4A769BBD1459AD3DE58DD6BDABDEE13DD8C88DBB0E56FABCD81CDB3D85114A3CCFE7C0BD83D155BDABA32DBC9982CE3D6464873D2DAF30BDD2E2E4BE8556A3;
	14862 :	BD90B2C6BDA7F46BBDED02253DC41E183E07A0873DA1DA18BD5418903DCD627D3DAD2F313D1668DC3CF85F8B3E63F4463D97CC5DBCF1B30ABE0C9C513D9C11AD;
	14861 :	BC3C5589BDA45868BD957DC0BDC352CC3D3FC241BCD69F823CAC77A7BE13E84BBD073346BBD63820BB414794BDC20DF5BDCB841F3DAA373DBD510B0B3D2E1D5B;
	14860 :	BB23E990BC3772BBBDBB99523DB97B923DBA0E623D84A1283E020648BD8D3CEF3CEF5B81BD7AC5253CA1C870BCD2CF66BC4B29F8BD10DA21BDD888CF3D9D1226;
	14859 :	3E9986DDBBFAAB083CB8438B3DD211AB3E0003C4BE2E72AE3E0A48E63DF2D7C43AF2F56E3DD0DBE43D50C526BD414D12BE0B2AA33DA82730BCC020B93CCF01F0;
	14858 :	3C0F53123D8DC7C23E1300BFBCF4D34BBC916CD13DAA51E9BD4EBE23BE19CE43BD465847BD2449F6BC1FFA14BBC5E38C3C341438BDF2C942BC60B42E3C0851A2;
	14857 :	BDFA692F3D2A6776BD181D86BD1D7D89BDD44B473E17725DBE06A660BD9559C5BD0FB7B03E148758BD7139C73C70512D3DFB67023D5EE8FFBD873D3BBD606E51;
	14856 :	3DCE621F3D829C9CBDBFCACFBD2827663DFC2342BE29D2183CA6B754BDB22446BC2B9DE9BCEDC0843CB9EF3D3BE274B8BD04E166BE5367EC3BDE06853C959AA1;
	14855 :	3D43C3C53D8244F33DEE27A6BE809B123E424259BD53C732BD8F3BAFBD06BD74BD5781F33E1E86FF3D75774EBDC376EA3D9494D43ADEA01F3E6098823D5FAC34;
	14854 :	BE118F37BD52C5B2BDE543A6BC15CB63BE28C273BDDA6EEBBE015012BDB02E30BCFCDE37BE19E07A3E447EA3BCD65AAB3DEDAC90BE45B1993D8C2FD8BD483A7C;
	14853 :	BC2E05F93E0862F3BCB412CB3DBE31B73E3F1BB9BB61F9563E756E773C329C543D9CB6B7BD9C296D3D2F16C73D6C9049BD029090BCAFCCF8BE38FCC9BE0EE62A;
	14852 :	BE099F87BD4FCCFCBDC3EAB13B4DD7CF3C8C1E113B8B6F553D99FD92BDA5ACA5BE037F0E3E23D2F33C8A4EC33D1890F3BD95CE0B3E16D034BD8758C33BBF0C29;
	14851 :	BD68AA4A3D3FEAE7BD0E689B3E500B99BDE85677BE046DEDBD6DE6E6BE229DE7BD8F3E39BD8926263C9C17993E128FC4BE60700FBE01D6A03CBB67EFBDFFA451;
	14850 :	BD8DDAC43DB4F8AFBC315B43BDA03CC83D85B3BF3DF3FFBD3D369AADBD4839623DFBAFD03E18F4703D387DDDBDD56144BCCB6657BDCF7D9E3B230E863D48F281;
	14849 :	3DB3A7033D032F66BD9E45CCBDE43E95BBF7FFA2BE10FA0A3E022901BC9C5D723E115B0E3D0D747CBD8C41423D7EBC673E1E69C33E09DB7CBD86488C3E230845;
	14848 :	3E5EDC9A3D2EA35ABDEFC0F23D34D3C3BE32132CBCAFF410BBEDC563BD2FC81D3D453515BDDCA0D53E38A09AB8D0600B3D16E416BD0DD9143D1D13FE3DB92565;
	14847 :	BAC9DD343DA42BBE3C3AEEC43E4E3D703B42492BBC80055BBE189B133CAA5626BE27E334BE500F7EBE5792DBBC9266D73DA43B0E3D7832ED3BA94F033DDCE7C7;
	14846 :	BD9F50CE3D40D3E4BCE5843C3DB51A533D43454F3CD060653C1F9F4F3D3AC3D73D3982E0BBD52FABBD8ED7D8BD6791F0BDE2EE403D81DD88BDBDDC0DBDA231BC;
	14845 :	BDB6F54CBD6B89C4BC939C36BD6507A43DCCA466BD35F5933DB823C63D90961FBE048D8EBE0A74793D1D14F5BE5B1998BE47B7223BE6508BBD5FC1A13CCE6F85;
	14844 :	BCA8AE27BD01F4533E02BA78BC1E9CB83C6575C33D1169CBBCC850783CA1BD92BCE1C83DBD8640A63E570DFF3E37A0DE3CE62DBFBC6341323DB2F883BE05E6B9;
	14843 :	3BEF989A3E062091BD220FAEBDDD2874BD9C3549BAAD206C3CF3A5FBBD4A5222BDA02CC7BC063D10BE42CDC7BB7AFF9FBC20F02DBE9F68963DC0816B3D208B7C;
	14842 :	3D28E6EDBD6AA97D3CE810933E8554D6BCCB7B5C3CAF2874BDDA8E463E11767FBE5765423D8142ABBADDB9F3B9B189E53C23A0563AF470E93D9ED6F53D3DF415;
	14841 :	BBA55BF53CFF59733E1FE3B1BD68AA143DEBB64EBDFCDA953E2582C0BD7C9BB3BCF8020C3E3FF94EBDD584E83DE9379A3D1E6172BD1544D63CF736F0BDFA0998;
	14840 :	3E0F432B3C7CB7FC3D2EB012BE09A358BDECE8DA3BACF03EBE087958BE3B9D4DBCF45A6EBD7AB9BCBD81563EBCBA4BD93D289637BBDF89533E3726C33AFEA919;
